#include <model.h>
const unsigned char model_tflite[] = {  0x1c, 0x00, 0x00, 0x00, 0x54, 0x46, 0x4c, 0x33, 0x14, 0x00, 0x20, 0x00,
  0x1c, 0x00, 0x18, 0x00, 0x14, 0x00, 0x10, 0x00, 0x0c, 0x00, 0x00, 0x00,
  0x08, 0x00, 0x04, 0x00, 0x14, 0x00, 0x00, 0x00, 0x1c, 0x00, 0x00, 0x00,
  0x90, 0x00, 0x00, 0x00, 0xe8, 0x00, 0x00, 0x00, 0xe8, 0x4c, 0x00, 0x00,
  0xf8, 0x4c, 0x00, 0x00, 0x2c, 0x53, 0x00, 0x00, 0x03, 0x00, 0x00, 0x00,
  0x01, 0x00, 0x00, 0x00, 0x10, 0x00, 0x00, 0x00, 0x00, 0x00, 0x0a, 0x00,
  0x10, 0x00, 0x0c, 0x00, 0x08, 0x00, 0x04, 0x00, 0x0a, 0x00, 0x00, 0x00,
  0x0c, 0x00, 0x00, 0x00, 0x1c, 0x00, 0x00, 0x00, 0x3c, 0x00, 0x00, 0x00,
  0x0f, 0x00, 0x00, 0x00, 0x73, 0x65, 0x72, 0x76, 0x69, 0x6e, 0x67, 0x5f,
  0x64, 0x65, 0x66, 0x61, 0x75, 0x6c, 0x74, 0x00, 0x01, 0x00, 0x00, 0x00,
  0x04, 0x00, 0x00, 0x00, 0x98, 0xff, 0xff, 0xff, 0x0b, 0x00, 0x00, 0x00,
  0x04, 0x00, 0x00, 0x00, 0x08, 0x00, 0x00, 0x00, 0x6f, 0x75, 0x74, 0x70,
  0x75, 0x74, 0x5f, 0x30, 0x00, 0x00, 0x00, 0x00, 0x01, 0x00, 0x00, 0x00,
  0x04, 0x00, 0x00, 0x00, 0xce, 0xb3, 0xff, 0xff, 0x04, 0x00, 0x00, 0x00,
  0x06, 0x00, 0x00, 0x00, 0x61, 0x72, 0x67, 0x73, 0x5f, 0x30, 0x00, 0x00,
  0x02, 0x00, 0x00, 0x00, 0x34, 0x00, 0x00, 0x00, 0x04, 0x00, 0x00, 0x00,
  0xdc, 0xff, 0xff, 0xff, 0x0e, 0x00, 0x00, 0x00, 0x04, 0x00, 0x00, 0x00,
  0x13, 0x00, 0x00, 0x00, 0x43, 0x4f, 0x4e, 0x56, 0x45, 0x52, 0x53, 0x49,
  0x4f, 0x4e, 0x5f, 0x4d, 0x45, 0x54, 0x41, 0x44, 0x41, 0x54, 0x41, 0x00,
  0x08, 0x00, 0x0c, 0x00, 0x08, 0x00, 0x04, 0x00, 0x08, 0x00, 0x00, 0x00,
  0x0d, 0x00, 0x00, 0x00, 0x04, 0x00, 0x00, 0x00, 0x13, 0x00, 0x00, 0x00,
  0x6d, 0x69, 0x6e, 0x5f, 0x72, 0x75, 0x6e, 0x74, 0x69, 0x6d, 0x65, 0x5f,
  0x76, 0x65, 0x72, 0x73, 0x69, 0x6f, 0x6e, 0x00, 0x0f, 0x00, 0x00, 0x00,
  0xfc, 0x4b, 0x00, 0x00, 0xf4, 0x4b, 0x00, 0x00, 0xbc, 0x4b, 0x00, 0x00,
  0x04, 0x4b, 0x00, 0x00, 0x94, 0x4a, 0x00, 0x00, 0x74, 0x4a, 0x00, 0x00,
  0x4c, 0x4a, 0x00, 0x00, 0xbc, 0x00, 0x00, 0x00, 0xb4, 0x00, 0x00, 0x00,
  0xac, 0x00, 0x00, 0x00, 0xa4, 0x00, 0x00, 0x00, 0x9c, 0x00, 0x00, 0x00,
  0x94, 0x00, 0x00, 0x00, 0x74, 0x00, 0x00, 0x00, 0x04, 0x00, 0x00, 0x00,
  0x7e, 0xb4, 0xff, 0xff, 0x04, 0x00, 0x00, 0x00, 0x60, 0x00, 0x00, 0x00,
  0x10, 0x00, 0x00, 0x00, 0x00, 0x00, 0x00, 0x00, 0x08, 0x00, 0x0e, 0x00,
  0x08, 0x00, 0x04, 0x00, 0x08, 0x00, 0x00, 0x00, 0x10, 0x00, 0x00, 0x00,
  0x24, 0x00, 0x00, 0x00, 0x00, 0x00, 0x06, 0x00, 0x08, 0x00, 0x04, 0x00,
  0x06, 0x00, 0x00, 0x00, 0x04, 0x00, 0x00, 0x00, 0x00, 0x00, 0x00, 0x00,
  0x0c, 0x00, 0x18, 0x00, 0x14, 0x00, 0x10, 0x00, 0x0c, 0x00, 0x04, 0x00,
  0x0c, 0x00, 0x00, 0x00, 0x3b, 0x38, 0xd7, 0xfe, 0xea, 0xbf, 0x06, 0x7a,
  0x01, 0x00, 0x00, 0x00, 0x02, 0x00, 0x00, 0x00, 0x04, 0x00, 0x00, 0x00,
  0x06, 0x00, 0x00, 0x00, 0x32, 0x2e, 0x31, 0x39, 0x2e, 0x30, 0x00, 0x00,
  0xea, 0xb4, 0xff, 0xff, 0x04, 0x00, 0x00, 0x00, 0x10, 0x00, 0x00, 0x00,
  0x32, 0x2e, 0x30, 0x2e, 0x30, 0x00, 0x00, 0x00, 0x00, 0x00, 0x00, 0x00,
  0x00, 0x00, 0x00, 0x00, 0x6c, 0xae, 0xff, 0xff, 0x70, 0xae, 0xff, 0xff,
  0x74, 0xae, 0xff, 0xff, 0x78, 0xae, 0xff, 0xff, 0x7c, 0xae, 0xff, 0xff,
  0x1a, 0xb5, 0xff, 0xff, 0x04, 0x00, 0x00, 0x00, 0x80, 0x49, 0x00, 0x00,
  0xf2, 0xf2, 0xe9, 0x3c, 0x48, 0xe5, 0x2c, 0x3c, 0x38, 0x9f, 0x77, 0x3c,
  0x89, 0xd8, 0xcf, 0x3c, 0xde, 0x2a, 0x6e, 0x3b, 0xee, 0xca, 0x00, 0x3d,
  0xe4, 0xe6, 0x58, 0x3d, 0x18, 0xd8, 0x2f, 0x3d, 0xa0, 0x26, 0xab, 0x39,
  0x4b, 0x35, 0xdf, 0x3c, 0xe8, 0x63, 0x20, 0x3d, 0x36, 0xda, 0x4a, 0x3b,
  0xc5, 0x72, 0xae, 0x3c, 0x33, 0xb9, 0xfc, 0xbb, 0x0f, 0x9b, 0xa0, 0x3c,
  0x88, 0x84, 0x36, 0x3d, 0x26, 0x75, 0xca, 0xba, 0xca, 0xaf, 0x56, 0x3d,
  0x9c, 0xa3, 0x54, 0xbc, 0x68, 0xcd, 0x2e, 0xbc, 0xfc, 0x67, 0x1c, 0x3d,
  0x1a, 0x17, 0x21, 0xbc, 0x6f, 0x89, 0x91, 0x3c, 0x4e, 0x25, 0x3d, 0x3d,
  0x69, 0xe2, 0xf6, 0x3a, 0x6e, 0x04, 0x58, 0x3c, 0x98, 0xfd, 0x4c, 0x3c,
  0xe2, 0xce, 0xae, 0xb9, 0x43, 0x84, 0x82, 0x3b, 0x52, 0xf2, 0x40, 0x3c,
  0x12, 0x90, 0x5c, 0x3d, 0x32, 0xec, 0x5c, 0x3d, 0xfd, 0xf4, 0xac, 0x3b,
  0x12, 0x5a, 0x12, 0xbc, 0x6c, 0xcb, 0x46, 0x3d, 0xe3, 0x77, 0xff, 0x3c,
  0x52, 0x58, 0x70, 0xbb, 0x69, 0x7b, 0xe6, 0x3c, 0x86, 0x77, 0xa4, 0x3b,
  0x40, 0xde, 0x28, 0x3c, 0x39, 0x66, 0x04, 0xbd, 0x6b, 0x41, 0x62, 0xbc,
  0xc8, 0xa8, 0xa8, 0xbb, 0xa7, 0x02, 0xf7, 0x3c, 0xb8, 0x39, 0x21, 0xbd,
  0x29, 0x26, 0x1a, 0x3d, 0x45, 0x5d, 0x0c, 0x3d, 0x86, 0x2c, 0x32, 0x3d,
  0xaa, 0xb2, 0x07, 0xbc, 0x65, 0x6b, 0xda, 0x3b, 0xf5, 0x41, 0x1c, 0x3d,
  0xef, 0x3d, 0x04, 0x3d, 0x3a, 0xd1, 0x36, 0x3d, 0xb0, 0x21, 0x0c, 0x3d,
  0x6d, 0xd2, 0xaa, 0x3c, 0x50, 0x97, 0x18, 0x3c, 0x91, 0xaa, 0xe1, 0x3c,
  0x4c, 0x13, 0x3e, 0x3d, 0x21, 0x90, 0xe3, 0x3c, 0x15, 0x09, 0x27, 0x3c,
  0x9a, 0x6a, 0x5c, 0x3d, 0xa8, 0x7b, 0x1a, 0x3d, 0x74, 0xaf, 0xf8, 0xba,
  0xd0, 0x7d, 0xb9, 0x3c, 0xe6, 0x6f, 0xc1, 0xbc, 0x06, 0xc3, 0xd5, 0x3a,
  0x76, 0x78, 0x15, 0xbd, 0x94, 0x1b, 0xa5, 0xbd, 0x14, 0xe2, 0xa5, 0xbd,
  0x3c, 0x53, 0xdc, 0xbd, 0xea, 0xd7, 0x52, 0xbd, 0xe0, 0x22, 0x54, 0xbd,
  0xee, 0x88, 0x00, 0xbe, 0x0a, 0x94, 0x80, 0xbc, 0x4c, 0xe6, 0x5f, 0xbd,
  0xd4, 0xa3, 0x50, 0xbd, 0xf1, 0x41, 0xc8, 0xbc, 0x09, 0x30, 0x4c, 0x3c,
  0x86, 0x13, 0x9a, 0xbc, 0x6b, 0xf0, 0x67, 0xbb, 0xd5, 0x36, 0xd9, 0x3c,
  0x50, 0x40, 0x75, 0xbb, 0xaa, 0xbc, 0x0b, 0x3d, 0x7b, 0x9a, 0x9c, 0x3c,
  0x20, 0x19, 0xdc, 0x3b, 0xe6, 0x46, 0x45, 0x3d, 0x11, 0xca, 0x71, 0x3c,
  0xfc, 0xd1, 0x45, 0xbc, 0xfc, 0xc0, 0x88, 0x3b, 0x84, 0xe3, 0xc7, 0x3b,
  0x57, 0x12, 0x3e, 0x3c, 0xbd, 0xe2, 0x1f, 0x3c, 0xc6, 0xb3, 0x8f, 0xbc,
  0xfa, 0x00, 0x7d, 0xbc, 0x88, 0xba, 0xac, 0xbd, 0x49, 0x2f, 0x07, 0xbe,
  0x2e, 0xef, 0x2a, 0xbe, 0x6e, 0xf6, 0x43, 0xbe, 0x55, 0x73, 0x59, 0xbe,
  0x51, 0xc5, 0x5c, 0xbe, 0xa5, 0x76, 0x4e, 0xbe, 0x5f, 0x63, 0x07, 0xbe,
  0x76, 0xb9, 0x48, 0xbe, 0xfb, 0x5e, 0xac, 0xbd, 0x7c, 0x18, 0x94, 0xbd,
  0x27, 0xf9, 0x82, 0x3b, 0x45, 0x37, 0x3a, 0xbc, 0x9b, 0x2d, 0x13, 0x3d,
  0xe3, 0x75, 0x7c, 0x3c, 0xb5, 0x62, 0x2f, 0x3d, 0x51, 0x71, 0x9f, 0x3c,
  0xcd, 0xbc, 0xc9, 0x3c, 0x9c, 0xbd, 0x1e, 0x3d, 0x0f, 0x58, 0xfb, 0xbb,
  0x8f, 0xb5, 0x19, 0x3d, 0x6c, 0x86, 0x00, 0xbc, 0x36, 0x10, 0x16, 0xbc,
  0xde, 0x0e, 0xd5, 0x3c, 0x2a, 0x82, 0x11, 0x3d, 0x49, 0x63, 0xb5, 0xbc,
  0x3f, 0x06, 0x52, 0xbd, 0x06, 0xe7, 0x9b, 0xbd, 0x4d, 0x7c, 0x02, 0xbe,
  0x2e, 0x3f, 0xa9, 0xbd, 0x63, 0x5d, 0xc4, 0xbc, 0x00, 0x00, 0x0e, 0xbd,
  0x6f, 0x45, 0xf2, 0xbc, 0x77, 0xc1, 0x69, 0xbc, 0x31, 0xd4, 0xe9, 0x3a,
  0x53, 0xdf, 0x70, 0x3c, 0xdb, 0xc0, 0x3f, 0x3d, 0xa6, 0xdf, 0x89, 0x3d,
  0xa6, 0x54, 0x53, 0x3d, 0xc2, 0xb8, 0x71, 0x3d, 0x65, 0x52, 0x5e, 0x3d,
  0xf1, 0xbd, 0x86, 0x3d, 0x10, 0xf8, 0x14, 0x3d, 0x56, 0xf0, 0x0b, 0x3d,
  0x93, 0xc6, 0xac, 0x3c, 0xb6, 0xe6, 0xdb, 0xbb, 0x89, 0x8e, 0x80, 0x3c,
  0xb0, 0x55, 0x5b, 0x3d, 0x34, 0xd6, 0x07, 0xbc, 0xd8, 0x37, 0x6a, 0x3c,
  0xbf, 0x28, 0xf2, 0xbb, 0x96, 0x6d, 0x06, 0xbd, 0x64, 0x84, 0xb7, 0xbc,
  0x95, 0x3c, 0x60, 0xbc, 0x00, 0x05, 0x6a, 0xbc, 0xc2, 0x72, 0x62, 0xbd,
  0x5a, 0xc2, 0x57, 0xbd, 0x38, 0x19, 0x74, 0xbd, 0xa3, 0xf4, 0xbd, 0xbc,
  0x1a, 0x97, 0xb5, 0xbd, 0x91, 0x6f, 0xcf, 0xbd, 0x90, 0x2d, 0x98, 0xbd,
  0xa9, 0x53, 0x26, 0xbe, 0xe2, 0x73, 0xfb, 0xbd, 0x6b, 0x72, 0xbc, 0xbd,
  0x34, 0x2b, 0x37, 0xbc, 0x64, 0x8a, 0x05, 0xbc, 0x96, 0xc7, 0xae, 0x3a,
  0x86, 0xbf, 0xab, 0x3c, 0xe5, 0xec, 0x42, 0x3d, 0x68, 0x68, 0x8e, 0x3b,
  0xe8, 0x0f, 0xc9, 0x3c, 0xc3, 0x31, 0x21, 0x3d, 0xb3, 0x08, 0x0e, 0xbc,
  0xd8, 0xad, 0x05, 0x3d, 0xc1, 0x24, 0x13, 0xbc, 0xca, 0x1f, 0x6f, 0x3c,
  0x88, 0xb3, 0x15, 0x3d, 0x77, 0x8b, 0x5b, 0xbc, 0x9b, 0xc1, 0x08, 0xbd,
  0x3e, 0x09, 0x91, 0xbc, 0x10, 0xdb, 0x2d, 0xbd, 0xcd, 0xf1, 0x6a, 0xbd,
  0x12, 0xb8, 0x17, 0xbd, 0x10, 0x23, 0x94, 0xbc, 0xd3, 0xfc, 0x9e, 0x3c,
  0x90, 0xe9, 0x59, 0x3c, 0x0e, 0xed, 0x38, 0x3c, 0x74, 0x44, 0x36, 0x3d,
  0x9e, 0x25, 0x41, 0x3d, 0x3b, 0xb9, 0x35, 0x3d, 0x69, 0x66, 0x3b, 0x3d,
  0xbf, 0xa5, 0x22, 0x3d, 0x45, 0x1d, 0x71, 0x3c, 0x49, 0x10, 0x4a, 0xbd,
  0x16, 0xfe, 0x83, 0xbd, 0xc1, 0xb6, 0x25, 0xbd, 0x96, 0x2c, 0x92, 0xbd,
  0x75, 0xf8, 0x57, 0xbd, 0x3f, 0xac, 0x35, 0xbd, 0x18, 0x4e, 0x41, 0xbc,
  0x4c, 0xb2, 0xe2, 0x3c, 0x21, 0x86, 0xa0, 0x3c, 0xb1, 0xe0, 0x20, 0x3d,
  0x26, 0x17, 0x89, 0x3d, 0xa7, 0xee, 0x9c, 0x3d, 0x89, 0x4a, 0x9b, 0xbc,
  0x12, 0x90, 0x74, 0xbb, 0x8b, 0x24, 0xa8, 0xbb, 0xdb, 0x28, 0x08, 0xbc,
  0x6f, 0x62, 0x3a, 0xbd, 0x3a, 0xb8, 0xee, 0xbc, 0xbb, 0x47, 0x80, 0xbb,
  0x52, 0xd7, 0xd5, 0xbc, 0x00, 0x13, 0x92, 0x3d, 0x4c, 0xda, 0xdd, 0x3d,
  0xb3, 0xf8, 0xd6, 0x3d, 0x6a, 0xc6, 0x22, 0x3d, 0x26, 0xa5, 0xd5, 0x3d,
  0xb1, 0x6a, 0xb1, 0x3d, 0xaa, 0xcf, 0xca, 0x3c, 0x6c, 0x10, 0xab, 0x3b,
  0x06, 0xef, 0xb3, 0xba, 0x16, 0xf5, 0xbc, 0xbc, 0x7b, 0x23, 0x4e, 0xbd,
  0xfe, 0xa8, 0xbc, 0xbd, 0xe9, 0xba, 0xce, 0xbd, 0x68, 0x32, 0xb4, 0xbd,
  0xc3, 0x75, 0x7b, 0x3c, 0x93, 0x1b, 0xf1, 0x3b, 0x19, 0xe0, 0x44, 0x3d,
  0x6a, 0x69, 0x23, 0x3c, 0x24, 0x4a, 0x33, 0x3d, 0xb2, 0xf0, 0xa2, 0x3d,
  0x8e, 0x74, 0x04, 0x3d, 0x1c, 0xef, 0x9b, 0xba, 0x30, 0x88, 0x61, 0x3d,
  0x26, 0x13, 0x86, 0xbc, 0x27, 0x60, 0x4d, 0x3d, 0x85, 0x29, 0x02, 0x3d,
  0xc4, 0xe8, 0x36, 0x3d, 0x81, 0xa4, 0x1f, 0x3d, 0x70, 0x3b, 0xc8, 0x3d,
  0x57, 0xbc, 0xbf, 0x3d, 0xf9, 0xae, 0x8e, 0x3d, 0x98, 0x5d, 0xa7, 0x3d,
  0xb0, 0xe3, 0x90, 0x3d, 0x0b, 0x89, 0xca, 0x3d, 0x55, 0x85, 0x0f, 0x3d,
  0x0a, 0x3d, 0x94, 0x3c, 0xcb, 0xde, 0x23, 0xbd, 0xfa, 0xd9, 0x6d, 0xbc,
  0xc2, 0xf1, 0x4e, 0xbd, 0xc9, 0x24, 0xa9, 0xbd, 0x07, 0x12, 0x5d, 0xbe,
  0xab, 0x40, 0x10, 0xbe, 0x2f, 0xcd, 0x7c, 0xbd, 0x96, 0x71, 0xac, 0xbb,
  0xbf, 0x1a, 0x4d, 0xbc, 0x0c, 0xa8, 0x82, 0x3c, 0xdd, 0x03, 0x9e, 0x3d,
  0x68, 0x51, 0x6d, 0x3d, 0x28, 0x60, 0x6c, 0x3c, 0xe0, 0x56, 0xf7, 0x3c,
  0xf6, 0xbc, 0x0c, 0x3d, 0xca, 0xe6, 0xe6, 0x3c, 0xad, 0x71, 0x7a, 0x3d,
  0xce, 0xdd, 0x6c, 0x3d, 0x03, 0x4f, 0xe2, 0x3c, 0x5a, 0xfd, 0x7c, 0x3d,
  0x30, 0xed, 0x65, 0x3d, 0x64, 0x9c, 0xee, 0x3d, 0xa9, 0x91, 0x08, 0x3e,
  0xef, 0xe6, 0xd0, 0x3d, 0x3d, 0xdb, 0x88, 0x3d, 0x12, 0xbf, 0xa7, 0x3d,
  0x63, 0xc8, 0x0d, 0x3d, 0x2a, 0x00, 0x50, 0x3b, 0x72, 0xb3, 0xb7, 0x3c,
  0xca, 0x0e, 0x9d, 0x3c, 0x44, 0xe2, 0x82, 0xbb, 0x00, 0x51, 0x23, 0xbe,
  0xdd, 0x98, 0x7a, 0xbe, 0xfa, 0x00, 0x2b, 0xbe, 0x64, 0x42, 0x39, 0xbd,
  0x33, 0x95, 0xe8, 0xbb, 0xed, 0xf8, 0x50, 0x3d, 0x79, 0x52, 0x77, 0x3d,
  0xba, 0xaa, 0x0a, 0x3d, 0x23, 0x3f, 0x7b, 0x3d, 0x4b, 0x83, 0x00, 0x3d,
  0x6e, 0x03, 0x2f, 0x3c, 0x04, 0x09, 0x16, 0x3d, 0x7a, 0x0d, 0x25, 0x3d,
  0xe8, 0x95, 0x7f, 0x3a, 0x88, 0xe5, 0x06, 0x3c, 0x30, 0x52, 0xd7, 0x3c,
  0x1e, 0x2b, 0x9e, 0x3c, 0xfb, 0x1e, 0xbc, 0x3c, 0x6c, 0xc4, 0x9e, 0x3d,
  0xa8, 0x80, 0x2d, 0x3e, 0x5b, 0xb4, 0x13, 0x3e, 0x88, 0x47, 0xbf, 0x3d,
  0x1b, 0x27, 0xbb, 0x3d, 0xaf, 0xca, 0xc9, 0x3c, 0x76, 0x02, 0x86, 0x3d,
  0x10, 0xe6, 0xd7, 0x3d, 0x44, 0x4a, 0x60, 0x3d, 0x4e, 0x73, 0x0e, 0xbc,
  0xc1, 0xb4, 0x3e, 0xbe, 0xd8, 0x74, 0x73, 0xbe, 0xc5, 0x56, 0x17, 0xbe,
  0x0c, 0x8b, 0x4a, 0xbc, 0x14, 0xb4, 0x6b, 0xbc, 0xda, 0x07, 0x0a, 0x3d,
  0x06, 0x3a, 0xa7, 0x3c, 0xe2, 0x1d, 0xb5, 0x3d, 0x80, 0x7b, 0x90, 0x3d,
  0xa5, 0xb9, 0xbc, 0x3c, 0xb7, 0x29, 0x73, 0x3d, 0x09, 0xa2, 0xb8, 0x3c,
  0x20, 0xa9, 0x03, 0x3d, 0x8d, 0x89, 0x9e, 0x3b, 0x79, 0xce, 0x8b, 0xbc,
  0xc0, 0xc3, 0x34, 0x3c, 0x9a, 0x49, 0x9d, 0xbc, 0xb7, 0x62, 0x53, 0xbd,
  0x6a, 0xd4, 0x17, 0x3b, 0x65, 0x53, 0x14, 0x3e, 0x01, 0xec, 0xc1, 0x3d,
  0x8e, 0xad, 0x2b, 0x3d, 0x22, 0xa7, 0xbf, 0x3d, 0x91, 0xb0, 0xba, 0x3d,
  0x2f, 0x15, 0xa9, 0x3d, 0xb1, 0xc1, 0x11, 0x3e, 0xbf, 0x8e, 0xef, 0x3d,
  0xd2, 0x7b, 0x3e, 0xbc, 0x32, 0x09, 0x44, 0xbe, 0x8c, 0xe6, 0x38, 0xbe,
  0xda, 0x43, 0x6b, 0xbd, 0x6e, 0xf2, 0x82, 0xbc, 0x7c, 0x23, 0x03, 0x3d,
  0xfb, 0x87, 0x53, 0x3d, 0x87, 0xd6, 0x52, 0x3c, 0x65, 0x7d, 0x70, 0x3d,
  0xfd, 0x4d, 0x79, 0x3d, 0x86, 0x70, 0x1d, 0x3d, 0xad, 0xa7, 0x7e, 0x3c,
  0x63, 0xc2, 0x20, 0x3d, 0x87, 0xf3, 0x28, 0x3d, 0xbc, 0x94, 0x92, 0x3c,
  0x58, 0xa8, 0x16, 0x3b, 0xa9, 0xb8, 0x2c, 0xbd, 0xc5, 0xe9, 0x9b, 0xbd,
  0x5a, 0x43, 0x23, 0xbe, 0x75, 0x00, 0xb8, 0xbd, 0x3b, 0xda, 0x1c, 0x3d,
  0xa0, 0x53, 0x28, 0x3d, 0xba, 0x97, 0x82, 0x3d, 0x94, 0x80, 0x77, 0x3d,
  0x30, 0x74, 0x00, 0x3e, 0x84, 0xa7, 0xc7, 0x3d, 0x84, 0x64, 0xfa, 0x3d,
  0xb1, 0x83, 0xd3, 0x3d, 0x7a, 0x65, 0x02, 0xbd, 0x88, 0x70, 0xec, 0xbd,
  0x15, 0x74, 0x36, 0xbe, 0x8e, 0x23, 0xb0, 0xbd, 0x9a, 0x0f, 0x13, 0xbd,
  0x45, 0xbf, 0x1f, 0x3c, 0x9f, 0x03, 0x9d, 0x3c, 0x1c, 0x96, 0x3c, 0x3d,
  0xd0, 0x57, 0xa6, 0x3d, 0x31, 0x97, 0x48, 0x3d, 0xa5, 0xf1, 0x8c, 0x3d,
  0xd0, 0x3d, 0xa3, 0x3d, 0x18, 0x27, 0x3f, 0x3d, 0x35, 0x89, 0x83, 0x3c,
  0x5b, 0x80, 0x4c, 0x3d, 0x62, 0x4e, 0x9e, 0x3b, 0xbc, 0xe6, 0xa7, 0x3c,
  0xc5, 0x56, 0x39, 0xbe, 0xe1, 0x26, 0x6e, 0xbe, 0xec, 0xe6, 0xb9, 0x3a,
  0xc6, 0x8d, 0xdd, 0x3c, 0xc5, 0x5a, 0xaf, 0x3c, 0xf4, 0x09, 0xca, 0x3c,
  0xdf, 0x38, 0xa3, 0x3d, 0xc3, 0xfc, 0xff, 0x3d, 0xb5, 0xa3, 0x94, 0x3d,
  0xf1, 0x20, 0xbc, 0x3d, 0x9a, 0xa8, 0xf9, 0x3c, 0x18, 0xb8, 0x9c, 0xbc,
  0x07, 0x7d, 0x34, 0xbe, 0x53, 0x6f, 0x47, 0xbe, 0x0c, 0xca, 0x8c, 0xbd,
  0x0b, 0xf9, 0x16, 0xbd, 0xbb, 0xc1, 0x29, 0xbc, 0xcc, 0x35, 0x5c, 0x3d,
  0x79, 0xe0, 0x1c, 0xbc, 0x55, 0x52, 0x85, 0x3c, 0xfe, 0x6f, 0x66, 0x3d,
  0x34, 0x2f, 0xc4, 0x3d, 0x2a, 0xcc, 0xb1, 0x3a, 0xcb, 0x81, 0x27, 0x3d,
  0xe6, 0xd5, 0x23, 0x3d, 0x8e, 0xd2, 0xd7, 0xbc, 0x60, 0x3f, 0xd8, 0x3c,
  0xb7, 0x42, 0x5f, 0xbd, 0x46, 0xec, 0x82, 0xbe, 0x00, 0xc4, 0x05, 0xbe,
  0xd4, 0x11, 0x7e, 0x3c, 0x9d, 0x5a, 0xc1, 0x3b, 0x5c, 0x90, 0xd1, 0x3c,
  0x48, 0x3c, 0xf2, 0x37, 0x07, 0xa3, 0xc6, 0x3d, 0xc3, 0xa0, 0x81, 0x3d,
  0x05, 0x4b, 0xb5, 0x3d, 0x44, 0x1e, 0x28, 0x3c, 0x28, 0x33, 0x81, 0xbb,
  0x2c, 0x2d, 0x36, 0xbd, 0x60, 0x05, 0xce, 0xbd, 0xef, 0x95, 0xfe, 0xbd,
  0xdb, 0x8c, 0x6f, 0xbd, 0x19, 0xc3, 0x94, 0x3a, 0xbc, 0x35, 0x50, 0xbc,
  0x64, 0x60, 0x54, 0x3c, 0x64, 0x92, 0x55, 0x3d, 0xfd, 0xd2, 0x94, 0x3c,
  0x21, 0x4c, 0x10, 0x3d, 0xad, 0x22, 0x84, 0x3d, 0x24, 0xb0, 0x1f, 0xbc,
  0x8c, 0xc0, 0xa7, 0x3b, 0x6a, 0x5e, 0xb3, 0xbb, 0xea, 0xc8, 0xae, 0xbc,
  0x8f, 0xa5, 0x5e, 0xbd, 0x2d, 0xed, 0xee, 0xbd, 0x7f, 0x57, 0x1d, 0xbe,
  0x38, 0xc7, 0xd9, 0xbc, 0x70, 0xfa, 0xc7, 0xbc, 0xb4, 0xde, 0x31, 0xbd,
  0xae, 0x2d, 0xf5, 0xbc, 0xca, 0x06, 0x11, 0x3d, 0xc8, 0x94, 0x10, 0x3e,
  0x1f, 0x99, 0xb1, 0x3d, 0x4b, 0x99, 0xee, 0x3c, 0x8d, 0x8c, 0x40, 0x3d,
  0x30, 0xd7, 0xad, 0x3c, 0x57, 0x56, 0xaf, 0xbc, 0xc6, 0x01, 0xdc, 0xbd,
  0xb9, 0x46, 0xfa, 0xbd, 0xed, 0x21, 0xb2, 0xbd, 0x4d, 0x34, 0xb8, 0xbb,
  0xd6, 0x3d, 0x35, 0x3d, 0x30, 0xb1, 0x49, 0xba, 0x3e, 0x45, 0xad, 0xbb,
  0xa6, 0x93, 0x81, 0xbc, 0x47, 0x2f, 0x96, 0xbb, 0xde, 0xb6, 0x25, 0xbc,
  0x48, 0x3e, 0x13, 0x3d, 0xe2, 0xe7, 0x54, 0x3d, 0x30, 0x99, 0x8c, 0x3b,
  0x50, 0xee, 0x0a, 0x3d, 0xb1, 0x48, 0x47, 0xbd, 0x31, 0x7d, 0xff, 0xbd,
  0xdb, 0xa7, 0xc4, 0xbd, 0x75, 0x00, 0xd5, 0xbc, 0xd3, 0x87, 0x28, 0xbd,
  0xcb, 0xfb, 0xb2, 0xba, 0xac, 0x4c, 0x30, 0xbd, 0xb5, 0x95, 0xc7, 0x3d,
  0xe9, 0x33, 0x01, 0x3e, 0x67, 0x70, 0xa4, 0x3c, 0xf0, 0xd8, 0xc2, 0x3c,
  0x6d, 0xc3, 0x98, 0xbc, 0xfb, 0x46, 0xb1, 0xbc, 0x31, 0xd1, 0x83, 0xbd,
  0x10, 0x38, 0x23, 0xbe, 0x3a, 0x30, 0x08, 0xbe, 0x66, 0xcc, 0x9d, 0xbd,
  0x09, 0x3d, 0x8b, 0x3b, 0x02, 0x45, 0x17, 0x3d, 0x48, 0x34, 0x43, 0x3d,
  0x12, 0x7a, 0xff, 0x3c, 0x6c, 0xdb, 0x46, 0x3c, 0x90, 0x82, 0x36, 0xbd,
  0xc3, 0x7f, 0x22, 0xbd, 0xb5, 0x81, 0xb2, 0x3c, 0x44, 0xbe, 0x65, 0xbc,
  0x86, 0x94, 0x11, 0x3d, 0x4f, 0x97, 0x54, 0xbc, 0x0d, 0xd1, 0x8f, 0xbd,
  0xdb, 0xa9, 0xea, 0xbd, 0x90, 0xfa, 0xd2, 0xbd, 0x10, 0x94, 0xf7, 0xbc,
  0xf2, 0x67, 0x8f, 0x3c, 0x9a, 0x04, 0xc3, 0x3c, 0x3e, 0x90, 0x6a, 0x3c,
  0xc2, 0xdb, 0xb9, 0x3c, 0x05, 0x7c, 0xb4, 0xbb, 0xef, 0x4d, 0x3b, 0xbc,
  0x1a, 0x81, 0x72, 0xbc, 0x4d, 0xe1, 0x9d, 0xbd, 0x54, 0xd4, 0x17, 0xbe,
  0x2e, 0x13, 0x4b, 0xbe, 0xae, 0xca, 0x3f, 0xbe, 0xdc, 0x6b, 0x36, 0xbe,
  0x75, 0xee, 0xc2, 0xbd, 0x8e, 0xbb, 0x12, 0x3c, 0x91, 0x38, 0x9a, 0x3c,
  0x40, 0xa3, 0x1a, 0x3c, 0x0d, 0x27, 0x09, 0x3d, 0x78, 0xfc, 0xb2, 0xbc,
  0xa4, 0xea, 0x23, 0xbd, 0x0d, 0xcf, 0x3d, 0xbd, 0x44, 0x15, 0x9c, 0xbd,
  0xda, 0x4d, 0xe3, 0xbd, 0x1f, 0x4f, 0xbb, 0xbd, 0xc2, 0x41, 0xc3, 0xbd,
  0x54, 0xe1, 0x0c, 0xbe, 0xc2, 0x1f, 0xcf, 0xbd, 0xae, 0xc1, 0xad, 0xbd,
  0x7f, 0xc1, 0x6c, 0xbd, 0x31, 0xe8, 0x65, 0x3d, 0x06, 0x8c, 0x01, 0x3d,
  0x26, 0xae, 0x3e, 0xbc, 0x45, 0xcb, 0x7f, 0xbd, 0xe5, 0x82, 0x9b, 0xbd,
  0xaa, 0x55, 0x8b, 0xbd, 0x2e, 0x23, 0xc6, 0xbd, 0x4c, 0xc9, 0xc9, 0xbd,
  0x9c, 0x79, 0x1c, 0xbe, 0xc2, 0x6b, 0x87, 0xbe, 0xc1, 0xdc, 0x85, 0xbe,
  0x7c, 0x6c, 0x48, 0xbe, 0x31, 0x15, 0xa6, 0xbc, 0x70, 0xf0, 0xd8, 0xba,
  0xaf, 0x5d, 0x6f, 0xbc, 0xdc, 0xb5, 0x61, 0x3c, 0x9f, 0xba, 0x4b, 0x3d,
  0x02, 0xf4, 0x83, 0xbc, 0x69, 0xd3, 0x31, 0xbd, 0xf7, 0xa7, 0xe2, 0xbd,
  0x42, 0xb1, 0xe4, 0xbd, 0x6c, 0xc7, 0x62, 0xbe, 0x48, 0xf9, 0x91, 0xbe,
  0xb7, 0xbd, 0x9e, 0xbe, 0x79, 0xc4, 0x8b, 0xbe, 0xca, 0xf4, 0x48, 0xbe,
  0x3a, 0x39, 0x03, 0xbe, 0xfb, 0xd0, 0xac, 0xbd, 0x65, 0x79, 0x26, 0xbd,
  0x26, 0x98, 0x8f, 0x3b, 0x1a, 0xd0, 0xa6, 0xbd, 0xbd, 0xb2, 0xbc, 0xbd,
  0xe0, 0xc1, 0xcf, 0xbd, 0xe4, 0x38, 0xff, 0xbd, 0x05, 0xa6, 0xa5, 0xbd,
  0x64, 0x3f, 0xf5, 0xbd, 0x33, 0x39, 0x6f, 0xbe, 0xbe, 0xd4, 0x8f, 0xbe,
  0xba, 0x1f, 0x4b, 0xbe, 0xb6, 0x64, 0xd2, 0xbd, 0x73, 0x90, 0xcb, 0x3c,
  0x8d, 0x8f, 0xae, 0xbc, 0xda, 0x51, 0x44, 0x3d, 0xb0, 0x64, 0x3e, 0x3d,
  0x16, 0x7e, 0xa1, 0xbc, 0x95, 0xea, 0x1a, 0x3c, 0x18, 0x8f, 0x53, 0xbd,
  0xfc, 0xc7, 0x21, 0xbe, 0x78, 0x47, 0x54, 0xbe, 0x6b, 0x50, 0x8c, 0xbe,
  0x9d, 0x02, 0x98, 0xbe, 0xcb, 0xb6, 0x97, 0xbe, 0x4e, 0x7a, 0x1d, 0xbe,
  0x8d, 0xfa, 0x11, 0xbe, 0x12, 0x4e, 0x0d, 0xbe, 0xd9, 0xaa, 0x91, 0xbd,
  0x10, 0xc1, 0xed, 0xbc, 0x31, 0x34, 0x4d, 0xbc, 0x70, 0x17, 0xb8, 0xbd,
  0xe7, 0x5c, 0xb4, 0xbd, 0xb4, 0x6c, 0xd9, 0xbd, 0x51, 0x50, 0x1d, 0xbe,
  0xe0, 0x47, 0x13, 0xbe, 0x56, 0xf2, 0xe9, 0xbd, 0xa4, 0x8e, 0x41, 0xbe,
  0x72, 0xea, 0x37, 0xbe, 0x94, 0xf1, 0x06, 0xbe, 0x9f, 0x0e, 0x85, 0xbd,
  0x52, 0x99, 0x93, 0xbc, 0x3c, 0xbd, 0x07, 0xbb, 0xb4, 0x62, 0xc9, 0x3c,
  0xb0, 0xcb, 0xe4, 0x3c, 0x2c, 0x15, 0x31, 0x3d, 0xfe, 0x3b, 0x48, 0xbc,
  0xca, 0xf3, 0x71, 0xbd, 0x9e, 0x36, 0xfa, 0xbd, 0x3f, 0x34, 0x40, 0xbe,
  0xd4, 0x0f, 0x8c, 0xbe, 0xa2, 0x07, 0x52, 0xbe, 0x9e, 0xe6, 0x1d, 0xbe,
  0xf0, 0x83, 0x89, 0xbd, 0x19, 0x91, 0x7a, 0xbd, 0xab, 0x87, 0x8d, 0xbd,
  0x78, 0x4e, 0x89, 0xbd, 0x92, 0x0c, 0xd2, 0xbd, 0x24, 0xe7, 0x66, 0xbd,
  0x2b, 0x9e, 0x9c, 0xbd, 0xb5, 0x14, 0x09, 0xbd, 0x3c, 0xc1, 0xc3, 0xbd,
  0x4e, 0x76, 0x30, 0xbe, 0x13, 0x07, 0x04, 0xbe, 0x37, 0xa0, 0xbf, 0xbd,
  0x0e, 0xb0, 0xf3, 0xbd, 0x9d, 0x72, 0x13, 0xbe, 0x85, 0xa5, 0x88, 0xbd,
  0xfb, 0xf7, 0x16, 0x3c, 0xd0, 0xa5, 0xd4, 0x3a, 0xf2, 0xdf, 0x04, 0xbb,
  0x4b, 0xb2, 0xb5, 0x3c, 0x05, 0x86, 0x59, 0x3c, 0x5d, 0x25, 0x14, 0x3d,
  0x90, 0x75, 0x84, 0x3c, 0xcb, 0xc2, 0x96, 0xbd, 0x95, 0xfa, 0xb3, 0xbd,
  0x6e, 0x6a, 0xeb, 0xbd, 0x06, 0xee, 0x50, 0xbe, 0x1e, 0xe6, 0xca, 0xbd,
  0x10, 0xce, 0xa6, 0xbc, 0x42, 0x58, 0xdb, 0x3c, 0x15, 0x66, 0xd0, 0xbb,
  0xe1, 0x6f, 0x59, 0xbd, 0x9e, 0x8b, 0x9e, 0xbd, 0x6b, 0xe3, 0xb7, 0xbd,
  0xe0, 0x22, 0x61, 0xbd, 0xfe, 0x35, 0x01, 0x3a, 0x21, 0x32, 0x3b, 0xbd,
  0xed, 0xa2, 0x02, 0x3c, 0x6e, 0xef, 0x19, 0xbd, 0x82, 0x71, 0xbe, 0xbd,
  0x6f, 0x45, 0xaa, 0xbd, 0xb8, 0x6c, 0xdb, 0xbd, 0x4b, 0x05, 0xbd, 0xbd,
  0x44, 0xd6, 0x18, 0xbd, 0x2b, 0xe5, 0x91, 0xbb, 0x4d, 0x2f, 0x27, 0x3d,
  0xea, 0xc0, 0xaa, 0x3a, 0x80, 0xb0, 0x2d, 0x3d, 0xda, 0x2d, 0x09, 0x3d,
  0x6c, 0x97, 0x08, 0x3c, 0xc5, 0x7d, 0xfe, 0x3b, 0x97, 0xd0, 0x03, 0xbc,
  0x36, 0xa1, 0x86, 0xbd, 0x2b, 0xc5, 0x99, 0xbc, 0x0a, 0x61, 0x94, 0xbd,
  0xa1, 0x47, 0x07, 0xbd, 0xe2, 0x2a, 0x01, 0x3d, 0x4d, 0x83, 0x07, 0xbd,
  0x3c, 0x1d, 0xa4, 0x3c, 0x77, 0xbf, 0x21, 0xbd, 0x39, 0x3c, 0x94, 0xbd,
  0x77, 0x9e, 0x84, 0xbd, 0xb5, 0x5b, 0x6d, 0xbd, 0x3a, 0x0d, 0x61, 0xbd,
  0x1e, 0x0f, 0x94, 0x3b, 0xe0, 0x4c, 0x2c, 0x3d, 0xdb, 0x6d, 0x5b, 0xbd,
  0x29, 0x61, 0x56, 0xbd, 0x84, 0xac, 0x40, 0xbd, 0x35, 0xf4, 0xdb, 0xbc,
  0xf0, 0xf5, 0xc2, 0x3a, 0xb9, 0x32, 0xed, 0xbc, 0xd4, 0xc2, 0x7d, 0x3c,
  0xc5, 0xdb, 0x9e, 0x3c, 0x7b, 0xbe, 0x56, 0xbc, 0xcb, 0x1c, 0xd0, 0x3c,
  0x70, 0x01, 0xd2, 0xba, 0x48, 0x14, 0x3f, 0xbc, 0xa6, 0xb6, 0x22, 0xbb,
  0xb1, 0x0c, 0x88, 0xbb, 0xc4, 0xff, 0x38, 0x3d, 0x70, 0x99, 0xa9, 0x3d,
  0xd7, 0x5f, 0xce, 0x3d, 0x2a, 0x91, 0x49, 0x3d, 0x23, 0x14, 0xf3, 0xbc,
  0x97, 0x29, 0xc1, 0xbd, 0xc9, 0x7d, 0xca, 0xbd, 0xc5, 0xde, 0xbd, 0xbd,
  0xbd, 0xe0, 0xfc, 0xbd, 0xfa, 0x99, 0x03, 0xbe, 0x3f, 0x13, 0x18, 0xbe,
  0x44, 0x03, 0x09, 0xbe, 0x56, 0x34, 0xc6, 0xbd, 0xcc, 0x93, 0x45, 0xbb,
  0xcf, 0x77, 0xe9, 0x3b, 0xb3, 0x63, 0xdc, 0x3d, 0xdc, 0x6a, 0x9b, 0x3d,
  0xb9, 0x5c, 0x89, 0x3d, 0x6d, 0xf6, 0x87, 0x3d, 0xc4, 0xc2, 0xb6, 0x3c,
  0x1c, 0xaa, 0xae, 0xbc, 0xf3, 0x81, 0x4b, 0xbc, 0x43, 0x62, 0x09, 0x3d,
  0x23, 0x11, 0xcd, 0x3c, 0x88, 0x33, 0x64, 0x3d, 0xa2, 0x6d, 0x19, 0xbb,
  0x8e, 0xc5, 0x8d, 0x3c, 0xdc, 0xc0, 0x4e, 0xbc, 0x68, 0x96, 0x0b, 0x3d,
  0x5b, 0x3c, 0x20, 0x3e, 0x08, 0x3b, 0x0f, 0x3e, 0x97, 0xff, 0xef, 0x3d,
  0xf0, 0xf9, 0x0a, 0x3e, 0x38, 0x81, 0xd8, 0x3d, 0xe4, 0x69, 0xe3, 0x3d,
  0xc6, 0x30, 0xc8, 0x3d, 0x0e, 0x3d, 0xd2, 0x3d, 0x7a, 0xff, 0x05, 0x3e,
  0x37, 0xac, 0xcb, 0x3d, 0xd4, 0xf1, 0x35, 0x3d, 0x18, 0x85, 0x52, 0x3d,
  0x91, 0xd1, 0xb7, 0x3d, 0x0c, 0x94, 0x08, 0x3e, 0x1d, 0x5d, 0x10, 0x3e,
  0x48, 0xaa, 0xea, 0x3d, 0x4b, 0x6f, 0x85, 0x3d, 0x98, 0xae, 0x8c, 0x3d,
  0xd7, 0x1f, 0xe2, 0x3c, 0x28, 0xc5, 0xc1, 0x3c, 0xf5, 0x7b, 0x20, 0x3d,
  0xbe, 0x84, 0xf4, 0x3c, 0xef, 0x38, 0xc8, 0x3c, 0xc3, 0x7c, 0xba, 0x3c,
  0x46, 0x65, 0x53, 0x3c, 0xcc, 0xb6, 0x7e, 0xbb, 0x62, 0xb7, 0x18, 0x3d,
  0xbc, 0xa7, 0x25, 0x3b, 0x00, 0x91, 0x17, 0x3d, 0xb7, 0xa5, 0xb8, 0x3d,
  0x91, 0xf4, 0xab, 0x3d, 0x72, 0xa7, 0x34, 0x3e, 0x85, 0x8c, 0x77, 0x3e,
  0xab, 0x93, 0x2d, 0x3e, 0x58, 0xd8, 0x41, 0x3e, 0x17, 0x65, 0x4d, 0x3e,
  0x12, 0x76, 0x52, 0x3e, 0x34, 0x2e, 0x63, 0x3e, 0xf6, 0x06, 0x80, 0x3e,
  0x81, 0x82, 0x54, 0x3e, 0x3e, 0x82, 0xf0, 0x3d, 0x94, 0x27, 0x9a, 0x3d,
  0x73, 0x96, 0x8a, 0x3d, 0x2e, 0x07, 0x83, 0x3c, 0x6b, 0x01, 0x2d, 0x3d,
  0x58, 0x35, 0x82, 0x3d, 0x0b, 0x10, 0xf6, 0x3c, 0xf1, 0x8e, 0xae, 0x3c,
  0x42, 0x66, 0x27, 0x3d, 0x1a, 0xca, 0x16, 0x3c, 0x32, 0xbb, 0x35, 0x3d,
  0x7e, 0x1f, 0x0a, 0x3d, 0xd1, 0x92, 0x82, 0x3c, 0x08, 0x3a, 0x5f, 0x3c,
  0xbc, 0x4e, 0x1a, 0x3d, 0x62, 0x4d, 0xe6, 0x3c, 0x66, 0x1b, 0xec, 0x3c,
  0x62, 0xeb, 0x05, 0x3d, 0xb2, 0x27, 0x4c, 0x3d, 0xd5, 0x0f, 0xd8, 0x3c,
  0x6a, 0x09, 0x7b, 0x3d, 0x9d, 0x80, 0x86, 0x3d, 0x4f, 0xc7, 0x15, 0x3d,
  0xc5, 0xcf, 0x20, 0x3d, 0x70, 0xf3, 0x86, 0x3d, 0xed, 0x56, 0x72, 0x3d,
  0x04, 0x1b, 0x54, 0x3d, 0xf4, 0xf6, 0x8d, 0x3d, 0x54, 0xff, 0x9f, 0x3d,
  0x90, 0xef, 0x73, 0x3d, 0x9e, 0x64, 0x5b, 0x3d, 0xe3, 0x2e, 0x77, 0x3d,
  0x92, 0xc4, 0x4e, 0x3d, 0x13, 0x8b, 0x82, 0x3c, 0xa4, 0xf9, 0x5e, 0x3d,
  0x2b, 0x66, 0xd3, 0xbb, 0xba, 0xe8, 0x23, 0x3d, 0xe3, 0xe9, 0x81, 0xbb,
  0x18, 0x69, 0x2f, 0x3c, 0x7b, 0x1f, 0x3f, 0xbd, 0x08, 0x65, 0xbf, 0x3b,
  0xa2, 0x6e, 0xd3, 0x3b, 0x69, 0x95, 0x60, 0xbc, 0x57, 0x30, 0x8c, 0x3c,
  0x99, 0x5f, 0xe5, 0xbc, 0x61, 0x82, 0x9a, 0xbc, 0x9d, 0xd3, 0x90, 0xbc,
  0x87, 0xc8, 0x9c, 0xbc, 0x3b, 0xa6, 0x47, 0xbd, 0x7d, 0x9d, 0xb5, 0x3c,
  0xcf, 0x45, 0x9a, 0x3b, 0xfd, 0x5c, 0x41, 0xbd, 0x4b, 0x9a, 0x82, 0xbc,
  0x7a, 0x5c, 0x20, 0xbc, 0xc8, 0xd3, 0x63, 0x3c, 0x54, 0x79, 0x26, 0xbc,
  0xe3, 0x11, 0xa1, 0x3c, 0x6b, 0x28, 0x2b, 0xbd, 0x94, 0x1b, 0x4b, 0xbc,
  0xb3, 0x9a, 0xab, 0xbc, 0xf3, 0x76, 0xb2, 0xbc, 0x9d, 0x6e, 0x45, 0xbd,
  0xbf, 0x47, 0x35, 0xbd, 0xf3, 0x91, 0xcc, 0xbc, 0x6d, 0x44, 0xc7, 0xbc,
  0xff, 0x6d, 0x38, 0xbd, 0x6b, 0xf0, 0x24, 0xbd, 0xc5, 0x2c, 0xfd, 0xbc,
  0x56, 0x9f, 0xb9, 0x3b, 0x30, 0x6a, 0x40, 0xbc, 0x37, 0x0e, 0x22, 0xbd,
  0x01, 0xe9, 0x19, 0xbd, 0xa7, 0x95, 0x89, 0x3c, 0x55, 0xeb, 0x93, 0xbb,
  0x7d, 0x1c, 0x67, 0x3b, 0xeb, 0x5c, 0x3f, 0x3c, 0x39, 0x10, 0xcb, 0xbb,
  0xb6, 0x28, 0x08, 0x3d, 0x80, 0xaa, 0x07, 0xbb, 0x12, 0xaf, 0x12, 0x3d,
  0xd9, 0x41, 0x27, 0x3d, 0x72, 0x72, 0xb6, 0x3c, 0xfa, 0xf1, 0xdb, 0xbc,
  0xb4, 0x90, 0x6e, 0xbc, 0x39, 0x41, 0x81, 0x3b, 0x48, 0xed, 0xc3, 0xba,
  0x4f, 0x5c, 0x24, 0xbc, 0xb6, 0x4f, 0xae, 0xbc, 0xad, 0x9a, 0x3d, 0xbd,
  0x64, 0x9b, 0x9a, 0x3c, 0x4b, 0x64, 0x14, 0xbc, 0x00, 0xe7, 0x28, 0xbc,
  0x5b, 0x78, 0xc2, 0xbc, 0x49, 0x50, 0xba, 0xbc, 0x41, 0x69, 0x92, 0x3c,
  0x37, 0x8e, 0x9d, 0x3c, 0x87, 0x1a, 0x62, 0xbc, 0x51, 0x37, 0x85, 0x3c,
  0x72, 0x51, 0x81, 0xbc, 0x3f, 0x35, 0x4b, 0x3b, 0x70, 0xb2, 0x36, 0xbd,
  0x2c, 0x10, 0x75, 0xbc, 0xf0, 0x94, 0xb0, 0xbc, 0x1a, 0x89, 0x15, 0x3d,
  0x47, 0xcd, 0xcc, 0xba, 0x53, 0xb8, 0xf3, 0x3b, 0xc4, 0x6a, 0x3e, 0x3d,
  0xd5, 0x30, 0x85, 0x3d, 0xb0, 0x4d, 0xc1, 0xbc, 0x65, 0xf8, 0xd2, 0xbd,
  0x40, 0x6a, 0x7f, 0xbd, 0x59, 0xc1, 0x40, 0xbd, 0xbf, 0xf0, 0xc4, 0xbc,
  0x24, 0x45, 0xb2, 0xbd, 0x31, 0x62, 0x49, 0xbd, 0xd2, 0xe7, 0x97, 0xbd,
  0x18, 0xef, 0x3e, 0xbd, 0xfe, 0x7f, 0x50, 0xbd, 0x70, 0xea, 0xff, 0xbc,
  0x34, 0xe2, 0xc8, 0xbc, 0x20, 0x15, 0xa5, 0x3c, 0x81, 0xd9, 0x38, 0xbd,
  0x9f, 0x37, 0xee, 0xbc, 0xb0, 0x8f, 0xb8, 0xbb, 0x7d, 0x97, 0xf9, 0xbc,
  0xbb, 0x35, 0xa5, 0xbc, 0x50, 0xfe, 0x08, 0xbd, 0x94, 0x79, 0x00, 0xbd,
  0x7a, 0xc0, 0xfe, 0xbc, 0x7e, 0x8e, 0x78, 0x3c, 0xad, 0x74, 0x98, 0x3c,
  0xd6, 0xb5, 0xa2, 0x3b, 0x93, 0x47, 0x4b, 0xbc, 0x85, 0x01, 0xd9, 0x3c,
  0xee, 0x09, 0x59, 0x3a, 0x49, 0x38, 0x86, 0xbb, 0xc9, 0x87, 0x17, 0xbc,
  0x68, 0xbb, 0x0e, 0xbe, 0x4e, 0x81, 0xff, 0xbd, 0x8f, 0xd2, 0x12, 0xbe,
  0xee, 0xc6, 0x62, 0xbe, 0x00, 0x99, 0x1a, 0xbe, 0xc1, 0x45, 0x1d, 0xbe,
  0xa6, 0x1f, 0x16, 0xbe, 0x31, 0xf0, 0xfc, 0xbc, 0x92, 0x45, 0x1d, 0xbd,
  0x00, 0x1d, 0xc4, 0x3b, 0xd1, 0x16, 0x16, 0xbd, 0xea, 0x08, 0xa2, 0xbc,
  0xd6, 0xb2, 0x45, 0xbd, 0x99, 0x9c, 0x13, 0xbd, 0xb1, 0x52, 0x1a, 0xbd,
  0xb6, 0xcc, 0xf3, 0xbc, 0x5a, 0x42, 0x2b, 0xbd, 0x1b, 0x6a, 0x86, 0xbc,
  0x3a, 0x56, 0x91, 0xbc, 0xe7, 0xb0, 0x40, 0x3b, 0x0e, 0x57, 0x41, 0x3d,
  0x74, 0x80, 0x8d, 0x3d, 0x9d, 0x00, 0x9a, 0x3c, 0x96, 0xe5, 0x93, 0x3d,
  0x82, 0x13, 0x65, 0x3d, 0x27, 0x53, 0xc3, 0x3d, 0x3f, 0x89, 0xad, 0x3d,
  0xd8, 0x02, 0xbd, 0x3d, 0xde, 0xfe, 0xb8, 0xba, 0x3b, 0x83, 0xc9, 0x3b,
  0x22, 0xdc, 0xaf, 0x3c, 0xea, 0x8b, 0x1d, 0xbd, 0xc1, 0xaf, 0xd7, 0xbd,
  0x7f, 0x83, 0x01, 0xbe, 0x0c, 0xa8, 0x23, 0xbe, 0xa6, 0xd0, 0x20, 0xbe,
  0xca, 0x24, 0xed, 0xbd, 0x87, 0x60, 0x01, 0xbe, 0xcb, 0x46, 0xb1, 0xbd,
  0x44, 0x08, 0xb3, 0xbb, 0x6f, 0x38, 0x03, 0xbd, 0x65, 0xee, 0x47, 0x3b,
  0xbf, 0xd2, 0x07, 0xba, 0xa9, 0x20, 0x54, 0xbb, 0x09, 0x32, 0x90, 0x3c,
  0xe2, 0xb2, 0x43, 0xbc, 0xab, 0x68, 0x9a, 0xbc, 0x4b, 0x8f, 0x53, 0x3b,
  0xc3, 0xb3, 0x4e, 0x3d, 0xbc, 0xe0, 0x12, 0x3d, 0x20, 0xb5, 0xcd, 0x3d,
  0x71, 0xbc, 0xad, 0x3d, 0xc2, 0x70, 0x07, 0x3e, 0x47, 0x7e, 0x0b, 0x3e,
  0xb7, 0x6e, 0x3f, 0x3e, 0xff, 0x3d, 0x29, 0x3e, 0x73, 0x1f, 0x28, 0x3e,
  0xb5, 0x81, 0x31, 0x3e, 0x20, 0x4a, 0xe7, 0x3d, 0x59, 0x6c, 0x99, 0x3d,
  0x3c, 0xb2, 0x73, 0x3c, 0xc8, 0xda, 0x48, 0xbb, 0x33, 0x42, 0x80, 0xbd,
  0xd3, 0xbc, 0xf1, 0xbd, 0xd6, 0x6f, 0xb3, 0xbd, 0xff, 0x60, 0x03, 0xbe,
  0xca, 0xf8, 0x99, 0xbd, 0x1a, 0x99, 0x42, 0xbd, 0x5d, 0x5e, 0x2f, 0x3c,
  0x27, 0xc6, 0x78, 0xbc, 0x57, 0xf8, 0x7e, 0xbc, 0x67, 0x04, 0xd1, 0xbc,
  0xa7, 0x0a, 0xf8, 0x3b, 0x73, 0x3f, 0x1f, 0xbd, 0x73, 0x9e, 0xed, 0x3a,
  0x6d, 0xdd, 0x40, 0x3c, 0xf8, 0x3e, 0x59, 0x3d, 0xec, 0xd9, 0x3d, 0x3d,
  0x16, 0x1c, 0xbd, 0x3d, 0xd6, 0xdb, 0xcb, 0x3c, 0xc1, 0x52, 0x47, 0x3d,
  0xbc, 0x8a, 0x41, 0x3d, 0xe1, 0x42, 0xd1, 0x3d, 0x2d, 0x5c, 0xbb, 0x3d,
  0x69, 0x0b, 0xe9, 0x3d, 0x52, 0x28, 0xfb, 0x3d, 0x6b, 0x29, 0x81, 0x3d,
  0x67, 0xdd, 0xd7, 0x3d, 0x40, 0xd2, 0x97, 0x3d, 0x9a, 0x4c, 0xe4, 0x3c,
  0x46, 0x11, 0x45, 0x3d, 0x73, 0xe0, 0x6a, 0x3c, 0x80, 0x5f, 0x93, 0xbc,
  0x7f, 0xc0, 0x9b, 0xbd, 0xb9, 0xfa, 0x0a, 0xbe, 0x03, 0x71, 0x3d, 0xbd,
  0xe5, 0x14, 0x15, 0x3c, 0xa9, 0x3d, 0xd5, 0x3b, 0x07, 0x23, 0x21, 0xbd,
  0x55, 0x78, 0x10, 0x3c, 0x2c, 0xc6, 0xa8, 0xbc, 0xed, 0x2b, 0x0a, 0xbd,
  0x06, 0xa5, 0x2c, 0xbb, 0x72, 0x74, 0x27, 0xbd, 0x91, 0x40, 0x10, 0xbd,
  0xe3, 0x02, 0x80, 0x3c, 0x18, 0xf7, 0xd1, 0xbc, 0xce, 0x9b, 0x90, 0xbc,
  0x8a, 0xc4, 0x9f, 0xbc, 0x01, 0x27, 0xae, 0x3c, 0x2c, 0x58, 0x20, 0xbc,
  0x35, 0x4a, 0x3f, 0x3c, 0xab, 0x48, 0x43, 0x3d, 0xab, 0x71, 0x8e, 0x3d,
  0x0a, 0x71, 0xd1, 0x3c, 0x32, 0x65, 0x87, 0x3d, 0xc7, 0x49, 0xc2, 0x3d,
  0xf8, 0x67, 0xbe, 0x3d, 0x8e, 0xb0, 0x94, 0x3c, 0x12, 0xbe, 0xf4, 0x3d,
  0xa4, 0x3f, 0x51, 0x3d, 0x5c, 0xad, 0x0c, 0xbd, 0x84, 0x1b, 0xd9, 0xbd,
  0x24, 0x3e, 0x8f, 0xbd, 0x73, 0xdb, 0xd8, 0xbc, 0x11, 0x77, 0x60, 0x3c,
  0x4e, 0xd7, 0xdf, 0xbc, 0x15, 0x6a, 0x7c, 0xbc, 0xfb, 0x11, 0x1a, 0xbb,
  0x53, 0x8a, 0xa7, 0xbd, 0xe9, 0xdb, 0x1a, 0xbc, 0xd3, 0x8b, 0x04, 0xbd,
  0xce, 0x8c, 0x18, 0x3b, 0xf3, 0x06, 0x7a, 0xbd, 0x1e, 0x40, 0xc1, 0xbd,
  0xda, 0x86, 0x51, 0xbd, 0x86, 0x0e, 0xca, 0xbd, 0xdb, 0xa4, 0xa8, 0xbd,
  0xb4, 0xe7, 0x21, 0xbd, 0x0c, 0x29, 0xf2, 0x3c, 0xe8, 0x9a, 0xd5, 0x3c,
  0x71, 0x72, 0xc4, 0x3d, 0x05, 0x85, 0xd4, 0x3d, 0x39, 0x61, 0xd5, 0x3d,
  0x29, 0x86, 0xf4, 0x3d, 0x4c, 0x7c, 0xca, 0x3d, 0x50, 0x1d, 0x87, 0x3d,
  0x03, 0xad, 0xda, 0x3d, 0x2b, 0xa1, 0xce, 0x3d, 0xfe, 0xc3, 0xbd, 0x3b,
  0xbf, 0xf7, 0xa6, 0xbd, 0x60, 0xd5, 0xe6, 0xbc, 0x71, 0x87, 0xdf, 0xbc,
  0x97, 0x7a, 0xf0, 0xbc, 0xb1, 0xe3, 0x1c, 0xbd, 0xd6, 0x42, 0x06, 0xbd,
  0xd5, 0x10, 0xc6, 0xbb, 0x74, 0xf2, 0x86, 0xbd, 0xf1, 0xfb, 0xb7, 0xbd,
  0x78, 0x0a, 0x95, 0xbd, 0x85, 0x56, 0x72, 0xbd, 0x4e, 0xdc, 0xa2, 0xbd,
  0x8f, 0xc2, 0x6a, 0xbd, 0xeb, 0x24, 0x37, 0xbd, 0x7a, 0xa2, 0x00, 0xbd,
  0x0c, 0x2f, 0x80, 0xbd, 0x1d, 0x2b, 0xaa, 0xbd, 0x00, 0x8e, 0xfd, 0xbc,
  0x48, 0x52, 0xaf, 0xbb, 0xb8, 0x2c, 0xbb, 0xbb, 0xb7, 0x63, 0x3c, 0x3d,
  0xe5, 0x7a, 0x46, 0x3d, 0xce, 0x7a, 0x85, 0x3d, 0x58, 0x6f, 0x92, 0x3d,
  0xcb, 0x81, 0xee, 0x3d, 0xaf, 0x3c, 0x95, 0x3d, 0x69, 0xb2, 0xb4, 0x3d,
  0x87, 0xa8, 0x2a, 0x3e, 0x39, 0xd1, 0xa1, 0x3c, 0xea, 0xc2, 0x73, 0xbd,
  0xf2, 0xd9, 0x31, 0xbc, 0x99, 0x82, 0x68, 0xbc, 0xcd, 0xfe, 0xf3, 0xbc,
  0x6d, 0xff, 0xa5, 0xbc, 0x0f, 0xee, 0x54, 0x3b, 0x46, 0xcb, 0xa8, 0xbd,
  0x60, 0xf8, 0xb4, 0xbd, 0x2f, 0x6c, 0x97, 0xbd, 0xf2, 0xb6, 0x0d, 0xbd,
  0xf5, 0x1c, 0xf3, 0xbc, 0x0f, 0xc0, 0xe0, 0xbb, 0x44, 0xfc, 0x17, 0xbd,
  0xe1, 0x93, 0xea, 0xbc, 0x73, 0x18, 0xf7, 0xbc, 0xda, 0x81, 0x8c, 0xbd,
  0x2c, 0xa1, 0x0d, 0xbb, 0x4b, 0xc7, 0x0d, 0x3d, 0x35, 0x0b, 0xa7, 0x3c,
  0xb4, 0xa5, 0x80, 0x3c, 0x7e, 0x34, 0x4d, 0xbc, 0xe1, 0xa7, 0x4f, 0x3d,
  0xd0, 0x8d, 0x72, 0x3d, 0x69, 0x29, 0xda, 0x3d, 0x91, 0xfc, 0x9f, 0x3d,
  0x10, 0xac, 0x1b, 0x3e, 0xc5, 0x0e, 0x3a, 0x3e, 0xa1, 0x4c, 0x00, 0x3e,
  0x02, 0x15, 0xa6, 0xbc, 0x37, 0xb3, 0x49, 0xbc, 0x36, 0xd5, 0x82, 0x3c,
  0x25, 0x4b, 0xb4, 0xbc, 0x3e, 0xf4, 0x91, 0x3b, 0x36, 0x53, 0x63, 0xbd,
  0x39, 0x6e, 0x33, 0xbd, 0xcd, 0x72, 0xa0, 0xbd, 0xa9, 0x0a, 0x0d, 0xbd,
  0x73, 0x06, 0x85, 0xbd, 0x08, 0xf0, 0xb3, 0xbd, 0x45, 0x92, 0x2d, 0xbd,
  0x84, 0x63, 0x19, 0xbd, 0x72, 0x0b, 0x85, 0xbd, 0x2d, 0x99, 0xb8, 0xbd,
  0x3e, 0xfb, 0x14, 0xbd, 0x19, 0x87, 0xa4, 0x3c, 0xcd, 0x3e, 0xbb, 0x3d,
  0xcb, 0x50, 0xf8, 0x3c, 0xfd, 0x24, 0x5a, 0xbd, 0xd1, 0xe7, 0xd4, 0xbc,
  0xaa, 0x82, 0xb3, 0xbc, 0x3d, 0x37, 0x11, 0x3d, 0xa0, 0xbc, 0xd2, 0x3c,
  0xb6, 0xc8, 0x63, 0x3d, 0xdd, 0x79, 0x14, 0x3e, 0x3d, 0xa9, 0x78, 0x3e,
  0xbd, 0x27, 0x21, 0x3e, 0x5e, 0xbe, 0xde, 0x3c, 0x7e, 0x34, 0xfe, 0xbc,
  0x51, 0x22, 0x10, 0xbd, 0xf9, 0xcf, 0xfb, 0xbc, 0xd3, 0xac, 0x28, 0xbd,
  0x82, 0x87, 0x52, 0xbd, 0x5e, 0xa4, 0x3f, 0xbd, 0x0c, 0x1c, 0x09, 0xbe,
  0x42, 0x69, 0xdc, 0xbd, 0x37, 0x00, 0xff, 0xbd, 0x8c, 0xfa, 0xd1, 0xbd,
  0x76, 0xbd, 0x72, 0xbd, 0x0d, 0x93, 0x9a, 0xbd, 0xb9, 0x43, 0xa1, 0xbd,
  0xa3, 0xa3, 0x24, 0xbd, 0xbc, 0xe2, 0xcc, 0xbc, 0x55, 0x77, 0xf1, 0xbc,
  0x94, 0x03, 0xce, 0x3c, 0xec, 0xa3, 0xdf, 0xbc, 0x9f, 0xd9, 0xb8, 0xbd,
  0x9d, 0x0f, 0x68, 0xbd, 0xf4, 0x62, 0x22, 0xbd, 0x80, 0x9a, 0x85, 0xbc,
  0xe3, 0x13, 0xeb, 0xbc, 0x2b, 0xcf, 0x89, 0x3d, 0xca, 0x19, 0xb0, 0x3d,
  0x5e, 0xbc, 0x2f, 0x3e, 0x99, 0x10, 0xb4, 0x3d, 0xe6, 0x03, 0xba, 0x3c,
  0x46, 0x52, 0x04, 0xbc, 0x04, 0x5a, 0xcc, 0xbc, 0x90, 0x31, 0x33, 0xbc,
  0x4f, 0x0e, 0xd6, 0x3b, 0x6b, 0xf5, 0x85, 0x3c, 0x9c, 0x63, 0xc1, 0xbc,
  0xb8, 0x2d, 0xf9, 0xbd, 0x50, 0x97, 0x14, 0xbe, 0x63, 0xa0, 0x23, 0xbe,
  0x9f, 0x18, 0xfe, 0xbd, 0x56, 0x69, 0xc2, 0xbd, 0x67, 0x67, 0xd4, 0x3c,
  0x6c, 0x02, 0xee, 0xbc, 0x8e, 0x3d, 0x3f, 0x3d, 0x87, 0xc7, 0x2f, 0xbd,
  0x4d, 0xde, 0x9d, 0xbd, 0x52, 0x55, 0xc7, 0x3c, 0xf8, 0xe7, 0xcb, 0xbd,
  0x60, 0xd2, 0xd3, 0xbd, 0x25, 0xd7, 0x76, 0xbd, 0xe7, 0x84, 0x85, 0xbd,
  0xb2, 0xcd, 0xab, 0xbd, 0x28, 0xf0, 0xeb, 0xbd, 0xc0, 0x76, 0xb9, 0xbc,
  0xdb, 0xc0, 0xeb, 0x3c, 0x8b, 0x19, 0x43, 0x3d, 0x97, 0xfe, 0xaa, 0x3c,
  0x1c, 0x1a, 0x48, 0xbc, 0xfa, 0x81, 0x73, 0x3b, 0x31, 0xd9, 0x87, 0xbc,
  0x05, 0x3f, 0x2f, 0xbc, 0x8c, 0x2b, 0xf2, 0x3b, 0x49, 0xc6, 0x34, 0xbd,
  0xac, 0x58, 0x31, 0xbd, 0x76, 0x2f, 0xf8, 0xbd, 0x62, 0x7e, 0xae, 0xbd,
  0x7a, 0x83, 0x22, 0xbe, 0x83, 0x09, 0x08, 0xbe, 0x4c, 0x58, 0x78, 0xbd,
  0x2f, 0x6a, 0x71, 0x3b, 0x7f, 0x0b, 0xce, 0x3c, 0x23, 0x7e, 0x54, 0x3d,
  0x7f, 0xf3, 0x8a, 0xbd, 0x6a, 0xb6, 0x8f, 0xbc, 0x57, 0x56, 0xd0, 0xbb,
  0xf8, 0x96, 0x95, 0xbd, 0x12, 0x3f, 0x1a, 0xbe, 0x87, 0xe4, 0xe0, 0xbd,
  0x86, 0x26, 0xab, 0xbd, 0x9f, 0x42, 0x10, 0xbe, 0xcb, 0x0a, 0xe8, 0xbd,
  0xa6, 0xba, 0x72, 0xbd, 0x17, 0x60, 0x04, 0x3d, 0x06, 0x34, 0x1c, 0xbc,
  0xe4, 0x77, 0x67, 0xbd, 0x70, 0x67, 0x31, 0xbd, 0xc9, 0xfa, 0x5d, 0xbc,
  0x17, 0xca, 0xd4, 0xbc, 0xa2, 0xba, 0x3e, 0xbd, 0x3b, 0x22, 0x17, 0xbd,
  0x1a, 0x08, 0x0a, 0xbd, 0xb7, 0xfd, 0x19, 0xbc, 0x52, 0x1e, 0x96, 0xbc,
  0xef, 0xa9, 0xa2, 0xbc, 0xbf, 0x19, 0x75, 0xbd, 0xcc, 0xae, 0x88, 0xbd,
  0xf8, 0x14, 0x4f, 0xbd, 0x48, 0x12, 0x97, 0xbc, 0xbf, 0xe5, 0xb0, 0x3c,
  0x26, 0x80, 0xd0, 0xbc, 0xa6, 0x95, 0x92, 0xbd, 0x37, 0x2e, 0x91, 0x3c,
  0xe0, 0x7f, 0x87, 0xbd, 0x29, 0x17, 0xeb, 0xbd, 0x8f, 0x61, 0x59, 0xbe,
  0xd3, 0xf8, 0xfd, 0xbd, 0x34, 0x0f, 0xe6, 0xbd, 0xef, 0x76, 0x6b, 0xbd,
  0x44, 0x46, 0x17, 0xbd, 0xd4, 0x58, 0x55, 0xbd, 0x3f, 0x4c, 0xb4, 0xbb,
  0x0f, 0xf1, 0xbe, 0x3b, 0x1f, 0x5b, 0x3b, 0xbd, 0x25, 0xc0, 0x4d, 0xbb,
  0xe0, 0xaf, 0xbf, 0x3c, 0x75, 0x4d, 0x1a, 0xbd, 0x2b, 0xb5, 0x08, 0xba,
  0xa7, 0xef, 0x06, 0xbd, 0x38, 0x8c, 0xf1, 0xbc, 0x70, 0xd5, 0x1f, 0xbc,
  0xe9, 0x32, 0xa6, 0x3d, 0xe4, 0x38, 0x8b, 0x3d, 0x25, 0x42, 0x40, 0xbd,
  0x86, 0xdf, 0x6f, 0xbd, 0xce, 0xe9, 0xec, 0xbc, 0x4f, 0x8e, 0x61, 0xbd,
  0x01, 0x0d, 0x69, 0xbd, 0x7d, 0xc1, 0xc8, 0xbd, 0x97, 0xfc, 0x98, 0xbd,
  0xb2, 0xb4, 0x86, 0xbb, 0xda, 0x11, 0x51, 0xbd, 0x8d, 0x25, 0x0a, 0xbe,
  0x3d, 0x0a, 0x2b, 0xbe, 0x4a, 0x7d, 0xa1, 0xbd, 0xa4, 0x66, 0x3b, 0xbd,
  0x40, 0x93, 0x27, 0x3b, 0x0b, 0xc9, 0x78, 0x3d, 0x70, 0x69, 0xdf, 0xbc,
  0xe0, 0xbb, 0x40, 0xbd, 0x72, 0xff, 0x85, 0x3d, 0x63, 0x42, 0x1e, 0x3d,
  0xf1, 0x82, 0x80, 0x3d, 0x63, 0x8c, 0x85, 0xbc, 0xd4, 0xdc, 0x93, 0x39,
  0x63, 0x3d, 0x0e, 0xb9, 0x56, 0x92, 0x31, 0xbc, 0x5b, 0x0d, 0x06, 0xbd,
  0x79, 0x06, 0x94, 0x3d, 0x68, 0x1d, 0xe8, 0x3d, 0x95, 0xee, 0xbc, 0x3d,
  0xef, 0xe4, 0x5a, 0x3d, 0x7e, 0x45, 0x91, 0xbc, 0x8a, 0x15, 0xc6, 0xbd,
  0xea, 0xe8, 0xff, 0xbd, 0x1d, 0x6c, 0x25, 0xbe, 0x44, 0xdf, 0x0c, 0xbe,
  0x40, 0xf6, 0xc5, 0xbd, 0x4c, 0xdf, 0xbb, 0xbd, 0xe1, 0xaf, 0x06, 0xbe,
  0xea, 0x5f, 0xe8, 0xbd, 0xcf, 0xfe, 0x34, 0xbd, 0x3a, 0xfc, 0x23, 0x3c,
  0x7a, 0x71, 0x4a, 0x3d, 0x29, 0x28, 0xdb, 0x3d, 0x73, 0x45, 0x9c, 0x3d,
  0xcd, 0x9d, 0x14, 0x3d, 0x84, 0x7e, 0x0b, 0x3d, 0x5e, 0x25, 0x47, 0x3d,
  0x36, 0xd4, 0x19, 0x3e, 0x7e, 0x14, 0x95, 0x3d, 0x76, 0x3a, 0xfb, 0x3a,
  0x2b, 0x49, 0xba, 0x3c, 0x29, 0x0f, 0x48, 0x3c, 0xf7, 0x96, 0x9f, 0x3c,
  0x3a, 0x17, 0xbd, 0x3c, 0xf6, 0xb3, 0x8a, 0x3d, 0xe1, 0x0b, 0x3e, 0x3e,
  0x5d, 0xc6, 0x66, 0x3e, 0xa1, 0x34, 0x26, 0x3e, 0x25, 0xe1, 0x3a, 0x3d,
  0x97, 0xcd, 0x26, 0xbd, 0x27, 0x87, 0xce, 0xbd, 0xcb, 0x03, 0x26, 0xbe,
  0x41, 0x24, 0x29, 0xbe, 0x6c, 0xaf, 0xf0, 0xbd, 0x54, 0xd4, 0x38, 0xbd,
  0xb2, 0x7e, 0xa0, 0xbd, 0xee, 0x16, 0x42, 0xbd, 0xf4, 0x74, 0x56, 0xbc,
  0x97, 0xaf, 0xf1, 0x3c, 0x09, 0xb3, 0xc3, 0x3d, 0x9b, 0xba, 0x18, 0x3d,
  0xdf, 0xbf, 0x31, 0x3d, 0x7b, 0x9a, 0xec, 0x3c, 0x31, 0x65, 0x51, 0x3d,
  0xfe, 0x9c, 0xf1, 0x3d, 0x9b, 0x6e, 0x1d, 0x3e, 0xdb, 0xdf, 0x9c, 0x3d,
  0x2e, 0xb6, 0xf5, 0xbb, 0xe8, 0x71, 0x39, 0xbd, 0xf6, 0x1c, 0x9f, 0x3c,
  0x0b, 0x0d, 0xa6, 0xbb, 0xa0, 0x29, 0xff, 0xbc, 0xe2, 0x4c, 0x8f, 0xbb,
  0x76, 0xf8, 0x2a, 0x3e, 0x85, 0xa3, 0x80, 0x3e, 0x65, 0x4d, 0x80, 0x3e,
  0x97, 0x59, 0x53, 0x3e, 0xc6, 0x96, 0x22, 0x3e, 0x47, 0x91, 0x98, 0x3b,
  0x2a, 0x2a, 0xc4, 0xbd, 0x98, 0xc0, 0x26, 0xbd, 0xf0, 0xff, 0x46, 0xbd,
  0x85, 0x0b, 0x05, 0xbd, 0xc8, 0x03, 0x98, 0xbc, 0x0a, 0x50, 0x97, 0x3c,
  0x2e, 0x5f, 0x27, 0x3d, 0x19, 0x99, 0xaf, 0x3d, 0x3b, 0xe7, 0x20, 0x3d,
  0x51, 0x43, 0x19, 0x3d, 0x20, 0x0d, 0xde, 0x3c, 0x62, 0x90, 0x90, 0x3d,
  0x5a, 0x9f, 0xce, 0x3d, 0x7c, 0x67, 0x14, 0x3e, 0x02, 0x91, 0x23, 0x3e,
  0x2b, 0x55, 0x4a, 0x3d, 0x8a, 0x62, 0xf7, 0xba, 0x10, 0xc1, 0x10, 0xbd,
  0x8b, 0x80, 0xd6, 0xbc, 0x1e, 0x1b, 0x6a, 0xbc, 0x45, 0xcd, 0x86, 0xbc,
  0x20, 0xe3, 0x98, 0x3c, 0x2f, 0x93, 0x6e, 0x3e, 0xfc, 0xac, 0x90, 0x3e,
  0xbe, 0x2b, 0x94, 0x3e, 0xf8, 0xe1, 0x7e, 0x3e, 0x38, 0x0e, 0xfb, 0x3d,
  0x52, 0x2c, 0xdd, 0x3d, 0x06, 0xe7, 0xe9, 0xbc, 0xce, 0x80, 0x02, 0xbd,
  0xd8, 0x77, 0xc7, 0xbc, 0xc3, 0xa5, 0x17, 0xbd, 0x30, 0xd3, 0x06, 0xbc,
  0xd5, 0x0a, 0x88, 0x3c, 0x54, 0xca, 0xba, 0x3c, 0xfc, 0x94, 0xa7, 0x3c,
  0x73, 0x79, 0x4c, 0x3d, 0x55, 0x57, 0x2f, 0x3d, 0x21, 0xbf, 0x47, 0x3d,
  0x9f, 0xf5, 0xc9, 0x3d, 0x43, 0xfd, 0xcb, 0x3d, 0xa7, 0x27, 0x11, 0x3e,
  0xe3, 0xc1, 0x8b, 0x3d, 0x8d, 0xf3, 0x8e, 0x3c, 0x31, 0xe5, 0xfd, 0x3b,
  0x9d, 0xb0, 0x3c, 0xbd, 0x6f, 0x34, 0x0b, 0xbc, 0x5b, 0x14, 0xfc, 0xbb,
  0x27, 0x1a, 0xfd, 0x3c, 0xbd, 0x93, 0xaf, 0x3d, 0x78, 0x46, 0x17, 0x3e,
  0x08, 0x47, 0x3f, 0x3e, 0x07, 0x6e, 0x5f, 0x3e, 0x28, 0x5e, 0x47, 0x3e,
  0x9d, 0xaf, 0xf4, 0x3d, 0x1b, 0x6b, 0xfe, 0x3d, 0x5f, 0x12, 0xab, 0x3d,
  0xc4, 0xe2, 0x27, 0x3d, 0x4d, 0x6d, 0x38, 0xbd, 0x0a, 0x41, 0xc6, 0x3c,
  0x81, 0x01, 0x13, 0x3d, 0xd5, 0x56, 0x5d, 0x3c, 0x34, 0x9d, 0xf4, 0x3c,
  0x7b, 0x4a, 0x4e, 0x3d, 0xa1, 0x0f, 0x4a, 0x3d, 0x11, 0xe9, 0xa9, 0x3d,
  0xad, 0x6e, 0xa5, 0x3d, 0xaf, 0x3d, 0xe1, 0x3d, 0xd6, 0x1c, 0x89, 0x3d,
  0x77, 0xe2, 0xc6, 0x3d, 0x69, 0x7c, 0x8e, 0x3b, 0xf2, 0x31, 0xb5, 0x3c,
  0xcd, 0x3a, 0x7f, 0x3c, 0xa1, 0x3e, 0x1e, 0x3c, 0xd5, 0x02, 0xd8, 0xba,
  0xe8, 0x7b, 0xd0, 0xbc, 0x60, 0x42, 0xbd, 0x3c, 0x99, 0x99, 0x93, 0x3c,
  0xb4, 0xe7, 0x70, 0x3d, 0xad, 0x25, 0x32, 0x3e, 0x29, 0x9e, 0x3c, 0x3e,
  0x59, 0xbd, 0x57, 0x3e, 0x9b, 0x07, 0x1c, 0x3e, 0xe2, 0x40, 0x19, 0x3e,
  0x90, 0x02, 0x29, 0x3e, 0x1c, 0xc4, 0x48, 0x3e, 0x77, 0x49, 0x1d, 0x3e,
  0x0b, 0xdb, 0x4a, 0x3e, 0xdd, 0x8f, 0xbd, 0x3d, 0x32, 0xd4, 0x0e, 0x3e,
  0x56, 0xc1, 0xdb, 0x3d, 0x59, 0x48, 0x87, 0x3d, 0xf7, 0xbe, 0x9c, 0x3d,
  0x57, 0xe0, 0x8d, 0x3d, 0x5c, 0x3b, 0xb5, 0x3d, 0xf6, 0x27, 0x8f, 0x3d,
  0x60, 0xde, 0x1f, 0x3c, 0x7a, 0x68, 0xb0, 0x3a, 0x79, 0x04, 0x7b, 0xbc,
  0x60, 0x82, 0x08, 0xbd, 0x9b, 0x37, 0x2e, 0xbd, 0x26, 0x43, 0x3c, 0xbd,
  0x7d, 0xea, 0xb1, 0x3c, 0x3d, 0x54, 0x1f, 0xbd, 0x7f, 0xc5, 0x8f, 0xbc,
  0xfe, 0x29, 0x02, 0x3b, 0xfd, 0xf9, 0x0a, 0xbd, 0x24, 0x4f, 0xd5, 0x3b,
  0xd4, 0x59, 0x62, 0x3c, 0x38, 0x21, 0x62, 0x3d, 0x3e, 0x69, 0xd9, 0x3d,
  0xbd, 0x70, 0x1e, 0x3e, 0xc0, 0x46, 0x1c, 0x3e, 0x4b, 0x0a, 0x5e, 0x3e,
  0x0b, 0x9d, 0x5c, 0x3e, 0x26, 0xe8, 0x4c, 0x3e, 0xff, 0x7d, 0x14, 0x3e,
  0x88, 0x8f, 0x25, 0x3e, 0xd1, 0x7b, 0x0f, 0x3e, 0x3c, 0xba, 0x95, 0x3d,
  0xb3, 0x7c, 0x4d, 0x3d, 0x80, 0x76, 0x6e, 0x3d, 0xb1, 0xd1, 0x22, 0x3d,
  0xd6, 0x43, 0x9b, 0xbc, 0xea, 0x6f, 0xb9, 0xbc, 0x56, 0x27, 0x27, 0x3d,
  0x15, 0xd6, 0xb4, 0x3c, 0x43, 0x2d, 0x7e, 0x3c, 0x97, 0x3e, 0xb1, 0xbc,
  0xfd, 0xbd, 0x3a, 0xbd, 0x39, 0x40, 0xa2, 0xbc, 0xb1, 0xd0, 0xcb, 0x3b,
  0xd6, 0xb6, 0x04, 0x3c, 0x74, 0x16, 0x1b, 0xbd, 0x96, 0x49, 0x1d, 0xbd,
  0xc4, 0x41, 0xbb, 0xbd, 0xf2, 0x45, 0xa0, 0xbd, 0xd2, 0xa8, 0xb3, 0xbd,
  0x7c, 0x8d, 0xe5, 0xbc, 0xa3, 0x9f, 0x84, 0xbc, 0xe0, 0xca, 0x07, 0x3d,
  0xe4, 0xef, 0x06, 0x3d, 0xb3, 0x7e, 0x86, 0x3d, 0xc1, 0x70, 0xe2, 0x3d,
  0xb2, 0xd8, 0xdf, 0x3d, 0xf8, 0x47, 0x13, 0x3e, 0x9e, 0xea, 0x93, 0x3d,
  0x88, 0xa7, 0xb5, 0x3d, 0x41, 0x8b, 0x7a, 0x3d, 0x45, 0xfd, 0x32, 0x3d,
  0x5f, 0xe7, 0x26, 0x3c, 0x74, 0xc1, 0x9f, 0xbd, 0x91, 0x01, 0x7a, 0xbd,
  0x86, 0xcb, 0x08, 0x3c, 0x51, 0x95, 0x7f, 0xbc, 0xc7, 0x63, 0xc4, 0x3c,
  0x29, 0x51, 0x0c, 0xbd, 0x77, 0xfd, 0x6b, 0x38, 0x43, 0x0a, 0xc8, 0xbc,
  0x8a, 0x54, 0x71, 0x3b, 0x83, 0x87, 0x31, 0xbd, 0xef, 0xf7, 0x48, 0xbd,
  0x5a, 0xff, 0xab, 0xbd, 0xf6, 0x6c, 0x01, 0xbe, 0x56, 0xc5, 0x1f, 0xbe,
  0x0f, 0x8f, 0x35, 0xbe, 0xfd, 0x17, 0x55, 0xbe, 0x47, 0x18, 0x54, 0xbe,
  0xfe, 0xac, 0x2e, 0xbe, 0x34, 0xf9, 0x25, 0xbe, 0xe1, 0xdc, 0xfa, 0xbd,
  0x79, 0x65, 0xab, 0xbd, 0x7f, 0xc6, 0xbb, 0xbc, 0x95, 0x58, 0xe3, 0x3c,
  0x47, 0x24, 0x63, 0x3d, 0xf0, 0x1b, 0xa1, 0x3d, 0x27, 0x84, 0x82, 0x3d,
  0xc8, 0xeb, 0x6f, 0x3c, 0x64, 0xc5, 0xca, 0xbb, 0xf5, 0x94, 0x93, 0xbd,
  0xa9, 0x62, 0xb3, 0xbd, 0x55, 0x91, 0x4f, 0xbd, 0xee, 0xcc, 0xad, 0x3b,
  0x5a, 0x71, 0x2c, 0xbd, 0x46, 0x15, 0x6c, 0xbc, 0xf7, 0xf5, 0x29, 0xbd,
  0x0a, 0xcf, 0x67, 0xbc, 0xc1, 0x8f, 0x1e, 0xbd, 0x84, 0x33, 0x68, 0x3c,
  0x73, 0x2d, 0x02, 0xbb, 0xf0, 0xca, 0x04, 0xbd, 0xe3, 0xb4, 0xfa, 0xbc,
  0x3f, 0xfc, 0x44, 0xbd, 0xa8, 0x30, 0xfa, 0xbc, 0xda, 0x13, 0xb8, 0xbd,
  0xd7, 0x67, 0xfb, 0xbd, 0xb8, 0x2b, 0x7f, 0xbd, 0xba, 0xa3, 0xc4, 0xbd,
  0xe5, 0x1a, 0xa5, 0xbd, 0x06, 0xfd, 0xd0, 0xbd, 0x9f, 0xc0, 0x09, 0xbe,
  0x50, 0xcb, 0xca, 0xbd, 0xc6, 0xf0, 0x29, 0xbd, 0xba, 0x5b, 0x91, 0xbd,
  0x3c, 0x4f, 0x95, 0xbc, 0x85, 0x2a, 0x91, 0xbc, 0x4a, 0x00, 0x08, 0xbd,
  0x0e, 0x17, 0x84, 0xbd, 0x1a, 0x40, 0x11, 0xbc, 0x14, 0xe3, 0xae, 0xbc,
  0xbf, 0xcc, 0xc6, 0x3a, 0x8b, 0x63, 0x3f, 0xbd, 0x73, 0xc3, 0xb9, 0x3a,
  0x18, 0x6b, 0x7c, 0xbc, 0xe4, 0xd7, 0xd0, 0x3b, 0x0b, 0x0d, 0x15, 0xbd,
  0xb9, 0xbe, 0x2a, 0xbd, 0x94, 0x85, 0xaf, 0x3a, 0x4a, 0x64, 0x5c, 0xbc,
  0xa2, 0x35, 0x24, 0xbd, 0x49, 0x69, 0x10, 0xbc, 0x9f, 0x87, 0x82, 0x3c,
  0xf0, 0x0b, 0xe7, 0xbc, 0xd1, 0x8a, 0xc5, 0xbb, 0xcc, 0xe6, 0x1c, 0xbd,
  0x3a, 0xc8, 0x55, 0x3b, 0x65, 0x27, 0xf1, 0xbc, 0x5e, 0x4b, 0x57, 0xbc,
  0xf5, 0xec, 0xf5, 0xbc, 0xed, 0xd4, 0x7f, 0xbc, 0xd9, 0xa0, 0x9a, 0xba,
  0x50, 0xe3, 0xc6, 0xbc, 0x41, 0x25, 0x9d, 0xbc, 0xe9, 0xbd, 0x32, 0xbd,
  0x67, 0x40, 0xc4, 0xbc, 0xe1, 0x47, 0x34, 0xbd, 0x17, 0x7d, 0x66, 0xbc,
  0xad, 0xec, 0x31, 0xbd, 0x49, 0xb6, 0x4f, 0xbb, 0x25, 0xb4, 0xcd, 0xbc,
  0x5f, 0x88, 0x65, 0x3a, 0xf3, 0xe3, 0x6d, 0xbc, 0xab, 0x8d, 0x5e, 0x3d,
  0x37, 0x9e, 0x56, 0xbc, 0xab, 0x6f, 0x35, 0x3d, 0xf9, 0x6c, 0x1e, 0xbc,
  0x1b, 0xf3, 0x47, 0x3d, 0x15, 0x69, 0x30, 0x3d, 0x98, 0xb6, 0xe2, 0xbb,
  0x93, 0x52, 0x6f, 0x3c, 0x11, 0x9e, 0x82, 0x3c, 0x9e, 0xa7, 0xe6, 0x3c,
  0xe0, 0x3d, 0xdf, 0xbb, 0xf7, 0xf8, 0x0f, 0x3d, 0xfb, 0xa5, 0x6c, 0x3c,
  0x96, 0x46, 0x4c, 0xbc, 0xb1, 0x27, 0x40, 0x3d, 0x4c, 0x30, 0xf3, 0xbb,
  0x36, 0x3a, 0x3f, 0xbc, 0x84, 0xad, 0x30, 0x3c, 0x90, 0xf6, 0x4f, 0x3c,
  0xb5, 0x17, 0x1c, 0x3d, 0xe0, 0xd3, 0x14, 0x3d, 0xd0, 0xaa, 0x3c, 0x3b,
  0xf9, 0x8c, 0x05, 0x3c, 0x54, 0x0e, 0xa7, 0x3b, 0x2f, 0x62, 0xa0, 0x3c,
  0x41, 0x8f, 0x1e, 0xbc, 0x3f, 0x9b, 0x6e, 0x3c, 0x94, 0x3f, 0x05, 0x3d,
  0xb3, 0x33, 0x41, 0x3d, 0x91, 0x01, 0x29, 0x3d, 0x33, 0x58, 0xad, 0xba,
  0x3e, 0x70, 0xf1, 0x3b, 0x92, 0x2a, 0x0e, 0x3d, 0x01, 0xe3, 0x72, 0x3c,
  0x06, 0x28, 0x2d, 0x3b, 0x2e, 0x66, 0x58, 0x3c, 0x73, 0x4f, 0x09, 0xbc,
  0x33, 0xc6, 0x84, 0x3b, 0xd2, 0x2d, 0x2a, 0x3d, 0xce, 0x3f, 0x36, 0x3d,
  0x2b, 0xef, 0x1f, 0x3d, 0x76, 0x01, 0xa2, 0x3c, 0xb0, 0x99, 0xd0, 0xbb,
  0x3b, 0x40, 0x9d, 0xbc, 0xc9, 0x75, 0xf0, 0xba, 0xc0, 0x94, 0x23, 0x3d,
  0xa8, 0xf1, 0x86, 0xbb, 0x6c, 0x0e, 0x48, 0x3d, 0x59, 0xbc, 0x02, 0xbc,
  0x93, 0x94, 0x0b, 0x3d, 0x59, 0xa1, 0x80, 0x3c, 0x20, 0x36, 0xbd, 0x3c,
  0xe0, 0xe4, 0x09, 0x3d, 0x47, 0x2e, 0x49, 0x3b, 0x75, 0x9f, 0x7a, 0x3c,
  0x99, 0x54, 0x28, 0x3d, 0xd5, 0x82, 0x06, 0x3d, 0x9d, 0x0a, 0x9c, 0x3c,
  0x10, 0x5e, 0x0f, 0x3c, 0x1b, 0xf6, 0x3c, 0x3d, 0x17, 0x77, 0x55, 0x3d,
  0x90, 0x63, 0x3a, 0x3d, 0xd9, 0xcb, 0x7c, 0x3c, 0xf3, 0x7a, 0xdc, 0xbc,
  0x64, 0x98, 0xc3, 0x3c, 0x3b, 0x07, 0xf9, 0xbc, 0x85, 0x8e, 0x17, 0xbd,
  0x21, 0xc2, 0x92, 0xbd, 0x4f, 0xfb, 0xaf, 0xbd, 0x55, 0xa7, 0x9e, 0xbd,
  0x88, 0x58, 0xe0, 0xbd, 0x1e, 0x3c, 0xc5, 0xbd, 0x52, 0xaf, 0xd6, 0xbd,
  0xc5, 0x80, 0xb5, 0xbd, 0x45, 0xec, 0x88, 0xbd, 0x7f, 0xc1, 0x86, 0xbd,
  0x40, 0x0a, 0x33, 0xbd, 0xaf, 0x06, 0x39, 0xbd, 0x56, 0x9f, 0x71, 0xbd,
  0x75, 0x59, 0x1a, 0xbc, 0x36, 0x0e, 0x87, 0x3c, 0x10, 0x34, 0x08, 0xbc,
  0xbe, 0x36, 0xe4, 0x3b, 0x8b, 0xe2, 0x21, 0x3d, 0xbd, 0xc9, 0x32, 0x3d,
  0x92, 0x3b, 0x64, 0xbb, 0x81, 0xe7, 0x6c, 0x3c, 0xfb, 0xd4, 0x53, 0x3d,
  0x1f, 0xfd, 0x27, 0xbc, 0xd8, 0x5b, 0xdd, 0xbc, 0xa9, 0xd6, 0xba, 0xbc,
  0xb8, 0xcf, 0x43, 0xbc, 0x78, 0x55, 0xb4, 0xbd, 0x94, 0x0d, 0x06, 0xbe,
  0x73, 0x0e, 0x46, 0xbe, 0xbb, 0x0a, 0x81, 0xbe, 0xb5, 0x76, 0x8b, 0xbe,
  0x9b, 0xcb, 0x99, 0xbe, 0xf2, 0x93, 0xa2, 0xbe, 0xc9, 0xb5, 0xa7, 0xbe,
  0x4a, 0xdc, 0x8e, 0xbe, 0x86, 0x33, 0xb0, 0xbe, 0x69, 0x89, 0x9f, 0xbe,
  0x94, 0xc9, 0x94, 0xbe, 0x4e, 0x59, 0x74, 0xbe, 0x82, 0x45, 0x63, 0xbe,
  0xc6, 0xb6, 0x3a, 0xbe, 0x21, 0xab, 0x18, 0xbe, 0x37, 0x77, 0xd7, 0xbd,
  0xad, 0x0b, 0x03, 0xbc, 0x86, 0xf7, 0x88, 0x3a, 0x78, 0x02, 0x88, 0x3b,
  0x82, 0xb8, 0x29, 0xbb, 0x6a, 0x84, 0x2e, 0x3b, 0x4d, 0xc2, 0x1e, 0x3d,
  0x8f, 0x39, 0xa8, 0xbb, 0x35, 0x85, 0x1d, 0x3c, 0x26, 0xe5, 0xd0, 0x3a,
  0xe5, 0xb0, 0x20, 0xbc, 0x75, 0xd3, 0x9c, 0xbd, 0x72, 0xf5, 0x05, 0xbe,
  0x24, 0x31, 0x1b, 0xbe, 0xd6, 0xd2, 0x30, 0xbe, 0x52, 0xfa, 0x93, 0xbd,
  0xcd, 0x33, 0xac, 0xbd, 0x53, 0x68, 0x9f, 0xbd, 0x47, 0x13, 0xa1, 0xbd,
  0xfd, 0x64, 0x68, 0xbd, 0x74, 0x3b, 0xc4, 0xbd, 0x09, 0x49, 0xb2, 0xbd,
  0x44, 0x05, 0xf2, 0xbd, 0x96, 0x24, 0x07, 0xbe, 0x2e, 0x4b, 0x24, 0xbe,
  0xe2, 0xbb, 0x1f, 0xbe, 0x5a, 0xee, 0x31, 0xbe, 0x68, 0xd8, 0x12, 0xbe,
  0x25, 0xe1, 0x2e, 0xbd, 0x40, 0x8b, 0xcf, 0xbb, 0xd9, 0x59, 0x18, 0x3d,
  0x06, 0x1f, 0xdf, 0x3c, 0x4e, 0xa5, 0x31, 0x3c, 0xdd, 0xf3, 0x57, 0x3d,
  0x56, 0xb3, 0xdc, 0x3a, 0x13, 0x23, 0x01, 0x3d, 0xa6, 0x8e, 0x29, 0xbc,
  0xf5, 0x35, 0xbf, 0xbc, 0x92, 0xec, 0x9d, 0xbd, 0x40, 0xce, 0xc8, 0xbd,
  0xdb, 0x93, 0x89, 0xbd, 0xc0, 0x08, 0xde, 0xbd, 0x3e, 0x87, 0xcc, 0xbd,
  0x73, 0xdd, 0x76, 0xbd, 0x01, 0x6c, 0x91, 0xbd, 0xb3, 0x4e, 0x03, 0xbc,
  0xda, 0xa8, 0x3e, 0xbd, 0x1e, 0x97, 0x83, 0xbb, 0x69, 0x32, 0x1c, 0x3d,
  0x70, 0x0c, 0x4e, 0x3d, 0xa4, 0x13, 0x3e, 0xbc, 0xef, 0x73, 0x92, 0xbc,
  0x9d, 0x8d, 0x15, 0x3d, 0xd0, 0xfa, 0x44, 0xbd, 0x25, 0x29, 0x4e, 0xbd,
  0x28, 0xf7, 0x4c, 0xbb, 0x9f, 0x39, 0x2f, 0xbc, 0x78, 0x6c, 0x7f, 0x3c,
  0x28, 0xb3, 0x73, 0x3d, 0x86, 0x8d, 0xde, 0x3c, 0xed, 0xbb, 0x4f, 0x3d,
  0x47, 0x50, 0x3c, 0x3d, 0x49, 0x13, 0xda, 0xbb, 0xdf, 0xb0, 0xa2, 0x3c,
  0x39, 0xfc, 0x21, 0xbc, 0x44, 0xa4, 0xfc, 0x3b, 0x62, 0xfc, 0xde, 0xbc,
  0x37, 0x98, 0xaa, 0xbd, 0xbb, 0xa6, 0x84, 0xbd, 0xd7, 0x08, 0x19, 0xbd,
  0xc4, 0x90, 0xb2, 0xbc, 0x01, 0x73, 0xa7, 0xbd, 0x10, 0xb7, 0x89, 0xbc,
  0x92, 0xb0, 0x1a, 0xbd, 0xd7, 0xd3, 0xa3, 0xbc, 0xbb, 0x97, 0xa3, 0xbd,
  0xe1, 0xf9, 0x17, 0xbd, 0x27, 0x1b, 0x9d, 0xba, 0x67, 0x11, 0x28, 0x3d,
  0x2a, 0x30, 0x46, 0x3d, 0x6d, 0xa4, 0xa8, 0x3d, 0xbb, 0xab, 0xe6, 0x3d,
  0x62, 0x72, 0xd7, 0x3d, 0x85, 0xdd, 0x06, 0x3e, 0xe2, 0xc3, 0x31, 0x3e,
  0x8c, 0x64, 0xc2, 0x3d, 0xf6, 0x4f, 0xad, 0x3d, 0xe3, 0xba, 0x64, 0x3a,
  0x3b, 0x5a, 0x27, 0x3d, 0x2b, 0x58, 0x15, 0xbb, 0x1a, 0xa4, 0x81, 0xbc,
  0x4f, 0x75, 0x34, 0x3c, 0xf5, 0xa1, 0x3c, 0xbd, 0x1d, 0xf3, 0x93, 0x3b,
  0x5e, 0xad, 0x72, 0xbd, 0x12, 0xf1, 0x6f, 0x3c, 0xdc, 0x87, 0x99, 0x3d,
  0x7d, 0x0e, 0x32, 0x3d, 0x42, 0xb9, 0x99, 0x3c, 0xe6, 0x4f, 0x03, 0x3d,
  0xe6, 0x04, 0x6b, 0xbc, 0x4f, 0x68, 0x84, 0xbc, 0xf1, 0x52, 0x04, 0xbd,
  0x67, 0x1c, 0x2d, 0xbd, 0x5b, 0x62, 0x5f, 0xbc, 0x90, 0xd0, 0x80, 0x3d,
  0x44, 0x88, 0x86, 0x3d, 0xcf, 0xaa, 0x80, 0x3d, 0x1a, 0x69, 0x27, 0x3d,
  0xba, 0x44, 0x60, 0x3d, 0xf4, 0x8c, 0x09, 0x3d, 0x7a, 0xed, 0xfa, 0x3d,
  0x18, 0x60, 0x78, 0x3e, 0x02, 0x0a, 0x0b, 0x3e, 0x2d, 0x95, 0x7f, 0x3d,
  0x13, 0x2a, 0xb0, 0x3c, 0x25, 0xbc, 0x75, 0x3d, 0x48, 0x18, 0x1b, 0x3d,
  0x5c, 0x79, 0x07, 0x3b, 0xfc, 0x13, 0x68, 0x3c, 0x3f, 0xcb, 0x16, 0xbd,
  0x12, 0x66, 0x3c, 0x3d, 0x57, 0xd3, 0xd2, 0x3c, 0x81, 0x0f, 0x88, 0x3d,
  0xa4, 0xa6, 0x8e, 0x3d, 0x40, 0xba, 0x06, 0x3e, 0x9d, 0x75, 0x34, 0x3d,
  0xb5, 0x9b, 0xe3, 0x3c, 0x44, 0xf4, 0x41, 0x3c, 0x60, 0x96, 0xd3, 0xbc,
  0x39, 0x62, 0xb0, 0xbd, 0x6c, 0x50, 0x4e, 0x3c, 0x45, 0x5d, 0x4e, 0x3d,
  0xbb, 0x40, 0x6d, 0x3d, 0x29, 0xf4, 0x9a, 0x3d, 0xc0, 0x35, 0x96, 0x3d,
  0xd9, 0x13, 0x00, 0x3e, 0xe6, 0x14, 0x0c, 0x3d, 0x54, 0x37, 0x77, 0x3d,
  0xfe, 0x1d, 0x02, 0x3e, 0xd8, 0x37, 0xa2, 0x3e, 0xb9, 0x31, 0x59, 0x3e,
  0x09, 0x51, 0xaa, 0x3d, 0x45, 0xf5, 0x20, 0xbc, 0x5e, 0x73, 0x27, 0x3d,
  0x96, 0x78, 0x27, 0xbb, 0x92, 0xe0, 0x28, 0x3d, 0xce, 0x88, 0x98, 0x3c,
  0x92, 0x0c, 0x9d, 0xbc, 0x41, 0xb9, 0x23, 0x3d, 0xc4, 0x01, 0x3d, 0x3d,
  0x0d, 0x26, 0xb4, 0x3d, 0x55, 0xb9, 0x05, 0x3d, 0x54, 0xad, 0xe1, 0x3d,
  0xd2, 0x11, 0x9c, 0x3d, 0x81, 0x3c, 0xd2, 0x3d, 0x11, 0xf1, 0x25, 0xbc,
  0x70, 0xab, 0x46, 0xbd, 0x51, 0x2b, 0x0b, 0xbe, 0x38, 0x4d, 0x60, 0x36,
  0xe0, 0x87, 0x90, 0x3d, 0x92, 0x4f, 0x82, 0x3d, 0xf8, 0x70, 0xaa, 0x3d,
  0x27, 0xe3, 0xbd, 0x3d, 0x86, 0x7c, 0xec, 0x3d, 0x3f, 0xd4, 0x9d, 0x3d,
  0x4b, 0x9d, 0x68, 0x3d, 0x72, 0x2b, 0xc0, 0x3d, 0x54, 0x30, 0x82, 0x3e,
  0x98, 0x48, 0x2d, 0x3e, 0x62, 0x5b, 0x27, 0x3d, 0x76, 0x73, 0xdb, 0x3c,
  0x36, 0x63, 0x83, 0x3b, 0x22, 0x39, 0x22, 0xbc, 0x3a, 0x3c, 0x48, 0xbc,
  0x1a, 0x72, 0x86, 0xbd, 0x7c, 0xf3, 0x45, 0xbd, 0x90, 0x74, 0x55, 0xba,
  0xf5, 0x11, 0x6e, 0x3c, 0x99, 0x03, 0x76, 0x3d, 0xfd, 0xf8, 0x9e, 0x3d,
  0xc6, 0x96, 0xb9, 0x3d, 0x71, 0x7e, 0xda, 0x3d, 0xa7, 0xf6, 0x12, 0x3e,
  0x18, 0xb7, 0x16, 0x3e, 0x5b, 0x57, 0x9d, 0xbd, 0xb5, 0xe5, 0x48, 0xbe,
  0xa9, 0x8e, 0x99, 0xbd, 0xbf, 0x6f, 0x5a, 0xbb, 0xcd, 0xd4, 0x35, 0x3d,
  0x86, 0x3f, 0xe5, 0x3c, 0x9a, 0x25, 0x87, 0x3d, 0x0b, 0xe7, 0x9a, 0x3d,
  0xed, 0x1f, 0x45, 0x3d, 0xdb, 0xed, 0x9c, 0x3c, 0x6c, 0x1e, 0x8d, 0x3d,
  0xdc, 0x6f, 0xe9, 0x3d, 0xe1, 0x5a, 0x02, 0x3e, 0x96, 0x6f, 0x18, 0x3d,
  0x50, 0x24, 0x67, 0x3d, 0x90, 0xf5, 0x3f, 0x3a, 0xae, 0xbd, 0x2e, 0x3d,
  0xd0, 0x8e, 0x65, 0xbc, 0x71, 0x20, 0x88, 0xbd, 0x67, 0x68, 0x91, 0xbd,
  0xf2, 0x3d, 0x6e, 0xbd, 0xa6, 0x37, 0xa7, 0x3b, 0x57, 0x87, 0xcb, 0x3d,
  0x04, 0x4e, 0x7c, 0x3d, 0x1e, 0xf8, 0xb2, 0x3d, 0x57, 0xec, 0x0e, 0x3e,
  0x50, 0x69, 0x77, 0x3e, 0x3a, 0x66, 0x67, 0x3e, 0xb8, 0x9a, 0x66, 0x3d,
  0xce, 0x96, 0x41, 0xbe, 0x4d, 0xe5, 0x38, 0xbe, 0xa2, 0x17, 0x12, 0xbd,
  0xe8, 0xdd, 0xa4, 0xbc, 0x26, 0x08, 0x08, 0xbc, 0x70, 0xa5, 0x87, 0xbc,
  0x79, 0x77, 0x5d, 0xbc, 0xaa, 0x4e, 0x6a, 0xbb, 0xc8, 0x04, 0xac, 0xbd,
  0x84, 0x66, 0x9d, 0x3c, 0x88, 0x5a, 0xa9, 0xbc, 0x49, 0x50, 0x77, 0xbc,
  0x50, 0x8c, 0x3a, 0x3d, 0x82, 0xfc, 0x67, 0x3d, 0xb0, 0x6d, 0x2b, 0xbc,
  0x55, 0x88, 0x32, 0x3d, 0xf2, 0x62, 0xca, 0xbc, 0xfd, 0x49, 0x28, 0xbd,
  0xc0, 0xf0, 0x11, 0xbe, 0x76, 0x23, 0x3f, 0xbc, 0x77, 0xb8, 0x1f, 0x3d,
  0xd8, 0x21, 0x97, 0x3d, 0x49, 0x8a, 0x8c, 0x3d, 0x75, 0x8f, 0x92, 0x3d,
  0x93, 0x35, 0xe0, 0x3d, 0x8c, 0x06, 0x46, 0x3e, 0x72, 0x47, 0x5c, 0x3e,
  0x2a, 0x2e, 0x52, 0x3d, 0xe5, 0x49, 0x35, 0xbe, 0x5b, 0xf5, 0x26, 0xbe,
  0x85, 0x9c, 0x84, 0xbd, 0x7e, 0xee, 0xf3, 0xbb, 0x74, 0x10, 0x79, 0xbd,
  0x7d, 0x93, 0x7c, 0xbd, 0x50, 0x78, 0x60, 0xbd, 0xdf, 0xe8, 0xab, 0xbc,
  0x33, 0x91, 0x19, 0xbd, 0xe7, 0x11, 0x9d, 0x3d, 0x96, 0xc7, 0x80, 0xbd,
  0xa1, 0x03, 0x82, 0xbd, 0x58, 0x56, 0x46, 0x3d, 0x22, 0x11, 0x00, 0x3d,
  0xcd, 0x50, 0x66, 0x3b, 0x4b, 0x87, 0x9c, 0x3c, 0x43, 0x60, 0x0d, 0xbd,
  0x7c, 0xc0, 0x56, 0xbd, 0x1e, 0x1c, 0x82, 0xbd, 0x0c, 0x19, 0x9e, 0x3d,
  0x10, 0x4b, 0xbf, 0x3d, 0x96, 0xa5, 0xe3, 0x3d, 0xd8, 0x66, 0x86, 0x3d,
  0x0a, 0xff, 0xed, 0x3d, 0x51, 0x19, 0xc1, 0x3d, 0x94, 0x3b, 0xb1, 0x3d,
  0x96, 0x31, 0x03, 0x3e, 0xd9, 0x85, 0x91, 0x3c, 0x15, 0xc6, 0x33, 0xbe,
  0x06, 0x71, 0x06, 0xbe, 0x35, 0x3d, 0x7f, 0xbd, 0x8f, 0xa6, 0x97, 0xbd,
  0xb4, 0x4d, 0x8d, 0xbd, 0x20, 0x0a, 0xbf, 0xbd, 0x58, 0xa1, 0x20, 0xbd,
  0x60, 0x74, 0x32, 0x3d, 0x91, 0x58, 0x0e, 0x3e, 0x86, 0xc9, 0x8f, 0x3c,
  0x72, 0x07, 0x67, 0xbd, 0xe7, 0xad, 0xbe, 0xbd, 0x88, 0x95, 0xd9, 0x3c,
  0x2c, 0x5c, 0xb8, 0x3c, 0x02, 0x8f, 0x5a, 0xbc, 0x7a, 0xfe, 0x23, 0x3d,
  0x6c, 0x62, 0x36, 0x3c, 0x9e, 0xd1, 0x60, 0xbd, 0xb2, 0x28, 0x54, 0xbc,
  0x74, 0xac, 0xfa, 0x3d, 0xba, 0x00, 0xe4, 0x3d, 0x96, 0x1d, 0x14, 0x3e,
  0x06, 0xdd, 0x4b, 0x3d, 0x8c, 0xf9, 0xad, 0x3d, 0xb6, 0xfa, 0x47, 0x3d,
  0x5b, 0x8a, 0x81, 0x3c, 0x3d, 0x44, 0x57, 0x3d, 0x8c, 0x51, 0x4c, 0xbd,
  0x7e, 0x11, 0x0f, 0xbe, 0xc6, 0x4a, 0xa1, 0xbd, 0xe5, 0xe0, 0x25, 0xbd,
  0xf8, 0x29, 0x66, 0xbd, 0x05, 0xb0, 0xa2, 0xbd, 0xf4, 0x5c, 0xd3, 0x3c,
  0xbe, 0x84, 0x0d, 0x3d, 0x15, 0xc9, 0xc6, 0x3d, 0xf5, 0x01, 0x49, 0x3d,
  0x9c, 0x5b, 0x8a, 0x3c, 0xc4, 0x5c, 0x32, 0xbd, 0x20, 0xf2, 0xc7, 0xbd,
  0x66, 0xe5, 0xbf, 0xbc, 0xbd, 0x48, 0xd5, 0x3c, 0x61, 0xd5, 0x50, 0x3b,
  0xf9, 0x8b, 0xd0, 0x3c, 0xa3, 0x42, 0x8a, 0x3c, 0xbf, 0x67, 0x92, 0xbb,
  0xf6, 0xd0, 0xac, 0x3b, 0x6a, 0xbc, 0xa3, 0x3d, 0xd4, 0xfb, 0xb3, 0x3d,
  0x94, 0xc6, 0xfd, 0x3d, 0xd0, 0x27, 0x4c, 0x3d, 0x8a, 0xb8, 0x82, 0x3d,
  0x6a, 0x63, 0x09, 0x3d, 0xb1, 0x1a, 0x1b, 0xbd, 0x6b, 0xbf, 0x37, 0x3c,
  0x4c, 0xb7, 0xec, 0xbd, 0xc3, 0x55, 0x1d, 0xbe, 0xf8, 0x15, 0x87, 0xbd,
  0x3f, 0x92, 0x80, 0xbd, 0x68, 0x66, 0xa0, 0xbd, 0xa8, 0x2c, 0x80, 0xbd,
  0x12, 0x03, 0x2f, 0x3d, 0xa8, 0x14, 0xb1, 0x3d, 0x23, 0xd7, 0xd4, 0x3c,
  0x59, 0x2b, 0xf9, 0xbc, 0xf7, 0x32, 0x3f, 0x3d, 0x99, 0xa1, 0xfb, 0xbc,
  0xb8, 0x51, 0xc7, 0xbd, 0xe1, 0x6d, 0x6e, 0xba, 0x22, 0xb7, 0x02, 0xbb,
  0x71, 0x04, 0xb2, 0xba, 0xc9, 0x2e, 0x56, 0x3c, 0x51, 0x5a, 0x54, 0x3c,
  0x09, 0xbd, 0x34, 0xbd, 0x46, 0x05, 0x28, 0x3d, 0x54, 0xcb, 0xa0, 0x3d,
  0x31, 0xcf, 0x63, 0x3d, 0x1a, 0x23, 0xa7, 0x3c, 0x21, 0x54, 0x8f, 0x3d,
  0x82, 0x97, 0x13, 0x3c, 0xa2, 0x15, 0x6e, 0xbd, 0x61, 0x0e, 0xb2, 0xbc,
  0x3b, 0xfe, 0xd9, 0x3c, 0xfa, 0x6b, 0xb4, 0xbd, 0x8c, 0xb2, 0xfb, 0xbd,
  0x15, 0xea, 0xf3, 0xbb, 0x54, 0x8e, 0x88, 0xbd, 0x98, 0x46, 0xb6, 0xbc,
  0x30, 0xfa, 0x0b, 0x3c, 0x1e, 0x0b, 0xfa, 0x3c, 0xde, 0x54, 0x4a, 0x3c,
  0x78, 0x4c, 0xf8, 0xbc, 0x6d, 0xb5, 0xe1, 0xbc, 0x26, 0xfa, 0x35, 0x3c,
  0xd9, 0xe7, 0x19, 0xbc, 0xf0, 0x58, 0x12, 0xbe, 0xb9, 0x45, 0x36, 0xbd,
  0x86, 0x62, 0xe7, 0x3a, 0x15, 0xcc, 0x46, 0x3d, 0x04, 0x21, 0xc2, 0x3c,
  0x21, 0x18, 0x0b, 0x3c, 0xb9, 0x8c, 0xe6, 0xbd, 0x83, 0x28, 0x8f, 0xbb,
  0xb3, 0xc1, 0x8a, 0x3d, 0x9e, 0xf8, 0x8e, 0x3d, 0x22, 0x68, 0xb7, 0x3a,
  0x81, 0xeb, 0x81, 0x3c, 0x48, 0x4e, 0xc8, 0xbc, 0x21, 0x44, 0xab, 0xbd,
  0x33, 0xd0, 0xf9, 0xbc, 0xd9, 0xc7, 0x0e, 0xbd, 0xd4, 0x3b, 0xb3, 0xbd,
  0xfb, 0x01, 0x9e, 0xbd, 0xfb, 0x2e, 0xb1, 0xbd, 0x54, 0xb2, 0x2a, 0xbb,
  0x2f, 0x6b, 0x35, 0xbc, 0xa7, 0x36, 0xef, 0xbb, 0x09, 0x28, 0x12, 0xbd,
  0xaa, 0xc3, 0x89, 0xbd, 0x87, 0xe2, 0x11, 0xbc, 0xe9, 0xc9, 0x09, 0xbc,
  0x60, 0x67, 0x42, 0xbc, 0x06, 0x5c, 0xaf, 0xbd, 0xfd, 0x31, 0xa0, 0xbd,
  0x42, 0x3c, 0x73, 0x3c, 0xd7, 0x1c, 0x45, 0x3c, 0x10, 0x2d, 0x14, 0x3c,
  0xde, 0x68, 0x90, 0x3c, 0xea, 0xd0, 0x12, 0x3d, 0x1d, 0x5a, 0x07, 0xbe,
  0x13, 0x62, 0x07, 0xbe, 0xb0, 0x07, 0xc1, 0x3c, 0x0f, 0x72, 0xd4, 0x3c,
  0x22, 0x3e, 0x96, 0xbc, 0x76, 0x6a, 0x26, 0xbd, 0x53, 0x77, 0xad, 0xbd,
  0xbb, 0xf2, 0x05, 0xbe, 0x23, 0x79, 0xe5, 0xbd, 0x14, 0x49, 0xa0, 0xbd,
  0xdb, 0xc3, 0xff, 0xbd, 0x54, 0x57, 0xe9, 0xbd, 0x88, 0x82, 0xc4, 0xbd,
  0xe7, 0x37, 0x8f, 0xbd, 0x82, 0xce, 0xa2, 0xbd, 0xa0, 0x8b, 0xce, 0xbd,
  0x14, 0x0b, 0xaf, 0xbd, 0xf2, 0x22, 0x74, 0xbd, 0xc2, 0x61, 0xa9, 0xbd,
  0x15, 0x13, 0x82, 0xbd, 0x2f, 0xd6, 0xe3, 0xbd, 0x40, 0x34, 0xba, 0xbd,
  0x4b, 0x44, 0xd0, 0xbd, 0x52, 0x6a, 0x2e, 0x3b, 0x3c, 0xbd, 0x12, 0x3c,
  0x73, 0x65, 0x69, 0x3d, 0x47, 0x97, 0x6a, 0xbc, 0x44, 0xbe, 0x52, 0x3c,
  0x32, 0x0a, 0xb1, 0xbd, 0x90, 0x0c, 0x9e, 0xbd, 0xaa, 0xe2, 0x9d, 0xbc,
  0xf6, 0xed, 0xa1, 0x3c, 0x03, 0x71, 0x99, 0xbb, 0xc4, 0x36, 0x25, 0x3c,
  0xd9, 0x3f, 0x17, 0xbd, 0xe5, 0xdd, 0xed, 0xbd, 0x8b, 0xd9, 0xdf, 0xbd,
  0x14, 0x18, 0xe1, 0xbd, 0xcd, 0x35, 0xbb, 0xbd, 0xa2, 0x36, 0x0f, 0xbc,
  0x28, 0x39, 0x8f, 0xbd, 0x65, 0x87, 0x46, 0xbd, 0x59, 0x9b, 0xa2, 0xbc,
  0x8d, 0x89, 0xae, 0xbc, 0x86, 0xd5, 0x89, 0xbd, 0xfe, 0x5f, 0x8e, 0xbd,
  0x90, 0x42, 0x8f, 0xbd, 0x38, 0x21, 0x29, 0xbd, 0x5d, 0x83, 0x87, 0xbd,
  0xcf, 0xca, 0x81, 0xbd, 0x61, 0x0b, 0x68, 0xbd, 0xb0, 0xc4, 0xd3, 0x3c,
  0xff, 0xee, 0x64, 0x3d, 0x2f, 0xd7, 0x7d, 0x3c, 0x18, 0x14, 0x54, 0x3d,
  0x41, 0x10, 0xc6, 0x3c, 0x0d, 0x4d, 0x37, 0xbd, 0x4b, 0x7e, 0xa8, 0xbd,
  0x8e, 0x2a, 0x1a, 0x3b, 0xb2, 0xb8, 0x65, 0x3d, 0x2e, 0x96, 0x12, 0xbd,
  0x15, 0x9e, 0x90, 0xbc, 0x88, 0xe9, 0x68, 0x3c, 0x4d, 0xf8, 0x8e, 0xbc,
  0xee, 0x34, 0xb5, 0xbc, 0x23, 0xba, 0xe3, 0x3c, 0x42, 0x61, 0xb0, 0x3c,
  0xbd, 0x2c, 0x30, 0xbd, 0xc3, 0xd2, 0x63, 0x3c, 0x24, 0x59, 0x4b, 0xbd,
  0xd0, 0x4e, 0x2e, 0xbc, 0x00, 0x46, 0x19, 0xbb, 0x26, 0x22, 0x45, 0xbd,
  0xa5, 0x0e, 0x2f, 0xbd, 0xa0, 0x04, 0x82, 0xbc, 0xf4, 0xf5, 0x28, 0xbd,
  0x40, 0x25, 0xef, 0xbd, 0x55, 0x36, 0xe7, 0xbd, 0x5e, 0x03, 0x2f, 0xbc,
  0xd0, 0xe2, 0x59, 0x3c, 0x50, 0xa3, 0x43, 0x3d, 0xe9, 0xa3, 0x68, 0x3d,
  0xe3, 0xeb, 0xf2, 0x3c, 0x68, 0xfe, 0xbd, 0x3b, 0x0b, 0x97, 0x0e, 0xbd,
  0x2b, 0xf7, 0x3c, 0xbd, 0x27, 0x63, 0x44, 0xbd, 0x97, 0x53, 0x2c, 0xbd,
  0x51, 0x4f, 0x7a, 0xbc, 0x1f, 0x5c, 0x49, 0xbd, 0x71, 0x8b, 0xd6, 0xbc,
  0x62, 0x29, 0xa8, 0x3b, 0xce, 0xe9, 0x19, 0x3d, 0xcb, 0xce, 0x90, 0x3b,
  0xad, 0x1e, 0x55, 0xbc, 0x29, 0x89, 0x5a, 0xbd, 0xb5, 0xd7, 0x71, 0xbc,
  0x5f, 0x27, 0x42, 0xbd, 0x4d, 0xf9, 0x76, 0xbc, 0x85, 0xbf, 0x2c, 0xbd,
  0x5f, 0x62, 0x47, 0xbd, 0xf5, 0x65, 0x8e, 0xbd, 0x1a, 0x8c, 0x4e, 0xbd,
  0x70, 0xcb, 0x37, 0xbd, 0xab, 0x51, 0x81, 0xbd, 0x76, 0xd6, 0x80, 0xbd,
  0x26, 0x61, 0xac, 0x3c, 0x21, 0x26, 0x4d, 0x3d, 0x73, 0xb0, 0x5a, 0x3b,
  0xd3, 0x35, 0xd5, 0xba, 0x77, 0xd3, 0x42, 0x3d, 0x69, 0xfc, 0x6e, 0x3c,
  0xeb, 0x28, 0x29, 0xbc, 0xda, 0x06, 0x93, 0xbd, 0x99, 0x8f, 0xca, 0xbd,
  0xd4, 0xa9, 0x80, 0xbd, 0x34, 0xf8, 0x15, 0xbd, 0xdd, 0x40, 0x3b, 0x3b,
  0xa3, 0xb5, 0xfe, 0x3c, 0x34, 0xbe, 0x0d, 0x3d, 0x9b, 0x6c, 0x79, 0x3c,
  0x4f, 0x6f, 0x97, 0x3d, 0xba, 0xe1, 0xb7, 0x3d, 0x13, 0x3c, 0x0c, 0x3d,
  0x1d, 0x4f, 0x86, 0xbc, 0xef, 0x81, 0xcb, 0x3b, 0xb9, 0xad, 0xe5, 0xbc,
  0x2c, 0xf5, 0xeb, 0xbc, 0xf8, 0x26, 0xfe, 0xbc, 0xa1, 0x2d, 0x17, 0xbd,
  0x59, 0xf9, 0xa5, 0xbd, 0x0c, 0x32, 0x8a, 0xbd, 0x47, 0x63, 0x75, 0xbd,
  0x0b, 0x1e, 0x93, 0xbc, 0x84, 0xbc, 0x33, 0x3b, 0x33, 0x55, 0x6c, 0x3c,
  0x40, 0x50, 0xfc, 0x3c, 0x38, 0xb2, 0xc6, 0x3c, 0xb5, 0xe0, 0x5b, 0x3d,
  0x53, 0xae, 0x34, 0x3d, 0xdc, 0xcb, 0x42, 0x3d, 0x6d, 0x6c, 0x9d, 0xbd,
  0x88, 0x24, 0x07, 0xbe, 0x59, 0x99, 0x17, 0xbe, 0x6e, 0x5d, 0x2f, 0xbd,
  0x2b, 0x83, 0x8e, 0x3c, 0xd9, 0x4f, 0x39, 0xbc, 0xfd, 0xd8, 0x2d, 0x3d,
  0x1c, 0xa1, 0xbc, 0x3d, 0xdd, 0xbe, 0xc8, 0x3d, 0x2f, 0x19, 0xd1, 0x3d,
  0x9f, 0x60, 0xd6, 0x3d, 0xae, 0x12, 0xe4, 0x3d, 0x1a, 0xb4, 0x64, 0x3d,
  0x11, 0xf4, 0x5c, 0x3d, 0x2e, 0x8a, 0x04, 0x3d, 0x13, 0x0c, 0xe3, 0xbc,
  0xca, 0x7f, 0x2f, 0x3c, 0xcd, 0xab, 0x7b, 0xbc, 0x80, 0xe3, 0x35, 0x3a,
  0x75, 0xd2, 0xc4, 0x3c, 0x81, 0x1f, 0xf6, 0x3c, 0xeb, 0xcf, 0xf6, 0x3c,
  0x7b, 0xf3, 0x7a, 0xbb, 0x5b, 0xa8, 0x4c, 0x3d, 0xdb, 0x24, 0x30, 0x3d,
  0x40, 0xa4, 0x4c, 0x3c, 0x4f, 0x17, 0x29, 0xbc, 0x42, 0x0f, 0x4e, 0x3d,
  0x5f, 0x65, 0x5b, 0x3c, 0x40, 0x1b, 0xb3, 0xbd, 0xf0, 0x04, 0x60, 0xbd,
  0xf4, 0x09, 0xbc, 0xbd, 0x5f, 0x17, 0xb9, 0xbd, 0x1f, 0xa6, 0x85, 0xbd,
  0xb0, 0xf4, 0xd5, 0xbd, 0x05, 0x96, 0xa5, 0xbd, 0xdf, 0xae, 0xe2, 0xbd,
  0x5e, 0x74, 0x64, 0xbd, 0x7b, 0xa6, 0x87, 0xbd, 0x75, 0xa4, 0xe0, 0xbc,
  0x61, 0x87, 0xa5, 0xba, 0x83, 0x32, 0xcd, 0xbc, 0xc3, 0x8c, 0xdd, 0x3c,
  0xe2, 0x8d, 0x52, 0x3d, 0xaa, 0x3e, 0xb2, 0x3c, 0xab, 0x1e, 0xf2, 0xbc,
  0x5e, 0xb0, 0x7d, 0xbc, 0xdb, 0x4a, 0x14, 0xbc, 0x6d, 0x74, 0x91, 0x3c,
  0x8a, 0x61, 0xfa, 0x3c, 0xa0, 0x1f, 0xa2, 0x3c, 0x2f, 0x11, 0x44, 0x3d,
  0x6f, 0x18, 0x34, 0x3d, 0x9d, 0x61, 0xc4, 0xb9, 0xd6, 0x53, 0xdb, 0x3c,
  0x3b, 0xac, 0x09, 0x3d, 0x5c, 0x03, 0xb4, 0x3b, 0xd3, 0x60, 0x08, 0xbc,
  0x7e, 0x71, 0x06, 0xbd, 0xe5, 0xd3, 0x73, 0xbd, 0xd7, 0x23, 0x17, 0xbe,
  0xc0, 0xee, 0x18, 0xbe, 0xf4, 0xcc, 0x1c, 0xbe, 0x98, 0x19, 0x46, 0xbe,
  0x2b, 0x6d, 0x79, 0xbe, 0x40, 0xb2, 0x44, 0xbe, 0x32, 0xe7, 0x2d, 0xbe,
  0x51, 0x19, 0x1f, 0xbe, 0x2a, 0x38, 0x2f, 0xbe, 0x2a, 0x43, 0x44, 0xbe,
  0xdc, 0x89, 0x02, 0xbe, 0xb6, 0xa8, 0xb2, 0xbd, 0x4c, 0x9d, 0x25, 0xbd,
  0xa7, 0x01, 0xb4, 0xbc, 0x0d, 0x11, 0x2d, 0x3c, 0x62, 0x61, 0x11, 0xbb,
  0x28, 0x84, 0x49, 0x3c, 0xae, 0xe9, 0x91, 0x3c, 0xa5, 0x8a, 0xd4, 0xba,
  0xba, 0xff, 0xcb, 0x3c, 0x7d, 0x72, 0x30, 0x3d, 0xed, 0xa9, 0x84, 0x3c,
  0xfa, 0xe9, 0x34, 0x3c, 0xa7, 0x21, 0xb3, 0x3c, 0x79, 0xdc, 0x18, 0x3c,
  0x37, 0x82, 0x9a, 0x3c, 0x91, 0x8e, 0x68, 0xbd, 0xb2, 0x80, 0x99, 0xbd,
  0xc8, 0x32, 0xcb, 0xbd, 0x23, 0xa4, 0xf8, 0xbd, 0x0b, 0x97, 0x27, 0xbe,
  0x93, 0xa4, 0x11, 0xbe, 0x27, 0xa7, 0x18, 0xbe, 0x9f, 0x62, 0x01, 0xbe,
  0x1d, 0x65, 0x17, 0xbe, 0x34, 0x0a, 0x28, 0xbe, 0xc8, 0x93, 0x14, 0xbe,
  0x0e, 0x9c, 0xe1, 0xbd, 0xa5, 0x0c, 0x95, 0xbd, 0xde, 0xdb, 0x83, 0xbd,
  0xaf, 0x66, 0xbb, 0xbc, 0xdf, 0x39, 0x7f, 0x3b, 0x51, 0x23, 0x9a, 0xbc,
  0x78, 0x07, 0x50, 0x3d, 0x86, 0xe2, 0x9f, 0xbb, 0xe6, 0x0a, 0x1d, 0xbc,
  0xc2, 0xb5, 0x82, 0xbb, 0xf6, 0x62, 0xa7, 0x3b, 0xd3, 0x28, 0x26, 0x3d,
  0x02, 0xdc, 0x33, 0x3b, 0x4f, 0x54, 0x63, 0x3d, 0x8b, 0xe6, 0x57, 0x3d,
  0xda, 0x38, 0x2d, 0x3d, 0xa1, 0x01, 0x3c, 0x3d, 0x4d, 0x7d, 0xa7, 0xbc,
  0xcf, 0x10, 0x2b, 0xbc, 0xe3, 0x42, 0xbf, 0x3b, 0xe0, 0xf2, 0x03, 0x3d,
  0x4f, 0x9b, 0x59, 0x3c, 0x23, 0xe3, 0xa4, 0xbc, 0x81, 0x76, 0x2d, 0xbd,
  0x14, 0x3c, 0x63, 0xbd, 0x10, 0x2a, 0x96, 0xbd, 0x27, 0x2e, 0xb2, 0xbb,
  0x99, 0x58, 0x30, 0x3c, 0x1c, 0x4d, 0xf0, 0x3c, 0x23, 0x85, 0xc5, 0xbc,
  0x5b, 0x0f, 0x1e, 0x3b, 0x98, 0x9a, 0xa0, 0x3c, 0x26, 0x1b, 0x3e, 0x3d,
  0x46, 0x8c, 0xbb, 0x3c, 0x6e, 0x4e, 0xdd, 0x3c, 0xd8, 0x6f, 0xc2, 0x3c,
  0xff, 0x73, 0x56, 0xbc, 0x7f, 0x9b, 0x0c, 0x3d, 0x4c, 0x7b, 0x0e, 0x3c,
  0xa8, 0x7c, 0xf2, 0x3b, 0x33, 0xfa, 0xb7, 0x3b, 0x3d, 0xc1, 0x5f, 0x3c,
  0xfd, 0x25, 0x7b, 0xbc, 0xad, 0xf4, 0x3d, 0x3c, 0xcb, 0x6f, 0x06, 0x3c,
  0x27, 0xe0, 0xfb, 0x3c, 0x1b, 0x2a, 0xbb, 0x3b, 0xd6, 0x62, 0xd3, 0x3c,
  0x19, 0x32, 0x03, 0x3d, 0x0c, 0xa3, 0xf8, 0x3b, 0x25, 0xe3, 0x3c, 0x3c,
  0xc6, 0xd7, 0x08, 0x3d, 0x52, 0x76, 0x98, 0x3c, 0xd7, 0x3e, 0xd5, 0xbb,
  0x9c, 0x65, 0x10, 0x3d, 0x53, 0x6d, 0x84, 0xbc, 0xc4, 0xee, 0x89, 0xbc,
  0x2a, 0x9c, 0xd7, 0xbb, 0xb2, 0x43, 0x11, 0x3d, 0x49, 0xfc, 0x3d, 0xbc,
  0x2d, 0xe7, 0x1e, 0xbb, 0xa5, 0x42, 0xdc, 0x3c, 0x6d, 0xd1, 0x81, 0xbc,
  0xc8, 0xff, 0xcc, 0xbc, 0x94, 0x69, 0x2d, 0x3c, 0xd0, 0xb4, 0xff, 0x3c,
  0x84, 0x94, 0x2c, 0xb9, 0x33, 0x26, 0x82, 0xbc, 0xd4, 0x0a, 0x14, 0x3d,
  0xd5, 0xff, 0x91, 0xbb, 0x09, 0x62, 0x47, 0x3c, 0x10, 0x53, 0x93, 0xbc,
  0xee, 0x8a, 0x88, 0xbc, 0x0c, 0x1e, 0x7b, 0x3c, 0xb2, 0x0f, 0xe2, 0x3c,
  0x10, 0x77, 0xdc, 0xbc, 0x65, 0x24, 0xb9, 0x3c, 0x11, 0xa6, 0x63, 0x3a,
  0xda, 0xd8, 0xf7, 0x3c, 0x44, 0xfa, 0xc5, 0xbb, 0xcb, 0x94, 0x9e, 0xbc,
  0x03, 0x89, 0x71, 0x3b, 0x7d, 0xbf, 0xa0, 0x3c, 0x03, 0x52, 0xbd, 0x3b,
  0x52, 0x8a, 0xc7, 0xbc, 0x32, 0x90, 0xba, 0x3c, 0xf6, 0x17, 0x0f, 0x3d,
  0xcf, 0x4a, 0xc6, 0xbc, 0xe8, 0x6d, 0x4b, 0xbb, 0x6d, 0x89, 0x4d, 0x3c,
  0x92, 0x05, 0xe1, 0x3c, 0x0e, 0x6b, 0xc6, 0xbc, 0x68, 0x6e, 0x7d, 0x3c,
  0x04, 0xab, 0x29, 0x3c, 0xfe, 0x82, 0xf4, 0x3c, 0xca, 0x63, 0xf0, 0x3c,
  0xa2, 0xda, 0xac, 0x3c, 0xbe, 0xbb, 0xf3, 0xbc, 0x3e, 0xc6, 0xfa, 0x3c,
  0x65, 0xd5, 0x55, 0x3b, 0xdf, 0xed, 0x62, 0x3c, 0x80, 0x31, 0xe3, 0xbc,
  0xa3, 0xd9, 0xb1, 0xbc, 0x8c, 0x0f, 0xb0, 0xbc, 0x1e, 0xfa, 0xd7, 0xbc,
  0xd9, 0xf4, 0xbc, 0xbc, 0x9c, 0x3e, 0x97, 0xbc, 0x78, 0x3e, 0xc1, 0x3c,
  0x8c, 0x50, 0x7d, 0xbc, 0xb7, 0xba, 0x65, 0xbb, 0xff, 0x88, 0x15, 0x3d,
  0x81, 0x49, 0xe9, 0x3c, 0x17, 0x78, 0x37, 0xbc, 0x21, 0x5a, 0xa5, 0xbc,
  0x81, 0x3a, 0xf8, 0x3a, 0x6b, 0x25, 0xd9, 0xbb, 0xb8, 0x12, 0x10, 0xbd,
  0x64, 0x5c, 0xc5, 0x3c, 0xfd, 0xa9, 0xbc, 0x3c, 0x5a, 0x5a, 0xb1, 0x3b,
  0xaa, 0x81, 0xe9, 0xbc, 0xc4, 0xe5, 0x0c, 0x3d, 0xf8, 0x63, 0xdb, 0xbc,
  0x98, 0xac, 0x15, 0x3c, 0x51, 0x42, 0x35, 0x3b, 0x27, 0xbc, 0xcd, 0x3b,
  0xb4, 0x36, 0xdc, 0x3b, 0x96, 0x7d, 0x9c, 0xbc, 0xdc, 0x85, 0x3e, 0xbc,
  0xd7, 0xad, 0x82, 0xba, 0x47, 0x8b, 0x5e, 0xbb, 0xd3, 0x72, 0xc0, 0xbc,
  0x18, 0x19, 0xac, 0xbd, 0x84, 0xde, 0xb5, 0xbc, 0x7c, 0x3e, 0x22, 0x3b,
  0x73, 0xb6, 0xf6, 0x3c, 0x6b, 0x21, 0x2a, 0x3d, 0xc4, 0x3e, 0x9f, 0x3c,
  0x2e, 0x0a, 0x4b, 0x3b, 0x8a, 0x0e, 0x2f, 0x39, 0x88, 0x8c, 0xbd, 0xbd,
  0x3d, 0x7f, 0xde, 0xbd, 0x4e, 0x03, 0x1e, 0xbe, 0x5d, 0xcf, 0x1d, 0xbe,
  0xae, 0x39, 0xfa, 0xbd, 0x69, 0xba, 0x8c, 0xbd, 0xfc, 0x38, 0xfd, 0xbc,
  0xb9, 0x12, 0x82, 0xbc, 0xec, 0xf7, 0xd5, 0xbc, 0x5e, 0x8f, 0x8f, 0x3c,
  0x23, 0xae, 0x2a, 0xbc, 0xdd, 0x1a, 0x1a, 0xbc, 0x3d, 0x99, 0xd5, 0x3b,
  0xff, 0x60, 0xfb, 0x3c, 0xe5, 0xc7, 0xda, 0x3b, 0xff, 0x20, 0x89, 0xba,
  0xda, 0x5f, 0x1c, 0x3d, 0x66, 0xb4, 0x19, 0x3d, 0x95, 0x8b, 0x54, 0x3d,
  0x88, 0x92, 0x34, 0xbc, 0x8b, 0xb6, 0x04, 0xbd, 0x49, 0x9c, 0x62, 0xbc,
  0xd3, 0x12, 0x02, 0x3d, 0xf6, 0xfe, 0x8b, 0x3c, 0xe2, 0x5e, 0xd8, 0x3a,
  0x8a, 0x7a, 0x8a, 0xbc, 0x30, 0xe8, 0x10, 0xbd, 0x4a, 0x4a, 0x2c, 0xbd,
  0x5e, 0xf8, 0x34, 0xbd, 0x5f, 0x8a, 0x2e, 0xbb, 0x0a, 0xc4, 0xa9, 0xbb,
  0x91, 0x22, 0x0f, 0xbd, 0xb5, 0x96, 0xd5, 0xbd, 0x6b, 0x69, 0xb4, 0xbd,
  0x14, 0xda, 0xc8, 0xbd, 0x4f, 0x80, 0x83, 0xbc, 0xef, 0x27, 0x5c, 0x3c,
  0x38, 0x3d, 0x64, 0xbc, 0xbd, 0x64, 0x03, 0xbd, 0xa8, 0x4e, 0xbd, 0x3c,
  0x1e, 0x04, 0x11, 0x3c, 0x09, 0x54, 0x80, 0xbc, 0xfa, 0x94, 0x5d, 0x3d,
  0x70, 0xb0, 0xbe, 0x3d, 0x9a, 0x7b, 0x6c, 0x3d, 0x00, 0x16, 0x9d, 0x3d,
  0xf1, 0x13, 0xc4, 0x3c, 0xa1, 0x7d, 0x78, 0xbb, 0xbb, 0x5f, 0xae, 0xbc,
  0xab, 0xbe, 0x48, 0x3d, 0x08, 0x88, 0x24, 0x3d, 0x1c, 0x3f, 0x33, 0x3d,
  0x3c, 0xc0, 0x11, 0x3d, 0x7f, 0x39, 0xfe, 0xbb, 0x87, 0xe8, 0xd6, 0x3c,
  0xef, 0x68, 0xbd, 0x3c, 0x34, 0x78, 0x54, 0x3a, 0x4b, 0x89, 0x9c, 0xbc,
  0xec, 0x20, 0x97, 0x3c, 0xfa, 0xdb, 0x97, 0x3d, 0x8d, 0xac, 0x14, 0xbd,
  0x3f, 0x1d, 0x8f, 0xbd, 0x69, 0x63, 0x37, 0xbd, 0x48, 0xda, 0x6a, 0xbd,
  0x98, 0x91, 0x8c, 0x3c, 0xcf, 0x5a, 0xfa, 0x3c, 0xd4, 0x8d, 0xd6, 0xbb,
  0x1e, 0x28, 0xc2, 0xbc, 0x55, 0xb8, 0x04, 0x3d, 0x06, 0x31, 0xb3, 0xbc,
  0x2e, 0x53, 0x27, 0x3d, 0x42, 0x81, 0x91, 0x3d, 0x0b, 0x10, 0x9a, 0x3d,
  0x4b, 0x92, 0x9e, 0x3d, 0x15, 0xfa, 0x4e, 0x3b, 0x9b, 0xa2, 0xba, 0x3c,
  0xe6, 0xaf, 0x59, 0xbc, 0xa9, 0xe1, 0x1a, 0x3d, 0x09, 0x9c, 0xd9, 0x3c,
  0x46, 0x4d, 0x60, 0x3d, 0x9e, 0x3e, 0xa1, 0x3c, 0x70, 0x60, 0x5f, 0x3d,
  0xa9, 0x0e, 0xe2, 0x3c, 0xe3, 0x8b, 0x0d, 0xbb, 0xfc, 0x0d, 0x12, 0xbc,
  0xb2, 0x1c, 0x28, 0xbc, 0xaa, 0x59, 0x25, 0xbc, 0xa7, 0x8e, 0x3b, 0x3c,
  0x8d, 0x2e, 0x5e, 0x3d, 0x29, 0x14, 0x1b, 0x3d, 0xc8, 0x83, 0x4e, 0xbd,
  0x85, 0x7f, 0x39, 0xbd, 0x8c, 0x03, 0xfc, 0x3c, 0x15, 0xc3, 0xd9, 0x3c,
  0xa4, 0x9e, 0xda, 0x3b, 0x9e, 0x6b, 0xa7, 0xbc, 0x9d, 0x6d, 0x09, 0x3c,
  0x19, 0x90, 0x13, 0xbd, 0xed, 0xc8, 0x16, 0x3c, 0x9e, 0x95, 0xe9, 0x3d,
  0x86, 0xa6, 0xc3, 0x3d, 0xfd, 0x29, 0x92, 0x3d, 0xfb, 0x56, 0x1d, 0xbd,
  0x5a, 0x45, 0x89, 0x3c, 0x6d, 0x9c, 0xef, 0x3b, 0x6b, 0x73, 0x21, 0xbc,
  0x5f, 0xb8, 0x8a, 0xbc, 0x65, 0x80, 0xea, 0x3c, 0x89, 0x20, 0x14, 0x3d,
  0xea, 0xf6, 0xec, 0x3c, 0x2c, 0xcf, 0x0a, 0x3c, 0x40, 0x17, 0x24, 0xbc,
  0xf8, 0x7d, 0xa5, 0x3c, 0x11, 0xdb, 0x05, 0x3d, 0x78, 0x46, 0xa2, 0x3d,
  0xe3, 0x07, 0x11, 0x3d, 0x1c, 0x39, 0x06, 0x3c, 0xe3, 0x0b, 0x8b, 0x3d,
  0xe5, 0xda, 0x7b, 0x3c, 0xbb, 0x02, 0x80, 0xbc, 0x0e, 0x35, 0x79, 0x3d,
  0x6c, 0x90, 0xc2, 0x3c, 0x90, 0x5c, 0x7c, 0xbc, 0x78, 0x7a, 0x5a, 0xbc,
  0x0c, 0xf1, 0x69, 0x3c, 0x2a, 0x51, 0x2a, 0xbd, 0x51, 0x19, 0x29, 0x3d,
  0x98, 0xd4, 0xdc, 0x3d, 0xe5, 0x36, 0x5b, 0x3d, 0xbb, 0x99, 0x5d, 0x3d,
  0xc6, 0x3f, 0x47, 0x3a, 0x43, 0x2b, 0xe1, 0xbc, 0xc3, 0x30, 0x81, 0xbd,
  0x3f, 0xc8, 0xe1, 0xbb, 0x56, 0xe7, 0x85, 0xbd, 0x61, 0xac, 0x87, 0x3c,
  0xd0, 0x97, 0x89, 0x3d, 0x23, 0x71, 0x46, 0x3c, 0x8a, 0x57, 0xd6, 0x3c,
  0x19, 0xa4, 0x35, 0x3d, 0xaa, 0xa3, 0x7c, 0x3d, 0xce, 0x38, 0x8a, 0x3d,
  0x7b, 0x2f, 0x30, 0x3d, 0x41, 0xaa, 0x66, 0x3d, 0x8d, 0x62, 0x55, 0x3d,
  0xb3, 0x8e, 0x85, 0x3d, 0xec, 0xe7, 0x5c, 0x3c, 0x8c, 0x86, 0x52, 0x3d,
  0xa0, 0x40, 0xec, 0x3c, 0x47, 0xc6, 0x07, 0x3d, 0x21, 0xfe, 0x83, 0x3c,
  0xa3, 0xe6, 0xf9, 0xbc, 0x93, 0x35, 0xad, 0xbc, 0x1a, 0x6a, 0xf7, 0x3c,
  0xbc, 0x66, 0xad, 0x3d, 0x7f, 0xd5, 0xc8, 0x3d, 0x43, 0x66, 0x60, 0x3d,
  0xad, 0x60, 0x0a, 0xbc, 0x3b, 0xc6, 0xb9, 0xbb, 0xae, 0x14, 0x87, 0xbc,
  0xdd, 0x71, 0x8c, 0xbd, 0x34, 0xbb, 0xfc, 0xbd, 0x1f, 0xc3, 0xf4, 0xbd,
  0xb7, 0x78, 0xf7, 0xbd, 0x8e, 0x75, 0x69, 0xbd, 0x1c, 0xe8, 0xcc, 0xbc,
  0x20, 0x58, 0x18, 0x3d, 0x32, 0x33, 0x3a, 0x3c, 0x27, 0x4e, 0x17, 0x3d,
  0xc2, 0x39, 0x5e, 0x3d, 0x0b, 0x60, 0x7f, 0x3d, 0x9c, 0xf8, 0x2b, 0x3d,
  0xef, 0x5c, 0xd7, 0x3c, 0xc2, 0x6b, 0x37, 0x3d, 0xa7, 0x5e, 0xc6, 0xbb,
  0xcf, 0x21, 0xdf, 0x3d, 0x06, 0xf1, 0x2b, 0x3d, 0xbe, 0x16, 0x19, 0x3d,
  0xec, 0xbc, 0x98, 0xbc, 0x89, 0xb8, 0x6b, 0xbc, 0x26, 0x17, 0x45, 0xbc,
  0xe5, 0xae, 0x16, 0x3b, 0x0c, 0x08, 0xe0, 0x3d, 0x8c, 0x10, 0x12, 0x3d,
  0x21, 0xdb, 0x55, 0xbd, 0x31, 0xfc, 0xc1, 0xbd, 0x46, 0x63, 0x9b, 0xbd,
  0x08, 0x82, 0xd3, 0xbd, 0xb2, 0x00, 0xf7, 0xbd, 0x1d, 0xb0, 0x30, 0xbe,
  0x12, 0xc3, 0x41, 0xbe, 0xa6, 0x73, 0xd2, 0xbd, 0x78, 0xd7, 0x98, 0xbc,
  0x79, 0x6c, 0x95, 0x3d, 0x93, 0xeb, 0xa2, 0x3d, 0x05, 0xac, 0xbc, 0x3d,
  0xaa, 0x47, 0x6c, 0x3c, 0x1a, 0xf9, 0x86, 0x3c, 0x0e, 0xd7, 0x1c, 0x3d,
  0xc5, 0x7a, 0x4e, 0x3d, 0x9b, 0x4a, 0x64, 0x3d, 0xfa, 0xc2, 0xa0, 0xbc,
  0x60, 0xc7, 0x52, 0xbc, 0x77, 0xf8, 0x77, 0x3d, 0x5c, 0x09, 0xf4, 0x3c,
  0x8e, 0xd4, 0x20, 0xbc, 0x70, 0x62, 0x92, 0xbc, 0x61, 0x0b, 0x32, 0x3b,
  0xea, 0xb0, 0x1c, 0x3c, 0x49, 0x77, 0xe2, 0xbc, 0x8b, 0xf4, 0x36, 0x3d,
  0xb4, 0xc2, 0x36, 0x3d, 0xca, 0xde, 0x15, 0xbe, 0x64, 0x0a, 0x31, 0xbe,
  0x52, 0xa0, 0x09, 0xbe, 0xf3, 0xf4, 0xfc, 0xbd, 0x96, 0x87, 0xcc, 0xbd,
  0xe0, 0x64, 0xe5, 0xbd, 0x4b, 0xc2, 0xc1, 0xbd, 0xef, 0xd3, 0x7b, 0xbd,
  0xa4, 0x0a, 0x8d, 0x3d, 0x3b, 0x6a, 0x50, 0x3e, 0x3b, 0xa2, 0x3e, 0x3e,
  0x05, 0xa7, 0xbd, 0xbb, 0x82, 0x21, 0x6d, 0xbc, 0x49, 0xe4, 0x17, 0xbc,
  0x49, 0x52, 0x7e, 0xbc, 0x24, 0x77, 0x7a, 0xbd, 0x3f, 0xd2, 0xe0, 0xbd,
  0x90, 0x55, 0xe2, 0xbd, 0xf0, 0x01, 0x02, 0xbd, 0x39, 0xe6, 0x30, 0x3d,
  0x41, 0xf0, 0x80, 0x3c, 0x20, 0x40, 0xda, 0xbb, 0xc2, 0xb6, 0x5c, 0x3c,
  0x14, 0xfd, 0xfc, 0xbc, 0xf3, 0x02, 0x98, 0xba, 0x60, 0x5f, 0xaf, 0x3c,
  0xfe, 0x0e, 0x5f, 0x3c, 0x1c, 0xdb, 0x3e, 0xbd, 0x37, 0xd4, 0x10, 0xbe,
  0xcb, 0x27, 0xf9, 0xbd, 0x7d, 0x6d, 0x05, 0xbe, 0xc2, 0x14, 0xce, 0xbd,
  0xc4, 0xfb, 0x9f, 0xbc, 0x49, 0xcd, 0x33, 0x3c, 0xd8, 0x2b, 0xaa, 0x3b,
  0x27, 0xfc, 0xd2, 0x3c, 0x15, 0x8b, 0xd0, 0x3d, 0x8e, 0xcd, 0x59, 0x3e,
  0xc8, 0x67, 0xb2, 0x3d, 0x96, 0x8d, 0xfd, 0x3b, 0x4f, 0xc0, 0x4e, 0xbc,
  0x60, 0xa5, 0x6f, 0xbd, 0x1a, 0xd3, 0xe4, 0xbd, 0xe2, 0x71, 0xf5, 0xbd,
  0x0f, 0xf4, 0x2b, 0xbe, 0x86, 0x22, 0x02, 0xbe, 0xfc, 0x6b, 0xc0, 0xbd,
  0x3c, 0xa6, 0x13, 0x3d, 0x05, 0x2f, 0xd5, 0x3c, 0x1c, 0xc6, 0x20, 0x3c,
  0x4e, 0xc2, 0x6a, 0x3c, 0xd5, 0xa6, 0x0f, 0xbc, 0x7c, 0x62, 0xcf, 0x3c,
  0x5d, 0x2c, 0xf7, 0x3c, 0xa8, 0x21, 0x33, 0xbd, 0x15, 0x9b, 0x87, 0xbd,
  0x68, 0x09, 0x8c, 0xbd, 0x5a, 0xa2, 0xa3, 0xbd, 0xfd, 0xe6, 0x47, 0xbd,
  0x54, 0x67, 0x18, 0xbb, 0x0b, 0xb7, 0x5d, 0xbc, 0x2c, 0xe3, 0xd6, 0xbc,
  0x14, 0x03, 0x26, 0xbc, 0x4f, 0xce, 0xbf, 0x3d, 0x01, 0xec, 0xf8, 0x3d,
  0x12, 0x72, 0x45, 0x3e, 0x34, 0x76, 0x4f, 0xbc, 0x28, 0x55, 0xf6, 0x3b,
  0x3f, 0xa1, 0xfc, 0xbc, 0x55, 0x06, 0xa2, 0xbc, 0xeb, 0x3d, 0xf9, 0xbd,
  0xca, 0x27, 0x00, 0xbe, 0xe7, 0x1f, 0x12, 0xbe, 0xec, 0x2e, 0x0d, 0xbe,
  0xb7, 0xba, 0xac, 0xbd, 0x81, 0x9e, 0xad, 0xbc, 0xf4, 0xdf, 0xb4, 0x3c,
  0x59, 0xc3, 0x5c, 0x3c, 0x58, 0xbf, 0xc7, 0x3c, 0xa6, 0xec, 0x08, 0x3d,
  0x61, 0xc2, 0x72, 0x3c, 0xed, 0x2d, 0xcf, 0xbc, 0x9c, 0x21, 0x52, 0x3c,
  0xae, 0xbd, 0x87, 0xbd, 0x22, 0x19, 0x07, 0xbd, 0x25, 0xbf, 0x3b, 0xbd,
  0xe6, 0xef, 0x66, 0xbd, 0x60, 0x84, 0x03, 0xbd, 0x61, 0xb6, 0x98, 0x3c,
  0x9f, 0x01, 0x39, 0xbd, 0x49, 0xca, 0x8c, 0xbc, 0xcc, 0x65, 0x7f, 0xbc,
  0xcc, 0x2e, 0xfc, 0x3d, 0x93, 0x3c, 0x17, 0x3e, 0x9f, 0x75, 0xd8, 0x3c,
  0x12, 0xca, 0x95, 0xbd, 0x24, 0x18, 0xba, 0xbd, 0x0a, 0xab, 0xba, 0xbc,
  0x9b, 0x30, 0x6a, 0xbd, 0x35, 0x19, 0x40, 0xbd, 0x78, 0x6b, 0xb8, 0xbb,
  0x03, 0x54, 0xc9, 0xbd, 0x82, 0x5f, 0x5a, 0xbd, 0x1b, 0x0e, 0x64, 0x3d,
  0x46, 0xff, 0x88, 0xbc, 0xe8, 0xef, 0x10, 0x3d, 0x14, 0x7a, 0x05, 0x3d,
  0xca, 0x49, 0xb8, 0xba, 0x7a, 0xef, 0x13, 0x3d, 0x63, 0x19, 0x12, 0x3d,
  0x6e, 0xfb, 0xad, 0xbc, 0x24, 0x4a, 0xc4, 0xbc, 0xb7, 0x03, 0xca, 0xbc,
  0x23, 0x0c, 0x9f, 0xbd, 0xcc, 0x76, 0x64, 0xbd, 0xef, 0x9c, 0x70, 0xbd,
  0xa2, 0xf3, 0x52, 0xbc, 0x7c, 0x2d, 0x95, 0xbd, 0x25, 0x21, 0xdd, 0xbd,
  0x0c, 0x20, 0x17, 0xbb, 0x85, 0x01, 0x1d, 0x3e, 0x23, 0xde, 0xb7, 0x3d,
  0x34, 0x1e, 0x56, 0x3c, 0x61, 0x51, 0x08, 0xbe, 0x21, 0x91, 0x8d, 0xbd,
  0x05, 0x24, 0x26, 0x3c, 0x96, 0xb9, 0x47, 0x3d, 0x56, 0x8f, 0xf3, 0x3c,
  0x0c, 0x8b, 0xa8, 0x3c, 0x0f, 0xec, 0xf8, 0x3c, 0x38, 0xc8, 0x5f, 0xbd,
  0xe1, 0x47, 0x89, 0x3d, 0xec, 0x4f, 0x94, 0xbc, 0x3c, 0xc2, 0x23, 0xbb,
  0x40, 0xbf, 0xe3, 0x3c, 0x09, 0x68, 0x4f, 0xbb, 0x9f, 0x5a, 0xaa, 0x3c,
  0x06, 0x5c, 0x8c, 0x3c, 0x2f, 0x96, 0x92, 0x3d, 0x43, 0xbf, 0x57, 0xbd,
  0xe6, 0x2b, 0x3f, 0xbd, 0x93, 0x0a, 0xe7, 0xbd, 0x3c, 0x42, 0xe9, 0xbd,
  0xb0, 0xd0, 0x25, 0xbe, 0x75, 0xb2, 0x22, 0xbe, 0xf5, 0x26, 0x4f, 0xbe,
  0xc2, 0x02, 0x4c, 0xbe, 0xb6, 0x3d, 0x21, 0xbc, 0x66, 0x53, 0x49, 0x3d,
  0x9a, 0x7f, 0x44, 0x3d, 0x62, 0x7d, 0xfe, 0xbc, 0x86, 0x0f, 0xb8, 0xbd,
  0x55, 0xce, 0xd1, 0x3b, 0xbf, 0xf7, 0x43, 0x3d, 0xae, 0xb4, 0x9e, 0x3d,
  0x29, 0x6c, 0xc4, 0x3d, 0x65, 0x8a, 0xa5, 0x3d, 0x3e, 0xb6, 0xb1, 0x3d,
  0xcc, 0x4a, 0x74, 0x3d, 0x13, 0xfc, 0x16, 0x3d, 0x71, 0xb6, 0x6a, 0xbc,
  0x78, 0x16, 0xbd, 0xbb, 0x2a, 0xcf, 0xad, 0xbc, 0xff, 0x2e, 0x98, 0xbb,
  0x7a, 0xd3, 0x14, 0x3d, 0x54, 0x86, 0x43, 0x3d, 0x1c, 0x57, 0xb3, 0x3d,
  0x60, 0xe9, 0x8d, 0x3c, 0xba, 0xf1, 0x16, 0xbd, 0x4d, 0xc7, 0xe3, 0xbd,
  0xe9, 0xab, 0xf0, 0xbd, 0x6e, 0x07, 0x1e, 0xbe, 0xf6, 0xbb, 0x92, 0xbe,
  0xcd, 0xe4, 0xbe, 0xbe, 0x8e, 0x79, 0xbb, 0xbe, 0xf8, 0xc4, 0x7d, 0xbe,
  0x73, 0x96, 0xf0, 0xbd, 0x6d, 0x23, 0xc6, 0xbd, 0xb2, 0x02, 0xe5, 0xbd,
  0xef, 0xda, 0x8c, 0xbb, 0x89, 0xce, 0x4d, 0x3d, 0x4c, 0x35, 0x69, 0x3d,
  0x97, 0x48, 0x07, 0x3e, 0x34, 0xb2, 0xb1, 0x3d, 0x3e, 0x0b, 0x07, 0x3e,
  0xfa, 0x88, 0xdc, 0x3d, 0xaa, 0xed, 0x1e, 0x3d, 0x35, 0x1a, 0x98, 0xbd,
  0xf8, 0x98, 0x92, 0xbd, 0x11, 0x58, 0x32, 0xbd, 0xab, 0x19, 0x76, 0x3c,
  0x9b, 0x7f, 0x97, 0x3c, 0xbc, 0xc7, 0xa4, 0x3c, 0x3a, 0xcb, 0x96, 0x3d,
  0xb8, 0xf8, 0x0e, 0x3e, 0x3a, 0xbc, 0x90, 0x3c, 0xa1, 0x9b, 0x4b, 0x3c,
  0x79, 0x03, 0x60, 0xbc, 0x72, 0x32, 0x76, 0xbd, 0x34, 0x61, 0x07, 0xbe,
  0x7e, 0xc2, 0x38, 0xbe, 0x5d, 0xf8, 0xa7, 0xbe, 0x36, 0xe7, 0xaf, 0xbe,
  0xfd, 0x5c, 0x9a, 0xbe, 0x7c, 0x5a, 0x5a, 0xbe, 0x33, 0x3f, 0x18, 0xbe,
  0x30, 0x2f, 0xa5, 0xbd, 0xaf, 0x74, 0x00, 0x3d, 0x13, 0xda, 0x6b, 0x3d,
  0x5b, 0xbb, 0x95, 0x3d, 0xdd, 0xa8, 0x57, 0x3d, 0x5f, 0x6a, 0x98, 0x3d,
  0x1f, 0x50, 0xe8, 0x3d, 0x75, 0x56, 0xbf, 0x3d, 0xca, 0x81, 0xb1, 0x3a,
  0x6c, 0x57, 0x23, 0xbe, 0xfe, 0xd6, 0x72, 0xbd, 0x17, 0x1b, 0xfe, 0xbc,
  0xe1, 0x58, 0xb8, 0xbc, 0xab, 0x97, 0x05, 0xba, 0xbf, 0x72, 0xda, 0xbc,
  0xe5, 0x37, 0x06, 0x3d, 0x9b, 0xf5, 0x51, 0x3e, 0xaa, 0xb9, 0xea, 0x3d,
  0x9e, 0xbc, 0x2b, 0x3d, 0x4c, 0x33, 0x01, 0x3d, 0x7c, 0x2f, 0x22, 0x3c,
  0x50, 0xf5, 0x18, 0xbc, 0xcf, 0xeb, 0xf7, 0xbb, 0x13, 0x8b, 0x33, 0xbd,
  0x10, 0x25, 0x8c, 0xbd, 0xc6, 0x43, 0xa4, 0xbd, 0x75, 0xf1, 0x28, 0xbd,
  0x18, 0xec, 0x9f, 0xbd, 0x24, 0x1f, 0x5e, 0xbd, 0xa7, 0x54, 0x0b, 0xbd,
  0x21, 0x47, 0xb0, 0x3c, 0x69, 0x61, 0xb0, 0x3c, 0x48, 0x69, 0xa6, 0x3c,
  0x94, 0x40, 0x7e, 0x3d, 0x6b, 0xac, 0x9f, 0x3d, 0xaa, 0x76, 0x14, 0x3d,
  0x7b, 0xf4, 0xb0, 0xbd, 0xb6, 0x59, 0x2e, 0xbe, 0x4b, 0x25, 0xb1, 0xbd,
  0xb1, 0xb7, 0x00, 0xbd, 0x4f, 0xcb, 0x4b, 0x3b, 0xfa, 0x5e, 0x0a, 0x3d,
  0xd5, 0x0f, 0xde, 0xbc, 0x4c, 0xd5, 0x5b, 0x3d, 0xac, 0x13, 0x62, 0x3e,
  0xc5, 0x85, 0xa7, 0x3d, 0xc4, 0x6d, 0x18, 0x3d, 0x05, 0x83, 0xb5, 0x3c,
  0x28, 0xc6, 0x5b, 0x3d, 0xf9, 0x85, 0x7a, 0x3d, 0xe2, 0x1d, 0xa2, 0x3d,
  0x43, 0x3b, 0x57, 0x3c, 0x1f, 0xbf, 0xbc, 0x3c, 0x95, 0xf6, 0xbb, 0x3c,
  0x7d, 0xed, 0x2e, 0xbd, 0xff, 0x93, 0x5b, 0xbd, 0x32, 0xfe, 0x65, 0xbd,
  0x82, 0x55, 0x1e, 0xbd, 0x5b, 0x2d, 0x02, 0x3c, 0x13, 0x7f, 0xaa, 0xbb,
  0xab, 0x26, 0x01, 0xbc, 0x37, 0x39, 0xe9, 0x3b, 0x37, 0x16, 0x22, 0x3d,
  0x1c, 0xb7, 0x01, 0xbd, 0xc9, 0xf4, 0xdd, 0xbd, 0xf0, 0xa8, 0xee, 0xbd,
  0xc5, 0x33, 0x2f, 0xbd, 0xb3, 0x95, 0xb8, 0xbc, 0xd7, 0xe3, 0xef, 0xbc,
  0x7f, 0x30, 0xce, 0xbc, 0xaa, 0xf1, 0xe0, 0xbc, 0xe0, 0x6a, 0x8f, 0x3d,
  0xdb, 0x0f, 0x33, 0x3e, 0x24, 0x42, 0xae, 0x3d, 0x42, 0x7a, 0x04, 0x3c,
  0x5b, 0x9b, 0x41, 0x3d, 0xfc, 0xac, 0x1f, 0x3d, 0x0e, 0x0d, 0x8f, 0x3d,
  0xfc, 0xaf, 0x31, 0x3d, 0x30, 0xc3, 0x60, 0x3d, 0x37, 0x1a, 0xe5, 0xbc,
  0x36, 0x5e, 0xb8, 0xbc, 0x02, 0x2a, 0x9a, 0xbc, 0x9d, 0x2f, 0x05, 0xbb,
  0xf8, 0x35, 0xc8, 0xbc, 0xb4, 0xc3, 0xda, 0xbc, 0xc3, 0xb5, 0xb1, 0xbc,
  0x62, 0x14, 0x27, 0x3c, 0xbb, 0xce, 0x26, 0xbc, 0x8c, 0x2d, 0x4b, 0x3d,
  0xd3, 0xdb, 0x9c, 0xbd, 0x52, 0x02, 0x35, 0xbe, 0x58, 0x52, 0x39, 0xbe,
  0xc1, 0xb8, 0xe7, 0xbd, 0xbe, 0x1a, 0x29, 0xbc, 0xb9, 0xda, 0x16, 0xbb,
  0x7c, 0x48, 0x19, 0x3b, 0xe8, 0x4b, 0x29, 0xbb, 0x9d, 0x3e, 0x0e, 0xbb,
  0xf7, 0x93, 0x48, 0x3d, 0x48, 0x69, 0xf5, 0x3d, 0xe1, 0x0f, 0x17, 0x3e,
  0xf3, 0xf9, 0x76, 0x3c, 0x11, 0xb3, 0x51, 0xbc, 0xab, 0x6c, 0xce, 0x3c,
  0x31, 0x08, 0x1a, 0x3d, 0x68, 0x87, 0x06, 0x3d, 0x1e, 0x2c, 0x7b, 0x3d,
  0x74, 0x34, 0x95, 0x3d, 0x9b, 0xf5, 0x82, 0x3c, 0x28, 0xdc, 0x41, 0x3d,
  0x56, 0x58, 0xe6, 0x3c, 0xd7, 0x25, 0x29, 0x3d, 0x08, 0x81, 0xdc, 0x3c,
  0x73, 0x90, 0x89, 0x3c, 0x36, 0xda, 0x5e, 0x3c, 0x8d, 0xbc, 0x1f, 0x3d,
  0xb5, 0x40, 0x10, 0x3d, 0x4a, 0x8f, 0xc5, 0xbd, 0x40, 0x5d, 0xfd, 0xbd,
  0x98, 0x5f, 0xca, 0xbd, 0x57, 0x9b, 0x9d, 0xbd, 0xed, 0x51, 0xd2, 0xbc,
  0x19, 0x47, 0x06, 0x3c, 0xbb, 0xd2, 0x99, 0xbc, 0xfb, 0x73, 0x40, 0xbc,
  0xd1, 0x80, 0x02, 0xbd, 0x45, 0xef, 0x05, 0x3d, 0x59, 0x0e, 0xa7, 0x3d,
  0xd9, 0xd5, 0x13, 0x3e, 0xd0, 0xc0, 0xf9, 0x3d, 0x17, 0x4b, 0xcb, 0x3d,
  0x35, 0xfe, 0xae, 0x3d, 0xd5, 0xdf, 0x32, 0x3d, 0x71, 0x14, 0xf3, 0x3d,
  0x5a, 0xd5, 0x08, 0x3e, 0x79, 0xea, 0xa7, 0x3d, 0xb4, 0x8a, 0xe4, 0x3d,
  0x86, 0x77, 0x8e, 0x3d, 0x92, 0x0c, 0x81, 0x3d, 0xa3, 0x05, 0xdc, 0x3d,
  0x75, 0xb0, 0x04, 0x3c, 0x00, 0x7b, 0x84, 0x3d, 0xe3, 0xba, 0xd0, 0x3c,
  0x3c, 0x57, 0x01, 0x3d, 0xe5, 0x18, 0x8e, 0xbd, 0x65, 0x4f, 0xf7, 0xbd,
  0xbd, 0xfa, 0xb3, 0xbd, 0xba, 0x25, 0xd3, 0xbd, 0x44, 0xc6, 0x89, 0xbc,
  0x20, 0xb4, 0x44, 0x3b, 0xa6, 0x67, 0x7f, 0xbb, 0xcc, 0x48, 0xa2, 0x3b,
  0xf5, 0x14, 0x07, 0xbd, 0xda, 0xc4, 0xbe, 0x3c, 0x72, 0xce, 0x62, 0x3c,
  0x57, 0x19, 0xd2, 0x3b, 0x27, 0xbc, 0xa5, 0x3c, 0xae, 0x4c, 0x01, 0x3e,
  0xc5, 0x20, 0xe7, 0x3d, 0xfe, 0x5a, 0xaf, 0x3d, 0x4b, 0xa1, 0x7d, 0x3d,
  0x4f, 0x80, 0x71, 0x3d, 0xb6, 0x39, 0xd7, 0xbc, 0xdf, 0x9e, 0xc9, 0x3c,
  0xf1, 0xd0, 0x42, 0x3c, 0x45, 0xf8, 0x2b, 0xbc, 0x00, 0xa3, 0x03, 0xbd,
  0xb0, 0xa1, 0x0f, 0xbc, 0x9b, 0xc1, 0x45, 0x3b, 0x73, 0x33, 0x1f, 0xbd,
  0x55, 0x71, 0x02, 0xbe, 0xdb, 0x00, 0xce, 0xbd, 0x30, 0x16, 0xa9, 0xbd,
  0x75, 0x6c, 0xbd, 0xbd, 0x74, 0x90, 0x76, 0xbd, 0x8b, 0x7d, 0x73, 0xbd,
  0xfe, 0x9b, 0x7c, 0xbc, 0x1a, 0xcf, 0x26, 0xbc, 0xa1, 0x2d, 0x86, 0xbc,
  0x60, 0x02, 0x08, 0x3d, 0xa1, 0xf0, 0xa4, 0xb9, 0x78, 0x3d, 0x06, 0xbc,
  0xee, 0x30, 0xb9, 0xbc, 0x4c, 0x96, 0x6c, 0x3c, 0x38, 0x15, 0x97, 0xbb,
  0xba, 0xb0, 0x15, 0xbd, 0x3c, 0x2d, 0x3c, 0xbd, 0xe7, 0x32, 0xaf, 0xbd,
  0xea, 0x6b, 0xc7, 0xbd, 0x45, 0x41, 0xb0, 0xbd, 0x4e, 0x97, 0xfa, 0xbd,
  0x95, 0x12, 0x8b, 0xbd, 0x70, 0x11, 0x9a, 0xbd, 0x83, 0x7e, 0xd0, 0xbd,
  0xb4, 0x10, 0xc4, 0xbd, 0x07, 0xc9, 0xff, 0xbd, 0x0a, 0xbd, 0xf5, 0xbd,
  0xaf, 0x29, 0xc1, 0xbd, 0x2a, 0x90, 0xba, 0xbd, 0x5c, 0x4d, 0x78, 0xbd,
  0x3c, 0x62, 0x15, 0xbd, 0x40, 0x94, 0x4c, 0xbc, 0xf2, 0x8f, 0x41, 0xbc,
  0xed, 0xd3, 0x98, 0x3b, 0xfe, 0x6d, 0x0c, 0xbd, 0xc6, 0xf1, 0x9e, 0x3c,
  0x63, 0x1e, 0x70, 0x3c, 0xb1, 0x3f, 0xdc, 0x39, 0x52, 0xcf, 0xe0, 0xbc,
  0x25, 0xe9, 0x00, 0xbd, 0x96, 0xd0, 0x9b, 0x3b, 0x82, 0xe1, 0xb9, 0x3c,
  0xa3, 0xeb, 0x91, 0xbb, 0x82, 0x12, 0x40, 0x3b, 0xf1, 0x0d, 0x0b, 0xbd,
  0x3b, 0xdd, 0xfc, 0xbc, 0x5a, 0xae, 0xc6, 0xbc, 0x69, 0x24, 0x87, 0xbc,
  0xc4, 0x99, 0xfc, 0xbc, 0x00, 0xa1, 0x45, 0xbc, 0x15, 0xad, 0x23, 0xbd,
  0x2b, 0xa2, 0xc8, 0xbd, 0x70, 0xae, 0x95, 0xbd, 0x89, 0x92, 0x22, 0xbd,
  0xba, 0xd0, 0x82, 0xbd, 0x8b, 0x93, 0x3e, 0xbd, 0x35, 0x51, 0x74, 0x3c,
  0x68, 0xa6, 0xa7, 0xbc, 0x53, 0xbb, 0x1a, 0xbc, 0xbf, 0x30, 0xc1, 0x3c,
  0x01, 0xb8, 0x1a, 0xbc, 0x7d, 0x9e, 0xe2, 0xbb, 0xf0, 0x6a, 0x2c, 0x3c,
  0x9e, 0x87, 0xb7, 0xbc, 0x6f, 0xea, 0xf9, 0x3c, 0x0e, 0x0a, 0xc3, 0x3c,
  0xb6, 0xad, 0x13, 0x3d, 0x0b, 0xe7, 0x6d, 0x3c, 0x42, 0x9b, 0x9e, 0xbc,
  0x4c, 0x69, 0xf7, 0xbb, 0x68, 0xc6, 0x88, 0x3c, 0xf2, 0xfe, 0xc6, 0xbc,
  0x1a, 0xab, 0x11, 0x3d, 0x50, 0x39, 0x07, 0x3d, 0x21, 0x91, 0x44, 0x3c,
  0xce, 0x4f, 0x36, 0x3d, 0x57, 0x66, 0x2c, 0x3d, 0x95, 0x63, 0xa9, 0xbc,
  0xb1, 0x38, 0x96, 0x3c, 0x21, 0xce, 0x1f, 0x3c, 0xa3, 0x40, 0x06, 0x3c,
  0x43, 0xef, 0x46, 0x3d, 0xdb, 0xc0, 0x5c, 0x3b, 0xce, 0x61, 0x34, 0x3d,
  0x9e, 0xb8, 0x9c, 0xbc, 0x62, 0xae, 0x40, 0x3c, 0xc0, 0x17, 0x6c, 0xbb,
  0x5a, 0x47, 0x61, 0xb9, 0x32, 0x76, 0x92, 0x3c, 0x60, 0xf5, 0xae, 0x3c,
  0x2e, 0xa0, 0xd7, 0x3c, 0x20, 0xdc, 0xab, 0xbc, 0xda, 0x2b, 0xb1, 0xbc,
  0xbb, 0xf6, 0xca, 0x3b, 0x80, 0x29, 0x53, 0x3d, 0x6f, 0xa8, 0xda, 0xbb,
  0x95, 0x7a, 0x0c, 0x3d, 0xc1, 0x1e, 0xf9, 0x3c, 0x57, 0xe8, 0x59, 0x3c,
  0xf0, 0x5f, 0x2d, 0x3d, 0x8d, 0x74, 0xbe, 0x3c, 0x49, 0xf2, 0xab, 0x3c,
  0x5d, 0xea, 0x1c, 0x3d, 0x25, 0x80, 0xd3, 0x3b, 0x22, 0xe7, 0x2d, 0x3d,
  0xa0, 0xce, 0x2b, 0x3d, 0x01, 0xe9, 0x39, 0xbb, 0x7f, 0x51, 0x57, 0x3c,
  0xaa, 0x53, 0x91, 0x3b, 0xaf, 0x21, 0x3c, 0x3b, 0x29, 0xb6, 0xa0, 0xbb,
  0xed, 0xe6, 0x6d, 0x3c, 0xa5, 0xe5, 0x44, 0xbc, 0xdb, 0x3b, 0x98, 0x3c,
  0x13, 0xa3, 0x9b, 0x3c, 0x87, 0xb0, 0x03, 0x3c, 0x55, 0x92, 0xc0, 0x3c,
  0x9c, 0x26, 0x07, 0x3d, 0x2b, 0x32, 0xfd, 0x3c, 0xbd, 0xd0, 0x61, 0xbc,
  0xc5, 0x29, 0x87, 0xbb, 0x17, 0x58, 0xe7, 0x3b, 0xe9, 0xaf, 0x2a, 0xbc,
  0xd0, 0xb9, 0x3d, 0x3d, 0x94, 0x4f, 0x39, 0x3d, 0x7a, 0x79, 0x0b, 0x3d,
  0x47, 0xcd, 0xb8, 0x3c, 0x26, 0xa5, 0x3e, 0x3d, 0xea, 0x06, 0x6a, 0x3d,
  0x5e, 0x73, 0x8c, 0x3c, 0x7f, 0x5d, 0x58, 0xbc, 0x90, 0xec, 0xba, 0x3c,
  0xa4, 0x41, 0x4c, 0x3d, 0x11, 0x93, 0x81, 0x3c, 0xdb, 0xd3, 0x7a, 0xbc,
  0xb0, 0xb5, 0x99, 0x3c, 0xa5, 0x33, 0xab, 0x3c, 0x1e, 0x0c, 0x1f, 0x3d,
  0xf8, 0x44, 0x42, 0xbc, 0xe5, 0x25, 0xa2, 0x3b, 0xb5, 0xd0, 0x44, 0x3d,
  0x9c, 0x39, 0x4c, 0x3d, 0xe5, 0x79, 0x89, 0xbc, 0x79, 0xe5, 0x42, 0x3d,
  0x41, 0x00, 0x15, 0x3d, 0x0b, 0x71, 0x6b, 0x3c, 0x87, 0x7c, 0x1a, 0x3c,
  0x01, 0x69, 0x39, 0xbb, 0x7c, 0xb9, 0x1d, 0x3a, 0x92, 0x92, 0x52, 0x3d,
  0xc8, 0xaf, 0x15, 0x3d, 0x74, 0xee, 0x52, 0x3d, 0x0f, 0xdc, 0xc9, 0x3c,
  0x6d, 0xdc, 0x5b, 0xbb, 0xe4, 0x14, 0x95, 0xbb, 0xb7, 0x70, 0x61, 0x3d,
  0xf9, 0x1a, 0x48, 0xbc, 0xd6, 0x04, 0x49, 0x3d, 0xe1, 0xad, 0x98, 0x3b,
  0xa8, 0x52, 0x4a, 0xbc, 0xc2, 0xe2, 0x8f, 0x3b, 0x40, 0xd3, 0x82, 0xbd,
  0x48, 0x98, 0x32, 0x39, 0x41, 0xc4, 0xc7, 0x3c, 0x1d, 0xcb, 0x27, 0xbc,
  0x26, 0x50, 0xad, 0x3c, 0x81, 0x86, 0xa3, 0x3b, 0xc2, 0x08, 0xc1, 0xbb,
  0xb5, 0xec, 0x29, 0xbc, 0xb5, 0x19, 0xc5, 0x3c, 0xb8, 0x67, 0xf2, 0x3c,
  0xf8, 0x07, 0x69, 0xbb, 0x50, 0x5d, 0x6a, 0x3c, 0x61, 0x08, 0x29, 0x3d,
  0x0b, 0x21, 0x07, 0x3d, 0x07, 0x96, 0x2b, 0xbc, 0x6b, 0xc0, 0xf8, 0x3c,
  0xf0, 0xaa, 0x67, 0x3d, 0x17, 0x8c, 0x48, 0x3c, 0xb6, 0x0d, 0x04, 0x3d,
  0x19, 0x48, 0x2d, 0x3b, 0xb6, 0x89, 0x91, 0x3b, 0xf2, 0x75, 0x8f, 0x3c,
  0x57, 0xfa, 0x42, 0x3c, 0x71, 0xd8, 0x90, 0x3c, 0x77, 0x8c, 0xb0, 0x3c,
  0x3b, 0x88, 0x0f, 0xbd, 0xd6, 0xe1, 0xad, 0xbc, 0xaf, 0xa2, 0xb6, 0xbd,
  0xed, 0xb3, 0xe8, 0xbd, 0xe8, 0x9d, 0xa2, 0xbd, 0xe0, 0x7f, 0x06, 0xbe,
  0x3b, 0x2b, 0xda, 0xbd, 0x7f, 0x22, 0xa4, 0xbd, 0x36, 0xc3, 0x08, 0xbd,
  0xf6, 0x15, 0xb4, 0xbd, 0xac, 0xd1, 0xb7, 0xbd, 0x40, 0x2a, 0xf9, 0xbd,
  0x7e, 0x99, 0x04, 0xbe, 0x89, 0x5e, 0x45, 0xbd, 0xb8, 0x3a, 0x84, 0x3c,
  0x2c, 0x07, 0x13, 0x3c, 0xca, 0x8f, 0x9a, 0xbb, 0x60, 0x81, 0x66, 0x3c,
  0xcc, 0x0e, 0xb1, 0x3b, 0x62, 0x55, 0x1b, 0x3d, 0xc1, 0x4e, 0xd0, 0xbb,
  0x94, 0x96, 0x32, 0xbc, 0x95, 0x23, 0x84, 0x3c, 0x9d, 0xa1, 0xaa, 0x3b,
  0xec, 0x4a, 0x1d, 0x3d, 0x6e, 0x33, 0x9a, 0x3a, 0x94, 0x0d, 0x73, 0xbc,
  0x14, 0x7c, 0x23, 0xbd, 0x32, 0xd9, 0x8b, 0xbc, 0x2b, 0xe8, 0xc9, 0xbd,
  0x26, 0xfe, 0x98, 0xbd, 0x0c, 0x64, 0xb2, 0xb9, 0xc7, 0x9f, 0x56, 0x3d,
  0x7b, 0xb6, 0xf3, 0x3d, 0x4c, 0x2d, 0x05, 0x3e, 0xa1, 0xda, 0xe5, 0x3d,
  0x9d, 0x86, 0xc4, 0x3d, 0xdd, 0xac, 0x97, 0x3d, 0xb2, 0x69, 0xec, 0x3d,
  0xfe, 0xd8, 0x2e, 0x3e, 0xa9, 0xb9, 0x41, 0x3e, 0x9b, 0x6a, 0x54, 0x3e,
  0xfd, 0x6c, 0x0a, 0x3e, 0x7b, 0x97, 0x84, 0x3d, 0xde, 0x76, 0xe7, 0xbb,
  0xb5, 0xd1, 0x9e, 0xbc, 0x58, 0xbf, 0x11, 0xbc, 0xbb, 0xe7, 0xa5, 0x3a,
  0x33, 0x94, 0x4f, 0x3c, 0xd0, 0xae, 0x4b, 0x3d, 0xc8, 0x3f, 0x03, 0x3d,
  0xb3, 0x6c, 0x55, 0x3d, 0x5b, 0xb7, 0x65, 0x3b, 0xa6, 0x25, 0x36, 0xbc,
  0x4f, 0x1e, 0xe2, 0x3b, 0x6e, 0x71, 0x80, 0xbd, 0xe9, 0x05, 0x19, 0xbe,
  0x0d, 0xdb, 0x5b, 0xbe, 0x0f, 0xfd, 0x5b, 0xbe, 0x0b, 0x8c, 0xf5, 0xbd,
  0x3c, 0x52, 0xa0, 0xbd, 0x90, 0xf9, 0x4a, 0xbd, 0xf5, 0x30, 0xc3, 0xbd,
  0x02, 0xa1, 0xae, 0xbd, 0xbc, 0x46, 0xed, 0xbd, 0x62, 0xbf, 0x2a, 0xbe,
  0x74, 0xb9, 0xe1, 0xbd, 0x1a, 0x74, 0x02, 0x3c, 0xe2, 0xad, 0xd9, 0x3d,
  0xa0, 0x9b, 0x3c, 0x3e, 0x53, 0x4c, 0x14, 0x3e, 0xc5, 0x55, 0x0e, 0x3d,
  0x7d, 0x42, 0xcb, 0x3b, 0x23, 0x05, 0x80, 0xbd, 0x8c, 0xfc, 0x1e, 0x3c,
  0x1e, 0xa3, 0x46, 0xba, 0xcc, 0x8f, 0x0b, 0x3d, 0x09, 0x03, 0x10, 0x3d,
  0x89, 0x84, 0x37, 0x3c, 0xbd, 0xeb, 0xa8, 0x3b, 0xab, 0x09, 0x39, 0x3d,
  0x2d, 0x02, 0x1c, 0x3d, 0xba, 0xe7, 0x04, 0x3d, 0x46, 0xae, 0xe4, 0xbd,
  0x08, 0x10, 0xf8, 0xbd, 0x75, 0xfd, 0x2c, 0xbe, 0xc1, 0x08, 0x4a, 0xbe,
  0x44, 0x52, 0xef, 0xbd, 0xe7, 0xae, 0x49, 0xbd, 0x30, 0xd4, 0x6d, 0xbd,
  0xe2, 0x83, 0xaf, 0xbd, 0x84, 0x9d, 0xda, 0xbd, 0xdc, 0x33, 0x02, 0xbe,
  0xd5, 0x75, 0xb2, 0xbd, 0x85, 0xb1, 0x9d, 0xbd, 0x99, 0x57, 0xf6, 0xbd,
  0x69, 0xd6, 0x07, 0xbd, 0x2d, 0xad, 0xb6, 0xbc, 0x36, 0xb6, 0xee, 0xbc,
  0xfb, 0xa9, 0x0b, 0xbe, 0xdb, 0xd4, 0xf5, 0xbd, 0x5a, 0xa5, 0xc7, 0xbd,
  0xec, 0xd9, 0xc2, 0xbc, 0x78, 0x18, 0xf2, 0x3c, 0x35, 0x84, 0x3c, 0x3b,
  0x2b, 0xeb, 0x86, 0x3c, 0x6d, 0xf0, 0x87, 0x3c, 0xda, 0xc4, 0x3b, 0x3d,
  0x49, 0x91, 0x0f, 0x3d, 0xca, 0xfb, 0x73, 0x3d, 0xb4, 0x6d, 0xa4, 0x3d,
  0xe7, 0x75, 0x78, 0x3b, 0x5f, 0x4d, 0x4c, 0xbd, 0x31, 0x97, 0xc1, 0xbc,
  0x4a, 0x4a, 0xdb, 0xbc, 0x90, 0x98, 0x16, 0xbd, 0x89, 0x5c, 0x48, 0xbd,
  0xcb, 0xc2, 0x0c, 0xbc, 0xbd, 0x49, 0xa1, 0xbb, 0xd0, 0x6e, 0x97, 0xbd,
  0x72, 0xcc, 0xa7, 0xbd, 0x8c, 0x5d, 0x08, 0xbd, 0xbc, 0xd0, 0xbe, 0xbc,
  0xda, 0x9c, 0x4e, 0x3d, 0xe1, 0xc3, 0x43, 0x3d, 0xab, 0x54, 0xda, 0x3c,
  0x8b, 0xd3, 0x84, 0xbd, 0x1f, 0x7a, 0x24, 0xbe, 0xdd, 0xc1, 0x84, 0xbe,
  0xd8, 0xfc, 0x44, 0xbe, 0x07, 0x59, 0x48, 0x3a, 0xed, 0xac, 0x4d, 0x3d,
  0x98, 0x38, 0x1d, 0x3d, 0xe5, 0xd9, 0xb0, 0x3b, 0xa1, 0x53, 0xa4, 0x3d,
  0x18, 0xde, 0xe3, 0x3d, 0x0f, 0x20, 0x15, 0x3e, 0x04, 0x58, 0xb6, 0x3d,
  0xe2, 0x69, 0x37, 0x3d, 0x35, 0x95, 0x78, 0x3d, 0x1f, 0x76, 0x27, 0x3d,
  0xdc, 0xf6, 0x7d, 0x3d, 0xfe, 0xd8, 0xd9, 0x3c, 0x98, 0xf9, 0x25, 0xbc,
  0x16, 0xc0, 0x96, 0x3a, 0x7d, 0xb7, 0x50, 0x3d, 0x03, 0x09, 0xad, 0x3d,
  0xd6, 0xe9, 0xc1, 0x3d, 0x01, 0x0c, 0x89, 0x3d, 0xc7, 0xe0, 0x1d, 0x3e,
  0xb1, 0x3c, 0x95, 0x3d, 0xab, 0x30, 0x61, 0x3d, 0x40, 0xc3, 0xcd, 0x3c,
  0x39, 0x9f, 0x72, 0xbc, 0x9b, 0xb6, 0x9e, 0xbd, 0x00, 0x05, 0x27, 0xbe,
  0xef, 0x9b, 0x7b, 0xbe, 0x40, 0xf9, 0x32, 0xbe, 0x87, 0x5b, 0x3f, 0xbd,
  0xaf, 0x5c, 0xdc, 0x3c, 0x79, 0x08, 0x1d, 0xbc, 0xfd, 0xfe, 0xb6, 0x3b,
  0xfd, 0x6a, 0x93, 0x3d, 0x9a, 0x08, 0x0f, 0x3e, 0x37, 0x73, 0x10, 0x3e,
  0xb5, 0xa5, 0x90, 0x3d, 0xb3, 0x55, 0xb2, 0x3d, 0xf7, 0x21, 0xd0, 0x3d,
  0x0f, 0x8e, 0x14, 0x3d, 0xcf, 0x27, 0x4c, 0x3d, 0x1a, 0xa6, 0xcd, 0x3c,
  0x25, 0x37, 0xfd, 0xbc, 0xeb, 0xa0, 0xcf, 0x3c, 0x0b, 0x0b, 0xa8, 0x3d,
  0x20, 0xd0, 0x5f, 0x3e, 0x06, 0x9b, 0x75, 0x3e, 0x12, 0x0d, 0x6f, 0x3e,
  0xf5, 0x8f, 0x6a, 0x3e, 0xd7, 0x9d, 0x22, 0x3e, 0x5b, 0x0d, 0x85, 0x3d,
  0x90, 0x53, 0x22, 0x3d, 0x8c, 0xfc, 0x4d, 0xbc, 0xe0, 0xfb, 0xbe, 0xbc,
  0x91, 0x08, 0x68, 0xbe, 0xaa, 0x52, 0x7d, 0xbe, 0x2d, 0xb5, 0x18, 0xbe,
  0x19, 0xe9, 0x46, 0xbc, 0x7a, 0xc0, 0x94, 0x3c, 0xcb, 0xf7, 0x1f, 0x3d,
  0xb4, 0xc4, 0x3d, 0x3c, 0x4f, 0x8b, 0xa0, 0x3d, 0x87, 0xdd, 0xf9, 0x3d,
  0xe5, 0x44, 0x05, 0x3e, 0x1d, 0x7e, 0x94, 0x3d, 0x4b, 0x73, 0x54, 0x3d,
  0x29, 0x3b, 0xc4, 0x3c, 0xcf, 0x6a, 0x13, 0x3a, 0x3c, 0x8d, 0x63, 0x3c,
  0xc7, 0x29, 0x55, 0x3a, 0x2c, 0x0b, 0x47, 0xbd, 0x44, 0x62, 0x83, 0xbc,
  0xe8, 0x7f, 0xee, 0x3d, 0x13, 0x99, 0xa1, 0x3e, 0xbf, 0x55, 0xb5, 0x3e,
  0x6e, 0x84, 0x53, 0x3e, 0x39, 0xa8, 0x4b, 0x3e, 0x64, 0x8e, 0xcd, 0x3d,
  0x94, 0x85, 0x33, 0x3d, 0x7b, 0x95, 0x6f, 0x3d, 0x42, 0xb6, 0x5c, 0x3c,
  0xee, 0x94, 0xb1, 0x3c, 0x40, 0x73, 0xdb, 0xbd, 0xff, 0x63, 0x4b, 0xbe,
  0x68, 0x3e, 0x08, 0xbe, 0x93, 0x43, 0x81, 0xbd, 0xa2, 0x8e, 0x34, 0xba,
  0xe7, 0xfc, 0xa8, 0x3b, 0xfe, 0xc2, 0x74, 0x3d, 0x77, 0x66, 0x48, 0x3d,
  0x31, 0xc5, 0x02, 0x3e, 0xad, 0x0c, 0xaf, 0x3d, 0x31, 0x7c, 0x40, 0x3d,
  0x1e, 0xda, 0x54, 0xbc, 0x0f, 0x98, 0x81, 0xba, 0xd9, 0x8c, 0x5f, 0xbd,
  0xf6, 0x8a, 0x19, 0xbd, 0xfb, 0x3a, 0x0e, 0xbd, 0x03, 0x91, 0x7e, 0xbd,
  0x3b, 0x03, 0x0a, 0xbe, 0x02, 0x76, 0x8d, 0x3c, 0x6d, 0xa2, 0x96, 0x3e,
  0x90, 0x79, 0x91, 0x3e, 0x8f, 0x4c, 0x9a, 0x3d, 0xca, 0x68, 0xe9, 0x3d,
  0x50, 0x2a, 0x70, 0x3d, 0x1d, 0xc3, 0xeb, 0x3c, 0x99, 0xfa, 0x5a, 0x3d,
  0x00, 0x1e, 0xba, 0x3d, 0x60, 0x75, 0xa1, 0xbc, 0x4c, 0x21, 0x8c, 0xbd,
  0x6f, 0xf4, 0xf7, 0xbd, 0x66, 0x39, 0x35, 0xbd, 0xec, 0xab, 0x40, 0xbc,
  0x66, 0xfe, 0x1e, 0x3d, 0x5f, 0x52, 0x33, 0x3d, 0x42, 0xaa, 0x41, 0x3a,
  0xaf, 0x42, 0xa4, 0x3d, 0xc8, 0x87, 0x83, 0x3d, 0x31, 0x44, 0xc0, 0x3d,
  0x83, 0x12, 0x10, 0x3c, 0xee, 0xd8, 0x48, 0xbd, 0xce, 0x34, 0x1d, 0x3d,
  0xf4, 0xb3, 0x19, 0xbd, 0x73, 0xbf, 0xa1, 0xbd, 0x58, 0x6a, 0xa3, 0xbd,
  0x65, 0xfa, 0x5d, 0xbe, 0xfc, 0x8f, 0x9e, 0xbe, 0x5c, 0xb7, 0x90, 0xbd,
  0x01, 0xc7, 0x22, 0x3e, 0xff, 0xf4, 0x91, 0x3d, 0xef, 0x55, 0x2e, 0xbd,
  0x9c, 0x1a, 0xe8, 0x3b, 0xca, 0xd1, 0x83, 0x3d, 0x11, 0x20, 0x3c, 0x3c,
  0xa9, 0x21, 0xb8, 0x3d, 0x94, 0x46, 0xf4, 0x3c, 0x46, 0x45, 0xef, 0xbc,
  0xff, 0xd0, 0xc4, 0xbd, 0x12, 0xa8, 0xbf, 0xbd, 0xa5, 0x78, 0xd4, 0xbc,
  0x4d, 0x3e, 0xb8, 0x3b, 0x0c, 0x78, 0x02, 0xbc, 0xce, 0x1b, 0xbb, 0xba,
  0xdc, 0xc5, 0x81, 0x3d, 0x23, 0x41, 0xed, 0x3c, 0x01, 0xd5, 0x82, 0x3d,
  0x7f, 0x73, 0x0a, 0x3e, 0x20, 0x08, 0x0d, 0x3d, 0x9c, 0x1d, 0xd3, 0xbc,
  0x99, 0xa9, 0xc0, 0xbb, 0x20, 0x81, 0x16, 0xbd, 0xc7, 0x25, 0x06, 0xbe,
  0xa2, 0x8c, 0x81, 0xbe, 0xa3, 0x0e, 0xf2, 0xbe, 0xdb, 0x68, 0xc5, 0xbe,
  0xcb, 0xd8, 0x2e, 0xbd, 0x31, 0x8d, 0xf8, 0x3c, 0x75, 0x67, 0x85, 0xbc,
  0xf9, 0xdb, 0x62, 0xbd, 0x69, 0x2a, 0xac, 0xbd, 0x35, 0x65, 0xb7, 0x3c,
  0x4a, 0x53, 0xbf, 0x3c, 0xcb, 0x35, 0xb6, 0x3d, 0xce, 0xa9, 0xd5, 0xbc,
  0xae, 0x2f, 0xd0, 0xbd, 0xac, 0x41, 0xf3, 0xbd, 0x64, 0x68, 0x0d, 0xbe,
  0x15, 0xea, 0x52, 0xbd, 0xab, 0x4c, 0xf3, 0xba, 0x84, 0x4d, 0x33, 0x3d,
  0x4b, 0x52, 0x80, 0x3c, 0x35, 0xae, 0x57, 0x3d, 0xbc, 0xdc, 0x23, 0x3d,
  0x35, 0x99, 0x86, 0x3d, 0xde, 0x76, 0x03, 0x3e, 0x29, 0x8f, 0x95, 0x3d,
  0xa5, 0xda, 0x67, 0x3c, 0x4b, 0x21, 0x33, 0xbb, 0x30, 0x70, 0xca, 0xbd,
  0x81, 0x4b, 0x20, 0xbe, 0xa6, 0x00, 0xb4, 0xbe, 0x4c, 0xc5, 0xd5, 0xbe,
  0x92, 0x6e, 0x70, 0xbe, 0x12, 0x4f, 0x10, 0xbc, 0x3d, 0x37, 0x30, 0xbd,
  0x9e, 0x48, 0x34, 0xbd, 0x72, 0x9a, 0x1b, 0xbe, 0x64, 0x47, 0x93, 0xbd,
  0x4f, 0xfc, 0x84, 0xbc, 0x12, 0xb7, 0xd1, 0x3d, 0x53, 0xd5, 0x40, 0x3d,
  0x82, 0x90, 0x59, 0xbd, 0xc5, 0x70, 0x71, 0xbd, 0x87, 0x0e, 0x8d, 0xbd,
  0x1e, 0x59, 0x9b, 0xbd, 0xb0, 0x11, 0x05, 0x3c, 0xb2, 0xf7, 0x27, 0x3d,
  0x6b, 0x6b, 0xe4, 0x3c, 0x29, 0xa9, 0x89, 0x3a, 0x03, 0xe2, 0x54, 0xbc,
  0xaa, 0xc3, 0x35, 0x3c, 0xda, 0x6b, 0x86, 0x3d, 0xd6, 0x91, 0x1e, 0x3c,
  0x15, 0x9b, 0xa3, 0xbd, 0xcd, 0xe1, 0xb9, 0xbc, 0xe7, 0xf3, 0xef, 0xbc,
  0xd3, 0xe1, 0x07, 0xbe, 0x2b, 0xaa, 0x80, 0xbe, 0x83, 0x2c, 0xa3, 0xbe,
  0x46, 0xfa, 0x4b, 0xbe, 0x6d, 0x46, 0xd5, 0xbd, 0xf4, 0x64, 0xa7, 0xbc,
  0xb6, 0x62, 0x00, 0x3c, 0x4c, 0x1f, 0x69, 0xbd, 0x16, 0xf7, 0xc0, 0xbd,
  0x4f, 0xc2, 0xef, 0xbc, 0xfa, 0x8f, 0x7b, 0x3d, 0x8b, 0xed, 0x44, 0x3d,
  0x24, 0xa5, 0xde, 0x3c, 0xa3, 0xa1, 0x70, 0xbd, 0xf0, 0xd9, 0xa6, 0xbd,
  0xe1, 0xeb, 0x01, 0xbe, 0xf1, 0x4d, 0x8f, 0xbd, 0xfe, 0x65, 0x89, 0xbd,
  0xf3, 0x3b, 0xf2, 0x3c, 0x39, 0xd6, 0x0b, 0x3d, 0x6c, 0x9d, 0x01, 0x3d,
  0x79, 0xa1, 0x63, 0x3d, 0x72, 0x87, 0xf0, 0x3a, 0x2e, 0xbb, 0x3a, 0x3c,
  0xc5, 0xe3, 0x6c, 0xbc, 0xef, 0x1b, 0x00, 0xbe, 0x6d, 0xbc, 0x8e, 0xbd,
  0x50, 0x27, 0xe4, 0xbd, 0x5b, 0x2b, 0x72, 0xbe, 0x56, 0xbe, 0x85, 0xbe,
  0xcf, 0x6d, 0x72, 0xbe, 0x60, 0x58, 0xe9, 0xbd, 0x63, 0xc9, 0xe6, 0xbd,
  0x6f, 0x97, 0x2d, 0x3b, 0x13, 0xdc, 0x56, 0xbc, 0xe5, 0x52, 0xc7, 0xbd,
  0xa4, 0x19, 0x7c, 0xbd, 0x32, 0xf6, 0x37, 0xbc, 0x2a, 0xe5, 0x07, 0xbc,
  0x49, 0x68, 0x0e, 0x3c, 0x4b, 0x6f, 0xe3, 0xbc, 0xcd, 0xf3, 0x07, 0xbd,
  0x5b, 0x98, 0xfa, 0xbd, 0x6a, 0xfe, 0x12, 0xbe, 0x88, 0x9c, 0xb2, 0xbd,
  0x1f, 0x43, 0x50, 0xbd, 0x0d, 0xdf, 0x7e, 0x3b, 0x36, 0xa0, 0xcd, 0xbb,
  0x5b, 0xbc, 0xce, 0x3c, 0x0b, 0x18, 0xd3, 0x3c, 0xaa, 0x6c, 0x8c, 0x3c,
  0x09, 0x24, 0x99, 0xbc, 0xfe, 0x04, 0x8a, 0xbd, 0x6c, 0x1b, 0x46, 0xbe,
  0x44, 0x42, 0x49, 0xbe, 0xb7, 0xbd, 0x13, 0xbe, 0x7d, 0x1e, 0x5a, 0xbe,
  0x12, 0x30, 0x3e, 0xbe, 0x68, 0x05, 0x11, 0xbe, 0xbb, 0xfa, 0x12, 0xbe,
  0xd6, 0x02, 0x76, 0xbd, 0x3f, 0x6b, 0xaa, 0x3d, 0x62, 0x76, 0xb6, 0x3d,
  0xf4, 0x43, 0xa6, 0xbc, 0x7c, 0x6c, 0x53, 0xbd, 0x46, 0x31, 0xa8, 0xbd,
  0x0e, 0xb9, 0x98, 0xbd, 0x20, 0x27, 0x96, 0xbd, 0x27, 0xea, 0xef, 0xbd,
  0x17, 0x19, 0x2b, 0xbe, 0x97, 0x4d, 0x5b, 0xbe, 0xfa, 0x74, 0x37, 0xbe,
  0xed, 0xe9, 0x2d, 0xbe, 0x93, 0xa6, 0xd3, 0xbc, 0x15, 0xba, 0x28, 0x3d,
  0xd6, 0x7f, 0xba, 0x3a, 0x94, 0xb0, 0x10, 0x3d, 0xc8, 0x03, 0x3c, 0xbc,
  0x18, 0xe1, 0x75, 0x3c, 0x67, 0x7d, 0x03, 0xbd, 0x53, 0x07, 0xe1, 0xbd,
  0x4b, 0x24, 0x5a, 0xbe, 0x96, 0xb9, 0x90, 0xbe, 0x8f, 0xc9, 0x92, 0xbe,
  0xea, 0xb5, 0x1c, 0xbe, 0x64, 0x6b, 0xc5, 0xbc, 0xf4, 0xb3, 0x11, 0xbe,
  0x4f, 0x25, 0x0b, 0xbe, 0xb4, 0xc4, 0xda, 0x3c, 0xd8, 0xf6, 0x10, 0x3e,
  0xd7, 0x41, 0xb0, 0x3d, 0x47, 0x07, 0xe6, 0xbc, 0x06, 0x48, 0xdb, 0xbd,
  0xac, 0x32, 0xd6, 0xbd, 0x26, 0x5c, 0x0f, 0xbe, 0x7e, 0x02, 0xe9, 0xbd,
  0x35, 0x36, 0x02, 0xbe, 0x30, 0xb6, 0x4b, 0xbe, 0xad, 0x7f, 0x7c, 0xbe,
  0x75, 0xc9, 0x83, 0xbe, 0x16, 0xf1, 0x49, 0xbe, 0xc3, 0x18, 0x63, 0xbc,
  0x8e, 0x89, 0x62, 0x3b, 0x40, 0xb7, 0x50, 0x3d, 0x69, 0xc8, 0x39, 0xbb,
  0x7a, 0x80, 0xd7, 0x3c, 0x2e, 0x7d, 0x49, 0x3c, 0x11, 0x4b, 0xe2, 0xba,
  0x84, 0xe1, 0x01, 0xbe, 0xa6, 0x8c, 0x76, 0xbe, 0xc4, 0x9d, 0xa3, 0xbe,
  0xfb, 0xd8, 0x4f, 0xbe, 0xe2, 0x67, 0x10, 0xbe, 0x5e, 0x0d, 0xc1, 0xbd,
  0xfd, 0xfb, 0x17, 0xbe, 0x1a, 0xa8, 0xfa, 0xbd, 0x85, 0x66, 0x1e, 0x3c,
  0xe2, 0xe9, 0xef, 0x3d, 0x96, 0x70, 0x55, 0x3d, 0xd4, 0x9c, 0xa9, 0xbd,
  0x4a, 0x00, 0x16, 0xbe, 0x3c, 0xf9, 0x4b, 0xbe, 0x9c, 0x6a, 0x44, 0xbe,
  0xcd, 0x7c, 0x24, 0xbe, 0x14, 0x80, 0x8b, 0xbe, 0x96, 0xfe, 0xac, 0xbe,
  0xc6, 0x35, 0xa3, 0xbe, 0xd1, 0xc4, 0x49, 0xbe, 0x09, 0x76, 0x15, 0xbe,
  0xeb, 0x6c, 0xc6, 0x3c, 0x14, 0x60, 0x0b, 0x3d, 0xc7, 0x09, 0x48, 0x3d,
  0x86, 0x82, 0x22, 0x39, 0xfc, 0x0b, 0x74, 0xbb, 0xe9, 0xab, 0x0d, 0x3c,
  0x17, 0xd3, 0x14, 0xbd, 0x01, 0x84, 0xed, 0xbd, 0x4a, 0xde, 0x8e, 0xbe,
  0x3e, 0xd9, 0x54, 0xbe, 0x5c, 0xf0, 0xff, 0xbd, 0x35, 0x0e, 0x9a, 0xbd,
  0xa0, 0x6f, 0xe0, 0xbd, 0xef, 0x23, 0x74, 0xbd, 0xd9, 0xeb, 0xb8, 0xbd,
  0x6d, 0x28, 0x37, 0xbd, 0xb6, 0x24, 0x5a, 0x3d, 0xe3, 0xef, 0xb1, 0x3b,
  0xd0, 0xa1, 0xf6, 0xbd, 0x2d, 0x0c, 0x28, 0xbe, 0x7a, 0x15, 0x37, 0xbe,
  0x0b, 0xe7, 0x80, 0xbe, 0x9e, 0xd6, 0x6d, 0xbe, 0x10, 0xc2, 0x80, 0xbe,
  0x98, 0x60, 0x92, 0xbe, 0x54, 0x28, 0x94, 0xbe, 0x9e, 0xe3, 0x22, 0xbe,
  0xf7, 0x24, 0xbf, 0xbd, 0x30, 0xb7, 0xe6, 0xbb, 0xda, 0x09, 0xb8, 0x3c,
  0xb2, 0x6f, 0xb0, 0x3c, 0x81, 0x19, 0x23, 0xbc, 0x6d, 0x4b, 0x7c, 0x3c,
  0x4f, 0x6e, 0xe3, 0x3c, 0x87, 0xb8, 0xd3, 0xbd, 0xff, 0xa5, 0x03, 0xbe,
  0x24, 0x75, 0x0c, 0xbe, 0x5e, 0x3c, 0x78, 0xbd, 0x3f, 0xd0, 0xea, 0x3b,
  0x6c, 0x49, 0x43, 0xbc, 0x47, 0x5c, 0x71, 0xbd, 0x65, 0x8b, 0x35, 0xbc,
  0xf7, 0x26, 0x8f, 0xbd, 0x53, 0x54, 0x5e, 0xbd, 0x0b, 0xf0, 0x12, 0xbd,
  0xcf, 0x18, 0xe4, 0xbc, 0x5c, 0x86, 0x3b, 0xbd, 0x6c, 0x5c, 0x8e, 0xbd,
  0x31, 0xb7, 0x9a, 0xbd, 0x33, 0x8e, 0x4f, 0xbe, 0xf5, 0xea, 0x87, 0xbe,
  0x63, 0xe7, 0x36, 0xbe, 0xda, 0x0d, 0x48, 0xbe, 0xdf, 0x9e, 0x45, 0xbe,
  0x55, 0x9a, 0x07, 0xbe, 0x58, 0x5b, 0x12, 0xbc, 0x72, 0x74, 0x5e, 0xbc,
  0x04, 0xf2, 0xbf, 0x3c, 0x8b, 0xa8, 0x41, 0x3b, 0x81, 0x47, 0x8c, 0x3c,
  0x56, 0x31, 0x42, 0x3b, 0xe4, 0x7b, 0x8a, 0xbb, 0xd2, 0xd8, 0x1d, 0xbd,
  0x87, 0x80, 0xa4, 0xbd, 0x13, 0x4d, 0xe9, 0x3c, 0x23, 0x28, 0xc1, 0x3c,
  0x6e, 0x57, 0x85, 0x3d, 0x72, 0x34, 0x24, 0x3d, 0x29, 0x95, 0x4a, 0x3d,
  0x62, 0x6e, 0x8c, 0xbc, 0x83, 0x3d, 0x15, 0xbe, 0x77, 0x2e, 0x1f, 0xbe,
  0x97, 0xd2, 0xbc, 0xbd, 0x12, 0x7a, 0x23, 0xbc, 0xf0, 0x1b, 0xc7, 0x3d,
  0xa6, 0xcd, 0xa3, 0x3c, 0x93, 0x45, 0x5d, 0xbc, 0xff, 0x57, 0x0d, 0xbe,
  0x58, 0xe5, 0x41, 0xbe, 0x8a, 0x7b, 0x58, 0xbe, 0xe6, 0x23, 0x36, 0xbe,
  0xe3, 0x73, 0x0d, 0xbe, 0x3e, 0xd9, 0x89, 0xbd, 0xff, 0xa8, 0x8b, 0xbb,
  0x34, 0x73, 0xe5, 0xbb, 0x82, 0xa3, 0x06, 0x3d, 0x78, 0x6e, 0xb0, 0x3b,
  0x2f, 0x7b, 0xd0, 0x3c, 0xc7, 0xb9, 0xda, 0x3c, 0x29, 0xf8, 0x64, 0x3c,
  0x63, 0x71, 0x37, 0xbc, 0x33, 0x3a, 0xeb, 0xbc, 0x5d, 0xa4, 0xca, 0x3d,
  0x4b, 0x81, 0xc6, 0x3d, 0xda, 0xb1, 0xe3, 0x3d, 0xea, 0x49, 0x5d, 0x3d,
  0x25, 0x88, 0x2d, 0x3d, 0xc5, 0xf8, 0xbb, 0xbc, 0xda, 0x5d, 0x10, 0xbd,
  0xbd, 0xbd, 0x98, 0xbd, 0x0a, 0xc1, 0xc9, 0xbd, 0xab, 0xc0, 0x85, 0xbc,
  0xc1, 0x30, 0x95, 0x3d, 0x09, 0xaf, 0xc5, 0x3c, 0x5a, 0x33, 0x0f, 0x3b,
  0x1e, 0xf7, 0xc5, 0xbd, 0x23, 0x96, 0x3c, 0xbe, 0x97, 0x3c, 0x37, 0xbe,
  0x30, 0x46, 0x17, 0xbe, 0x47, 0x4d, 0x14, 0xbd, 0x10, 0x19, 0x11, 0xbd,
  0x7a, 0x98, 0xa7, 0x3b, 0x16, 0x1e, 0x27, 0x3d, 0x08, 0xff, 0x4e, 0x3d,
  0x0a, 0x30, 0x16, 0x3d, 0xa8, 0xf7, 0x25, 0x38, 0xc3, 0xf3, 0x3d, 0xbb,
  0xa5, 0xed, 0x05, 0x3d, 0x5d, 0x1b, 0xa7, 0x3c, 0x33, 0xa6, 0x4e, 0x3d,
  0x1e, 0x2f, 0x07, 0x3e, 0x7d, 0x2b, 0xde, 0x3d, 0xf5, 0x8b, 0x48, 0x3d,
  0x1b, 0x0e, 0x9b, 0xbd, 0xee, 0x3b, 0xac, 0xbd, 0x66, 0x77, 0x81, 0xbd,
  0xa6, 0x7a, 0xf3, 0xbc, 0xc2, 0x2a, 0xaa, 0xbd, 0x35, 0x3e, 0xc0, 0xbd,
  0xcc, 0x2e, 0xd4, 0xbd, 0x48, 0xa2, 0x77, 0xbd, 0xf1, 0xf1, 0x6a, 0xbd,
  0xab, 0x5f, 0x65, 0xbc, 0xa1, 0x28, 0xff, 0xbc, 0x2f, 0xd5, 0x8c, 0xbd,
  0x0d, 0x96, 0x86, 0xbd, 0x31, 0x7a, 0x6b, 0xbd, 0x52, 0xd0, 0xd0, 0xbc,
  0x93, 0xe3, 0xd9, 0x3c, 0x3f, 0xeb, 0x03, 0x3d, 0x56, 0x22, 0x1e, 0x3d,
  0x71, 0x41, 0xd6, 0x3c, 0x98, 0x7c, 0x36, 0x3d, 0x83, 0xe0, 0x18, 0x3d,
  0xaa, 0x73, 0x4b, 0x3d, 0x6c, 0x86, 0xd0, 0x3c, 0x3f, 0x93, 0xea, 0x3b,
  0xaf, 0x93, 0x75, 0x3d, 0x17, 0x43, 0x82, 0x3d, 0xaa, 0xa7, 0xeb, 0x3d,
  0x27, 0x26, 0x1b, 0x3e, 0x8a, 0xc6, 0x0f, 0x3e, 0xf6, 0xb2, 0x1f, 0x3e,
  0xc2, 0xbf, 0xef, 0x3d, 0x4b, 0xbd, 0x53, 0x3e, 0x97, 0xc3, 0x54, 0x3e,
  0x85, 0xae, 0xe5, 0x3d, 0x2b, 0x12, 0x21, 0x3e, 0x13, 0x45, 0x0d, 0x3e,
  0x3b, 0xef, 0x04, 0x3e, 0x09, 0x51, 0x8c, 0x3d, 0x85, 0xde, 0x92, 0x3d,
  0x91, 0xdf, 0x2d, 0x3c, 0xbd, 0x4c, 0x43, 0x3c, 0x1a, 0x89, 0xe1, 0x3c,
  0xb7, 0x17, 0x5b, 0x3d, 0x4a, 0x13, 0x13, 0x3d, 0x47, 0xdb, 0x43, 0x3d,
  0x92, 0x4d, 0x86, 0x3c, 0x7d, 0xe9, 0x18, 0x3d, 0x24, 0x6f, 0x09, 0x3d,
  0xcd, 0xce, 0x6b, 0x3c, 0x97, 0xd8, 0x5a, 0x3c, 0x70, 0x3b, 0x9f, 0xba,
  0xf9, 0x85, 0x24, 0x3d, 0x8f, 0x21, 0x02, 0x3d, 0x26, 0x60, 0xab, 0x3c,
  0x83, 0xc4, 0x60, 0x3d, 0x90, 0x06, 0xf7, 0x3d, 0xfd, 0x3e, 0x31, 0x3e,
  0x5f, 0x43, 0x73, 0x3e, 0xd6, 0xd0, 0x66, 0x3e, 0xe5, 0x83, 0x5e, 0x3e,
  0xc1, 0x2f, 0x4f, 0x3e, 0xa9, 0xee, 0x46, 0x3e, 0x10, 0x99, 0x64, 0x3e,
  0x5e, 0x90, 0x63, 0x3e, 0x29, 0x29, 0x03, 0x3e, 0xc6, 0xb9, 0x22, 0x3e,
  0x33, 0x4e, 0x10, 0x3e, 0x4a, 0xf0, 0x88, 0x3d, 0x8f, 0x1c, 0x7d, 0xb9,
  0xc8, 0x9a, 0x27, 0xbc, 0xbf, 0x39, 0x34, 0x3d, 0x06, 0x2a, 0x6c, 0x3d,
  0x22, 0x90, 0x3b, 0x3d, 0x4f, 0x35, 0x16, 0x3d, 0x1e, 0x04, 0x12, 0x3c,
  0x83, 0x07, 0x68, 0x3c, 0x56, 0xb3, 0x27, 0x3d, 0x61, 0x20, 0xef, 0x3c,
  0x3e, 0x91, 0x23, 0x3d, 0xbb, 0x7d, 0x1a, 0x3d, 0x2f, 0x92, 0x21, 0xbb,
  0xba, 0x32, 0x93, 0x3c, 0x68, 0x2e, 0x4f, 0xbb, 0x87, 0xaa, 0x43, 0x3b,
  0xda, 0x42, 0x92, 0x3d, 0xfa, 0x2b, 0xab, 0x3d, 0x37, 0x61, 0x5c, 0x3d,
  0x20, 0xb3, 0xe9, 0x3c, 0x6a, 0xb0, 0x54, 0x3d, 0x79, 0xdf, 0xf5, 0x3d,
  0xe8, 0xa5, 0xb3, 0x3d, 0x21, 0xe7, 0xeb, 0x3d, 0x8c, 0x6b, 0xcb, 0x3d,
  0xe5, 0x03, 0xb2, 0x3d, 0x33, 0xd1, 0x26, 0x3d, 0x94, 0x0d, 0x80, 0x3d,
  0xb8, 0x9b, 0xab, 0xba, 0x47, 0x0d, 0x6d, 0x3d, 0x4b, 0x81, 0x18, 0x3d,
  0x90, 0x17, 0x66, 0x3c, 0xf5, 0x8a, 0x90, 0x3c, 0x2b, 0x94, 0x73, 0x3c,
  0xeb, 0x0e, 0xc6, 0x3c, 0x41, 0xc8, 0xb9, 0x3c, 0x04, 0xfd, 0x37, 0x3d,
  0xea, 0x69, 0x52, 0x3d, 0x28, 0xb3, 0x95, 0x3c, 0x98, 0xbb, 0x97, 0x3c,
