#include <model.h>
const unsigned char model_tflite[] = {  0x1c, 0x00, 0x00, 0x00, 0x54, 0x46, 0x4c, 0x33, 0x14, 0x00, 0x20, 0x00,
  0x1c, 0x00, 0x18, 0x00, 0x14, 0x00, 0x10, 0x00, 0x0c, 0x00, 0x00, 0x00,
  0x08, 0x00, 0x04, 0x00, 0x14, 0x00, 0x00, 0x00, 0x1c, 0x00, 0x00, 0x00,
  0x84, 0x00, 0x00, 0x00, 0xdc, 0x00, 0x00, 0x00, 0xc4, 0x10, 0x00, 0x00,
  0xd4, 0x10, 0x00, 0x00, 0xb4, 0x1f, 0x00, 0x00, 0x03, 0x00, 0x00, 0x00,
  0x01, 0x00, 0x00, 0x00, 0x04, 0x00, 0x00, 0x00, 0x46, 0xee, 0xff, 0xff,
  0x0c, 0x00, 0x00, 0x00, 0x1c, 0x00, 0x00, 0x00, 0x3c, 0x00, 0x00, 0x00,
  0x0f, 0x00, 0x00, 0x00, 0x73, 0x65, 0x72, 0x76, 0x69, 0x6e, 0x67, 0x5f,
  0x64, 0x65, 0x66, 0x61, 0x75, 0x6c, 0x74, 0x00, 0x01, 0x00, 0x00, 0x00,
  0x04, 0x00, 0x00, 0x00, 0x98, 0xff, 0xff, 0xff, 0x0f, 0x00, 0x00, 0x00,
  0x04, 0x00, 0x00, 0x00, 0x08, 0x00, 0x00, 0x00, 0x6f, 0x75, 0x74, 0x70,
  0x75, 0x74, 0x5f, 0x30, 0x00, 0x00, 0x00, 0x00, 0x01, 0x00, 0x00, 0x00,
  0x04, 0x00, 0x00, 0x00, 0xe6, 0xef, 0xff, 0xff, 0x04, 0x00, 0x00, 0x00,
  0x06, 0x00, 0x00, 0x00, 0x61, 0x72, 0x67, 0x73, 0x5f, 0x30, 0x00, 0x00,
  0x02, 0x00, 0x00, 0x00, 0x34, 0x00, 0x00, 0x00, 0x04, 0x00, 0x00, 0x00,
  0xdc, 0xff, 0xff, 0xff, 0x12, 0x00, 0x00, 0x00, 0x04, 0x00, 0x00, 0x00,
  0x13, 0x00, 0x00, 0x00, 0x43, 0x4f, 0x4e, 0x56, 0x45, 0x52, 0x53, 0x49,
  0x4f, 0x4e, 0x5f, 0x4d, 0x45, 0x54, 0x41, 0x44, 0x41, 0x54, 0x41, 0x00,
  0x08, 0x00, 0x0c, 0x00, 0x08, 0x00, 0x04, 0x00, 0x08, 0x00, 0x00, 0x00,
  0x11, 0x00, 0x00, 0x00, 0x04, 0x00, 0x00, 0x00, 0x13, 0x00, 0x00, 0x00,
  0x6d, 0x69, 0x6e, 0x5f, 0x72, 0x75, 0x6e, 0x74, 0x69, 0x6d, 0x65, 0x5f,
  0x76, 0x65, 0x72, 0x73, 0x69, 0x6f, 0x6e, 0x00, 0x13, 0x00, 0x00, 0x00,
  0xe4, 0x0f, 0x00, 0x00, 0xdc, 0x0f, 0x00, 0x00, 0xa4, 0x0f, 0x00, 0x00,
  0xec, 0x0e, 0x00, 0x00, 0x9c, 0x02, 0x00, 0x00, 0x7c, 0x02, 0x00, 0x00,
  0x6c, 0x01, 0x00, 0x00, 0x1c, 0x01, 0x00, 0x00, 0x04, 0x01, 0x00, 0x00,
  0xe4, 0x00, 0x00, 0x00, 0xc4, 0x00, 0x00, 0x00, 0xbc, 0x00, 0x00, 0x00,
  0xb4, 0x00, 0x00, 0x00, 0xac, 0x00, 0x00, 0x00, 0xa4, 0x00, 0x00, 0x00,
  0x9c, 0x00, 0x00, 0x00, 0x94, 0x00, 0x00, 0x00, 0x74, 0x00, 0x00, 0x00,
  0x04, 0x00, 0x00, 0x00, 0xa6, 0xf0, 0xff, 0xff, 0x04, 0x00, 0x00, 0x00,
  0x60, 0x00, 0x00, 0x00, 0x10, 0x00, 0x00, 0x00, 0x00, 0x00, 0x00, 0x00,
  0x08, 0x00, 0x0e, 0x00, 0x08, 0x00, 0x04, 0x00, 0x08, 0x00, 0x00, 0x00,
  0x10, 0x00, 0x00, 0x00, 0x24, 0x00, 0x00, 0x00, 0x00, 0x00, 0x06, 0x00,
  0x08, 0x00, 0x04, 0x00, 0x06, 0x00, 0x00, 0x00, 0x04, 0x00, 0x00, 0x00,
  0x00, 0x00, 0x00, 0x00, 0x0c, 0x00, 0x18, 0x00, 0x14, 0x00, 0x10, 0x00,
  0x0c, 0x00, 0x04, 0x00, 0x0c, 0x00, 0x00, 0x00, 0xf0, 0xa5, 0xfa, 0x26,
  0x6a, 0xd9, 0x53, 0x47, 0x01, 0x00, 0x00, 0x00, 0x02, 0x00, 0x00, 0x00,
  0x04, 0x00, 0x00, 0x00, 0x06, 0x00, 0x00, 0x00, 0x32, 0x2e, 0x31, 0x39,
  0x2e, 0x30, 0x00, 0x00, 0x12, 0xf1, 0xff, 0xff, 0x04, 0x00, 0x00, 0x00,
  0x10, 0x00, 0x00, 0x00, 0x32, 0x2e, 0x30, 0x2e, 0x30, 0x00, 0x00, 0x00,
  0x00, 0x00, 0x00, 0x00, 0x00, 0x00, 0x00, 0x00, 0x30, 0xe2, 0xff, 0xff,
  0x34, 0xe2, 0xff, 0xff, 0x38, 0xe2, 0xff, 0xff, 0x3c, 0xe2, 0xff, 0xff,
  0x40, 0xe2, 0xff, 0xff, 0x44, 0xe2, 0xff, 0xff, 0x46, 0xf1, 0xff, 0xff,
  0x04, 0x00, 0x00, 0x00, 0x10, 0x00, 0x00, 0x00, 0xfe, 0x80, 0xf7, 0x3e,
  0x4f, 0xed, 0x9f, 0xbd, 0xf2, 0x99, 0x0a, 0xbf, 0xe7, 0x8e, 0x51, 0xbe,
  0x62, 0xf1, 0xff, 0xff, 0x04, 0x00, 0x00, 0x00, 0x10, 0x00, 0x00, 0x00,
  0x00, 0x00, 0x00, 0x00, 0x03, 0x00, 0x00, 0x00, 0x01, 0x00, 0x00, 0x00,
  0x02, 0x00, 0x00, 0x00, 0x7e, 0xf1, 0xff, 0xff, 0x04, 0x00, 0x00, 0x00,
  0x08, 0x00, 0x00, 0x00, 0x01, 0x00, 0x00, 0x00, 0xc4, 0x00, 0x00, 0x00,
  0x92, 0xf1, 0xff, 0xff, 0x04, 0x00, 0x00, 0x00, 0x40, 0x00, 0x00, 0x00,
  0xe5, 0x4f, 0x01, 0x3f, 0x44, 0xf7, 0xd1, 0x3e, 0xcd, 0xce, 0x0c, 0xbf,
  0xe4, 0x0f, 0xa6, 0xbd, 0x03, 0xc3, 0xf2, 0x3e, 0x2c, 0xb5, 0xcf, 0xbd,
  0xc1, 0x99, 0xcb, 0xbe, 0xec, 0xca, 0x35, 0x3f, 0x55, 0x3e, 0xe0, 0x3c,
  0xfb, 0xa8, 0x56, 0x3f, 0x78, 0xe0, 0x40, 0xbe, 0xde, 0x4f, 0x4f, 0x3f,
  0x84, 0xc5, 0x6c, 0x3e, 0x35, 0xa6, 0x37, 0x3f, 0x7b, 0x63, 0x7e, 0xbd,
  0x64, 0x87, 0x89, 0x3d, 0xde, 0xf1, 0xff, 0xff, 0x04, 0x00, 0x00, 0x00,
  0x00, 0x01, 0x00, 0x00, 0x87, 0x24, 0xde, 0x3e, 0x36, 0xd7, 0xce, 0x3e,
  0x85, 0x6c, 0x3f, 0x3d, 0xc1, 0x18, 0x59, 0x3e, 0x37, 0xfe, 0x11, 0x3e,
  0x75, 0x63, 0xc1, 0x3e, 0x69, 0xb4, 0xca, 0xbd, 0xfd, 0x74, 0x2e, 0x3d,
  0xe5, 0x17, 0xdd, 0x3e, 0x91, 0x55, 0xc7, 0x3e, 0x4b, 0xba, 0x99, 0xbe,
  0xba, 0x58, 0x20, 0xbd, 0xf9, 0xb2, 0xe2, 0x3e, 0x57, 0x86, 0x2c, 0x3e,
  0xb8, 0xdd, 0xda, 0xbd, 0x46, 0x7c, 0xf3, 0x3d, 0x35, 0x00, 0x57, 0xbe,
  0x26, 0x1c, 0x44, 0xbe, 0x70, 0xc4, 0x15, 0x3e, 0xf8, 0xe9, 0x14, 0xbe,
  0x6b, 0x3b, 0x9c, 0xbe, 0x9a, 0x8a, 0x61, 0xbe, 0x99, 0xc1, 0xe2, 0x3e,
  0xe3, 0x62, 0xf4, 0xbe, 0x06, 0xac, 0xd7, 0xbe, 0x97, 0xaf, 0x58, 0xbe,
  0x83, 0x2c, 0xb5, 0x3e, 0xb3, 0x54, 0xc2, 0xbe, 0x63, 0xfb, 0x71, 0xbd,
  0xfa, 0x71, 0xa3, 0xbe, 0x46, 0x90, 0xb8, 0x3e, 0x73, 0x42, 0x82, 0xbe,
  0x38, 0x27, 0x7b, 0x3e, 0xaa, 0x76, 0xad, 0xbd, 0x85, 0x2a, 0x90, 0xbd,
  0x92, 0x49, 0x0a, 0xbe, 0x50, 0xa0, 0xd1, 0x3e, 0x62, 0x61, 0xe3, 0x3e,
  0x76, 0x85, 0x38, 0xbd, 0x3d, 0x7b, 0xcb, 0x3e, 0xae, 0x5c, 0x68, 0xbd,
  0xaa, 0x71, 0x09, 0xbf, 0xd0, 0x89, 0x86, 0xbc, 0x41, 0xbf, 0xc5, 0xbe,
  0x22, 0x77, 0x7b, 0x3e, 0xbc, 0x8b, 0x8f, 0xbe, 0x5a, 0x7f, 0xf5, 0x3c,
  0x69, 0x87, 0xb4, 0xbc, 0x6b, 0xee, 0xf1, 0xbe, 0xa6, 0x34, 0x0b, 0xbf,
  0x8a, 0x8b, 0xc0, 0x3e, 0x47, 0x11, 0x7c, 0xbe, 0x18, 0xcd, 0xdd, 0xbd,
  0x32, 0x42, 0x72, 0x3d, 0x08, 0x58, 0x4a, 0xbe, 0x14, 0xaf, 0xbf, 0xbd,
  0x69, 0x43, 0x8d, 0xbe, 0x57, 0x88, 0x3a, 0x3e, 0x92, 0xe1, 0xc7, 0xbb,
  0xf1, 0x58, 0x3f, 0x3d, 0x0d, 0x50, 0xcf, 0x3d, 0xd8, 0x7c, 0xdc, 0x3e,
  0xc8, 0xc1, 0x8e, 0xbd, 0x59, 0xc3, 0xb5, 0x3e, 0xea, 0xf2, 0xff, 0xff,
  0x04, 0x00, 0x00, 0x00, 0x10, 0x00, 0x00, 0x00, 0x27, 0xa4, 0x08, 0x3e,
  0xae, 0x9d, 0x97, 0xbe, 0x40, 0xce, 0x23, 0xbe, 0xad, 0x48, 0x4f, 0xbe,
  0x06, 0xf3, 0xff, 0xff, 0x04, 0x00, 0x00, 0x00, 0x40, 0x0c, 0x00, 0x00,
  0x78, 0xc1, 0x02, 0xbc, 0xf4, 0x14, 0x1b, 0xbc, 0x49, 0xdb, 0xe3, 0xbd,
  0x71, 0xfe, 0x87, 0xbe, 0x39, 0x5e, 0xfa, 0xbd, 0x9b, 0x9d, 0x06, 0xbe,
  0x8f, 0x27, 0x50, 0x3d, 0x50, 0x6a, 0x81, 0xbc, 0x77, 0xc5, 0x1d, 0x3e,
  0x28, 0x0b, 0xde, 0x3d, 0xfe, 0xbd, 0xa4, 0x3d, 0xb2, 0x8b, 0x46, 0x3d,
  0xe3, 0xf3, 0x26, 0x3d, 0xb3, 0xaa, 0xe3, 0x3c, 0x5f, 0x6e, 0x6b, 0xbc,
  0x2a, 0x9e, 0x43, 0x3d, 0x09, 0xa8, 0x15, 0x3e, 0x99, 0x8c, 0xb3, 0x3d,
  0x8c, 0x68, 0x06, 0x3e, 0xc5, 0xd1, 0xc1, 0x3d, 0x66, 0x06, 0x43, 0x3e,
  0x63, 0x48, 0xd1, 0x3c, 0xa1, 0xd8, 0x45, 0x3e, 0x47, 0x31, 0x8e, 0xbd,
  0xb8, 0x99, 0x38, 0xbd, 0x73, 0x15, 0x8b, 0x3e, 0x4f, 0x45, 0x1d, 0xbe,
  0xac, 0xe3, 0x53, 0xbe, 0xc9, 0x34, 0x9e, 0x3c, 0x2e, 0x1a, 0xbf, 0x3b,
  0x82, 0x78, 0x43, 0xbe, 0x81, 0x44, 0x00, 0xbe, 0x44, 0x3b, 0xe1, 0x3c,
  0x1c, 0xf1, 0x1d, 0xbd, 0x95, 0xdb, 0x45, 0xbe, 0x57, 0xad, 0x9b, 0x3d,
  0x5f, 0x06, 0x8b, 0xbd, 0xbd, 0x9c, 0xd6, 0xbc, 0x93, 0xb6, 0x8f, 0xbd,
  0x5c, 0xc9, 0xef, 0xbd, 0x95, 0x6d, 0x0e, 0xbe, 0x05, 0x24, 0x35, 0xbc,
  0xc6, 0xc6, 0x0e, 0x3d, 0x96, 0x76, 0x0d, 0x3e, 0x46, 0x1a, 0x93, 0x3e,
  0xce, 0xcf, 0x86, 0x3e, 0xd6, 0xa6, 0xcb, 0x3e, 0xa9, 0x53, 0x6d, 0x3e,
  0xb0, 0x22, 0x95, 0xbd, 0xc9, 0xfe, 0x94, 0x3d, 0x95, 0xf6, 0x6a, 0x3a,
  0x1e, 0xb1, 0x71, 0x3e, 0xa8, 0x6f, 0xf6, 0x3d, 0xa2, 0x47, 0x20, 0x3e,
  0xd7, 0xf9, 0x2c, 0x3d, 0x28, 0x9c, 0x07, 0x3d, 0xaa, 0x5d, 0xa9, 0x3d,
  0x0b, 0x17, 0x0e, 0xbe, 0xd5, 0x63, 0x2a, 0xbe, 0xe1, 0x41, 0x88, 0xbd,
  0x6e, 0xba, 0xac, 0xbb, 0xd8, 0xd0, 0x8d, 0x3c, 0x66, 0x22, 0x10, 0xbe,
  0x75, 0x00, 0x92, 0xbd, 0x25, 0xdb, 0xb5, 0xbd, 0x39, 0xd5, 0x7e, 0xbd,
  0x86, 0xfb, 0x22, 0xbd, 0x13, 0xb0, 0x66, 0xbe, 0xa2, 0x40, 0xc5, 0xbd,
  0xe5, 0x14, 0x4a, 0xbe, 0x5a, 0x23, 0x41, 0xbd, 0x4b, 0xc0, 0x79, 0xbd,
  0x78, 0x25, 0xca, 0xbb, 0x3d, 0x47, 0x35, 0xbd, 0x95, 0x50, 0x26, 0xbe,
  0xca, 0x05, 0x1d, 0x3e, 0xe8, 0xe5, 0x2a, 0x3e, 0x4a, 0x17, 0x21, 0xbd,
  0xb0, 0xab, 0xcf, 0x3c, 0x53, 0x2f, 0x54, 0x3e, 0x5a, 0x82, 0xe0, 0x3d,
  0x4d, 0x50, 0xc7, 0x3d, 0xe8, 0xb1, 0xac, 0x3d, 0x2e, 0xe0, 0xe5, 0x3d,
  0x05, 0x10, 0x9c, 0xbd, 0xf0, 0xec, 0x60, 0x3d, 0x86, 0xee, 0x0b, 0x3e,
  0xf3, 0x04, 0x30, 0x3e, 0x50, 0xe4, 0x02, 0x3e, 0x90, 0xb6, 0x10, 0x3e,
  0xf5, 0x77, 0x36, 0x3d, 0x80, 0x30, 0xcf, 0x3c, 0xbd, 0x3c, 0xa6, 0xbd,
  0xaa, 0x1f, 0x1d, 0xbe, 0x73, 0xe3, 0x12, 0xbe, 0xae, 0x3e, 0x9f, 0xbe,
  0x32, 0xd1, 0x1f, 0xbe, 0xf1, 0x84, 0x8c, 0x3b, 0x4c, 0xec, 0x34, 0x3d,
  0x96, 0xa9, 0x3c, 0xbc, 0xe9, 0x93, 0xa8, 0x3d, 0xcc, 0xd3, 0x9c, 0x3c,
  0xc4, 0xc5, 0x84, 0xba, 0x23, 0x28, 0xf8, 0xba, 0xf5, 0x13, 0x80, 0x3d,
  0x70, 0x61, 0xa5, 0x3d, 0x5b, 0x41, 0x86, 0x3c, 0x03, 0x65, 0x0d, 0x3e,
  0x7b, 0x81, 0x79, 0xbd, 0x4c, 0x5b, 0x44, 0xbe, 0x22, 0x7c, 0x9a, 0xbd,
  0x6f, 0xc7, 0x8c, 0xbe, 0x3c, 0xbd, 0xb0, 0x3d, 0x43, 0xf8, 0x23, 0xbd,
  0xd2, 0x29, 0x90, 0xbc, 0x0a, 0x6d, 0xca, 0xbc, 0x48, 0xd5, 0xd0, 0xbd,
  0x4c, 0x3e, 0x5d, 0x3b, 0xb3, 0xd7, 0x90, 0xbc, 0xe2, 0x3b, 0xe9, 0x3d,
  0xad, 0x89, 0x99, 0x3d, 0xd3, 0x7b, 0xdb, 0x3d, 0x5b, 0x5e, 0x88, 0x3d,
  0xb8, 0x83, 0x42, 0xbd, 0x2f, 0x31, 0x59, 0xbe, 0xf9, 0xb7, 0x30, 0x3e,
  0xae, 0xf6, 0x03, 0x3e, 0x06, 0x97, 0x2a, 0xbe, 0x84, 0x0e, 0x51, 0x3d,
  0xae, 0xc0, 0x95, 0x3e, 0x16, 0xa2, 0x91, 0x3d, 0x72, 0x94, 0x7a, 0xbc,
  0x6f, 0x1f, 0xba, 0x3d, 0x5d, 0xbb, 0x43, 0x3e, 0xd8, 0xa0, 0x3b, 0x3d,
  0x62, 0x51, 0x50, 0xbe, 0x1a, 0xc4, 0x15, 0xbe, 0xeb, 0xf5, 0x10, 0x3e,
  0x80, 0xd3, 0x09, 0xbe, 0xe3, 0x50, 0x82, 0xbc, 0x43, 0xb1, 0x9c, 0x3d,
  0xd4, 0x21, 0xc2, 0x3d, 0x33, 0xd2, 0xd1, 0x3d, 0x9d, 0x58, 0x18, 0xbd,
  0x63, 0xa4, 0x9c, 0x3d, 0xef, 0x3f, 0xf3, 0x3d, 0x5c, 0x81, 0x50, 0x3d,
  0xca, 0xac, 0x19, 0x3d, 0xec, 0x9a, 0xb8, 0xbd, 0x74, 0x07, 0x38, 0xbe,
  0x38, 0x02, 0xd7, 0x3b, 0x01, 0xc1, 0x32, 0x3d, 0x61, 0x08, 0x4e, 0xbd,
  0x5c, 0xf7, 0x0e, 0x3c, 0x2e, 0x1c, 0x36, 0x3d, 0x7a, 0xb4, 0x1f, 0xbd,
  0x59, 0xbe, 0xd0, 0xbd, 0x86, 0x01, 0xd1, 0x3c, 0x5e, 0x87, 0xad, 0x3d,
  0x7f, 0x0a, 0xd0, 0x3d, 0x1e, 0xef, 0xc4, 0xbd, 0x69, 0xa1, 0x2c, 0x3d,
  0xec, 0xf6, 0x5c, 0xbd, 0xf7, 0xf4, 0xeb, 0x3d, 0x26, 0xd3, 0x48, 0x3d,
  0x64, 0xdc, 0x31, 0x3b, 0x59, 0x77, 0x91, 0xbd, 0x5f, 0xd8, 0xa2, 0xbe,
  0xca, 0x91, 0x73, 0xbd, 0xf1, 0xac, 0x70, 0xbe, 0xc1, 0xb7, 0x30, 0xbe,
  0x27, 0x49, 0xdc, 0xbd, 0xd8, 0x34, 0xc3, 0xbd, 0x25, 0x23, 0x2e, 0xbe,
  0x6a, 0x17, 0xd1, 0x3d, 0xf5, 0x65, 0x2c, 0x3e, 0x1c, 0xe6, 0x3f, 0x3d,
  0x30, 0xe2, 0x6a, 0xbe, 0xb5, 0xa4, 0x6c, 0xbd, 0xc4, 0xaf, 0x57, 0xbe,
  0x7d, 0xbc, 0x6f, 0xbc, 0xea, 0x11, 0x37, 0x3d, 0x96, 0x13, 0xd7, 0xbc,
  0x89, 0x11, 0x36, 0xbe, 0x3c, 0x5d, 0x88, 0x3c, 0x36, 0x4c, 0x42, 0x3e,
  0x92, 0x84, 0x94, 0xba, 0x78, 0x74, 0xce, 0xbb, 0xff, 0x36, 0xe7, 0x3d,
  0xaa, 0x39, 0x2e, 0x3d, 0x37, 0x5d, 0x46, 0xbd, 0xcb, 0xe2, 0x28, 0x3d,
  0xd0, 0x7a, 0xab, 0xbd, 0x5e, 0x1f, 0x96, 0xbd, 0x62, 0x00, 0x98, 0xbe,
  0x48, 0xbb, 0x86, 0xbd, 0x96, 0x32, 0xb6, 0x3c, 0xf6, 0x65, 0xd5, 0x3c,
  0x9f, 0x33, 0xfb, 0x3c, 0x6e, 0x1f, 0xc8, 0x3d, 0x8a, 0xfd, 0x3b, 0x3e,
  0xbc, 0x0b, 0x04, 0x3e, 0x6f, 0x29, 0xde, 0x3c, 0xcd, 0x1d, 0x81, 0xbb,
  0xa8, 0xe7, 0xc1, 0x3d, 0xb9, 0x6a, 0xb0, 0x3c, 0xe2, 0x9b, 0x92, 0xbd,
  0xec, 0xae, 0x92, 0xbd, 0x09, 0xea, 0xb4, 0xbd, 0x54, 0x0b, 0xec, 0xbd,
  0xe6, 0x26, 0x81, 0x3c, 0xe2, 0xb5, 0x75, 0x3d, 0xc0, 0x88, 0xe1, 0xbd,
  0xc5, 0xb6, 0xc2, 0xbd, 0xbf, 0x9e, 0x02, 0x3d, 0xef, 0xff, 0x1a, 0xbd,
  0x36, 0x5b, 0xa9, 0xbe, 0x6d, 0xda, 0x19, 0x3d, 0xc1, 0xe2, 0xa7, 0xbd,
  0x73, 0xa1, 0x72, 0x3c, 0xfb, 0x40, 0x4e, 0xbd, 0x45, 0x64, 0x15, 0x3e,
  0xca, 0x5a, 0xce, 0x3d, 0x67, 0xfd, 0x57, 0x3d, 0x0e, 0x4c, 0xbe, 0x3d,
  0x1e, 0xa9, 0xaf, 0x3c, 0xec, 0xe6, 0xe9, 0xbc, 0xfc, 0x82, 0xff, 0x3d,
  0x3c, 0x02, 0xe7, 0x3d, 0x53, 0xd8, 0x5d, 0x3c, 0x00, 0xc2, 0x7a, 0xb9,
  0x56, 0x23, 0x9d, 0x3d, 0xa0, 0xe8, 0x78, 0xbc, 0x1e, 0x26, 0x7c, 0xbd,
  0x58, 0x72, 0x84, 0xbd, 0xee, 0x82, 0x14, 0xbd, 0x89, 0x12, 0xab, 0xbd,
  0xce, 0xb5, 0xa1, 0x3d, 0xe2, 0xea, 0x58, 0xbd, 0x06, 0x85, 0x8e, 0x3d,
  0xf1, 0xb7, 0x98, 0x3d, 0xaa, 0x09, 0x76, 0xbd, 0x88, 0x76, 0x1b, 0xbe,
  0x2e, 0x27, 0x1a, 0xbd, 0x04, 0xec, 0x8d, 0x3c, 0xb1, 0xef, 0x53, 0xbd,
  0xfb, 0x0f, 0x4e, 0xbb, 0x4f, 0x0d, 0x30, 0xbd, 0x33, 0x1a, 0x9e, 0x3c,
  0xa7, 0xc1, 0x88, 0xbd, 0x5d, 0x00, 0x07, 0xbe, 0xb0, 0x5f, 0x29, 0xbd,
  0x63, 0xdb, 0xbe, 0x3c, 0xf7, 0xab, 0xeb, 0xbd, 0x9a, 0x74, 0x48, 0xbd,
  0xd0, 0x50, 0xa4, 0x3c, 0xef, 0x8e, 0x8d, 0x3d, 0x0c, 0x13, 0xb8, 0x3d,
  0x9b, 0x72, 0xad, 0x3d, 0xff, 0x14, 0x57, 0xbd, 0x72, 0xcb, 0xca, 0xbc,
  0xbb, 0x4f, 0xb8, 0x3d, 0x07, 0xc9, 0x21, 0x3d, 0x8c, 0x45, 0x84, 0xbd,
  0x78, 0x9d, 0x85, 0x3c, 0x14, 0xa5, 0xae, 0x3e, 0xd4, 0xaa, 0x38, 0x3c,
  0x09, 0x03, 0xb3, 0xbb, 0x22, 0x49, 0x85, 0x3c, 0x38, 0x50, 0x00, 0x3e,
  0xff, 0xea, 0xc2, 0xbd, 0xbe, 0x3c, 0xc7, 0xbd, 0xaf, 0x84, 0x6d, 0xbc,
  0x42, 0x39, 0x1b, 0xbd, 0x47, 0xdf, 0x84, 0x3d, 0xc2, 0xac, 0xc1, 0xbd,
  0x94, 0xd5, 0x98, 0xbd, 0x86, 0x91, 0x22, 0xbc, 0x15, 0x19, 0xa3, 0x3c,
  0x3b, 0x59, 0x5c, 0xbc, 0x8d, 0xbf, 0x02, 0xbd, 0x0f, 0xc6, 0xc8, 0xbc,
  0xfe, 0x0f, 0x93, 0x3d, 0xe1, 0xd9, 0x57, 0x3d, 0xc5, 0xfa, 0xc2, 0xbb,
  0x12, 0x5c, 0x81, 0x3b, 0x24, 0x03, 0xc9, 0x3b, 0x35, 0xf8, 0x1f, 0xbd,
  0x04, 0x9e, 0x93, 0xbd, 0x95, 0x15, 0xd4, 0x3d, 0x01, 0xf5, 0x8b, 0x3d,
  0x77, 0xac, 0xbe, 0x3d, 0x48, 0x0e, 0xfa, 0x3c, 0x7a, 0x84, 0x2c, 0x3d,
  0x98, 0x2d, 0x92, 0xbc, 0xae, 0x2f, 0xb9, 0x3c, 0x3c, 0xac, 0x9e, 0xbd,
  0x74, 0xfc, 0x81, 0x3c, 0x3a, 0xd1, 0xa2, 0xbd, 0x3e, 0xb5, 0x04, 0xbe,
  0xb2, 0x9d, 0x97, 0xbd, 0xd2, 0x33, 0x99, 0xbb, 0xcb, 0x11, 0x3d, 0xbd,
  0x78, 0x99, 0x31, 0xbd, 0x5c, 0x6a, 0x3c, 0x3c, 0x42, 0x94, 0x95, 0x3c,
  0x02, 0x6a, 0x4f, 0x3d, 0xaa, 0xe3, 0x86, 0x3e, 0x70, 0x79, 0xcf, 0x3d,
  0x7f, 0xe8, 0xfc, 0x3b, 0x4b, 0x2b, 0x04, 0x3e, 0x83, 0x83, 0xa6, 0x3d,
  0x8e, 0x10, 0x30, 0xbe, 0xab, 0xf6, 0x29, 0xbe, 0x09, 0x52, 0x23, 0x3e,
  0x3c, 0x71, 0x0b, 0x3e, 0x6b, 0x9d, 0x3f, 0xbe, 0x02, 0xec, 0x5e, 0xbd,
  0x46, 0xd8, 0x6f, 0xbd, 0xf8, 0x0f, 0xf8, 0xbd, 0xdf, 0xad, 0x80, 0xbd,
  0xdc, 0x1a, 0xc4, 0xbd, 0xb6, 0xfe, 0x48, 0x3d, 0x33, 0xe8, 0x39, 0x3e,
  0xfe, 0x43, 0x87, 0x3d, 0x51, 0x3d, 0xae, 0x3d, 0x40, 0x85, 0x67, 0x3d,
  0x98, 0x90, 0x41, 0x3d, 0x78, 0xdd, 0xa6, 0x3c, 0x63, 0x55, 0xbc, 0x3d,
  0xac, 0xd4, 0x2f, 0xbe, 0x43, 0x1b, 0xcc, 0xbc, 0x10, 0x49, 0xcf, 0x3d,
  0x35, 0x66, 0x68, 0x3d, 0x2c, 0x63, 0x37, 0xbe, 0x82, 0xdb, 0x07, 0x3c,
  0x12, 0x47, 0x33, 0xbc, 0x5d, 0xce, 0xb0, 0x3d, 0x83, 0x4a, 0xee, 0xbd,
  0xca, 0xa0, 0xc0, 0xbd, 0xaa, 0x1e, 0x0d, 0xbe, 0x5f, 0x7b, 0xaf, 0xbc,
  0xd2, 0xd9, 0x5b, 0x3c, 0xa6, 0x88, 0x44, 0x3c, 0x71, 0xf9, 0x8f, 0x3d,
  0x08, 0x74, 0xb9, 0x3c, 0xf1, 0xeb, 0xc6, 0x3b, 0x8e, 0x84, 0x90, 0x3d,
  0xcb, 0x8d, 0x52, 0x3d, 0xc8, 0xfa, 0xa7, 0x3d, 0x9e, 0x74, 0x6a, 0xbc,
  0x64, 0x1a, 0x38, 0xbc, 0x4d, 0x4d, 0x54, 0xbd, 0xab, 0x37, 0x4b, 0xbd,
  0xd8, 0x10, 0xb0, 0xbb, 0xea, 0x46, 0x36, 0xbd, 0xa8, 0x33, 0x92, 0x3b,
  0x03, 0x65, 0x99, 0x3d, 0x72, 0x73, 0x7b, 0xbe, 0x43, 0x78, 0x11, 0xbe,
  0x50, 0x25, 0x9e, 0xbc, 0x65, 0x10, 0x79, 0x3d, 0x88, 0x62, 0x32, 0xbb,
  0x8b, 0x71, 0xdb, 0x3e, 0xf5, 0x47, 0xf7, 0x3c, 0xad, 0xab, 0x5e, 0x3e,
  0xba, 0x6f, 0x5a, 0x3d, 0xc2, 0xb7, 0xb7, 0x3d, 0xe7, 0xc4, 0x45, 0xbd,
  0x88, 0xc6, 0x55, 0x3d, 0x7e, 0xa9, 0x98, 0xbd, 0x87, 0x1e, 0xb3, 0x3d,
  0x77, 0x43, 0x16, 0xbe, 0xa2, 0xff, 0x8f, 0xbd, 0xa9, 0x86, 0xa5, 0x3c,
  0x79, 0x06, 0xd7, 0xbd, 0xfd, 0x16, 0xe0, 0xbd, 0xa9, 0x85, 0x86, 0xbd,
  0x89, 0xc7, 0x18, 0x3d, 0xa6, 0xd5, 0x1e, 0x3d, 0xa9, 0xe2, 0x6a, 0x3d,
  0xb0, 0xf5, 0x76, 0xbd, 0xb6, 0xe2, 0x57, 0xbd, 0x19, 0x42, 0xa0, 0x3d,
  0x55, 0xf5, 0xce, 0xbd, 0x6c, 0x08, 0x8d, 0x3d, 0x5a, 0xdf, 0x3c, 0xbd,
  0xfc, 0x27, 0xa3, 0x3d, 0x74, 0x32, 0xa9, 0x3d, 0xc0, 0xe4, 0x80, 0x3d,
  0x78, 0x98, 0x3c, 0x3d, 0xb5, 0x48, 0x04, 0x3d, 0xb4, 0x17, 0x1b, 0xbd,
  0x39, 0x54, 0xd4, 0xbc, 0x88, 0x7c, 0x75, 0xbd, 0xaf, 0x38, 0xe0, 0xbd,
  0x8a, 0x59, 0x25, 0x3d, 0x79, 0x1c, 0x25, 0xbd, 0x1e, 0xc7, 0xcf, 0x3c,
  0xd5, 0xd8, 0xc2, 0xbc, 0x44, 0x10, 0x7c, 0xbd, 0x6c, 0x1a, 0xac, 0xbd,
  0xe2, 0xb4, 0x18, 0xbe, 0x83, 0x38, 0xdd, 0xbd, 0x85, 0x7d, 0x7d, 0x3d,
  0xef, 0xe2, 0x1a, 0xbe, 0x55, 0xac, 0x04, 0x3e, 0x43, 0xb4, 0xca, 0x3c,
  0x00, 0x96, 0x80, 0x3d, 0xc5, 0xd0, 0x33, 0x3d, 0x93, 0x9c, 0x17, 0x3c,
  0xe5, 0x72, 0x9b, 0xbc, 0xef, 0x20, 0x87, 0xbe, 0xfe, 0x3c, 0xe0, 0x3d,
  0xe5, 0x33, 0xd4, 0x3d, 0x12, 0xc0, 0xac, 0x3d, 0x1f, 0xcf, 0x30, 0xbe,
  0x55, 0xb6, 0x05, 0xbd, 0x03, 0xcd, 0x0e, 0x3e, 0x32, 0x3e, 0x25, 0xbd,
  0xa9, 0x5b, 0x98, 0x3a, 0x80, 0x96, 0x45, 0xbe, 0x5a, 0xa5, 0xc4, 0xbd,
  0x11, 0xc4, 0xba, 0xbd, 0xe0, 0x8a, 0xe7, 0xbc, 0x95, 0xf4, 0x74, 0xbd,
  0x65, 0x87, 0xbe, 0xbe, 0x33, 0x46, 0xa3, 0xbd, 0xfb, 0x47, 0x4b, 0xbe,
  0x9f, 0x7d, 0xf8, 0xbd, 0x50, 0xfb, 0xe9, 0x3c, 0x6f, 0xe1, 0x4f, 0xbd,
  0x57, 0xcb, 0x4a, 0xbe, 0x90, 0xd6, 0xe8, 0xbd, 0x8c, 0x26, 0xd0, 0xbc,
  0x9e, 0x35, 0xec, 0x3d, 0x63, 0x14, 0xf9, 0xbb, 0x5e, 0xbf, 0x08, 0x3d,
  0x29, 0xb5, 0x86, 0xbd, 0x94, 0xc6, 0xa3, 0xbd, 0x21, 0x9a, 0x92, 0x3d,
  0x5d, 0x76, 0xec, 0xbd, 0x2e, 0x56, 0x9c, 0xbd, 0xf0, 0x5c, 0x9d, 0x3d,
  0x85, 0x78, 0x3d, 0x3d, 0x55, 0xb2, 0x10, 0xbc, 0x57, 0xdb, 0x02, 0xbb,
  0x47, 0x57, 0x33, 0x3c, 0x69, 0x70, 0xc7, 0xbd, 0x4c, 0xab, 0x3d, 0x3d,
  0x64, 0xd0, 0xcc, 0x3d, 0x2c, 0x71, 0x09, 0x3d, 0x82, 0x25, 0x7a, 0x3b,
  0xbd, 0xb5, 0xb2, 0xbd, 0xe0, 0xef, 0xcf, 0x3c, 0x15, 0x38, 0x0c, 0xbe,
  0xa7, 0x9f, 0xc4, 0x3c, 0x29, 0x1a, 0x56, 0xbd, 0xf6, 0x4d, 0xee, 0xbd,
  0xb5, 0xef, 0x9d, 0xbd, 0x71, 0xd0, 0x72, 0x3c, 0x0a, 0x67, 0x40, 0x3e,
  0xff, 0x77, 0x20, 0xbe, 0x97, 0xf0, 0xd2, 0xbd, 0x8c, 0x59, 0x00, 0xbd,
  0x23, 0x7c, 0x91, 0x3d, 0x7b, 0xfe, 0xf0, 0x3c, 0x9b, 0xd9, 0x02, 0xbe,
  0x2a, 0xb8, 0x0a, 0x3d, 0xbb, 0x60, 0xa4, 0xba, 0xdc, 0xda, 0xb1, 0x3d,
  0xa1, 0x28, 0xf9, 0x3d, 0xa7, 0xbd, 0x79, 0xbd, 0x20, 0x2c, 0xb8, 0x3d,
  0xb2, 0x94, 0x24, 0x3d, 0xd8, 0x3b, 0x40, 0x3e, 0x84, 0xb2, 0x36, 0x3c,
  0xd6, 0x9a, 0x09, 0x3e, 0x64, 0xb6, 0x82, 0xbc, 0x75, 0xca, 0xc9, 0x3d,
  0x34, 0x44, 0xdd, 0x3d, 0x9b, 0x21, 0x2e, 0x3e, 0x74, 0xa5, 0x3b, 0x3d,
  0x92, 0xf8, 0x79, 0xbd, 0x98, 0x22, 0x29, 0xbd, 0xdc, 0xa2, 0xac, 0x3d,
  0x88, 0x17, 0x63, 0x3c, 0x85, 0xda, 0xce, 0x3c, 0x78, 0x58, 0x63, 0x3d,
  0xd0, 0x11, 0xcd, 0xbd, 0xed, 0x4c, 0x87, 0xbc, 0x64, 0xb2, 0xc7, 0xbb,
  0xd7, 0x43, 0x05, 0x3e, 0xe6, 0x28, 0x5a, 0x3e, 0xc8, 0x39, 0xd8, 0x3d,
  0xd3, 0x5e, 0x65, 0x3d, 0x92, 0x89, 0x83, 0x3d, 0x67, 0x28, 0x5c, 0xbd,
  0xf1, 0x5b, 0x2b, 0x3d, 0x3a, 0xa6, 0x22, 0xbe, 0xa7, 0x9f, 0x33, 0xbd,
  0xc2, 0xd5, 0x24, 0x3d, 0x73, 0x1a, 0x94, 0x3d, 0x0e, 0xc2, 0x6e, 0x3d,
  0x1d, 0x93, 0x13, 0xbd, 0x4a, 0xf2, 0x94, 0x3b, 0x65, 0xe6, 0x3e, 0xbd,
  0x32, 0xa0, 0x08, 0xbd, 0xf5, 0x97, 0x0e, 0xbd, 0xf6, 0x29, 0x03, 0x3c,
  0x27, 0x33, 0x4d, 0x3e, 0xaa, 0x58, 0x23, 0x3d, 0xa2, 0x52, 0x25, 0x3e,
  0x5f, 0xcd, 0xce, 0x3c, 0xa3, 0x31, 0xa6, 0x3e, 0x99, 0xd0, 0xae, 0xbc,
  0x7c, 0x71, 0x4c, 0xbd, 0x8b, 0x69, 0xa4, 0x3c, 0xa6, 0xd6, 0xbb, 0xbd,
  0xb5, 0xdc, 0x54, 0x3e, 0x88, 0xbe, 0x9b, 0xbd, 0x6f, 0x27, 0x30, 0xbd,
  0xfd, 0xf1, 0x5a, 0x3e, 0x0b, 0x80, 0x80, 0x3d, 0x18, 0x3b, 0xf2, 0x3d,
  0xe1, 0x54, 0x39, 0xbe, 0x58, 0x6d, 0xf4, 0xbd, 0xf9, 0x05, 0x3a, 0x3d,
  0xd7, 0x2c, 0x8c, 0x3d, 0x3b, 0x21, 0x38, 0xbe, 0xed, 0x15, 0x27, 0xbd,
  0xa4, 0xf2, 0x83, 0xbd, 0x12, 0x16, 0x88, 0xba, 0xbe, 0xdd, 0x5e, 0xbc,
  0x90, 0x11, 0x43, 0xbd, 0x42, 0x0b, 0xb6, 0xbd, 0xae, 0x36, 0x2d, 0xbe,
  0x5f, 0x48, 0x4f, 0xbd, 0x6d, 0xae, 0xa3, 0xbd, 0xdb, 0x27, 0x66, 0xbd,
  0x90, 0x3b, 0x99, 0x3c, 0xe6, 0x96, 0xb5, 0xbd, 0x4b, 0xb0, 0x8f, 0xbd,
  0x8e, 0x3a, 0xfe, 0xbc, 0x04, 0x23, 0xa9, 0xbd, 0x67, 0x41, 0xdf, 0xbc,
  0x87, 0x9a, 0x3f, 0x3d, 0x1d, 0x6e, 0x0e, 0x3d, 0x21, 0x70, 0x98, 0x3d,
  0xd5, 0x8c, 0xb7, 0x3a, 0x73, 0x06, 0xe4, 0x3d, 0xd6, 0xf8, 0x40, 0x3d,
  0x18, 0x03, 0x2e, 0x3c, 0xb1, 0xab, 0xa3, 0x3d, 0x5d, 0x0d, 0xc2, 0x3d,
  0x39, 0xc1, 0x86, 0x3d, 0xba, 0xe0, 0xee, 0x3d, 0x4f, 0xdf, 0x2b, 0xbd,
  0x41, 0xfa, 0xfd, 0x3c, 0x4a, 0xa8, 0xd3, 0x3d, 0xa2, 0x50, 0x3c, 0x3d,
  0xe2, 0x7f, 0xd1, 0x3c, 0xc5, 0xf3, 0x87, 0xbd, 0x98, 0x14, 0x6e, 0x3e,
  0x5f, 0xec, 0x1e, 0x3e, 0x4b, 0x51, 0x25, 0x3e, 0x41, 0xfc, 0x66, 0x3d,
  0x39, 0x6d, 0x5e, 0xbd, 0x18, 0x6c, 0x84, 0xbd, 0x3e, 0xdb, 0xe1, 0xbd,
  0x34, 0x92, 0x2a, 0x3e, 0x35, 0xd1, 0x87, 0x3b, 0x03, 0x7b, 0xdd, 0xbd,
  0x8a, 0x0c, 0x50, 0x3e, 0x0c, 0x6f, 0x58, 0xbd, 0x67, 0xb5, 0x4b, 0x3e,
  0x1a, 0xba, 0xaa, 0x3d, 0xef, 0x1a, 0xa3, 0xbd, 0xc5, 0xb7, 0xae, 0xbc,
  0xe2, 0xde, 0x83, 0x3d, 0x4b, 0xb3, 0x4b, 0x3e, 0x88, 0x88, 0xf7, 0x3c,
  0x52, 0x89, 0x44, 0x3d, 0xc4, 0xdf, 0x78, 0xbc, 0x8d, 0xe1, 0xf2, 0x3d,
  0x6c, 0x2e, 0xce, 0x3d, 0x1d, 0x8a, 0x99, 0x3d, 0x40, 0x3f, 0x92, 0x3d,
  0x8c, 0xe9, 0x4d, 0x3d, 0xa8, 0x07, 0xa3, 0x3d, 0x85, 0x4d, 0x25, 0xbc,
  0xa7, 0xb6, 0x01, 0xbd, 0x92, 0x75, 0x16, 0x3d, 0xa5, 0x8d, 0xa6, 0x3d,
  0xfd, 0xeb, 0xc5, 0x3d, 0x05, 0xc8, 0x27, 0x3d, 0x79, 0x5a, 0x08, 0xbd,
  0xbb, 0xc4, 0x63, 0xbd, 0x75, 0x40, 0xe1, 0xbd, 0xc8, 0x38, 0x86, 0xbd,
  0x27, 0x8c, 0x62, 0x3d, 0x94, 0x76, 0x36, 0x3d, 0x3c, 0xa9, 0x26, 0x39,
  0xbe, 0xc7, 0x77, 0xbd, 0x98, 0x93, 0x21, 0xbb, 0x5a, 0xa4, 0x88, 0xbd,
  0x9e, 0x20, 0xd6, 0xbd, 0x0d, 0x14, 0xea, 0xbd, 0xca, 0xda, 0x82, 0xbd,
  0xfe, 0xd0, 0x7e, 0x3d, 0x6b, 0x7a, 0x8e, 0x3d, 0xb5, 0x2c, 0x48, 0x3d,
  0x50, 0xe7, 0x55, 0x3e, 0xb9, 0xd3, 0x07, 0x3e, 0x42, 0xd4, 0xa3, 0x3a,
  0x1a, 0x4a, 0x35, 0xbe, 0x57, 0xd2, 0xc7, 0x3b, 0xfb, 0x4c, 0x23, 0xbe,
  0x31, 0x1b, 0x19, 0x3d, 0xa3, 0x75, 0x39, 0x3e, 0x3e, 0x35, 0x2a, 0xbc,
  0xda, 0x4e, 0x60, 0xbd, 0xa0, 0xa3, 0x47, 0xbe, 0x65, 0x81, 0xf5, 0x3c,
  0xf5, 0x69, 0xe5, 0xbd, 0xa5, 0xad, 0x0b, 0xbd, 0xa0, 0x5b, 0x89, 0xbd,
  0x0e, 0xb7, 0xf4, 0x3b, 0x35, 0x40, 0x17, 0x3d, 0x5c, 0x67, 0x7e, 0x3d,
  0x1b, 0x82, 0xe0, 0x3c, 0x4d, 0x1e, 0x11, 0xbd, 0x50, 0x1a, 0x3e, 0xbe,
  0xb3, 0xb2, 0x5a, 0xbe, 0x18, 0xc1, 0xe7, 0xbd, 0xaa, 0xa4, 0x15, 0xbd,
  0x6d, 0x5b, 0x2e, 0x3d, 0x69, 0x07, 0xae, 0xbd, 0xea, 0x79, 0xb2, 0xbd,
  0xd9, 0x92, 0xa7, 0xbd, 0xf0, 0xb2, 0x41, 0xbd, 0x24, 0x8a, 0x74, 0xbd,
  0x5e, 0x7f, 0xc2, 0xbd, 0xb1, 0x50, 0x22, 0xbd, 0x46, 0xd8, 0xee, 0xbd,
  0xc6, 0x52, 0x88, 0x3d, 0xf5, 0x96, 0x06, 0x3e, 0x34, 0xb5, 0x03, 0x3e,
  0x81, 0x8d, 0x9f, 0x3d, 0x0b, 0x31, 0xb7, 0xbb, 0xb8, 0x4b, 0x4f, 0x3d,
  0xe0, 0x06, 0x4f, 0x3d, 0x44, 0x93, 0xed, 0x3c, 0xbe, 0x00, 0x70, 0xbd,
  0xf5, 0x8a, 0xbe, 0x3d, 0xd1, 0xc5, 0x86, 0x3d, 0xcb, 0x81, 0xeb, 0xbb,
  0xf3, 0xd3, 0xae, 0x3d, 0x91, 0x45, 0x91, 0xbd, 0xf8, 0x8b, 0x2f, 0xbe,
  0xde, 0x92, 0x7c, 0xbc, 0x29, 0x72, 0x87, 0xbe, 0x82, 0x7f, 0x20, 0xbe,
  0x65, 0x4f, 0x86, 0x3d, 0xb2, 0x1d, 0xbb, 0x3d, 0xfe, 0xc6, 0xa7, 0xbd,
  0xac, 0xfb, 0xc8, 0x3d, 0x96, 0xd6, 0x98, 0xbc, 0x99, 0x1e, 0x0d, 0xbe,
  0x0c, 0x45, 0xc6, 0x3d, 0x88, 0xfa, 0x06, 0x3e, 0x0c, 0xea, 0x35, 0x3d,
  0xa1, 0x4b, 0x0b, 0xbd, 0xae, 0xc7, 0x90, 0x3d, 0x36, 0xc5, 0x06, 0x3e,
  0x54, 0x06, 0x54, 0x3c, 0x2c, 0x43, 0x3e, 0xbd, 0x49, 0x9c, 0x0d, 0xbd,
  0xa7, 0xb8, 0x2c, 0xbd, 0xd9, 0xc1, 0xd7, 0xbd, 0xb7, 0x0c, 0x9e, 0x3d,
  0x37, 0xb0, 0x23, 0x3d, 0x77, 0x0e, 0x76, 0x3d, 0xbf, 0xe6, 0xd5, 0x3c,
  0xcc, 0xd2, 0xbc, 0xbd, 0xb6, 0xfd, 0x37, 0xbd, 0x6a, 0xb0, 0x7b, 0xbc,
  0x2e, 0x2b, 0xa2, 0x3c, 0x8b, 0x2d, 0x35, 0x3d, 0x8b, 0xe7, 0x2d, 0x3e,
  0x6e, 0x28, 0x21, 0x3e, 0x2a, 0x9b, 0xc5, 0xbd, 0x4b, 0x18, 0x63, 0xbd,
  0x20, 0xa9, 0x66, 0xbd, 0xa9, 0x81, 0xfd, 0x3c, 0xab, 0x7f, 0xf1, 0xbd,
  0x25, 0xe0, 0xa6, 0x3d, 0xef, 0xa8, 0xc3, 0x3c, 0x7e, 0x5b, 0x6e, 0x3d,
  0x8e, 0xcd, 0xd6, 0x3c, 0x7b, 0x19, 0x18, 0xbe, 0xd7, 0x7b, 0x44, 0xbb,
  0x43, 0xaf, 0x0c, 0xbe, 0xb1, 0x7d, 0x9e, 0xbe, 0x38, 0xe0, 0x0a, 0xbd,
  0xbc, 0x6a, 0x01, 0x3d, 0x9d, 0x44, 0x0d, 0x3e, 0x9d, 0x0c, 0x1c, 0xbe,
  0xc6, 0xca, 0xc9, 0xbc, 0xea, 0x85, 0x54, 0x3a, 0xfc, 0xf4, 0x5b, 0xbc,
  0xeb, 0xc2, 0x3f, 0x3d, 0xee, 0xfe, 0x8e, 0x3c, 0x74, 0x93, 0xaa, 0x3d,
  0x24, 0xdd, 0xd3, 0xbc, 0x0c, 0xdc, 0xd5, 0x3d, 0xfb, 0xf7, 0xcc, 0x3d,
  0x9a, 0xf6, 0x3e, 0x3e, 0x71, 0xef, 0xb3, 0xbd, 0xf4, 0xde, 0x0b, 0xbc,
  0x69, 0x1a, 0x66, 0xbb, 0x25, 0x61, 0x83, 0xbd, 0x9d, 0x3a, 0x70, 0xbd,
  0x6f, 0x20, 0x71, 0xbd, 0x21, 0x8d, 0x84, 0x3d, 0x6e, 0x2e, 0xe8, 0xbb,
  0x07, 0xf4, 0x61, 0xbe, 0x36, 0xdb, 0x5e, 0xbd, 0x2a, 0x91, 0xe4, 0xbd,
  0x05, 0x28, 0x7e, 0xbe, 0xf2, 0xb2, 0x1c, 0xbd, 0x98, 0x16, 0x64, 0xba,
  0xb3, 0x12, 0x18, 0x3e, 0x9f, 0xf3, 0x9a, 0x3d, 0xc4, 0xb3, 0x34, 0xbd,
  0x2b, 0x8a, 0xc8, 0x3d, 0x85, 0x3f, 0x32, 0xbd, 0xf0, 0x81, 0xe2, 0xbd,
  0xbc, 0x98, 0xdb, 0xbd, 0x70, 0x5c, 0xe0, 0x3c, 0x2d, 0x08, 0xc5, 0x3d,
  0xe3, 0xa6, 0xe5, 0x3c, 0x67, 0x8d, 0x12, 0x3d, 0x02, 0xd5, 0xbe, 0xbd,
  0x8e, 0x93, 0x6a, 0x3c, 0x9c, 0xb2, 0xab, 0xbc, 0x84, 0x92, 0x00, 0x3d,
  0x88, 0x43, 0x42, 0x3d, 0x8e, 0xc6, 0xcd, 0x3d, 0x65, 0x9b, 0x2b, 0xbe,
  0x17, 0x79, 0x1d, 0x3e, 0xc4, 0xb4, 0x0f, 0x3e, 0xc4, 0x61, 0x22, 0x3d,
  0x3b, 0xc6, 0xef, 0x3d, 0x2e, 0x08, 0x01, 0xbd, 0xb8, 0x3a, 0x1d, 0x3e,
  0x17, 0x80, 0xf8, 0xbc, 0x8c, 0xb9, 0xc3, 0x3d, 0xa5, 0x10, 0x00, 0xbe,
  0xd8, 0x74, 0xe3, 0x3d, 0xa8, 0x29, 0xed, 0xbd, 0x2f, 0x9a, 0x2e, 0xbe,
  0x1a, 0xbd, 0x03, 0x3e, 0xc0, 0x67, 0xa3, 0xbd, 0xee, 0x0e, 0x11, 0xbd,
  0x81, 0x0f, 0xd1, 0x3c, 0x5f, 0xea, 0x61, 0xbe, 0x24, 0xcf, 0xe7, 0xbd,
  0x33, 0x62, 0x07, 0x3c, 0xcc, 0x8a, 0x15, 0x3e, 0x3c, 0xfa, 0x1d, 0xbd,
  0x9f, 0xca, 0x03, 0x3e, 0xc1, 0x0b, 0xd0, 0x3c, 0x9a, 0x63, 0x18, 0x3d,
  0xee, 0xd0, 0x7e, 0x3d, 0xb2, 0xb6, 0xd4, 0x3d, 0x2b, 0x46, 0x06, 0x3e,
  0xee, 0x6d, 0xc4, 0x3d, 0xcb, 0x16, 0x27, 0x3e, 0x17, 0x04, 0x3b, 0x3d,
  0x8e, 0x8b, 0x3f, 0xbb, 0x50, 0xa9, 0x58, 0x3d, 0x15, 0x24, 0x3e, 0xbd,
  0xe0, 0xb8, 0xbe, 0x3d, 0x52, 0xff, 0xff, 0xff, 0x04, 0x00, 0x00, 0x00,
  0xa0, 0x00, 0x00, 0x00, 0x8a, 0x11, 0xb5, 0xbe, 0x81, 0x8f, 0x72, 0xbe,
  0x2e, 0xc5, 0x6b, 0x3e, 0xd2, 0x2e, 0x28, 0xbf, 0x5f, 0x6e, 0x17, 0xbf,
  0xc4, 0x91, 0xbe, 0xbe, 0x89, 0x7c, 0xcb, 0x3e, 0x87, 0xfe, 0x1e, 0x3f,
  0xc9, 0xe2, 0xd8, 0xbe, 0xfb, 0x40, 0xfb, 0x3e, 0xca, 0xde, 0x01, 0xbf,
  0x66, 0x0a, 0x53, 0xbe, 0x51, 0x19, 0x27, 0x3d, 0xb4, 0xa1, 0xdb, 0x3c,
  0xa7, 0x4e, 0xb1, 0xbe, 0xf3, 0xd2, 0xc7, 0xbe, 0x2a, 0x8e, 0x94, 0xbd,
  0xd9, 0x9e, 0xe2, 0x3e, 0xba, 0x37, 0xbf, 0x3e, 0x25, 0x54, 0x30, 0x3f,
  0xe6, 0x9c, 0x5d, 0xbe, 0xa1, 0xe1, 0x25, 0xbf, 0xda, 0x98, 0x70, 0x3d,
  0x2a, 0xde, 0x9b, 0xbd, 0x36, 0xe1, 0x69, 0xbf, 0xd3, 0xe8, 0xb5, 0x3e,
  0xe2, 0x64, 0x5d, 0x3b, 0x43, 0x0e, 0x58, 0x3e, 0x69, 0xcf, 0x8e, 0x3e,
  0x37, 0xb0, 0xfd, 0x3e, 0xbd, 0xe2, 0x2d, 0x3f, 0xe1, 0xf4, 0x9c, 0xbe,
  0xf4, 0xff, 0x00, 0xbe, 0x0b, 0x90, 0xcd, 0xbe, 0xd7, 0x46, 0xaa, 0xbe,
  0x52, 0x95, 0x8c, 0x3e, 0x22, 0x6a, 0x8e, 0x3e, 0xf7, 0x09, 0x40, 0x3e,
  0x70, 0x87, 0x4a, 0x3e, 0xb8, 0x2f, 0x3f, 0x3e, 0x00, 0x00, 0x06, 0x00,
  0x08, 0x00, 0x04, 0x00, 0x06, 0x00, 0x00, 0x00, 0x04, 0x00, 0x00, 0x00,
  0x28, 0x00, 0x00, 0x00, 0xb0, 0x8c, 0x2d, 0xbe, 0x3c, 0x4e, 0x32, 0x3f,
  0x35, 0x08, 0x8c, 0x3e, 0x0d, 0x3c, 0x78, 0x3e, 0xd5, 0xd1, 0x30, 0xbf,
  0xcf, 0x5a, 0xb6, 0x3e, 0x1d, 0x00, 0x48, 0x3e, 0x5e, 0x97, 0x87, 0xbe,
  0x78, 0x18, 0x17, 0xbf, 0xcf, 0x79, 0x81, 0xba, 0x3c, 0xf1, 0xff, 0xff,
  0x40, 0xf1, 0xff, 0xff, 0x0f, 0x00, 0x00, 0x00, 0x4d, 0x4c, 0x49, 0x52,
  0x20, 0x43, 0x6f, 0x6e, 0x76, 0x65, 0x72, 0x74, 0x65, 0x64, 0x2e, 0x00,
  0x01, 0x00, 0x00, 0x00, 0x14, 0x00, 0x00, 0x00, 0x00, 0x00, 0x0e, 0x00,
  0x18, 0x00, 0x14, 0x00, 0x10, 0x00, 0x0c, 0x00, 0x08, 0x00, 0x04, 0x00,
  0x0e, 0x00, 0x00, 0x00, 0x14, 0x00, 0x00, 0x00, 0x1c, 0x00, 0x00, 0x00,
  0xbc, 0x01, 0x00, 0x00, 0xc0, 0x01, 0x00, 0x00, 0xc4, 0x01, 0x00, 0x00,
  0x04, 0x00, 0x00, 0x00, 0x6d, 0x61, 0x69, 0x6e, 0x00, 0x00, 0x00, 0x00,
  0x06, 0x00, 0x00, 0x00, 0x54, 0x01, 0x00, 0x00, 0xf4, 0x00, 0x00, 0x00,
  0xbc, 0x00, 0x00, 0x00, 0x88, 0x00, 0x00, 0x00, 0x40, 0x00, 0x00, 0x00,
  0x04, 0x00, 0x00, 0x00, 0x2e, 0xff, 0xff, 0xff, 0x14, 0x00, 0x00, 0x00,
  0x00, 0x00, 0x00, 0x08, 0x14, 0x00, 0x00, 0x00, 0x18, 0x00, 0x00, 0x00,
  0x04, 0x00, 0x00, 0x00, 0xc6, 0xff, 0xff, 0xff, 0x00, 0x00, 0x00, 0x01,
  0x01, 0x00, 0x00, 0x00, 0x0f, 0x00, 0x00, 0x00, 0x03, 0x00, 0x00, 0x00,
  0x0e, 0x00, 0x00, 0x00, 0x02, 0x00, 0x00, 0x00, 0x01, 0x00, 0x00, 0x00,
  0x66, 0xff, 0xff, 0xff, 0x20, 0x00, 0x00, 0x00, 0x00, 0x00, 0x00, 0x08,
  0x20, 0x00, 0x00, 0x00, 0x24, 0x00, 0x00, 0x00, 0x04, 0x00, 0x00, 0x00,
  0x00, 0x00, 0x0a, 0x00, 0x08, 0x00, 0x00, 0x00, 0x00, 0x00, 0x07, 0x00,
  0x0a, 0x00, 0x00, 0x00, 0x00, 0x00, 0x00, 0x01, 0x01, 0x00, 0x00, 0x00,
  0x0e, 0x00, 0x00, 0x00, 0x03, 0x00, 0x00, 0x00, 0x0d, 0x00, 0x00, 0x00,
  0x03, 0x00, 0x00, 0x00, 0xff, 0xff, 0xff, 0xff, 0xda, 0xff, 0xff, 0xff,
  0x0c, 0x00, 0x00, 0x00, 0x10, 0x00, 0x00, 0x00, 0x03, 0x00, 0x00, 0x00,
  0x01, 0x00, 0x00, 0x00, 0x0d, 0x00, 0x00, 0x00, 0x02, 0x00, 0x00, 0x00,
  0x0c, 0x00, 0x00, 0x00, 0x07, 0x00, 0x00, 0x00, 0x00, 0x00, 0x0a, 0x00,
  0x10, 0x00, 0x0c, 0x00, 0x08, 0x00, 0x04, 0x00, 0x0a, 0x00, 0x00, 0x00,
  0x0c, 0x00, 0x00, 0x00, 0x10, 0x00, 0x00, 0x00, 0x02, 0x00, 0x00, 0x00,
  0x01, 0x00, 0x00, 0x00, 0x0c, 0x00, 0x00, 0x00, 0x02, 0x00, 0x00, 0x00,
  0x0b, 0x00, 0x00, 0x00, 0x08, 0x00, 0x00, 0x00, 0x00, 0x00, 0x0e, 0x00,
  0x1a, 0x00, 0x14, 0x00, 0x10, 0x00, 0x0c, 0x00, 0x0b, 0x00, 0x04, 0x00,
  0x0e, 0x00, 0x00, 0x00, 0x20, 0x00, 0x00, 0x00, 0x00, 0x00, 0x00, 0x01,
  0x28, 0x00, 0x00, 0x00, 0x2c, 0x00, 0x00, 0x00, 0x01, 0x00, 0x00, 0x00,
  0x00, 0x00, 0x0a, 0x00, 0x10, 0x00, 0x0f, 0x00, 0x08, 0x00, 0x04, 0x00,
  0x0a, 0x00, 0x00, 0x00, 0x02, 0x00, 0x00, 0x00, 0x02, 0x00, 0x00, 0x00,
  0x00, 0x00, 0x00, 0x01, 0x01, 0x00, 0x00, 0x00, 0x0b, 0x00, 0x00, 0x00,
  0x03, 0x00, 0x00, 0x00, 0x0a, 0x00, 0x00, 0x00, 0x05, 0x00, 0x00, 0x00,
  0x04, 0x00, 0x00, 0x00, 0x00, 0x00, 0x0e, 0x00, 0x14, 0x00, 0x00, 0x00,
  0x10, 0x00, 0x0c, 0x00, 0x0b, 0x00, 0x04, 0x00, 0x0e, 0x00, 0x00, 0x00,
  0x1c, 0x00, 0x00, 0x00, 0x00, 0x00, 0x00, 0x02, 0x28, 0x00, 0x00, 0x00,
  0x2c, 0x00, 0x00, 0x00, 0x0c, 0x00, 0x14, 0x00, 0x13, 0x00, 0x0c, 0x00,
  0x08, 0x00, 0x04, 0x00, 0x0c, 0x00, 0x00, 0x00, 0x04, 0x00, 0x00, 0x00,
  0x02, 0x00, 0x00, 0x00, 0x02, 0x00, 0x00, 0x00, 0x00, 0x00, 0x00, 0x01,
  0x01, 0x00, 0x00, 0x00, 0x0a, 0x00, 0x00, 0x00, 0x03, 0x00, 0x00, 0x00,
  0x00, 0x00, 0x00, 0x00, 0x06, 0x00, 0x00, 0x00, 0x09, 0x00, 0x00, 0x00,
  0x01, 0x00, 0x00, 0x00, 0x0f, 0x00, 0x00, 0x00, 0x01, 0x00, 0x00, 0x00,
  0x00, 0x00, 0x00, 0x00, 0x10, 0x00, 0x00, 0x00, 0x9c, 0x0c, 0x00, 0x00,
  0x48, 0x0c, 0x00, 0x00, 0x08, 0x0c, 0x00, 0x00, 0xc8, 0x0b, 0x00, 0x00,
  0x8c, 0x0b, 0x00, 0x00, 0x44, 0x0b, 0x00, 0x00, 0xfc, 0x0a, 0x00, 0x00,
  0xbc, 0x0a, 0x00, 0x00, 0x64, 0x0a, 0x00, 0x00, 0xe0, 0x08, 0x00, 0x00,
  0x50, 0x07, 0x00, 0x00, 0xc0, 0x05, 0x00, 0x00, 0x30, 0x04, 0x00, 0x00,
  0x3c, 0x02, 0x00, 0x00, 0x50, 0x00, 0x00, 0x00, 0x04, 0x00, 0x00, 0x00,
  0xba, 0xf3, 0xff, 0xff, 0x00, 0x00, 0x00, 0x01, 0x10, 0x00, 0x00, 0x00,
  0x10, 0x00, 0x00, 0x00, 0x10, 0x00, 0x00, 0x00, 0x28, 0x00, 0x00, 0x00,
  0xa4, 0xf3, 0xff, 0xff, 0x19, 0x00, 0x00, 0x00, 0x53, 0x74, 0x61, 0x74,
  0x65, 0x66, 0x75, 0x6c, 0x50, 0x61, 0x72, 0x74, 0x69, 0x74, 0x69, 0x6f,
  0x6e, 0x65, 0x64, 0x43, 0x61, 0x6c, 0x6c, 0x3a, 0x30, 0x00, 0x00, 0x00,
  0x02, 0x00, 0x00, 0x00, 0x01, 0x00, 0x00, 0x00, 0x0a, 0x00, 0x00, 0x00,
  0x02, 0xf4, 0xff, 0xff, 0x00, 0x00, 0x00, 0x01, 0x10, 0x00, 0x00, 0x00,
  0x10, 0x00, 0x00, 0x00, 0x0f, 0x00, 0x00, 0x00, 0xc8, 0x01, 0x00, 0x00,
  0xec, 0xf3, 0xff, 0xff, 0xba, 0x01, 0x00, 0x00, 0x61, 0x69, 0x5f, 0x65,
  0x64, 0x67, 0x65, 0x5f, 0x74, 0x6f, 0x72, 0x63, 0x68, 0x2e, 0x5f, 0x63,
  0x6f, 0x6e, 0x76, 0x65, 0x72, 0x74, 0x2e, 0x74, 0x6f, 0x5f, 0x63, 0x68,
  0x61, 0x6e, 0x6e, 0x65, 0x6c, 0x5f, 0x6c, 0x61, 0x73, 0x74, 0x5f, 0x69,
  0x6f, 0x2e, 0x43, 0x68, 0x61, 0x6e, 0x6e, 0x65, 0x6c, 0x4c, 0x61, 0x73,
  0x74, 0x49, 0x4f, 0x57, 0x72, 0x61, 0x70, 0x70, 0x65, 0x72, 0x2f, 0x65,
  0x6c, 0x61, 0x73, 0x74, 0x69, 0x63, 0x61, 0x69, 0x2e, 0x65, 0x78, 0x70,
  0x6c, 0x6f, 0x72, 0x65, 0x72, 0x2e, 0x68, 0x77, 0x5f, 0x6e, 0x61, 0x73,
  0x2e, 0x73, 0x65, 0x61, 0x72, 0x63, 0x68, 0x5f, 0x73, 0x70, 0x61, 0x63,
  0x65, 0x2e, 0x63, 0x6f, 0x6e, 0x73, 0x74, 0x72, 0x75, 0x63, 0x74, 0x5f,
  0x73, 0x70, 0x2e, 0x43, 0x6f, 0x6d, 0x62, 0x69, 0x6e, 0x65, 0x64, 0x53,
  0x65, 0x61, 0x72, 0x63, 0x68, 0x53, 0x70, 0x61, 0x63, 0x65, 0x5f, 0x77,
  0x72, 0x61, 0x70, 0x70, 0x65, 0x64, 0x2f, 0x74, 0x6f, 0x72, 0x63, 0x68,
  0x2e, 0x6e, 0x6e, 0x2e, 0x6d, 0x6f, 0x64, 0x75, 0x6c, 0x65, 0x73, 0x2e,
  0x63, 0x6f, 0x6e, 0x74, 0x61, 0x69, 0x6e, 0x65, 0x72, 0x2e, 0x53, 0x65,
  0x71, 0x75, 0x65, 0x6e, 0x74, 0x69, 0x61, 0x6c, 0x5f, 0x62, 0x6c, 0x6f,
  0x63, 0x6b, 0x5f, 0x73, 0x70, 0x2f, 0x65, 0x6c, 0x61, 0x73, 0x74, 0x69,
  0x63, 0x61, 0x69, 0x2e, 0x65, 0x78, 0x70, 0x6c, 0x6f, 0x72, 0x65, 0x72,
  0x2e, 0x68, 0x77, 0x5f, 0x6e, 0x61, 0x73, 0x2e, 0x73, 0x65, 0x61, 0x72,
  0x63, 0x68, 0x5f, 0x73, 0x70, 0x61, 0x63, 0x65, 0x2e, 0x6f, 0x70, 0x65,
  0x72, 0x61, 0x74, 0x69, 0x6f, 0x6e, 0x73, 0x2e, 0x4c, 0x69, 0x6e, 0x65,
  0x61, 0x72, 0x42, 0x6c, 0x6f, 0x63, 0x6b, 0x5f, 0x31, 0x2f, 0x74, 0x6f,
  0x72, 0x63, 0x68, 0x2e, 0x6e, 0x6e, 0x2e, 0x6d, 0x6f, 0x64, 0x75, 0x6c,
  0x65, 0x73, 0x2e, 0x63, 0x6f, 0x6e, 0x74, 0x61, 0x69, 0x6e, 0x65, 0x72,
  0x2e, 0x53, 0x65, 0x71, 0x75, 0x65, 0x6e, 0x74, 0x69, 0x61, 0x6c, 0x5f,
  0x6c, 0x61, 0x79, 0x65, 0x72, 0x73, 0x2f, 0x74, 0x6f, 0x72, 0x63, 0x68,
  0x2e, 0x6e, 0x6e, 0x2e, 0x6d, 0x6f, 0x64, 0x75, 0x6c, 0x65, 0x73, 0x2e,
  0x63, 0x6f, 0x6e, 0x74, 0x61, 0x69, 0x6e, 0x65, 0x72, 0x2e, 0x53, 0x65,
  0x71, 0x75, 0x65, 0x6e, 0x74, 0x69, 0x61, 0x6c, 0x5f, 0x30, 0x2f, 0x65,
  0x6c, 0x61, 0x73, 0x74, 0x69, 0x63, 0x61, 0x69, 0x2e, 0x65, 0x78, 0x70,
  0x6c, 0x6f, 0x72, 0x65, 0x72, 0x2e, 0x68, 0x77, 0x5f, 0x6e, 0x61, 0x73,
  0x2e, 0x73, 0x65, 0x61, 0x72, 0x63, 0x68, 0x5f, 0x73, 0x70, 0x61, 0x63,
  0x65, 0x2e, 0x6f, 0x70, 0x65, 0x72, 0x61, 0x74, 0x69, 0x6f, 0x6e, 0x73,
  0x2e, 0x4c, 0x69, 0x6e, 0x65, 0x61, 0x72, 0x46, 0x6c, 0x61, 0x74, 0x74,
  0x65, 0x6e, 0x65, 0x64, 0x5f, 0x30, 0x2f, 0x74, 0x6f, 0x72, 0x63, 0x68,
  0x2e, 0x6e, 0x6e, 0x2e, 0x6d, 0x6f, 0x64, 0x75, 0x6c, 0x65, 0x73, 0x2e,
  0x6c, 0x69, 0x6e, 0x65, 0x61, 0x72, 0x2e, 0x4c, 0x69, 0x6e, 0x65, 0x61,
  0x72, 0x5f, 0x6c, 0x69, 0x6e, 0x3b, 0x00, 0x00, 0x02, 0x00, 0x00, 0x00,
  0x01, 0x00, 0x00, 0x00, 0x04, 0x00, 0x00, 0x00, 0xea, 0xf5, 0xff, 0xff,
  0x00, 0x00, 0x00, 0x01, 0x10, 0x00, 0x00, 0x00, 0x10, 0x00, 0x00, 0x00,
  0x0e, 0x00, 0x00, 0x00, 0xd0, 0x01, 0x00, 0x00, 0xd4, 0xf5, 0xff, 0xff,
  0xc0, 0x01, 0x00, 0x00, 0x61, 0x69, 0x5f, 0x65, 0x64, 0x67, 0x65, 0x5f,
  0x74, 0x6f, 0x72, 0x63, 0x68, 0x2e, 0x5f, 0x63, 0x6f, 0x6e, 0x76, 0x65,
  0x72, 0x74, 0x2e, 0x74, 0x6f, 0x5f, 0x63, 0x68, 0x61, 0x6e, 0x6e, 0x65,
  0x6c, 0x5f, 0x6c, 0x61, 0x73, 0x74, 0x5f, 0x69, 0x6f, 0x2e, 0x43, 0x68,
  0x61, 0x6e, 0x6e, 0x65, 0x6c, 0x4c, 0x61, 0x73, 0x74, 0x49, 0x4f, 0x57,
  0x72, 0x61, 0x70, 0x70, 0x65, 0x72, 0x2f, 0x65, 0x6c, 0x61, 0x73, 0x74,
  0x69, 0x63, 0x61, 0x69, 0x2e, 0x65, 0x78, 0x70, 0x6c, 0x6f, 0x72, 0x65,
  0x72, 0x2e, 0x68, 0x77, 0x5f, 0x6e, 0x61, 0x73, 0x2e, 0x73, 0x65, 0x61,
  0x72, 0x63, 0x68, 0x5f, 0x73, 0x70, 0x61, 0x63, 0x65, 0x2e, 0x63, 0x6f,
  0x6e, 0x73, 0x74, 0x72, 0x75, 0x63, 0x74, 0x5f, 0x73, 0x70, 0x2e, 0x43,
  0x6f, 0x6d, 0x62, 0x69, 0x6e, 0x65, 0x64, 0x53, 0x65, 0x61, 0x72, 0x63,
  0x68, 0x53, 0x70, 0x61, 0x63, 0x65, 0x5f, 0x77, 0x72, 0x61, 0x70, 0x70,
  0x65, 0x64, 0x2f, 0x74, 0x6f, 0x72, 0x63, 0x68, 0x2e, 0x6e, 0x6e, 0x2e,
  0x6d, 0x6f, 0x64, 0x75, 0x6c, 0x65, 0x73, 0x2e, 0x63, 0x6f, 0x6e, 0x74,
  0x61, 0x69, 0x6e, 0x65, 0x72, 0x2e, 0x53, 0x65, 0x71, 0x75, 0x65, 0x6e,
  0x74, 0x69, 0x61, 0x6c, 0x5f, 0x62, 0x6c, 0x6f, 0x63, 0x6b, 0x5f, 0x73,
  0x70, 0x2f, 0x65, 0x6c, 0x61, 0x73, 0x74, 0x69, 0x63, 0x61, 0x69, 0x2e,
  0x65, 0x78, 0x70, 0x6c, 0x6f, 0x72, 0x65, 0x72, 0x2e, 0x68, 0x77, 0x5f,
  0x6e, 0x61, 0x73, 0x2e, 0x73, 0x65, 0x61, 0x72, 0x63, 0x68, 0x5f, 0x73,
  0x70, 0x61, 0x63, 0x65, 0x2e, 0x6f, 0x70, 0x65, 0x72, 0x61, 0x74, 0x69,
  0x6f, 0x6e, 0x73, 0x2e, 0x4c, 0x69, 0x6e, 0x65, 0x61, 0x72, 0x42, 0x6c,
  0x6f, 0x63, 0x6b, 0x5f, 0x31, 0x2f, 0x74, 0x6f, 0x72, 0x63, 0x68, 0x2e,
  0x6e, 0x6e, 0x2e, 0x6d, 0x6f, 0x64, 0x75, 0x6c, 0x65, 0x73, 0x2e, 0x63,
  0x6f, 0x6e, 0x74, 0x61, 0x69, 0x6e, 0x65, 0x72, 0x2e, 0x53, 0x65, 0x71,
  0x75, 0x65, 0x6e, 0x74, 0x69, 0x61, 0x6c, 0x5f, 0x6c, 0x61, 0x79, 0x65,
  0x72, 0x73, 0x2f, 0x74, 0x6f, 0x72, 0x63, 0x68, 0x2e, 0x6e, 0x6e, 0x2e,
  0x6d, 0x6f, 0x64, 0x75, 0x6c, 0x65, 0x73, 0x2e, 0x63, 0x6f, 0x6e, 0x74,
  0x61, 0x69, 0x6e, 0x65, 0x72, 0x2e, 0x53, 0x65, 0x71, 0x75, 0x65, 0x6e,
  0x74, 0x69, 0x61, 0x6c, 0x5f, 0x30, 0x2f, 0x65, 0x6c, 0x61, 0x73, 0x74,
  0x69, 0x63, 0x61, 0x69, 0x2e, 0x65, 0x78, 0x70, 0x6c, 0x6f, 0x72, 0x65,
  0x72, 0x2e, 0x68, 0x77, 0x5f, 0x6e, 0x61, 0x73, 0x2e, 0x73, 0x65, 0x61,
  0x72, 0x63, 0x68, 0x5f, 0x73, 0x70, 0x61, 0x63, 0x65, 0x2e, 0x6f, 0x70,
  0x65, 0x72, 0x61, 0x74, 0x69, 0x6f, 0x6e, 0x73, 0x2e, 0x4c, 0x69, 0x6e,
  0x65, 0x61, 0x72, 0x46, 0x6c, 0x61, 0x74, 0x74, 0x65, 0x6e, 0x65, 0x64,
  0x5f, 0x30, 0x2f, 0x74, 0x6f, 0x72, 0x63, 0x68, 0x2e, 0x6e, 0x6e, 0x2e,
  0x6d, 0x6f, 0x64, 0x75, 0x6c, 0x65, 0x73, 0x2e, 0x66, 0x6c, 0x61, 0x74,
  0x74, 0x65, 0x6e, 0x2e, 0x46, 0x6c, 0x61, 0x74, 0x74, 0x65, 0x6e, 0x5f,
  0x66, 0x6c, 0x61, 0x74, 0x74, 0x65, 0x6e, 0x3b, 0x00, 0x00, 0x00, 0x00,
  0x02, 0x00, 0x00, 0x00, 0x01, 0x00, 0x00, 0x00, 0xc4, 0x00, 0x00, 0x00,
  0xda, 0xf7, 0xff, 0xff, 0x00, 0x00, 0x00, 0x01, 0x10, 0x00, 0x00, 0x00,
  0x10, 0x00, 0x00, 0x00, 0x0d, 0x00, 0x00, 0x00, 0x64, 0x01, 0x00, 0x00,
  0xc4, 0xf7, 0xff, 0xff, 0x56, 0x01, 0x00, 0x00, 0x61, 0x69, 0x5f, 0x65,
  0x64, 0x67, 0x65, 0x5f, 0x74, 0x6f, 0x72, 0x63, 0x68, 0x2e, 0x5f, 0x63,
  0x6f, 0x6e, 0x76, 0x65, 0x72, 0x74, 0x2e, 0x74, 0x6f, 0x5f, 0x63, 0x68,
  0x61, 0x6e, 0x6e, 0x65, 0x6c, 0x5f, 0x6c, 0x61, 0x73, 0x74, 0x5f, 0x69,
  0x6f, 0x2e, 0x43, 0x68, 0x61, 0x6e, 0x6e, 0x65, 0x6c, 0x4c, 0x61, 0x73,
  0x74, 0x49, 0x4f, 0x57, 0x72, 0x61, 0x70, 0x70, 0x65, 0x72, 0x2f, 0x65,
  0x6c, 0x61, 0x73, 0x74, 0x69, 0x63, 0x61, 0x69, 0x2e, 0x65, 0x78, 0x70,
  0x6c, 0x6f, 0x72, 0x65, 0x72, 0x2e, 0x68, 0x77, 0x5f, 0x6e, 0x61, 0x73,
  0x2e, 0x73, 0x65, 0x61, 0x72, 0x63, 0x68, 0x5f, 0x73, 0x70, 0x61, 0x63,
  0x65, 0x2e, 0x63, 0x6f, 0x6e, 0x73, 0x74, 0x72, 0x75, 0x63, 0x74, 0x5f,
  0x73, 0x70, 0x2e, 0x43, 0x6f, 0x6d, 0x62, 0x69, 0x6e, 0x65, 0x64, 0x53,
  0x65, 0x61, 0x72, 0x63, 0x68, 0x53, 0x70, 0x61, 0x63, 0x65, 0x5f, 0x77,
  0x72, 0x61, 0x70, 0x70, 0x65, 0x64, 0x2f, 0x74, 0x6f, 0x72, 0x63, 0x68,
  0x2e, 0x6e, 0x6e, 0x2e, 0x6d, 0x6f, 0x64, 0x75, 0x6c, 0x65, 0x73, 0x2e,
  0x63, 0x6f, 0x6e, 0x74, 0x61, 0x69, 0x6e, 0x65, 0x72, 0x2e, 0x53, 0x65,
  0x71, 0x75, 0x65, 0x6e, 0x74, 0x69, 0x61, 0x6c, 0x5f, 0x62, 0x6c, 0x6f,
  0x63, 0x6b, 0x5f, 0x73, 0x70, 0x2f, 0x74, 0x6f, 0x72, 0x63, 0x68, 0x2e,
  0x6e, 0x6e, 0x2e, 0x6d, 0x6f, 0x64, 0x75, 0x6c, 0x65, 0x73, 0x2e, 0x63,
  0x6f, 0x6e, 0x74, 0x61, 0x69, 0x6e, 0x65, 0x72, 0x2e, 0x53, 0x65, 0x71,
  0x75, 0x65, 0x6e, 0x74, 0x69, 0x61, 0x6c, 0x5f, 0x30, 0x2f, 0x74, 0x6f,
  0x72, 0x63, 0x68, 0x2e, 0x6e, 0x6e, 0x2e, 0x6d, 0x6f, 0x64, 0x75, 0x6c,
  0x65, 0x73, 0x2e, 0x63, 0x6f, 0x6e, 0x74, 0x61, 0x69, 0x6e, 0x65, 0x72,
  0x2e, 0x53, 0x65, 0x71, 0x75, 0x65, 0x6e, 0x74, 0x69, 0x61, 0x6c, 0x5f,
  0x30, 0x2f, 0x74, 0x6f, 0x72, 0x63, 0x68, 0x2e, 0x6e, 0x6e, 0x2e, 0x6d,
  0x6f, 0x64, 0x75, 0x6c, 0x65, 0x73, 0x2e, 0x63, 0x6f, 0x6e, 0x74, 0x61,
  0x69, 0x6e, 0x65, 0x72, 0x2e, 0x53, 0x65, 0x71, 0x75, 0x65, 0x6e, 0x74,
  0x69, 0x61, 0x6c, 0x5f, 0x31, 0x2f, 0x74, 0x6f, 0x72, 0x63, 0x68, 0x2e,
  0x6e, 0x6e, 0x2e, 0x6d, 0x6f, 0x64, 0x75, 0x6c, 0x65, 0x73, 0x2e, 0x63,
  0x6f, 0x6e, 0x76, 0x2e, 0x43, 0x6f, 0x6e, 0x76, 0x32, 0x64, 0x5f, 0x30,
  0x3b, 0x31, 0x00, 0x00, 0x04, 0x00, 0x00, 0x00, 0x01, 0x00, 0x00, 0x00,
  0x04, 0x00, 0x00, 0x00, 0x07, 0x00, 0x00, 0x00, 0x07, 0x00, 0x00, 0x00,
  0x66, 0xf9, 0xff, 0xff, 0x00, 0x00, 0x00, 0x01, 0x10, 0x00, 0x00, 0x00,
  0x10, 0x00, 0x00, 0x00, 0x0c, 0x00, 0x00, 0x00, 0x64, 0x01, 0x00, 0x00,
  0x50, 0xf9, 0xff, 0xff, 0x55, 0x01, 0x00, 0x00, 0x61, 0x69, 0x5f, 0x65,
  0x64, 0x67, 0x65, 0x5f, 0x74, 0x6f, 0x72, 0x63, 0x68, 0x2e, 0x5f, 0x63,
  0x6f, 0x6e, 0x76, 0x65, 0x72, 0x74, 0x2e, 0x74, 0x6f, 0x5f, 0x63, 0x68,
  0x61, 0x6e, 0x6e, 0x65, 0x6c, 0x5f, 0x6c, 0x61, 0x73, 0x74, 0x5f, 0x69,
  0x6f, 0x2e, 0x43, 0x68, 0x61, 0x6e, 0x6e, 0x65, 0x6c, 0x4c, 0x61, 0x73,
  0x74, 0x49, 0x4f, 0x57, 0x72, 0x61, 0x70, 0x70, 0x65, 0x72, 0x2f, 0x65,
  0x6c, 0x61, 0x73, 0x74, 0x69, 0x63, 0x61, 0x69, 0x2e, 0x65, 0x78, 0x70,
  0x6c, 0x6f, 0x72, 0x65, 0x72, 0x2e, 0x68, 0x77, 0x5f, 0x6e, 0x61, 0x73,
  0x2e, 0x73, 0x65, 0x61, 0x72, 0x63, 0x68, 0x5f, 0x73, 0x70, 0x61, 0x63,
  0x65, 0x2e, 0x63, 0x6f, 0x6e, 0x73, 0x74, 0x72, 0x75, 0x63, 0x74, 0x5f,
  0x73, 0x70, 0x2e, 0x43, 0x6f, 0x6d, 0x62, 0x69, 0x6e, 0x65, 0x64, 0x53,
  0x65, 0x61, 0x72, 0x63, 0x68, 0x53, 0x70, 0x61, 0x63, 0x65, 0x5f, 0x77,
  0x72, 0x61, 0x70, 0x70, 0x65, 0x64, 0x2f, 0x74, 0x6f, 0x72, 0x63, 0x68,
  0x2e, 0x6e, 0x6e, 0x2e, 0x6d, 0x6f, 0x64, 0x75, 0x6c, 0x65, 0x73, 0x2e,
  0x63, 0x6f, 0x6e, 0x74, 0x61, 0x69, 0x6e, 0x65, 0x72, 0x2e, 0x53, 0x65,
  0x71, 0x75, 0x65, 0x6e, 0x74, 0x69, 0x61, 0x6c, 0x5f, 0x62, 0x6c, 0x6f,
  0x63, 0x6b, 0x5f, 0x73, 0x70, 0x2f, 0x74, 0x6f, 0x72, 0x63, 0x68, 0x2e,
  0x6e, 0x6e, 0x2e, 0x6d, 0x6f, 0x64, 0x75, 0x6c, 0x65, 0x73, 0x2e, 0x63,
  0x6f, 0x6e, 0x74, 0x61, 0x69, 0x6e, 0x65, 0x72, 0x2e, 0x53, 0x65, 0x71,
  0x75, 0x65, 0x6e, 0x74, 0x69, 0x61, 0x6c, 0x5f, 0x30, 0x2f, 0x74, 0x6f,
  0x72, 0x63, 0x68, 0x2e, 0x6e, 0x6e, 0x2e, 0x6d, 0x6f, 0x64, 0x75, 0x6c,
  0x65, 0x73, 0x2e, 0x63, 0x6f, 0x6e, 0x74, 0x61, 0x69, 0x6e, 0x65, 0x72,
  0x2e, 0x53, 0x65, 0x71, 0x75, 0x65, 0x6e, 0x74, 0x69, 0x61, 0x6c, 0x5f,
  0x30, 0x2f, 0x74, 0x6f, 0x72, 0x63, 0x68, 0x2e, 0x6e, 0x6e, 0x2e, 0x6d,
  0x6f, 0x64, 0x75, 0x6c, 0x65, 0x73, 0x2e, 0x63, 0x6f, 0x6e, 0x74, 0x61,
  0x69, 0x6e, 0x65, 0x72, 0x2e, 0x53, 0x65, 0x71, 0x75, 0x65, 0x6e, 0x74,
  0x69, 0x61, 0x6c, 0x5f, 0x31, 0x2f, 0x74, 0x6f, 0x72, 0x63, 0x68, 0x2e,
  0x6e, 0x6e, 0x2e, 0x6d, 0x6f, 0x64, 0x75, 0x6c, 0x65, 0x73, 0x2e, 0x63,
  0x6f, 0x6e, 0x76, 0x2e, 0x43, 0x6f, 0x6e, 0x76, 0x32, 0x64, 0x5f, 0x30,
  0x3b, 0x00, 0x00, 0x00, 0x04, 0x00, 0x00, 0x00, 0x01, 0x00, 0x00, 0x00,
  0x07, 0x00, 0x00, 0x00, 0x07, 0x00, 0x00, 0x00, 0x04, 0x00, 0x00, 0x00,
  0xf2, 0xfa, 0xff, 0xff, 0x00, 0x00, 0x00, 0x01, 0x10, 0x00, 0x00, 0x00,
  0x10, 0x00, 0x00, 0x00, 0x0b, 0x00, 0x00, 0x00, 0x64, 0x01, 0x00, 0x00,
  0xdc, 0xfa, 0xff, 0xff, 0x56, 0x01, 0x00, 0x00, 0x61, 0x69, 0x5f, 0x65,
  0x64, 0x67, 0x65, 0x5f, 0x74, 0x6f, 0x72, 0x63, 0x68, 0x2e, 0x5f, 0x63,
  0x6f, 0x6e, 0x76, 0x65, 0x72, 0x74, 0x2e, 0x74, 0x6f, 0x5f, 0x63, 0x68,
  0x61, 0x6e, 0x6e, 0x65, 0x6c, 0x5f, 0x6c, 0x61, 0x73, 0x74, 0x5f, 0x69,
  0x6f, 0x2e, 0x43, 0x68, 0x61, 0x6e, 0x6e, 0x65, 0x6c, 0x4c, 0x61, 0x73,
  0x74, 0x49, 0x4f, 0x57, 0x72, 0x61, 0x70, 0x70, 0x65, 0x72, 0x2f, 0x65,
  0x6c, 0x61, 0x73, 0x74, 0x69, 0x63, 0x61, 0x69, 0x2e, 0x65, 0x78, 0x70,
  0x6c, 0x6f, 0x72, 0x65, 0x72, 0x2e, 0x68, 0x77, 0x5f, 0x6e, 0x61, 0x73,
  0x2e, 0x73, 0x65, 0x61, 0x72, 0x63, 0x68, 0x5f, 0x73, 0x70, 0x61, 0x63,
  0x65, 0x2e, 0x63, 0x6f, 0x6e, 0x73, 0x74, 0x72, 0x75, 0x63, 0x74, 0x5f,
  0x73, 0x70, 0x2e, 0x43, 0x6f, 0x6d, 0x62, 0x69, 0x6e, 0x65, 0x64, 0x53,
  0x65, 0x61, 0x72, 0x63, 0x68, 0x53, 0x70, 0x61, 0x63, 0x65, 0x5f, 0x77,
  0x72, 0x61, 0x70, 0x70, 0x65, 0x64, 0x2f, 0x74, 0x6f, 0x72, 0x63, 0x68,
  0x2e, 0x6e, 0x6e, 0x2e, 0x6d, 0x6f, 0x64, 0x75, 0x6c, 0x65, 0x73, 0x2e,
  0x63, 0x6f, 0x6e, 0x74, 0x61, 0x69, 0x6e, 0x65, 0x72, 0x2e, 0x53, 0x65,
  0x71, 0x75, 0x65, 0x6e, 0x74, 0x69, 0x61, 0x6c, 0x5f, 0x62, 0x6c, 0x6f,
  0x63, 0x6b, 0x5f, 0x73, 0x70, 0x2f, 0x74, 0x6f, 0x72, 0x63, 0x68, 0x2e,
  0x6e, 0x6e, 0x2e, 0x6d, 0x6f, 0x64, 0x75, 0x6c, 0x65, 0x73, 0x2e, 0x63,
  0x6f, 0x6e, 0x74, 0x61, 0x69, 0x6e, 0x65, 0x72, 0x2e, 0x53, 0x65, 0x71,
  0x75, 0x65, 0x6e, 0x74, 0x69, 0x61, 0x6c, 0x5f, 0x30, 0x2f, 0x74, 0x6f,
  0x72, 0x63, 0x68, 0x2e, 0x6e, 0x6e, 0x2e, 0x6d, 0x6f, 0x64, 0x75, 0x6c,
  0x65, 0x73, 0x2e, 0x63, 0x6f, 0x6e, 0x74, 0x61, 0x69, 0x6e, 0x65, 0x72,
  0x2e, 0x53, 0x65, 0x71, 0x75, 0x65, 0x6e, 0x74, 0x69, 0x61, 0x6c, 0x5f,
  0x30, 0x2f, 0x74, 0x6f, 0x72, 0x63, 0x68, 0x2e, 0x6e, 0x6e, 0x2e, 0x6d,
  0x6f, 0x64, 0x75, 0x6c, 0x65, 0x73, 0x2e, 0x63, 0x6f, 0x6e, 0x74, 0x61,
  0x69, 0x6e, 0x65, 0x72, 0x2e, 0x53, 0x65, 0x71, 0x75, 0x65, 0x6e, 0x74,
  0x69, 0x61, 0x6c, 0x5f, 0x30, 0x2f, 0x74, 0x6f, 0x72, 0x63, 0x68, 0x2e,
  0x6e, 0x6e, 0x2e, 0x6d, 0x6f, 0x64, 0x75, 0x6c, 0x65, 0x73, 0x2e, 0x63,
  0x6f, 0x6e, 0x76, 0x2e, 0x43, 0x6f, 0x6e, 0x76, 0x32, 0x64, 0x5f, 0x30,
  0x3b, 0x31, 0x00, 0x00, 0x04, 0x00, 0x00, 0x00, 0x01, 0x00, 0x00, 0x00,
  0x0e, 0x00, 0x00, 0x00, 0x0e, 0x00, 0x00, 0x00, 0x04, 0x00, 0x00, 0x00,
  0x7e, 0xfc, 0xff, 0xff, 0x00, 0x00, 0x00, 0x01, 0x10, 0x00, 0x00, 0x00,
  0x10, 0x00, 0x00, 0x00, 0x0a, 0x00, 0x00, 0x00, 0x64, 0x01, 0x00, 0x00,
  0x68, 0xfc, 0xff, 0xff, 0x55, 0x01, 0x00, 0x00, 0x61, 0x69, 0x5f, 0x65,
  0x64, 0x67, 0x65, 0x5f, 0x74, 0x6f, 0x72, 0x63, 0x68, 0x2e, 0x5f, 0x63,
  0x6f, 0x6e, 0x76, 0x65, 0x72, 0x74, 0x2e, 0x74, 0x6f, 0x5f, 0x63, 0x68,
  0x61, 0x6e, 0x6e, 0x65, 0x6c, 0x5f, 0x6c, 0x61, 0x73, 0x74, 0x5f, 0x69,
  0x6f, 0x2e, 0x43, 0x68, 0x61, 0x6e, 0x6e, 0x65, 0x6c, 0x4c, 0x61, 0x73,
  0x74, 0x49, 0x4f, 0x57, 0x72, 0x61, 0x70, 0x70, 0x65, 0x72, 0x2f, 0x65,
  0x6c, 0x61, 0x73, 0x74, 0x69, 0x63, 0x61, 0x69, 0x2e, 0x65, 0x78, 0x70,
  0x6c, 0x6f, 0x72, 0x65, 0x72, 0x2e, 0x68, 0x77, 0x5f, 0x6e, 0x61, 0x73,
  0x2e, 0x73, 0x65, 0x61, 0x72, 0x63, 0x68, 0x5f, 0x73, 0x70, 0x61, 0x63,
  0x65, 0x2e, 0x63, 0x6f, 0x6e, 0x73, 0x74, 0x72, 0x75, 0x63, 0x74, 0x5f,
  0x73, 0x70, 0x2e, 0x43, 0x6f, 0x6d, 0x62, 0x69, 0x6e, 0x65, 0x64, 0x53,
  0x65, 0x61, 0x72, 0x63, 0x68, 0x53, 0x70, 0x61, 0x63, 0x65, 0x5f, 0x77,
  0x72, 0x61, 0x70, 0x70, 0x65, 0x64, 0x2f, 0x74, 0x6f, 0x72, 0x63, 0x68,
  0x2e, 0x6e, 0x6e, 0x2e, 0x6d, 0x6f, 0x64, 0x75, 0x6c, 0x65, 0x73, 0x2e,
  0x63, 0x6f, 0x6e, 0x74, 0x61, 0x69, 0x6e, 0x65, 0x72, 0x2e, 0x53, 0x65,
  0x71, 0x75, 0x65, 0x6e, 0x74, 0x69, 0x61, 0x6c, 0x5f, 0x62, 0x6c, 0x6f,
  0x63, 0x6b, 0x5f, 0x73, 0x70, 0x2f, 0x74, 0x6f, 0x72, 0x63, 0x68, 0x2e,
  0x6e, 0x6e, 0x2e, 0x6d, 0x6f, 0x64, 0x75, 0x6c, 0x65, 0x73, 0x2e, 0x63,
  0x6f, 0x6e, 0x74, 0x61, 0x69, 0x6e, 0x65, 0x72, 0x2e, 0x53, 0x65, 0x71,
  0x75, 0x65, 0x6e, 0x74, 0x69, 0x61, 0x6c, 0x5f, 0x30, 0x2f, 0x74, 0x6f,
  0x72, 0x63, 0x68, 0x2e, 0x6e, 0x6e, 0x2e, 0x6d, 0x6f, 0x64, 0x75, 0x6c,
  0x65, 0x73, 0x2e, 0x63, 0x6f, 0x6e, 0x74, 0x61, 0x69, 0x6e, 0x65, 0x72,
  0x2e, 0x53, 0x65, 0x71, 0x75, 0x65, 0x6e, 0x74, 0x69, 0x61, 0x6c, 0x5f,
  0x30, 0x2f, 0x74, 0x6f, 0x72, 0x63, 0x68, 0x2e, 0x6e, 0x6e, 0x2e, 0x6d,
  0x6f, 0x64, 0x75, 0x6c, 0x65, 0x73, 0x2e, 0x63, 0x6f, 0x6e, 0x74, 0x61,
  0x69, 0x6e, 0x65, 0x72, 0x2e, 0x53, 0x65, 0x71, 0x75, 0x65, 0x6e, 0x74,
  0x69, 0x61, 0x6c, 0x5f, 0x30, 0x2f, 0x74, 0x6f, 0x72, 0x63, 0x68, 0x2e,
  0x6e, 0x6e, 0x2e, 0x6d, 0x6f, 0x64, 0x75, 0x6c, 0x65, 0x73, 0x2e, 0x63,
  0x6f, 0x6e, 0x76, 0x2e, 0x43, 0x6f, 0x6e, 0x76, 0x32, 0x64, 0x5f, 0x30,
  0x3b, 0x00, 0x00, 0x00, 0x01, 0x00, 0x00, 0x00, 0x04, 0x00, 0x00, 0x00,
  0xc2, 0xff, 0xff, 0xff, 0x00, 0x00, 0x00, 0x01, 0x14, 0x00, 0x00, 0x00,
  0x14, 0x00, 0x00, 0x00, 0x09, 0x00, 0x00, 0x00, 0x00, 0x00, 0x00, 0x02,
  0x1c, 0x00, 0x00, 0x00, 0xec, 0xfd, 0xff, 0xff, 0x0f, 0x00, 0x00, 0x00,
  0x61, 0x72, 0x69, 0x74, 0x68, 0x2e, 0x63, 0x6f, 0x6e, 0x73, 0x74, 0x61,
  0x6e, 0x74, 0x37, 0x00, 0x01, 0x00, 0x00, 0x00, 0x04, 0x00, 0x00, 0x00,
  0x00, 0x00, 0x16, 0x00, 0x1c, 0x00, 0x18, 0x00, 0x17, 0x00, 0x10, 0x00,
  0x0c, 0x00, 0x08, 0x00, 0x00, 0x00, 0x00, 0x00, 0x00, 0x00, 0x07, 0x00,
  0x16, 0x00, 0x00, 0x00, 0x00, 0x00, 0x00, 0x01, 0x14, 0x00, 0x00, 0x00,
  0x14, 0x00, 0x00, 0x00, 0x08, 0x00, 0x00, 0x00, 0x00, 0x00, 0x00, 0x02,
  0x1c, 0x00, 0x00, 0x00, 0x40, 0xfe, 0xff, 0xff, 0x0f, 0x00, 0x00, 0x00,
  0x61, 0x72, 0x69, 0x74, 0x68, 0x2e, 0x63, 0x6f, 0x6e, 0x73, 0x74, 0x61,
  0x6e, 0x74, 0x36, 0x00, 0x01, 0x00, 0x00, 0x00, 0x02, 0x00, 0x00, 0x00,
  0x8e, 0xfe, 0xff, 0xff, 0x00, 0x00, 0x00, 0x01, 0x10, 0x00, 0x00, 0x00,
  0x10, 0x00, 0x00, 0x00, 0x07, 0x00, 0x00, 0x00, 0x1c, 0x00, 0x00, 0x00,
  0x78, 0xfe, 0xff, 0xff, 0x0f, 0x00, 0x00, 0x00, 0x61, 0x72, 0x69, 0x74,
  0x68, 0x2e, 0x63, 0x6f, 0x6e, 0x73, 0x74, 0x61, 0x6e, 0x74, 0x35, 0x00,
  0x04, 0x00, 0x00, 0x00, 0x01, 0x00, 0x00, 0x00, 0x02, 0x00, 0x00, 0x00,
  0x02, 0x00, 0x00, 0x00, 0x04, 0x00, 0x00, 0x00, 0xd2, 0xfe, 0xff, 0xff,
  0x00, 0x00, 0x00, 0x01, 0x10, 0x00, 0x00, 0x00, 0x10, 0x00, 0x00, 0x00,
  0x06, 0x00, 0x00, 0x00, 0x1c, 0x00, 0x00, 0x00, 0xbc, 0xfe, 0xff, 0xff,
  0x0f, 0x00, 0x00, 0x00, 0x61, 0x72, 0x69, 0x74, 0x68, 0x2e, 0x63, 0x6f,
  0x6e, 0x73, 0x74, 0x61, 0x6e, 0x74, 0x34, 0x00, 0x04, 0x00, 0x00, 0x00,
  0x04, 0x00, 0x00, 0x00, 0x02, 0x00, 0x00, 0x00, 0x02, 0x00, 0x00, 0x00,
  0x04, 0x00, 0x00, 0x00, 0x16, 0xff, 0xff, 0xff, 0x00, 0x00, 0x00, 0x01,
  0x10, 0x00, 0x00, 0x00, 0x10, 0x00, 0x00, 0x00, 0x05, 0x00, 0x00, 0x00,
  0x1c, 0x00, 0x00, 0x00, 0x00, 0xff, 0xff, 0xff, 0x0f, 0x00, 0x00, 0x00,
  0x61, 0x72, 0x69, 0x74, 0x68, 0x2e, 0x63, 0x6f, 0x6e, 0x73, 0x74, 0x61,
  0x6e, 0x74, 0x33, 0x00, 0x01, 0x00, 0x00, 0x00, 0x04, 0x00, 0x00, 0x00,
  0x4e, 0xff, 0xff, 0xff, 0x00, 0x00, 0x00, 0x01, 0x10, 0x00, 0x00, 0x00,
  0x10, 0x00, 0x00, 0x00, 0x04, 0x00, 0x00, 0x00, 0x1c, 0x00, 0x00, 0x00,
  0x38, 0xff, 0xff, 0xff, 0x0f, 0x00, 0x00, 0x00, 0x61, 0x72, 0x69, 0x74,
  0x68, 0x2e, 0x63, 0x6f, 0x6e, 0x73, 0x74, 0x61, 0x6e, 0x74, 0x32, 0x00,
  0x02, 0x00, 0x00, 0x00, 0x04, 0x00, 0x00, 0x00, 0xc4, 0x00, 0x00, 0x00,
  0x8a, 0xff, 0xff, 0xff, 0x00, 0x00, 0x00, 0x01, 0x10, 0x00, 0x00, 0x00,
  0x10, 0x00, 0x00, 0x00, 0x03, 0x00, 0x00, 0x00, 0x1c, 0x00, 0x00, 0x00,
  0x74, 0xff, 0xff, 0xff, 0x0f, 0x00, 0x00, 0x00, 0x61, 0x72, 0x69, 0x74,
  0x68, 0x2e, 0x63, 0x6f, 0x6e, 0x73, 0x74, 0x61, 0x6e, 0x74, 0x31, 0x00,
  0x02, 0x00, 0x00, 0x00, 0x0a, 0x00, 0x00, 0x00, 0x04, 0x00, 0x00, 0x00,
  0xc6, 0xff, 0xff, 0xff, 0x00, 0x00, 0x00, 0x01, 0x10, 0x00, 0x00, 0x00,
  0x10, 0x00, 0x00, 0x00, 0x02, 0x00, 0x00, 0x00, 0x1c, 0x00, 0x00, 0x00,
  0xb0, 0xff, 0xff, 0xff, 0x0e, 0x00, 0x00, 0x00, 0x61, 0x72, 0x69, 0x74,
  0x68, 0x2e, 0x63, 0x6f, 0x6e, 0x73, 0x74, 0x61, 0x6e, 0x74, 0x00, 0x00,
  0x01, 0x00, 0x00, 0x00, 0x0a, 0x00, 0x00, 0x00, 0x00, 0x00, 0x16, 0x00,
  0x18, 0x00, 0x14, 0x00, 0x00, 0x00, 0x10, 0x00, 0x0c, 0x00, 0x08, 0x00,
  0x00, 0x00, 0x00, 0x00, 0x00, 0x00, 0x07, 0x00, 0x16, 0x00, 0x00, 0x00,
  0x00, 0x00, 0x00, 0x01, 0x14, 0x00, 0x00, 0x00, 0x14, 0x00, 0x00, 0x00,
  0x01, 0x00, 0x00, 0x00, 0x2c, 0x00, 0x00, 0x00, 0x04, 0x00, 0x04, 0x00,
  0x04, 0x00, 0x00, 0x00, 0x18, 0x00, 0x00, 0x00, 0x73, 0x65, 0x72, 0x76,
  0x69, 0x6e, 0x67, 0x5f, 0x64, 0x65, 0x66, 0x61, 0x75, 0x6c, 0x74, 0x5f,
  0x61, 0x72, 0x67, 0x73, 0x5f, 0x30, 0x3a, 0x30, 0x00, 0x00, 0x00, 0x00,
  0x04, 0x00, 0x00, 0x00, 0x01, 0x00, 0x00, 0x00, 0x1c, 0x00, 0x00, 0x00,
  0x1c, 0x00, 0x00, 0x00, 0x01, 0x00, 0x00, 0x00, 0x05, 0x00, 0x00, 0x00,
  0x60, 0x00, 0x00, 0x00, 0x44, 0x00, 0x00, 0x00, 0x34, 0x00, 0x00, 0x00,
  0x24, 0x00, 0x00, 0x00, 0x10, 0x00, 0x00, 0x00, 0x0c, 0x00, 0x10, 0x00,
  0x0f, 0x00, 0x00, 0x00, 0x08, 0x00, 0x04, 0x00, 0x0c, 0x00, 0x00, 0x00,
  0x09, 0x00, 0x00, 0x00, 0x05, 0x00, 0x00, 0x00, 0x00, 0x00, 0x00, 0x09,
  0xdc, 0xff, 0xff, 0xff, 0x16, 0x00, 0x00, 0x00, 0x00, 0x00, 0x00, 0x16,
  0xe8, 0xff, 0xff, 0xff, 0x27, 0x00, 0x00, 0x00, 0x00, 0x00, 0x00, 0x27,
  0xf4, 0xff, 0xff, 0xff, 0x03, 0x00, 0x00, 0x00, 0x00, 0x00, 0x00, 0x03,
  0x0c, 0x00, 0x0c, 0x00, 0x0b, 0x00, 0x00, 0x00, 0x00, 0x00, 0x04, 0x00,
  0x0c, 0x00, 0x00, 0x00, 0x04, 0x00, 0x00, 0x00, 0x00, 0x00, 0x00, 0x04
};
const unsigned int model_tflite_len = 8280;