#include <model.h>
const unsigned char model_tflite[] = {
  0x1c, 0x00, 0x00, 0x00, 0x54, 0x46, 0x4c, 0x33, 0x14, 0x00, 0x20, 0x00,
  0x1c, 0x00, 0x18, 0x00, 0x14, 0x00, 0x10, 0x00, 0x0c, 0x00, 0x00, 0x00,
  0x08, 0x00, 0x04, 0x00, 0x14, 0x00, 0x00, 0x00, 0x1c, 0x00, 0x00, 0x00,
  0x90, 0x00, 0x00, 0x00, 0xe8, 0x00, 0x00, 0x00, 0xe8, 0x1a, 0x00, 0x00,
  0xf8, 0x1a, 0x00, 0x00, 0xe8, 0x1e, 0x00, 0x00, 0x03, 0x00, 0x00, 0x00,
  0x01, 0x00, 0x00, 0x00, 0x10, 0x00, 0x00, 0x00, 0x00, 0x00, 0x0a, 0x00,
  0x10, 0x00, 0x0c, 0x00, 0x08, 0x00, 0x04, 0x00, 0x0a, 0x00, 0x00, 0x00,
  0x0c, 0x00, 0x00, 0x00, 0x1c, 0x00, 0x00, 0x00, 0x3c, 0x00, 0x00, 0x00,
  0x0f, 0x00, 0x00, 0x00, 0x73, 0x65, 0x72, 0x76, 0x69, 0x6e, 0x67, 0x5f,
  0x64, 0x65, 0x66, 0x61, 0x75, 0x6c, 0x74, 0x00, 0x01, 0x00, 0x00, 0x00,
  0x04, 0x00, 0x00, 0x00, 0x98, 0xff, 0xff, 0xff, 0x07, 0x00, 0x00, 0x00,
  0x04, 0x00, 0x00, 0x00, 0x08, 0x00, 0x00, 0x00, 0x6f, 0x75, 0x74, 0x70,
  0x75, 0x74, 0x5f, 0x30, 0x00, 0x00, 0x00, 0x00, 0x01, 0x00, 0x00, 0x00,
  0x04, 0x00, 0x00, 0x00, 0xce, 0xe5, 0xff, 0xff, 0x04, 0x00, 0x00, 0x00,
  0x06, 0x00, 0x00, 0x00, 0x61, 0x72, 0x67, 0x73, 0x5f, 0x30, 0x00, 0x00,
  0x02, 0x00, 0x00, 0x00, 0x34, 0x00, 0x00, 0x00, 0x04, 0x00, 0x00, 0x00,
  0xdc, 0xff, 0xff, 0xff, 0x0a, 0x00, 0x00, 0x00, 0x04, 0x00, 0x00, 0x00,
  0x13, 0x00, 0x00, 0x00, 0x43, 0x4f, 0x4e, 0x56, 0x45, 0x52, 0x53, 0x49,
  0x4f, 0x4e, 0x5f, 0x4d, 0x45, 0x54, 0x41, 0x44, 0x41, 0x54, 0x41, 0x00,
  0x08, 0x00, 0x0c, 0x00, 0x08, 0x00, 0x04, 0x00, 0x08, 0x00, 0x00, 0x00,
  0x09, 0x00, 0x00, 0x00, 0x04, 0x00, 0x00, 0x00, 0x13, 0x00, 0x00, 0x00,
  0x6d, 0x69, 0x6e, 0x5f, 0x72, 0x75, 0x6e, 0x74, 0x69, 0x6d, 0x65, 0x5f,
  0x76, 0x65, 0x72, 0x73, 0x69, 0x6f, 0x6e, 0x00, 0x0b, 0x00, 0x00, 0x00,
  0xfc, 0x19, 0x00, 0x00, 0xf4, 0x19, 0x00, 0x00, 0xbc, 0x19, 0x00, 0x00,
  0x54, 0x19, 0x00, 0x00, 0x3c, 0x19, 0x00, 0x00, 0xac, 0x00, 0x00, 0x00,
  0xa4, 0x00, 0x00, 0x00, 0x9c, 0x00, 0x00, 0x00, 0x94, 0x00, 0x00, 0x00,
  0x74, 0x00, 0x00, 0x00, 0x04, 0x00, 0x00, 0x00, 0x6e, 0xe6, 0xff, 0xff,
  0x04, 0x00, 0x00, 0x00, 0x60, 0x00, 0x00, 0x00, 0x10, 0x00, 0x00, 0x00,
  0x00, 0x00, 0x00, 0x00, 0x08, 0x00, 0x0e, 0x00, 0x08, 0x00, 0x04, 0x00,
  0x08, 0x00, 0x00, 0x00, 0x10, 0x00, 0x00, 0x00, 0x24, 0x00, 0x00, 0x00,
  0x00, 0x00, 0x06, 0x00, 0x08, 0x00, 0x04, 0x00, 0x06, 0x00, 0x00, 0x00,
  0x04, 0x00, 0x00, 0x00, 0x00, 0x00, 0x00, 0x00, 0x0c, 0x00, 0x18, 0x00,
  0x14, 0x00, 0x10, 0x00, 0x0c, 0x00, 0x04, 0x00, 0x0c, 0x00, 0x00, 0x00,
  0x0d, 0xde, 0xc7, 0xdd, 0x24, 0x53, 0xd1, 0x42, 0x01, 0x00, 0x00, 0x00,
  0x02, 0x00, 0x00, 0x00, 0x04, 0x00, 0x00, 0x00, 0x06, 0x00, 0x00, 0x00,
  0x32, 0x2e, 0x31, 0x39, 0x2e, 0x30, 0x00, 0x00, 0xda, 0xe6, 0xff, 0xff,
  0x04, 0x00, 0x00, 0x00, 0x10, 0x00, 0x00, 0x00, 0x32, 0x2e, 0x30, 0x2e,
  0x30, 0x00, 0x00, 0x00, 0x00, 0x00, 0x00, 0x00, 0x00, 0x00, 0x00, 0x00,
  0xa0, 0xe2, 0xff, 0xff, 0xa4, 0xe2, 0xff, 0xff, 0xa8, 0xe2, 0xff, 0xff,
  0x02, 0xe7, 0xff, 0xff, 0x04, 0x00, 0x00, 0x00, 0x80, 0x18, 0x00, 0x00,
  0x80, 0x53, 0x03, 0xbb, 0xee, 0x0f, 0xb1, 0x3b, 0x4a, 0x73, 0x09, 0xbc,
  0xe5, 0x5e, 0x02, 0xbd, 0x8a, 0x61, 0xe4, 0x3b, 0x2e, 0x1b, 0xfc, 0xbc,
  0x5c, 0xaf, 0xe1, 0x3c, 0x2e, 0x63, 0xdd, 0x3c, 0x45, 0xc9, 0x45, 0xbc,
  0x5c, 0xe3, 0xb7, 0xbb, 0xa7, 0x47, 0xbe, 0x3c, 0xca, 0xd0, 0x93, 0xbb,
  0x25, 0xbe, 0x64, 0xbb, 0x03, 0xe1, 0x03, 0x3d, 0x6e, 0x7e, 0x70, 0xbc,
  0x05, 0x9d, 0xae, 0x3c, 0xa1, 0x40, 0xb9, 0xbc, 0x8a, 0x76, 0xd8, 0x3b,
  0xe8, 0xba, 0xeb, 0xbc, 0xdc, 0xa2, 0x52, 0xbb, 0xbc, 0x58, 0xbd, 0xbc,
  0x8a, 0xbc, 0x2c, 0x3c, 0x63, 0x7a, 0xff, 0x3c, 0x13, 0x2b, 0x6b, 0xbc,
  0xca, 0x5a, 0x6d, 0xbc, 0x65, 0x33, 0xae, 0x3c, 0x82, 0x12, 0x10, 0xbd,
  0xeb, 0x8e, 0x0d, 0x3d, 0x25, 0xdb, 0x8e, 0x3b, 0x6e, 0xf5, 0xbd, 0xbc,
  0x55, 0x2e, 0xdc, 0xbc, 0xd5, 0x24, 0x9a, 0xbc, 0x6e, 0x70, 0x9f, 0xbb,
  0xe8, 0xf7, 0x0a, 0x3d, 0xca, 0x68, 0x66, 0xbb, 0x87, 0x55, 0xca, 0x3c,
  0x6e, 0x41, 0x3e, 0xbb, 0x6e, 0xa3, 0x3e, 0xbc, 0x01, 0xba, 0x77, 0x3c,
  0x10, 0xc6, 0x89, 0x3c, 0x30, 0xef, 0x9d, 0xbc, 0x85, 0xb2, 0x42, 0x3c,
  0xdc, 0x54, 0x7f, 0x3c, 0xb7, 0x6d, 0xa2, 0x37, 0xc3, 0x71, 0xa5, 0x3c,
  0xe5, 0xd8, 0x81, 0xbc, 0x3c, 0xdd, 0x71, 0xbc, 0x45, 0x62, 0xab, 0xbc,
  0x45, 0x42, 0xc5, 0xbc, 0x4e, 0x29, 0x11, 0x3c, 0xb7, 0x09, 0xa5, 0x3a,
  0xea, 0x62, 0x61, 0x3c, 0xc5, 0x88, 0x11, 0xbc, 0x0e, 0x8f, 0x6b, 0x3c,
  0x81, 0xa2, 0x30, 0xbc, 0xa5, 0xc7, 0x62, 0x3b, 0x2a, 0x3f, 0x79, 0xbc,
  0x9c, 0xbe, 0x95, 0x3b, 0x85, 0xd5, 0xb9, 0xbc, 0x6a, 0x18, 0x06, 0xbc,
  0x31, 0x77, 0xc4, 0xbc, 0xc3, 0x90, 0x94, 0x3c, 0xb7, 0x7c, 0x8d, 0xbb,
  0x2e, 0xda, 0x61, 0x3c, 0xdc, 0xec, 0xa7, 0x3a, 0x80, 0x91, 0x1b, 0xbc,
  0x81, 0x75, 0xe7, 0x3c, 0x42, 0x3d, 0x11, 0xbd, 0x2a, 0x24, 0x27, 0xbc,
  0x85, 0xbb, 0x11, 0xbc, 0xd1, 0x44, 0xb5, 0xbc, 0xba, 0x6b, 0xb6, 0x3c,
  0xb8, 0xcd, 0xde, 0xb9, 0x73, 0x49, 0x56, 0xbc, 0x4e, 0x93, 0x69, 0x3c,
  0x13, 0x92, 0x89, 0xbb, 0x8e, 0x40, 0xd3, 0x3c, 0x01, 0xfb, 0xc7, 0xbc,
  0xc0, 0x48, 0x8b, 0xbc, 0xdc, 0x0e, 0xf0, 0x3a, 0x25, 0x18, 0xdd, 0x3b,
  0x00, 0xa2, 0x1a, 0xba, 0x58, 0x0d, 0x0b, 0x3d, 0x91, 0xa7, 0xbe, 0x3c,
  0xfe, 0x9f, 0xc4, 0xbc, 0xca, 0x18, 0x45, 0x3b, 0xe5, 0xf8, 0x5b, 0x3c,
  0x41, 0x69, 0x3e, 0x3c, 0xca, 0x46, 0xd1, 0x3c, 0x45, 0xf3, 0xe7, 0xbc,
  0x65, 0xa2, 0x02, 0xbc, 0x97, 0xe9, 0x06, 0xbc, 0x8a, 0x02, 0x99, 0x3c,
  0x13, 0x2b, 0xee, 0x3b, 0xe3, 0x9b, 0xcc, 0x3c, 0xb0, 0xbf, 0x97, 0xbc,
  0x4a, 0xf2, 0x6f, 0xb9, 0x88, 0x51, 0x0c, 0xbd, 0x10, 0x32, 0x9d, 0x3c,
  0x61, 0xa0, 0x3c, 0xbc, 0x73, 0x98, 0x26, 0x3c, 0x8e, 0x14, 0xdc, 0x3c,
  0xfc, 0x93, 0xa0, 0x3c, 0xf7, 0xda, 0x45, 0x3c, 0x9c, 0x25, 0x90, 0xbb,
  0x4c, 0x71, 0x86, 0xbc, 0x13, 0xad, 0x8b, 0x3c, 0x93, 0x2f, 0x7e, 0x3b,
  0x43, 0x42, 0xd0, 0x3c, 0xca, 0x24, 0x32, 0xbc, 0x2b, 0xc5, 0x01, 0x3d,
  0x98, 0x1f, 0x00, 0xbd, 0xc4, 0x3e, 0x11, 0x3d, 0xc1, 0x7f, 0x2f, 0x3c,
  0x20, 0x02, 0x08, 0x3d, 0xaa, 0x6d, 0xc2, 0xbc, 0x7e, 0xd5, 0xbd, 0xbc,
  0x2a, 0x75, 0x7b, 0xbc, 0x07, 0x47, 0xda, 0x3c, 0x17, 0xe2, 0xc1, 0x3c,
  0x8e, 0xc0, 0x9b, 0x3c, 0xf8, 0xf6, 0xec, 0x3b, 0x4f, 0x50, 0x01, 0xbd,
  0x15, 0xf7, 0xdc, 0x3c, 0x00, 0x65, 0x9e, 0x3c, 0x05, 0x7c, 0xe1, 0x3c,
  0xe3, 0xbb, 0x10, 0x3d, 0xcc, 0x1c, 0xee, 0x3c, 0xae, 0xa9, 0x6c, 0xbc,
  0x6a, 0xb5, 0x08, 0x3d, 0xce, 0x01, 0x65, 0xbc, 0xf1, 0x97, 0xcd, 0xbc,
  0xdc, 0xe3, 0x23, 0x3b, 0x00, 0xc6, 0x81, 0xbb, 0xb7, 0x65, 0x25, 0x3c,
  0xe1, 0x4a, 0xec, 0x3c, 0x1a, 0xd5, 0xdb, 0x3c, 0x7a, 0xc5, 0xe6, 0x3c,
  0x73, 0x38, 0x83, 0xbc, 0x5c, 0xfe, 0xa2, 0x3c, 0x53, 0xe2, 0xe0, 0xbb,
  0x3c, 0x2e, 0xf8, 0xbc, 0xe1, 0x8b, 0xb1, 0xbc, 0xa7, 0x90, 0xac, 0x3c,
  0xd8, 0x6d, 0xf7, 0xbc, 0xb1, 0x1a, 0xfc, 0xbc, 0xa5, 0x61, 0x82, 0xbc,
  0x5c, 0xdf, 0xc6, 0x3b, 0x01, 0x60, 0x5d, 0xbb, 0xea, 0x9e, 0x68, 0xbc,
  0x33, 0x2c, 0xc1, 0x3c, 0x83, 0x56, 0xff, 0xbc, 0x2e, 0x01, 0x91, 0xbb,
  0x65, 0x1d, 0x76, 0xbc, 0xd3, 0xa9, 0x91, 0xbb, 0x4a, 0x49, 0xdf, 0x3c,
  0x6b, 0xc6, 0x0b, 0x3d, 0xac, 0x0f, 0xc8, 0x3c, 0x0e, 0x37, 0xf9, 0x3c,
  0x25, 0x1a, 0xbe, 0xba, 0xf3, 0x3f, 0xe9, 0xbc, 0xe5, 0x6a, 0x81, 0x3b,
  0xb5, 0x4c, 0xac, 0x3c, 0xc3, 0xa6, 0x96, 0xbc, 0xd3, 0xd4, 0xe2, 0xbc,
  0x53, 0x77, 0xd3, 0x3b, 0x65, 0xff, 0xc4, 0xbc, 0x21, 0xae, 0x7b, 0xbc,
  0x6a, 0x59, 0xf4, 0x3c, 0xe3, 0xa3, 0xfe, 0xbc, 0x4a, 0xc3, 0x4f, 0x3c,
  0xe8, 0xa5, 0xf0, 0xbc, 0xb8, 0xee, 0x7a, 0x3b, 0xf5, 0xf9, 0x90, 0xbc,
  0xd7, 0x8e, 0x0a, 0xbc, 0x01, 0xa7, 0xd2, 0xba, 0x7a, 0x07, 0x9f, 0x3c,
  0xc1, 0xc7, 0xb3, 0x3c, 0xd5, 0xc9, 0x83, 0xbc, 0x4a, 0x28, 0x9a, 0x3a,
  0x3c, 0x8c, 0x4c, 0x3c, 0x8b, 0x68, 0x06, 0x3d, 0xdc, 0x42, 0xc3, 0xbb,
  0xf5, 0x51, 0xf2, 0xbc, 0x6e, 0x68, 0xff, 0x3a, 0x83, 0x3e, 0xdf, 0x3c,
  0x23, 0xa0, 0x0b, 0x3d, 0xec, 0x68, 0xc1, 0xbc, 0x77, 0x45, 0x0f, 0x3d,
  0x21, 0xa5, 0xca, 0xbc, 0x8a, 0x9c, 0x4b, 0xbc, 0xbc, 0xbc, 0x60, 0x3c,
  0x9c, 0x0b, 0x70, 0xbc, 0xa7, 0x40, 0x81, 0x3c, 0x13, 0x08, 0x0b, 0x3b,
  0x80, 0x96, 0x24, 0xbc, 0x8e, 0x76, 0x6f, 0xbc, 0x2a, 0x9d, 0x2c, 0x3c,
  0xdc, 0xc9, 0xc6, 0x3c, 0x95, 0x8e, 0xbb, 0x3c, 0x53, 0x98, 0xf9, 0xbc,
  0xb7, 0xcc, 0x89, 0x3c, 0x51, 0xed, 0xf3, 0xbc, 0x01, 0x83, 0xdc, 0x3a,
  0xd3, 0xa5, 0xba, 0x3b, 0xf3, 0x40, 0xde, 0x3c, 0x38, 0xa9, 0x7a, 0x3b,
  0xee, 0xc1, 0xf6, 0x3c, 0x47, 0xc9, 0xb2, 0x3c, 0x93, 0xe5, 0x66, 0xbb,
  0x25, 0x88, 0x46, 0x3b, 0x8a, 0x5f, 0xb9, 0x3c, 0xe7, 0xc1, 0x0d, 0xbd,
  0x9a, 0x2f, 0xdd, 0x3c, 0x01, 0xc5, 0x7c, 0x3c, 0xf7, 0xb3, 0x55, 0xbc,
  0xc1, 0xf6, 0x43, 0x3c, 0xc7, 0x4d, 0xd5, 0xbc, 0x47, 0x2b, 0xa6, 0xbc,
  0xde, 0xf6, 0xa7, 0x3c, 0x01, 0x4c, 0xca, 0xbb, 0xb5, 0x5f, 0xb3, 0xbc,
  0x05, 0xf7, 0x71, 0x3c, 0x23, 0x53, 0xeb, 0x3c, 0x9e, 0x89, 0xb5, 0xbc,
  0x6a, 0xe9, 0xcc, 0x3c, 0x2e, 0x0e, 0x84, 0xbc, 0xb0, 0x14, 0x0b, 0x3d,
  0x4e, 0x6d, 0xbc, 0x3c, 0x05, 0xf3, 0xf8, 0xbc, 0xdc, 0x38, 0xd6, 0x3b,
  0x2e, 0xdf, 0x09, 0xbc, 0xa5, 0x0c, 0x81, 0xbc, 0xd3, 0x5c, 0x1b, 0x3c,
  0x25, 0x0c, 0x30, 0x3c, 0xea, 0x9f, 0x0e, 0x3d, 0x63, 0x04, 0x9f, 0xbc,
  0x68, 0x88, 0xfb, 0x3c, 0xca, 0x7c, 0x68, 0xbb, 0x71, 0x15, 0xd0, 0x3c,
  0xca, 0xaf, 0xf8, 0x3c, 0xc3, 0xd6, 0x83, 0xbc, 0x5c, 0xfd, 0xbd, 0x3b,
  0x1a, 0x5b, 0xbc, 0xbc, 0x25, 0xcc, 0x8e, 0x3a, 0x35, 0x37, 0x11, 0xbd,
  0x0a, 0xc8, 0x59, 0xbc, 0x37, 0x64, 0x20, 0x3b, 0xae, 0x72, 0x95, 0x3c,
  0xe5, 0x79, 0xe1, 0x3b, 0xcc, 0xdf, 0x91, 0xbc, 0x0a, 0xa0, 0xf8, 0xbc,
  0x0c, 0x8b, 0xbb, 0xbc, 0xc0, 0x3d, 0x17, 0x3c, 0xe5, 0xf6, 0x91, 0x3b,
  0x17, 0x42, 0xd6, 0x3c, 0x4a, 0x7a, 0xe8, 0x3a, 0xa5, 0x0c, 0xc3, 0xbc,
  0xd5, 0x00, 0x03, 0x3d, 0x7c, 0xa7, 0x44, 0x3c, 0x9c, 0xb9, 0x45, 0xbc,
  0xee, 0x3d, 0x77, 0xbb, 0x9e, 0xd9, 0x89, 0xbc, 0x25, 0xd5, 0x90, 0x3a,
  0x7a, 0x63, 0xd0, 0x3c, 0x5c, 0x09, 0x27, 0xbb, 0x1c, 0x4c, 0xfc, 0x3b,
  0x1c, 0x0f, 0xde, 0xbb, 0xa3, 0x73, 0xaf, 0x3c, 0x8c, 0xf6, 0xe9, 0xbc,
  0x3c, 0xaa, 0x5f, 0xbc, 0xc1, 0xc1, 0xc4, 0xbb, 0x5c, 0x72, 0x33, 0xbb,
  0x8f, 0xdb, 0x10, 0xbd, 0x97, 0x90, 0x40, 0x3c, 0x6e, 0xde, 0x67, 0x3b,
  0x2c, 0x44, 0xfd, 0x3c, 0xf5, 0x0d, 0x90, 0xbc, 0x25, 0x9c, 0x77, 0xbc,
  0x17, 0x6f, 0x55, 0x3c, 0xca, 0x17, 0xe2, 0xbc, 0x4a, 0x77, 0x2a, 0xbc,
  0x1c, 0xc4, 0x91, 0x3c, 0xbc, 0xce, 0xac, 0x3c, 0x0a, 0x37, 0x4c, 0xbc,
  0x65, 0x92, 0xff, 0xbb, 0x73, 0x89, 0xfe, 0xbc, 0x3c, 0xbf, 0x1a, 0x3c,
  0x6c, 0xe1, 0x9b, 0xbc, 0x37, 0xe6, 0x98, 0x3c, 0x95, 0x53, 0xf1, 0xbc,
  0xc0, 0xdb, 0x15, 0x3c, 0x8c, 0xcf, 0xf0, 0xbc, 0xf8, 0x18, 0x67, 0xbc,
  0xee, 0x21, 0x2a, 0xbb, 0x0f, 0xea, 0x00, 0xbd, 0xa8, 0x60, 0x0e, 0x3d,
  0x58, 0x79, 0xe6, 0xbc, 0xaa, 0x71, 0x9d, 0x3c, 0xc5, 0xbd, 0x82, 0x3c,
  0x00, 0x28, 0x81, 0x39, 0xca, 0xf4, 0xc2, 0xbb, 0x80, 0xa4, 0x88, 0x3b,
  0x4a, 0x1f, 0xe7, 0xbb, 0x5c, 0x9e, 0x61, 0xbb, 0x28, 0x99, 0x00, 0xbd,
  0x3a, 0x5e, 0xd0, 0xbc, 0x4a, 0xb8, 0x18, 0xbb, 0x7e, 0x9a, 0xc3, 0xbc,
  0xb7, 0xb8, 0x14, 0x3c, 0xae, 0x4e, 0x2e, 0xbc, 0x6e, 0xa1, 0xe3, 0xbb,
  0xae, 0x57, 0xfb, 0x3b, 0xd8, 0x49, 0x0d, 0xbd, 0x7a, 0x55, 0x04, 0xbd,
  0x25, 0x7c, 0xad, 0xbb, 0x00, 0x9b, 0x0d, 0xbd, 0x00, 0xc3, 0x9d, 0x3c,
  0x7c, 0x38, 0x69, 0x3c, 0x6e, 0x6f, 0x83, 0x3c, 0xc7, 0x8d, 0xa2, 0xbc,
  0x8c, 0x04, 0xcc, 0x3c, 0xf5, 0xb9, 0x0f, 0x3d, 0x78, 0xc7, 0x65, 0xbc,
  0x45, 0x3e, 0x84, 0x3c, 0x46, 0x53, 0x06, 0xbd, 0x90, 0xd7, 0x99, 0xbc,
  0x51, 0xc7, 0xe4, 0x3c, 0x85, 0xce, 0x7c, 0xbc, 0x8a, 0x1c, 0x9b, 0x3b,
  0x90, 0x90, 0xa5, 0xbc, 0x5c, 0x13, 0x59, 0x3b, 0x77, 0xe1, 0xbb, 0xbb,
  0x80, 0xdd, 0xa8, 0xbb, 0x25, 0xf6, 0xca, 0x3a, 0xf3, 0xf3, 0x65, 0xbc,
  0x23, 0xf9, 0xf3, 0x3c, 0x55, 0x93, 0xb4, 0xbc, 0xd0, 0x12, 0x84, 0xbc,
  0x05, 0x04, 0x24, 0xbc, 0x7c, 0x35, 0x16, 0x3c, 0xce, 0x5d, 0x6d, 0xbc,
  0x1c, 0x12, 0xe4, 0x3c, 0x4a, 0x1c, 0x5f, 0xbc, 0xea, 0xa3, 0x06, 0x3d,
  0xd5, 0x02, 0xcb, 0xbc, 0x13, 0xec, 0x68, 0x3c, 0x03, 0xb2, 0xd7, 0xbc,
  0x45, 0xb1, 0xe5, 0xbc, 0xb8, 0xc4, 0xf7, 0x3a, 0xe5, 0xa3, 0x8e, 0xbc,
  0x21, 0xe6, 0x6f, 0x3c, 0x45, 0xf6, 0x4e, 0x3c, 0x33, 0x29, 0xad, 0xbc,
  0xf1, 0x3d, 0xcc, 0x3c, 0x7e, 0x07, 0x93, 0x3c, 0x58, 0xca, 0x76, 0x3c,
  0xfa, 0xe0, 0x81, 0x3c, 0x2a, 0x2c, 0x4e, 0xbc, 0xf7, 0xd6, 0x4d, 0x3c,
  0x25, 0x5a, 0x70, 0xbb, 0x03, 0x35, 0xfe, 0x3c, 0x44, 0x42, 0x10, 0xbd,
  0xa2, 0xb9, 0x03, 0xbd, 0xae, 0x2b, 0x9a, 0xbb, 0x77, 0xdc, 0xd7, 0x3c,
  0x8a, 0xea, 0x8e, 0xbb, 0x93, 0x11, 0xe3, 0xbb, 0xda, 0x8d, 0xee, 0xbc,
  0x01, 0xb6, 0x60, 0xbc, 0x6e, 0x3d, 0xd2, 0xba, 0x53, 0x4e, 0xdb, 0xbc,
  0xd3, 0xf9, 0x07, 0xbc, 0x43, 0x19, 0xf8, 0xbc, 0x8e, 0xd7, 0x4c, 0xbc,
  0x35, 0x79, 0xc2, 0x3c, 0x7c, 0xc3, 0x83, 0xbc, 0x01, 0x2e, 0x3e, 0x3c,
  0x2f, 0x3e, 0x10, 0x3d, 0x57, 0xc6, 0x1a, 0xbc, 0xc7, 0x4a, 0x9d, 0x3c,
  0x93, 0x1a, 0x19, 0xbc, 0xce, 0x61, 0xbf, 0x3c, 0x53, 0x8e, 0x34, 0x3c,
  0xce, 0x92, 0xc0, 0x3c, 0x13, 0xd5, 0xea, 0x3c, 0xe0, 0x09, 0x07, 0xbd,
  0xce, 0xa1, 0x54, 0x3c, 0x65, 0xdb, 0x8f, 0xbb, 0x25, 0xed, 0xd5, 0xbc,
  0x9c, 0x41, 0xca, 0xbb, 0x93, 0xdb, 0x7c, 0xbb, 0x6e, 0x93, 0x7a, 0x39,
  0x3a, 0x5f, 0xc4, 0x3c, 0xd0, 0x51, 0xa6, 0xbc, 0xdc, 0x2b, 0x0e, 0xbd,
  0x25, 0xa7, 0x38, 0xbc, 0x7c, 0xbb, 0x85, 0xbc, 0x2e, 0xa7, 0x1e, 0x3c,
  0x64, 0xda, 0x10, 0x3d, 0xca, 0x87, 0x70, 0xbb, 0x16, 0xc7, 0x05, 0xbd,
  0xb7, 0x08, 0x9e, 0xba, 0xc0, 0x58, 0x02, 0xbc, 0xce, 0x05, 0x42, 0x3c,
  0x25, 0xe2, 0xc7, 0xbb, 0x11, 0x9d, 0xc0, 0x3c, 0x78, 0x63, 0xfd, 0x3c,
  0x78, 0x31, 0xe4, 0x3b, 0xb3, 0x84, 0x1f, 0xbc, 0x13, 0x50, 0xe3, 0x3c,
  0xda, 0x1d, 0xb1, 0xbc, 0x33, 0x38, 0x47, 0x3c, 0x00, 0xc2, 0x8b, 0xbc,
  0x37, 0x5f, 0x44, 0x3b, 0x5c, 0xc2, 0xb5, 0x3c, 0xb7, 0x03, 0xa5, 0x3b,
  0x9c, 0xe1, 0xc0, 0x3b, 0x2e, 0xf8, 0x3b, 0x3c, 0xb7, 0x05, 0xd7, 0x3c,
  0xf8, 0xf9, 0xf9, 0xbc, 0xca, 0x23, 0x4f, 0xbb, 0x25, 0xaf, 0x17, 0x3a,
  0xfa, 0x75, 0xda, 0xbc, 0x25, 0xe8, 0x92, 0x3c, 0x6e, 0xe5, 0x5b, 0x3a,
  0x81, 0x47, 0x2e, 0xbb, 0x51, 0x55, 0xdf, 0x3c, 0xe3, 0x75, 0xf6, 0x3c,
  0xbc, 0xf9, 0x4b, 0xbc, 0xdc, 0xd0, 0x40, 0xbb, 0xb7, 0x27, 0xbf, 0xbc,
  0x9a, 0x6e, 0xc4, 0xbc, 0x77, 0xde, 0x93, 0xbb, 0x73, 0x5c, 0xb6, 0x3c,
  0xd3, 0x5a, 0x61, 0x3c, 0x93, 0xbe, 0xef, 0xbb, 0x73, 0x00, 0x41, 0xbc,
  0x80, 0x5d, 0x03, 0x3c, 0x95, 0x5d, 0xc6, 0xbc, 0x37, 0x7e, 0xac, 0xbb,
  0x95, 0x3c, 0x05, 0x3d, 0x00, 0xdc, 0x04, 0x3d, 0x78, 0x2f, 0xf9, 0xbb,
  0xfa, 0x20, 0xa9, 0x3c, 0x37, 0xf4, 0x46, 0x3b, 0x13, 0x0a, 0xe9, 0xbb,
  0x3e, 0x06, 0xb6, 0xbc, 0x87, 0x16, 0xd3, 0xbc, 0x50, 0xef, 0x8e, 0xbc,
  0x01, 0xf6, 0x7c, 0x3c, 0xb5, 0xcf, 0xc4, 0xbc, 0xce, 0x9f, 0xa6, 0x3c,
  0x1e, 0x0b, 0x00, 0x3d, 0xae, 0xe4, 0x99, 0x3b, 0x8a, 0x72, 0xcd, 0x3c,
  0x37, 0xa4, 0x18, 0x3b, 0x5c, 0x26, 0x10, 0xbb, 0xb7, 0xfa, 0x9b, 0xba,
  0xb5, 0x3d, 0x8d, 0xbc, 0xfc, 0x71, 0x87, 0x3c, 0x1a, 0xa7, 0x07, 0xbd,
  0x9c, 0xef, 0x6a, 0xbc, 0x6e, 0x8f, 0x68, 0x3a, 0xee, 0xaf, 0x66, 0xbb,
  0x93, 0xd3, 0xda, 0xbb, 0xac, 0x57, 0xfe, 0xbc, 0xfe, 0xaf, 0x11, 0x3d,
  0xe7, 0x7b, 0x9d, 0xbc, 0x4a, 0x74, 0x09, 0x3d, 0x93, 0x52, 0x06, 0xbb,
  0x25, 0xae, 0x05, 0xbc, 0x04, 0xd3, 0x04, 0xbd, 0x20, 0xb4, 0x01, 0xbc,
  0xa1, 0x4d, 0xe2, 0xbc, 0xdc, 0x90, 0x9d, 0x3c, 0xdc, 0xd8, 0x88, 0xbc,
  0x65, 0xfd, 0xe7, 0x3b, 0x65, 0x17, 0xa9, 0x3c, 0xb7, 0x3a, 0xcd, 0x3b,
  0x65, 0xde, 0x85, 0xbc, 0x3c, 0x23, 0x22, 0xbc, 0x78, 0x1a, 0xeb, 0x3c,
  0x41, 0xe6, 0xb5, 0x3b, 0x1a, 0x40, 0xc1, 0x3c, 0xa7, 0xc7, 0x91, 0xbc,
  0x21, 0x4b, 0xb4, 0xbc, 0xd5, 0x1a, 0xd0, 0xbc, 0x32, 0xef, 0x0c, 0xbd,
  0x03, 0xb6, 0x9d, 0x3c, 0x80, 0x48, 0x23, 0x3c, 0xb7, 0x0f, 0x4b, 0x3a,
  0x85, 0x8f, 0xaa, 0x3c, 0xa5, 0x4b, 0x04, 0xbc, 0x45, 0xdb, 0x9a, 0xbc,
  0xe7, 0x94, 0xbc, 0x3c, 0x5c, 0xb6, 0xb0, 0x3c, 0xd3, 0x13, 0xd7, 0x3b,
  0x9e, 0x39, 0xbd, 0xbc, 0xe5, 0x20, 0x87, 0xbc, 0x37, 0xb2, 0xaf, 0x3b,
  0x17, 0xba, 0x10, 0xbd, 0xfe, 0xa0, 0xbe, 0xbc, 0x5c, 0x5f, 0x97, 0x3b,
  0x61, 0x12, 0x30, 0x3c, 0x1c, 0x13, 0xf3, 0xbc, 0x23, 0xa6, 0xed, 0x3c,
  0xb8, 0x83, 0x7d, 0xbb, 0x5c, 0x94, 0xda, 0x3b, 0x4d, 0x64, 0x0e, 0xbd,
  0xa1, 0xb2, 0x69, 0x3c, 0x8e, 0x6e, 0x95, 0x3c, 0x6e, 0xe1, 0x40, 0xba,
  0xa5, 0x4d, 0xb3, 0xbc, 0xca, 0xa4, 0x30, 0x3b, 0xb7, 0x6b, 0xb4, 0x3b,
  0x6e, 0x0b, 0xfd, 0x3c, 0x5c, 0xed, 0x6d, 0x3c, 0x87, 0xfe, 0x10, 0xbd,
  0x1c, 0xef, 0x9d, 0x3c, 0xcc, 0xcd, 0xe4, 0x3c, 0x33, 0x43, 0xce, 0xbc,
  0xf7, 0x6d, 0x9f, 0xbb, 0xe5, 0x94, 0xf4, 0xbb, 0xaa, 0x7f, 0x0a, 0x3d,
  0x93, 0x04, 0x38, 0x3b, 0x33, 0x77, 0xee, 0x3c, 0x2f, 0xc0, 0x08, 0x3d,
  0xf3, 0x09, 0x78, 0x3c, 0x78, 0x74, 0xef, 0x3b, 0x8e, 0x8d, 0x49, 0x3c,
  0x4a, 0xb5, 0x83, 0xbb, 0x13, 0x71, 0xf9, 0xbb, 0xdc, 0x71, 0xba, 0xbc,
  0x82, 0x72, 0x0c, 0x3d, 0x6f, 0xdd, 0x0d, 0x3d, 0xe0, 0xee, 0x09, 0xbd,
  0x37, 0x08, 0x24, 0x3b, 0x33, 0x1c, 0xd7, 0x3c, 0x25, 0x96, 0x95, 0xba,
  0x15, 0x68, 0xe9, 0x3c, 0x2e, 0x16, 0xda, 0x3b, 0x3c, 0xe5, 0x74, 0x3c,
  0xfb, 0xbc, 0x0c, 0x3d, 0x1e, 0x65, 0x95, 0x3c, 0x93, 0x8d, 0x01, 0x3d,
  0x55, 0xb1, 0xa1, 0x3c, 0x1c, 0x9b, 0xad, 0x3c, 0x53, 0xb9, 0x28, 0xbc,
  0x5e, 0xd5, 0xdd, 0x3c, 0xb5, 0x47, 0x11, 0x3d, 0x8a, 0xb3, 0x28, 0x3c,
  0x53, 0x8e, 0xf2, 0xbc, 0x40, 0xb8, 0x05, 0xbc, 0x9a, 0x85, 0xe5, 0x3c,
  0x87, 0xb3, 0xb9, 0xbc, 0x7c, 0x6c, 0xb6, 0x3c, 0x05, 0x45, 0xcb, 0xbc,
  0x52, 0x99, 0x0e, 0x3d, 0x5c, 0xbb, 0xe6, 0x3c, 0x41, 0xbf, 0xbc, 0x3c,
  0xde, 0x95, 0x9a, 0xbc, 0xa8, 0x1d, 0x00, 0xbd, 0x28, 0x24, 0xfc, 0x3c,
  0xda, 0x94, 0xf0, 0x3c, 0x93, 0x20, 0xad, 0xbb, 0x0e, 0xf0, 0xcc, 0xbc,
  0x80, 0x33, 0x87, 0xbb, 0x35, 0x7c, 0xf3, 0xbc, 0x37, 0x06, 0x86, 0xbc,
  0x6e, 0xb4, 0xf6, 0x3a, 0xa5, 0x81, 0x98, 0xbb, 0xa5, 0x28, 0x54, 0xbb,
  0xe5, 0x84, 0x85, 0xbc, 0x13, 0x9f, 0x43, 0x3b, 0x6e, 0xb6, 0x2d, 0x3c,
  0x08, 0x09, 0xe9, 0xbc, 0xec, 0xf9, 0xf7, 0x3c, 0x7c, 0x9a, 0x19, 0xbc,
  0x5a, 0xbe, 0xb6, 0xbc, 0xcc, 0x28, 0x05, 0xbd, 0x05, 0x0a, 0x5f, 0x3c,
  0x81, 0x5e, 0x64, 0x3b, 0xfe, 0x47, 0xef, 0x3c, 0xd7, 0x3a, 0x57, 0xbc,
  0x78, 0xfc, 0x67, 0x3c, 0x6e, 0x2b, 0x3a, 0xbc, 0xe4, 0x0a, 0x05, 0x3d,
  0x8c, 0x44, 0x80, 0x3c, 0x4a, 0x00, 0xc9, 0xbb, 0x65, 0x59, 0x80, 0x3c,
  0x1c, 0x01, 0xae, 0x3c, 0xac, 0x10, 0xcc, 0xbc, 0xe5, 0xa8, 0xbb, 0x3c,
  0xe3, 0x5c, 0xa9, 0x3c, 0xc5, 0xe9, 0xaf, 0xbc, 0xc0, 0x58, 0x8f, 0xbc,
  0x01, 0x9d, 0xcf, 0xbb, 0x7a, 0x99, 0x90, 0x3c, 0x6e, 0xa9, 0x12, 0xbb,
  0x68, 0xa0, 0xdb, 0xbc, 0x73, 0x88, 0x05, 0x3d, 0xc3, 0x6d, 0xe2, 0x3c,
  0x1c, 0x1c, 0xa0, 0xbc, 0xe0, 0xe2, 0x09, 0x3c, 0x78, 0x63, 0xfd, 0x3b,
  0xa4, 0x2a, 0x02, 0x3d, 0x31, 0x27, 0xc8, 0x3c, 0xa5, 0xea, 0x71, 0x3c,
  0x90, 0x39, 0x95, 0x3c, 0xec, 0xd7, 0xa4, 0x3c, 0x2e, 0xab, 0xbd, 0x3b,
  0xf3, 0x81, 0x9f, 0x3c, 0x38, 0xe4, 0x68, 0x3b, 0x9e, 0x65, 0xcf, 0xbc,
  0x58, 0x42, 0x71, 0xbc, 0x57, 0xef, 0x03, 0xbc, 0x80, 0x0a, 0x10, 0xbd,
  0x8a, 0xa4, 0xf9, 0xbc, 0x07, 0x48, 0xd6, 0x3c, 0xf7, 0xc8, 0x45, 0x3c,
  0x26, 0x8f, 0x0d, 0x3d, 0x28, 0xac, 0x11, 0xbd, 0x4c, 0x94, 0x0f, 0x3d,
  0xf8, 0x35, 0xf4, 0x3c, 0x3a, 0xe3, 0xb2, 0xbc, 0x97, 0xc7, 0x0d, 0xbd,
  0x6a, 0x07, 0xb7, 0xbc, 0x93, 0x3c, 0xea, 0x39, 0x4e, 0x1f, 0x74, 0x3c,
  0x63, 0xf9, 0xf1, 0xbc, 0xba, 0xb3, 0x95, 0xbc, 0x3c, 0xb2, 0xdf, 0x3c,
  0x6a, 0x83, 0x4d, 0x3c, 0xd5, 0xc4, 0x05, 0x3d, 0x93, 0xcc, 0x7f, 0xbb,
  0xce, 0x14, 0x78, 0xbc, 0x27, 0x8f, 0x07, 0xbd, 0x61, 0x38, 0xd4, 0x3c,
  0xca, 0x05, 0x02, 0x3b, 0x53, 0xc0, 0x15, 0xbc, 0x4c, 0x85, 0xe5, 0xbc,
  0x81, 0xa0, 0x4b, 0xbc, 0xe8, 0xa3, 0x06, 0xbd, 0x8e, 0x43, 0x73, 0x3c,
  0x0e, 0xd4, 0x05, 0x3d, 0xee, 0xd0, 0x31, 0x3c, 0x21, 0xe1, 0x62, 0xbc,
  0x65, 0xbb, 0xff, 0xbb, 0x60, 0xd3, 0x0d, 0x3d, 0xdc, 0x8e, 0x5a, 0x3b,
  0xae, 0x21, 0x82, 0xbb, 0xee, 0x9c, 0x1c, 0xbb, 0x50, 0xe7, 0x8e, 0xbc,
  0xf7, 0x3c, 0x18, 0xbc, 0x35, 0xd3, 0xa3, 0xbc, 0xac, 0x6d, 0xaa, 0xbc,
  0x65, 0x80, 0xe1, 0xbb, 0x53, 0x9f, 0xdd, 0x3c, 0x8a, 0xc6, 0xbd, 0xbc,
  0x4a, 0xaf, 0x77, 0xbc, 0x51, 0xc1, 0xbf, 0xbc, 0x8e, 0xa9, 0x33, 0xbc,
  0x98, 0x06, 0xe8, 0x3c, 0xf3, 0x21, 0x79, 0xbc, 0x45, 0x55, 0x50, 0xbc,
  0xae, 0x80, 0xd7, 0xbb, 0x23, 0xae, 0xba, 0x3c, 0x0a, 0x3c, 0xbf, 0x3c,
  0xec, 0xa5, 0x8e, 0xbc, 0x38, 0xfb, 0x5d, 0x3c, 0x2c, 0xd0, 0x05, 0x3d,
  0x82, 0x3d, 0x0b, 0xbd, 0x93, 0x9c, 0x2b, 0x3a, 0xc5, 0x2c, 0xa8, 0xbc,
  0x30, 0x73, 0x81, 0x3c, 0x1c, 0x35, 0x10, 0x3d, 0xd3, 0x88, 0x23, 0xbc,
  0x1c, 0x4f, 0x59, 0xbc, 0xfc, 0xd7, 0xdd, 0x3c, 0x1c, 0xbb, 0xe0, 0x3b,
  0xee, 0x79, 0x44, 0x3b, 0x0c, 0x39, 0x8f, 0xbc, 0x43, 0x07, 0xbe, 0xbc,
  0xcf, 0x9c, 0x0e, 0xbd, 0x81, 0xd3, 0x53, 0xbb, 0xf3, 0x1c, 0x10, 0xbc,
  0x21, 0x5e, 0xe7, 0xbc, 0xf3, 0x2c, 0x1a, 0xbc, 0xee, 0x47, 0x15, 0x3b,
  0x95, 0x4b, 0xbc, 0x3c, 0xca, 0xbd, 0xc5, 0x3c, 0x54, 0x22, 0x12, 0xbd,
  0xe1, 0x2b, 0x68, 0x3c, 0x75, 0xc0, 0xa7, 0x3c, 0x25, 0x51, 0x6c, 0xb9,
  0xe0, 0xed, 0xa6, 0xbc, 0x83, 0xc6, 0xe9, 0xbc, 0xa5, 0xa6, 0x27, 0x3c,
  0xca, 0x39, 0x8e, 0xbb, 0xf7, 0x94, 0x3f, 0x3c, 0xed, 0xbe, 0x08, 0xbd,
  0xca, 0x57, 0xf0, 0x3b, 0x65, 0x8e, 0xc4, 0x3c, 0xa5, 0x1e, 0x33, 0xbc,
  0x7e, 0x26, 0xeb, 0x3c, 0x8a, 0x91, 0xcd, 0xbc, 0x93, 0x09, 0xba, 0x3b,
  0x51, 0x19, 0xff, 0xbc, 0x90, 0x4c, 0x04, 0x3d, 0x93, 0xf1, 0x48, 0xbc,
  0x0a, 0x69, 0xdb, 0xbb, 0x8e, 0x5d, 0x51, 0xbc, 0xbc, 0xea, 0x0f, 0xbc,
  0x85, 0x04, 0x33, 0xbc, 0xf5, 0x33, 0x99, 0x3c, 0xa3, 0xc8, 0xd5, 0xbc,
  0xe6, 0x1e, 0x10, 0x3d, 0x13, 0xb5, 0xf3, 0x3b, 0xec, 0x66, 0xd8, 0xbc,
  0x05, 0x06, 0xf2, 0x3c, 0x25, 0x6a, 0x88, 0x3b, 0x9e, 0x07, 0xf1, 0xbc,
  0x67, 0xaf, 0xd0, 0xbc, 0x53, 0x1d, 0xd9, 0xbc, 0x93, 0x23, 0x8d, 0x3b,
  0xea, 0x51, 0x35, 0x3c, 0x78, 0x98, 0xe3, 0x3c, 0x05, 0xa5, 0x0a, 0x3d,
  0xdc, 0x91, 0x45, 0x3b, 0x25, 0x72, 0xa5, 0xbb, 0xba, 0x48, 0x99, 0xbc,
  0x5c, 0xe3, 0x9d, 0xbb, 0xdc, 0xca, 0x46, 0x3c, 0x40, 0x1e, 0x24, 0xbc,
  0x4e, 0x20, 0xd5, 0x3c, 0xd1, 0x5f, 0xb3, 0xbc, 0xa7, 0x17, 0xcb, 0x3c,
  0x51, 0x67, 0xf9, 0x3c, 0xf3, 0x75, 0x81, 0x3c, 0xb0, 0xaa, 0x8a, 0x3c,
  0xa5, 0xee, 0x2a, 0xbc, 0x41, 0xd0, 0xe2, 0xbc, 0x25, 0x0c, 0xd8, 0xba,
  0x3e, 0xf7, 0xde, 0x3c, 0xea, 0x8c, 0xf2, 0xbc, 0x2a, 0x68, 0x90, 0x3c,
  0xd3, 0x09, 0x85, 0x3b, 0xb7, 0xd7, 0x1e, 0x3b, 0x10, 0x81, 0xa4, 0xbc,
  0x6c, 0xa0, 0x94, 0x3c, 0x97, 0x88, 0x99, 0x3c, 0x93, 0xfa, 0x76, 0xbc,
  0xc1, 0x88, 0xcf, 0xbb, 0x37, 0x3c, 0xd9, 0x3b, 0xe1, 0x45, 0x4f, 0xbc,
  0xce, 0xde, 0x78, 0x3c, 0x65, 0x0f, 0xff, 0xbb, 0xdc, 0xb5, 0xbf, 0x3c,
  0x52, 0xe5, 0x07, 0x3d, 0xb1, 0x18, 0xe3, 0x3c, 0x7e, 0x8f, 0x82, 0x3c,
  0x4a, 0x98, 0xeb, 0x3a, 0xa5, 0x12, 0x7b, 0xbb, 0xc1, 0xaa, 0x31, 0xbc,
  0x0a, 0x77, 0xd5, 0x3b, 0xf0, 0xa2, 0x06, 0x3d, 0xac, 0x1d, 0xa3, 0xbc,
  0x55, 0x7e, 0x80, 0xbc, 0x60, 0x8c, 0x86, 0x3c, 0xf3, 0x61, 0xb2, 0x3c,
  0x21, 0x2b, 0xbc, 0x3c, 0x01, 0xb8, 0xc5, 0x39, 0x1c, 0x6a, 0xea, 0x3c,
  0x27, 0x30, 0x88, 0x3c, 0xd8, 0xa6, 0x07, 0xbd, 0x25, 0x97, 0x59, 0xbb,
  0x23, 0xec, 0xd0, 0x3c, 0x9a, 0x66, 0x07, 0x3d, 0x25, 0xf1, 0xd9, 0xbc,
  0xd0, 0x2a, 0x85, 0xbc, 0x2a, 0x97, 0xbf, 0xbc, 0x37, 0x1d, 0xba, 0x3c,
  0x10, 0xed, 0xa6, 0x3c, 0x35, 0x4e, 0xa0, 0xbc, 0x03, 0x01, 0xcd, 0xbc,
  0x5c, 0xa2, 0x71, 0xbb, 0xee, 0x39, 0xd4, 0xbc, 0x11, 0x6a, 0xf2, 0x3c,
  0x03, 0x9f, 0x9f, 0x3c, 0xdc, 0xd8, 0x01, 0x3c, 0xc1, 0x8d, 0xb8, 0xbc,
  0x93, 0x7f, 0x16, 0xbc, 0x0c, 0x6e, 0xd3, 0xbc, 0xba, 0xd7, 0xc5, 0xbc,
  0xf7, 0x60, 0xcf, 0x3c, 0xb3, 0x04, 0x66, 0xbc, 0x4a, 0x12, 0x3a, 0x3b,
  0xbc, 0x5f, 0xf1, 0x3c, 0x20, 0x7a, 0x83, 0x3c, 0xba, 0x10, 0xdb, 0x3c,
  0xe1, 0x97, 0xfb, 0x3c, 0x20, 0x30, 0xa0, 0xbc, 0xfa, 0xd7, 0xbc, 0xbc,
  0x38, 0x4f, 0x09, 0xbd, 0xac, 0x38, 0xb9, 0xbc, 0x1a, 0x59, 0xcf, 0xbc,
  0x5c, 0x1b, 0xfd, 0x3b, 0xd5, 0xa6, 0xe8, 0x3c, 0xf3, 0x58, 0xfd, 0x3c,
  0x60, 0xb3, 0x10, 0xbd, 0xdc, 0x9b, 0x2d, 0xbb, 0x2b, 0xcb, 0x10, 0x3d,
  0x7c, 0xef, 0x01, 0xbd, 0x7a, 0x74, 0xc4, 0xbc, 0x38, 0xd4, 0x71, 0x3c,
  0x2a, 0x6f, 0xf3, 0x3c, 0x43, 0x7d, 0xda, 0x3c, 0x93, 0xce, 0xe8, 0x3a,
  0x96, 0x9e, 0x0c, 0x3d, 0x1c, 0x08, 0xcf, 0xbc, 0x21, 0xeb, 0x64, 0x3c,
  0x23, 0xf0, 0xee, 0x3c, 0x95, 0x62, 0xa0, 0x3c, 0xfe, 0xb3, 0x8c, 0xbc,
  0x65, 0xc4, 0xd8, 0x3b, 0x1c, 0x3b, 0xcd, 0x3b, 0x17, 0xe0, 0xd3, 0xbc,
  0x8a, 0x49, 0xc8, 0x3c, 0xc5, 0x01, 0x08, 0xbc, 0xee, 0xfd, 0xa3, 0x3b,
  0x45, 0x27, 0x01, 0xbc, 0x6e, 0xf9, 0x99, 0x3c, 0xbf, 0x84, 0x08, 0xbd,
  0xb3, 0x99, 0xa1, 0xbc, 0x5a, 0x86, 0x02, 0x3d, 0x9c, 0x40, 0x55, 0xbc,
  0x5c, 0xba, 0x9c, 0xbc, 0x33, 0xc5, 0x6a, 0xbc, 0x65, 0xe7, 0xdd, 0xbc,
  0x13, 0x60, 0x77, 0x3c, 0x5c, 0x28, 0xeb, 0x3b, 0x93, 0xe7, 0xb9, 0xbb,
  0xb6, 0xe1, 0x0f, 0xbd, 0x8e, 0x26, 0xa5, 0xbc, 0xb3, 0x3d, 0x8a, 0xbc,
  0x8a, 0xe6, 0x40, 0xbc, 0x68, 0x9c, 0xff, 0x3c, 0xaa, 0x27, 0xf9, 0xbc,
  0x73, 0x49, 0xa7, 0xbc, 0x01, 0x21, 0xd5, 0x3a, 0xfa, 0xac, 0x9e, 0x3c,
  0xd7, 0x5e, 0x97, 0x3c, 0x2c, 0x6b, 0xa2, 0x3c, 0x81, 0xc5, 0xb6, 0x3c,
  0x0a, 0xad, 0x76, 0x3c, 0x37, 0x7c, 0x56, 0x3c, 0x18, 0xeb, 0x68, 0xbc,
  0x5a, 0x31, 0x05, 0xbd, 0xdc, 0x7e, 0x3d, 0x39, 0x13, 0xc5, 0x87, 0x3c,
  0x2c, 0xc3, 0xc2, 0x3c, 0x61, 0x2a, 0x39, 0xbc, 0x5c, 0x6f, 0xcd, 0xbb,
  0x65, 0x28, 0xbf, 0x3c, 0xf7, 0x00, 0x15, 0xbc, 0x42, 0x43, 0x0a, 0x3d,
  0x0e, 0xcc, 0x25, 0x3c, 0xd1, 0x4f, 0xff, 0x3c, 0x60, 0xdd, 0x18, 0x3c,
  0x50, 0xda, 0xa3, 0x3c, 0x1c, 0x40, 0x15, 0xbc, 0x2e, 0x98, 0xd4, 0xbb,
  0xf0, 0xcb, 0x8c, 0xbc, 0x8a, 0xae, 0xad, 0x3c, 0x2e, 0x72, 0xc7, 0x3c,
  0x4a, 0xe3, 0xf9, 0xba, 0x6c, 0xf6, 0x0a, 0xbd, 0x73, 0x36, 0x41, 0x3c,
  0x13, 0x55, 0xb7, 0xbc, 0x5c, 0x67, 0xb6, 0xbc, 0xb3, 0x71, 0x30, 0xbc,
  0x01, 0x20, 0xc7, 0xbb, 0xc5, 0x42, 0x55, 0xbc, 0xc7, 0xbe, 0xac, 0x3c,
  0x2e, 0x8a, 0xf9, 0xbc, 0xfa, 0x92, 0x9f, 0x3c, 0xff, 0x2a, 0x00, 0x3d,
  0xb5, 0x72, 0xa2, 0xbc, 0x47, 0xd6, 0xa4, 0xbc, 0x5c, 0xfb, 0x25, 0xbc,
  0xa5, 0xc7, 0xbf, 0x3b, 0xee, 0x83, 0x76, 0xbc, 0x91, 0x87, 0xe9, 0x3c,
  0xbc, 0x82, 0x26, 0xbc, 0x41, 0xe8, 0xe1, 0x3b, 0x25, 0x29, 0xf0, 0x3a,
  0x41, 0x52, 0x40, 0x3c, 0x4a, 0xb6, 0xc0, 0x39, 0x0e, 0xf8, 0xc5, 0x3c,
  0x65, 0xa6, 0xac, 0x3b, 0x81, 0x0a, 0xef, 0x3c, 0xf8, 0xe9, 0xf8, 0x3b,
  0xe3, 0x2f, 0xb1, 0xbc, 0x08, 0x8e, 0xdf, 0xbc, 0xfc, 0xfa, 0x96, 0x3c,
  0xbe, 0x88, 0xb9, 0xbc, 0x38, 0x42, 0xe3, 0x3c, 0xb8, 0xa1, 0xf8, 0x39,
  0x2a, 0x1b, 0x0f, 0x3c, 0xf8, 0xeb, 0xf0, 0x3c, 0xfa, 0xe2, 0xa3, 0x3c,
  0x8e, 0x10, 0x33, 0x3c, 0x61, 0x8b, 0xcb, 0xbc, 0x93, 0x03, 0x9d, 0x3b,
  0x44, 0xca, 0x06, 0xbd, 0xc7, 0x5c, 0xd5, 0xbc, 0xe5, 0xaa, 0xbd, 0x3c,
  0x80, 0xef, 0x02, 0x3d, 0x13, 0x07, 0x9b, 0xbb, 0xae, 0x1b, 0x77, 0x3c,
  0x37, 0x0f, 0xb1, 0xbb, 0x65, 0xc8, 0x78, 0x3c, 0x08, 0x56, 0xfb, 0xbc,
  0x13, 0xe9, 0xf8, 0x3b, 0xbc, 0xb3, 0x9c, 0x3c, 0x01, 0xda, 0xd1, 0xba,
  0x7f, 0x9e, 0x0f, 0x3d, 0xf7, 0x98, 0x81, 0xbc, 0x2a, 0xb2, 0x3d, 0xbc,
  0xe5, 0x25, 0xd8, 0xbb, 0xf8, 0xf6, 0x74, 0x3c, 0x1d, 0xd3, 0x0e, 0xbd,
  0x0a, 0xde, 0x13, 0x3c, 0x8a, 0x34, 0xa5, 0xbc, 0x45, 0xa3, 0x0a, 0xbc,
  0xc5, 0x52, 0x1a, 0x3c, 0x00, 0xc0, 0x23, 0xb9, 0x2a, 0x08, 0xb3, 0xbc,
  0x07, 0x53, 0xda, 0x3c, 0x3c, 0xb1, 0x37, 0x3c, 0x15, 0x34, 0x89, 0xbc,
  0xb5, 0x80, 0xaf, 0x3c, 0x9c, 0xf0, 0x54, 0xbc, 0x4e, 0x47, 0x4f, 0xbc,
  0x4c, 0xb3, 0xba, 0x3c, 0xdc, 0x7c, 0x65, 0x3b, 0x05, 0x52, 0xe3, 0xbc,
  0x03, 0x4a, 0x88, 0x3c, 0x00, 0xbb, 0x0b, 0xbb, 0x13, 0xc8, 0x55, 0x3c,
  0x13, 0x4e, 0x01, 0x3b, 0xf8, 0x3b, 0x71, 0x3c, 0x67, 0x17, 0x9e, 0xbc,
  0x40, 0xe4, 0x9a, 0x3b, 0x27, 0xcd, 0xb7, 0x3c, 0x01, 0xe8, 0xcb, 0x39,
  0x38, 0xba, 0xf8, 0xbb, 0x08, 0x42, 0x0b, 0xbd, 0xea, 0x70, 0x1f, 0x3c,
  0x45, 0x80, 0x08, 0xbc, 0x95, 0x83, 0x8d, 0xbc, 0xa2, 0xa1, 0x01, 0x3d,
  0x55, 0xd6, 0xe8, 0xbc, 0x6e, 0xcd, 0xcd, 0xbb, 0xee, 0x21, 0xc1, 0xbc,
  0x53, 0xa8, 0xdc, 0x3c, 0x25, 0x27, 0x66, 0xbc, 0xea, 0xec, 0x69, 0x3c,
  0x3c, 0x8e, 0xbb, 0x3c, 0x25, 0x59, 0x99, 0x38, 0x7c, 0xd6, 0x45, 0xbc,
  0x2e, 0x83, 0xa7, 0x3c, 0x93, 0x8e, 0x53, 0x3a, 0xce, 0x6c, 0x34, 0x3c,
  0x55, 0x49, 0x0a, 0x3d, 0x6a, 0x13, 0x4e, 0xbc, 0x28, 0xce, 0xe6, 0x3c,
  0x25, 0x36, 0xea, 0x3c, 0xb8, 0xc0, 0x08, 0x3d, 0x63, 0x44, 0xfa, 0x3c,
  0xf5, 0xae, 0xe6, 0x3c, 0x8a, 0x14, 0x4e, 0x3c, 0x61, 0xe4, 0xbf, 0x3c,
  0x37, 0x5e, 0x2f, 0xbb, 0xea, 0xe9, 0x97, 0x3c, 0x93, 0x51, 0xb1, 0xba,
  0x37, 0x2a, 0x4e, 0x3b, 0x45, 0xd8, 0x09, 0x3c, 0x81, 0x83, 0x7b, 0x3c,
  0xe1, 0x01, 0x33, 0xbc, 0x83, 0xf4, 0xb1, 0x3c, 0x0e, 0xed, 0x59, 0xbc,
  0x0e, 0x04, 0x4a, 0xbc, 0xca, 0x9b, 0xce, 0xbc, 0x77, 0x2f, 0x27, 0x3c,
  0x93, 0xc4, 0x8a, 0xba, 0x8e, 0xf8, 0xe2, 0x3c, 0x4e, 0xe4, 0xe2, 0x3c,
  0xc5, 0xf3, 0x64, 0xbc, 0xa1, 0xec, 0x3f, 0xbc, 0x17, 0x83, 0x83, 0x3c,
  0x9a, 0xd5, 0xd7, 0x3c, 0x37, 0x0c, 0x01, 0xbb, 0x9e, 0xc2, 0x90, 0x3c,
  0x1c, 0xd8, 0x00, 0x3d, 0x73, 0x87, 0x60, 0x3c, 0x4e, 0xf5, 0x0c, 0x3d,
  0x6a, 0x4a, 0xa6, 0x3c, 0x4e, 0xd3, 0x39, 0x3c, 0x1c, 0xed, 0xc0, 0xbb,
  0xd3, 0xbc, 0x0c, 0xbd, 0xd1, 0x56, 0xe1, 0xbc, 0x93, 0x7b, 0xa2, 0xbb,
  0x5a, 0x90, 0xc9, 0x3c, 0xe1, 0x76, 0x65, 0x3c, 0x53, 0xbd, 0x7d, 0x3c,
  0xc5, 0x50, 0x25, 0x3c, 0xca, 0x49, 0x8a, 0x3c, 0x25, 0x9d, 0x5a, 0xbc,
  0x8a, 0xa2, 0x0d, 0x3d, 0x9c, 0x41, 0xb8, 0x3b, 0x33, 0xd1, 0x76, 0x3c,
  0x13, 0xa7, 0xb1, 0xbc, 0x40, 0x9c, 0x19, 0xbc, 0x25, 0xd5, 0x27, 0xbc,
  0x3b, 0x46, 0x05, 0x3d, 0xfe, 0x5c, 0xd2, 0x3c, 0x21, 0x13, 0x2f, 0x3c,
  0x6c, 0x6c, 0xf6, 0xbc, 0x4a, 0x88, 0x74, 0x3b, 0x1e, 0xad, 0xc7, 0xbc,
  0xaa, 0x08, 0x72, 0xbc, 0xc5, 0x77, 0xaa, 0x3c, 0x5a, 0x9b, 0xe8, 0xbc,
  0x5c, 0x20, 0xee, 0xbc, 0xcc, 0x60, 0x9b, 0x3c, 0xbc, 0x8c, 0x02, 0x3c,
  0x2e, 0x72, 0xf2, 0xbb, 0xfe, 0xc6, 0xfc, 0xbc, 0xb7, 0x9d, 0xb8, 0xb9,
  0x25, 0x33, 0x9d, 0x3c, 0x7e, 0xd3, 0xc5, 0xbc, 0xce, 0x08, 0xad, 0x3c,
  0xc1, 0x56, 0xd4, 0x3b, 0x2a, 0x92, 0xd2, 0x3c, 0x01, 0xc0, 0xf8, 0x3a,
  0xea, 0xab, 0xf9, 0x3c, 0x2e, 0x37, 0x8a, 0x3c, 0x77, 0x99, 0x52, 0x3c,
  0x8a, 0x5d, 0x05, 0x3d, 0x93, 0x00, 0xb6, 0xbc, 0x6e, 0xdd, 0xb6, 0xbb,
  0xbc, 0xa7, 0x0d, 0x3c, 0x87, 0x2a, 0x08, 0x3d, 0x88, 0x09, 0xe0, 0xbc,
  0xec, 0x8e, 0xae, 0x3c, 0x73, 0x3e, 0x3e, 0xbc, 0x6d, 0x25, 0x0c, 0x3d,
  0x2a, 0x81, 0x1b, 0xbc, 0xca, 0xb9, 0x5f, 0xbb, 0xa0, 0x6b, 0x02, 0x3c,
  0x0a, 0x51, 0xda, 0xbb, 0x95, 0x79, 0x85, 0xbc, 0x93, 0xfc, 0xdc, 0x3a,
  0xfc, 0x56, 0xbb, 0xbc, 0x4a, 0x38, 0xdc, 0xba, 0x66, 0xf2, 0x0b, 0xbd,
  0x5a, 0x1d, 0x0c, 0x3d, 0xb3, 0x84, 0x80, 0x3c, 0x6c, 0x89, 0xff, 0xbc,
  0xc1, 0x4b, 0xf4, 0xbc, 0x2a, 0x4a, 0x77, 0xbc, 0x85, 0x59, 0x6b, 0x3c,
  0x2e, 0x98, 0xe8, 0x3b, 0x73, 0xe4, 0xc2, 0x3c, 0xe5, 0x9f, 0x93, 0x3b,
  0x25, 0x42, 0x2d, 0x3b, 0xbe, 0x7e, 0xf1, 0x3c, 0xd3, 0x05, 0x85, 0x3c,
  0xf8, 0x71, 0x0c, 0x3d, 0xcc, 0xd5, 0x89, 0x3c, 0xb7, 0x91, 0x87, 0x39,
  0x33, 0x2b, 0xec, 0x3c, 0xae, 0x33, 0x2f, 0xbc, 0xf5, 0x50, 0xe4, 0xbc,
  0x65, 0x98, 0xed, 0x3b, 0x1c, 0xc6, 0x8d, 0x3b, 0xee, 0x1f, 0x79, 0x3b,
  0x53, 0x3d, 0x8a, 0xbb, 0xbe, 0xa4, 0xb2, 0xbc, 0x9a, 0x72, 0xec, 0x3c,
  0x47, 0x8c, 0xbf, 0x3c, 0x8a, 0x7f, 0xbb, 0x3b, 0x41, 0x97, 0x79, 0x3c,
  0x80, 0x37, 0x97, 0x3b, 0x9a, 0xc9, 0xd9, 0xbc, 0xd3, 0x2d, 0xe2, 0x3c,
  0xc0, 0xbd, 0x9d, 0x3b, 0xf8, 0x2b, 0x72, 0xbc, 0xdc, 0xfe, 0x66, 0x39,
  0xdc, 0xcf, 0x96, 0x3c, 0xaa, 0xb7, 0x0d, 0xbd, 0x9c, 0x9c, 0xd5, 0xbb,
  0x00, 0x0a, 0x06, 0x3b, 0x1c, 0x6a, 0xee, 0xbb, 0xa7, 0x31, 0xd3, 0xbc,
  0x50, 0x21, 0x0a, 0xbd, 0x5e, 0x1d, 0xbf, 0xbc, 0xf3, 0x41, 0x2f, 0x3c,
  0x9e, 0xa9, 0x07, 0xbd, 0x2e, 0x1b, 0xf9, 0x3c, 0xd7, 0xec, 0x0c, 0xbc,
  0x93, 0x38, 0x69, 0x3a, 0xea, 0xc6, 0x3f, 0xbc, 0x67, 0x18, 0x8e, 0xbc,
  0x2a, 0xaa, 0x43, 0x3c, 0xb7, 0x21, 0x3a, 0xbc, 0x0c, 0x5b, 0x8e, 0xbc,
  0xae, 0x51, 0xd3, 0xbb, 0xa5, 0xfe, 0x55, 0xbc, 0xc1, 0x1b, 0x34, 0xbc,
  0xd7, 0xe0, 0x19, 0x3c, 0x53, 0xaa, 0x0c, 0x3c, 0x6e, 0xf7, 0x0c, 0x3a,
  0x4e, 0xa0, 0x95, 0x3c, 0xc3, 0xfb, 0xaf, 0x3c, 0xf0, 0x8f, 0xa2, 0x3c,
  0x33, 0x5c, 0x85, 0xbc, 0xde, 0x70, 0xb6, 0xbc, 0xc5, 0x14, 0xc3, 0xbc,
  0x57, 0x97, 0x05, 0x3c, 0xce, 0x6c, 0x6b, 0xbc, 0xa2, 0x32, 0x00, 0xbd,
  0xee, 0x98, 0x22, 0xbb, 0xee, 0xd2, 0x0b, 0x3b, 0xb0, 0x22, 0x9d, 0xbc,
  0x45, 0x92, 0x2d, 0x3c, 0x00, 0x14, 0x82, 0x39, 0x4a, 0xba, 0x04, 0xbd,
  0xb7, 0x44, 0x20, 0xbc, 0x43, 0x4c, 0xe4, 0x3c, 0x01, 0x47, 0xe1, 0xba,
  0x01, 0xc6, 0xe5, 0x3c, 0x80, 0x1d, 0x10, 0xbd, 0x3c, 0xe2, 0x84, 0x3c,
  0x23, 0x9c, 0xde, 0xbc, 0x00, 0xce, 0x23, 0x3b, 0x37, 0x1a, 0x0a, 0xbc,
  0xfc, 0x96, 0xfe, 0x3c, 0xf7, 0x52, 0xd0, 0x3c, 0xb8, 0xe1, 0xe0, 0x3c,
  0xa3, 0x30, 0xe8, 0x3c, 0xb3, 0x04, 0xd8, 0xbc, 0x9c, 0xfc, 0x31, 0xbc,
  0x7c, 0x8b, 0xb9, 0xbc, 0x93, 0xc4, 0xee, 0x3b, 0xf5, 0x7d, 0xbf, 0x3c,
  0x78, 0xdd, 0x03, 0xbd, 0x0e, 0x53, 0x8d, 0x3c, 0x45, 0xe4, 0x8c, 0xbc,
  0x0e, 0xcd, 0x43, 0xbc, 0x05, 0x90, 0x80, 0x3c, 0xfe, 0x76, 0x03, 0x3d,
  0x25, 0xb6, 0x03, 0xbd, 0x33, 0x18, 0xe6, 0x3c, 0x58, 0x92, 0xf5, 0xbc,
  0xc5, 0x84, 0x48, 0xbc, 0xdc, 0x5d, 0x58, 0x3b, 0xfe, 0xd7, 0xea, 0xbc,
  0xb3, 0x1e, 0xee, 0x3c, 0x65, 0xed, 0x0d, 0xbc, 0x78, 0x8e, 0x05, 0xbd,
  0x81, 0x2d, 0x2d, 0xbb, 0x73, 0x16, 0x12, 0x3c, 0x61, 0xb8, 0xb4, 0xbc,
  0x5e, 0xb5, 0xc1, 0xbc, 0xe7, 0x00, 0x8b, 0x3c, 0xc5, 0xba, 0x09, 0x3d,
  0xb7, 0xb4, 0xd0, 0xba, 0x4a, 0x89, 0x95, 0xbb, 0xac, 0xb2, 0xb8, 0x3c,
  0x56, 0x98, 0x0f, 0xbd, 0xf1, 0xe2, 0xf1, 0x3c, 0xae, 0x41, 0xc0, 0xbb,
  0x6f, 0xd3, 0x09, 0x3d, 0x40, 0xe9, 0xa7, 0x3b, 0x41, 0xf6, 0x5c, 0x3c,
  0x03, 0x05, 0xf0, 0xbc, 0xc5, 0x41, 0x49, 0x3c, 0xc5, 0x2b, 0xb5, 0x3c,
  0x13, 0x8e, 0x97, 0xbb, 0x47, 0xaa, 0x93, 0xbc, 0x05, 0xe1, 0x3a, 0xbc,
  0x85, 0xcf, 0x40, 0xbc, 0xd0, 0xe9, 0x98, 0x3c, 0x17, 0xdf, 0xa8, 0x3c,
  0xdc, 0x5f, 0xaa, 0xba, 0xc7, 0x10, 0xd2, 0xbc, 0x81, 0xe9, 0xbe, 0xbc,
  0xd8, 0x3c, 0xff, 0x3c, 0x75, 0x6d, 0xce, 0x3c, 0x07, 0x57, 0xbb, 0x3c,
  0x05, 0x98, 0xa0, 0x3c, 0x93, 0xd4, 0x9a, 0xbc, 0x1e, 0x7d, 0xdb, 0xbc,
  0x4e, 0xc2, 0xca, 0xbc, 0x97, 0xbf, 0xa3, 0x3c, 0x07, 0xf8, 0xb0, 0x3c,
  0xbc, 0x07, 0x0b, 0x3c, 0x73, 0x90, 0x9f, 0x3c, 0x00, 0xc2, 0x8e, 0xba,
  0x37, 0x4b, 0x3b, 0x3c, 0x0a, 0x4b, 0x56, 0xbc, 0xf1, 0x73, 0xf7, 0xbc,
  0xf7, 0xd7, 0x12, 0x3c, 0x5a, 0xa2, 0x85, 0xbc, 0x65, 0xe2, 0x83, 0x3b,
  0xaa, 0xb6, 0x79, 0x3c, 0x25, 0xa1, 0xda, 0xba, 0x95, 0xe9, 0xd6, 0xbc,
  0xe1, 0x86, 0xc3, 0xbc, 0xce, 0x7d, 0xfe, 0xbc, 0xee, 0x6e, 0xbe, 0x3c,
  0xcc, 0x42, 0xab, 0xbc, 0x17, 0x1c, 0x13, 0x3c, 0x61, 0xfb, 0xb4, 0xbc,
  0xdc, 0x56, 0x12, 0xb8, 0x4a, 0xa5, 0x8c, 0x3b, 0xb1, 0xae, 0xe7, 0x3c,
  0xbc, 0x3e, 0xf9, 0xbc, 0x13, 0x39, 0x71, 0xbc, 0xbc, 0x8a, 0x93, 0x3c,
  0x8e, 0x9e, 0x9b, 0x3c, 0x13, 0xd9, 0x2f, 0x3b, 0x31, 0x68, 0xc8, 0x3c,
  0xde, 0x97, 0x8b, 0xbc, 0x6e, 0x2e, 0x00, 0xbd, 0x41, 0xe6, 0x36, 0xbc,
  0x4a, 0xf6, 0x89, 0x3a, 0xa7, 0x68, 0x81, 0xbc, 0x05, 0xd1, 0x28, 0xbc,
  0x7c, 0x14, 0x77, 0xbc, 0xa5, 0x08, 0x86, 0xbc, 0x13, 0x75, 0x17, 0x3c,
  0x3f, 0x17, 0x0e, 0xbd, 0xb3, 0xa1, 0xd7, 0xbc, 0x37, 0x26, 0x11, 0xbc,
  0xe8, 0x7d, 0xeb, 0x3c, 0xb7, 0xa1, 0x31, 0x3c, 0xff, 0x28, 0x09, 0xbd,
  0xdc, 0x92, 0xc2, 0xb9, 0xea, 0xc5, 0x03, 0x3c, 0xa1, 0x3a, 0x65, 0xbc,
  0x3c, 0x6b, 0x7c, 0xbc, 0xb8, 0xc9, 0xde, 0xbc, 0xb1, 0x1a, 0xf4, 0x3c,
  0xda, 0x69, 0xf5, 0xbc, 0xb2, 0x22, 0x01, 0xbd, 0x6e, 0x36, 0x92, 0xbb,
  0xbc, 0x90, 0xa1, 0x3c, 0x0c, 0xc7, 0xb9, 0x3c, 0xce, 0xa8, 0x36, 0xbc,
  0xd3, 0x77, 0xf1, 0xbb, 0xbc, 0xf3, 0xa7, 0xbc, 0xa5, 0x0f, 0x2a, 0xbc,
  0x6e, 0x9f, 0x17, 0xbc, 0x6e, 0xd4, 0xe4, 0xba, 0x5c, 0x29, 0x7f, 0x3b,
  0x93, 0x5e, 0xb9, 0xba, 0x93, 0x00, 0x83, 0x39, 0x25, 0xfe, 0xa6, 0xbc,
  0xd7, 0x62, 0xd6, 0x3c, 0xa8, 0x8c, 0xeb, 0xbc, 0x0e, 0x3e, 0x83, 0xbc,
  0x75, 0x59, 0x11, 0x3d, 0x87, 0x95, 0xbf, 0xbc, 0x4e, 0xdc, 0xea, 0x3c,
  0x5d, 0x19, 0x11, 0x3d, 0xd8, 0xf1, 0xdd, 0x3c, 0xbe, 0x70, 0xa8, 0xbc,
  0xd7, 0x14, 0x9b, 0xbc, 0x1e, 0x1b, 0xdd, 0x3c, 0xb7, 0x1d, 0x27, 0x3c,
  0xca, 0x8c, 0x25, 0x3b, 0xc5, 0x1d, 0xa8, 0xbc, 0xfc, 0xb1, 0x4b, 0xbc,
  0x38, 0x26, 0xe3, 0xbb, 0x57, 0x35, 0x17, 0x3c, 0x85, 0xb2, 0xa7, 0xbc,
  0xbf, 0x80, 0x07, 0x3d, 0x6c, 0x15, 0x8e, 0xbc, 0x5a, 0xdd, 0xf3, 0xbc,
  0x7e, 0x2c, 0xa5, 0xbc, 0xba, 0x04, 0xfd, 0xbc, 0xec, 0xb5, 0xdd, 0xbc,
  0x81, 0xba, 0x2c, 0xbc, 0x65, 0x24, 0x41, 0xbc, 0x25, 0x2c, 0xaf, 0xbc,
  0x45, 0x92, 0x1c, 0xbc, 0xb8, 0x41, 0x60, 0x3b, 0x53, 0x1c, 0xb7, 0x3c,
  0x6c, 0xc3, 0xa7, 0x3c, 0x5a, 0x05, 0x85, 0xbc, 0xa7, 0x16, 0x9c, 0x3c,
  0x5e, 0x2b, 0xc3, 0xbc, 0x58, 0xe1, 0xfe, 0xbc, 0xb8, 0x6c, 0xfb, 0x3b,
  0x7e, 0x9b, 0x9f, 0x3c, 0x83, 0xc3, 0x82, 0xbc, 0x4a, 0x42, 0x89, 0xbb,
  0x05, 0xfe, 0xa0, 0x3c, 0x65, 0xb4, 0x18, 0xbc, 0x6c, 0xaa, 0x9a, 0x3c,
  0xd3, 0x65, 0xf6, 0x3c, 0x33, 0x69, 0x5e, 0xbc, 0xa5, 0xa1, 0x85, 0x3b,
  0xc5, 0xb2, 0xd4, 0x3c, 0x75, 0xdc, 0xf7, 0xbc, 0x65, 0x1b, 0x90, 0x3c,
  0x45, 0x76, 0xa5, 0xbc, 0xee, 0x9f, 0x53, 0xbb, 0x4a, 0xcb, 0xcb, 0x3c,
  0xe4, 0xea, 0x03, 0x3d, 0xf3, 0xba, 0x14, 0x3c, 0x5e, 0x8c, 0xa7, 0x3c,
  0x75, 0xc2, 0xd6, 0xbc, 0x33, 0x0f, 0xbd, 0x3c, 0x32, 0x18, 0x04, 0x3d,
  0x07, 0x39, 0x97, 0xbc, 0xea, 0x03, 0x3b, 0x3c, 0xea, 0xd7, 0x90, 0x3c,
  0x2e, 0x62, 0x78, 0xbc, 0x25, 0x36, 0x32, 0x3c, 0xa5, 0x50, 0xc3, 0x3b,
  0x13, 0x81, 0xc4, 0xbc, 0x2a, 0x67, 0x56, 0xbc, 0x93, 0xf6, 0x06, 0x3c,
  0x43, 0xa1, 0xd4, 0x3c, 0x93, 0x20, 0x0b, 0xba, 0xe3, 0xff, 0x87, 0x3c,
  0xde, 0xbc, 0x07, 0xbd, 0x57, 0xc0, 0x09, 0x3d, 0x37, 0x1f, 0x39, 0xbb,
  0xe7, 0x13, 0xcb, 0x3c, 0xc5, 0x74, 0x96, 0xbc, 0xea, 0xe9, 0xf9, 0xbc,
  0x57, 0x4b, 0xc3, 0x3c, 0xb3, 0xa1, 0x8e, 0xbc, 0x6a, 0xf7, 0xa9, 0xbc,
  0x77, 0x8f, 0x53, 0xbc, 0x65, 0xa0, 0x9f, 0x3b, 0x45, 0xc5, 0xb5, 0xbc,
  0x25, 0x38, 0x44, 0x3b, 0x7e, 0xc3, 0x0e, 0x3d, 0x61, 0x93, 0xbe, 0x3c,
  0x85, 0xfd, 0x36, 0x3c, 0xc0, 0x3b, 0x23, 0x3c, 0x6e, 0xc4, 0xb5, 0xba,
  0x9c, 0x1f, 0x65, 0xbc, 0x44, 0xba, 0x05, 0xbd, 0x0a, 0x45, 0x84, 0x3c,
  0x4c, 0xda, 0xaf, 0x3c, 0x73, 0x59, 0x7c, 0x3c, 0xb7, 0xd9, 0xa6, 0xba,
  0x4f, 0x99, 0x0a, 0x3d, 0x6e, 0x64, 0xa4, 0x3b, 0x81, 0x2f, 0x66, 0xbc,
  0x01, 0xfd, 0xe5, 0x3a, 0x5c, 0x4c, 0x4a, 0x3b, 0x6e, 0x27, 0x13, 0x3c,
  0xdc, 0x24, 0x83, 0x3c, 0xb7, 0x3d, 0x52, 0xba, 0x58, 0x79, 0x03, 0xbd,
  0x85, 0x69, 0xcb, 0xbc, 0x53, 0xf5, 0xd4, 0xbc, 0x01, 0x29, 0xf1, 0xbb,
  0x6e, 0x12, 0x27, 0xbb, 0xc5, 0x0c, 0x56, 0x3c, 0x6a, 0xd0, 0xa5, 0xbc,
  0x6e, 0xc5, 0xe8, 0x3b, 0xca, 0xd8, 0xcc, 0x3b, 0x81, 0x75, 0xfb, 0xbc,
  0xc7, 0x6f, 0xa7, 0x3c, 0x0a, 0x4e, 0x9e, 0xbc, 0x4a, 0x01, 0x77, 0x3b,
  0x3f, 0xb9, 0x08, 0x3d, 0x6a, 0xea, 0x0e, 0x3d, 0x22, 0x57, 0x01, 0xbd,
  0x4c, 0x8e, 0xa8, 0xbc, 0xdc, 0xd4, 0x86, 0x3c, 0x40, 0xdd, 0x99, 0xbb,
  0x45, 0xf4, 0x57, 0x3c, 0x8f, 0x91, 0x10, 0x3d, 0x01, 0x12, 0xba, 0xba,
  0x83, 0x89, 0x99, 0xbc, 0xae, 0x18, 0x8c, 0xbc, 0x63, 0xb3, 0xe7, 0x3c,
  0xdc, 0x1b, 0x96, 0xba, 0xa8, 0x9c, 0x0a, 0xbd, 0x6a, 0x86, 0x5e, 0x3c,
  0x3a, 0x87, 0xaa, 0xbc, 0x97, 0x90, 0xca, 0xbc, 0xdc, 0x6a, 0xe2, 0xbc,
  0xf8, 0x33, 0xee, 0x3b, 0x3c, 0x14, 0x15, 0x3c, 0x80, 0x38, 0x00, 0xbd,
  0x8e, 0x22, 0x93, 0xbc, 0xee, 0x01, 0x8b, 0x3b, 0x9c, 0x02, 0x62, 0xbc,
  0x2e, 0xf9, 0x8d, 0xbb, 0x8b, 0x42, 0x06, 0xbd, 0x65, 0x20, 0xa9, 0x3b,
  0x38, 0x9f, 0xf9, 0x3b, 0x08, 0x5b, 0xef, 0x3c, 0xca, 0x22, 0x3e, 0xbb,
  0xff, 0xa5, 0x0d, 0x3d, 0xf3, 0x33, 0x8f, 0xbc, 0xdc, 0x05, 0xe9, 0xba,
  0x15, 0xf8, 0xfb, 0x3c, 0xf3, 0xde, 0x11, 0xbc, 0x6a, 0x55, 0x74, 0x3c,
  0xdc, 0xd3, 0x48, 0x3c, 0x6e, 0x8a, 0x76, 0xbb, 0xc7, 0x1a, 0x10, 0xbd,
  0xe3, 0x7e, 0xc4, 0xbc, 0xea, 0x60, 0x7c, 0x3c, 0x5a, 0xa6, 0xb8, 0xbc,
  0x8a, 0xae, 0xdb, 0xbc, 0x83, 0x90, 0xa3, 0x3c, 0xca, 0x02, 0x85, 0x3c,
  0xd3, 0x1a, 0xa4, 0x3c, 0x6a, 0xa1, 0x54, 0xbc, 0x81, 0x6c, 0x7b, 0x3c,
  0xc8, 0xc0, 0x0b, 0xbd, 0xa5, 0x8b, 0xc0, 0x3c, 0x1c, 0x86, 0x89, 0xbc,
  0xe3, 0xf7, 0xe7, 0x3c, 0x4e, 0xaa, 0x8e, 0x3c, 0xf7, 0x30, 0xd3, 0x3c,
  0x61, 0x04, 0x59, 0xbc, 0xaa, 0xc5, 0x9a, 0xbc, 0xca, 0x76, 0x93, 0x3c,
  0xb7, 0x88, 0xc8, 0xbb, 0x6e, 0x49, 0x0c, 0xbd, 0x95, 0x4b, 0xf3, 0x3c,
  0x68, 0xcf, 0x05, 0xbd, 0x25, 0x9d, 0x95, 0xbc, 0x2e, 0x3e, 0x20, 0x3c,
  0xb7, 0xe8, 0x11, 0x3b, 0x87, 0xa5, 0x0f, 0xbd, 0xf7, 0x9d, 0x58, 0xbc,
  0x2a, 0x45, 0x07, 0x3c, 0x4e, 0x37, 0x5b, 0x3c, 0xbc, 0x8c, 0x0b, 0x3d,
  0xf7, 0x8a, 0xac, 0xbb, 0x6a, 0xd4, 0xbc, 0xbc, 0xa0, 0x37, 0x0f, 0x3c,
  0xee, 0x56, 0x64, 0xbc, 0x10, 0xb5, 0x9f, 0xbc, 0x31, 0x89, 0xea, 0xbc,
  0xbc, 0xee, 0x54, 0xbc, 0x8f, 0x7e, 0x08, 0xbd, 0x00, 0x3d, 0x91, 0x3a,
  0x6e, 0x33, 0x07, 0xb9, 0x91, 0x8e, 0xfe, 0xbc, 0x38, 0xaf, 0xfe, 0xbc,
  0x50, 0x9a, 0x08, 0xbd, 0x6c, 0x1d, 0x87, 0x3c, 0xa1, 0x94, 0xdb, 0xbc,
  0x21, 0xaf, 0x64, 0xbc, 0x07, 0xa9, 0xc9, 0x3c, 0xde, 0x07, 0x9d, 0x3c,
  0xd3, 0xbd, 0x90, 0x3b, 0xf1, 0xca, 0xf2, 0xbc, 0x25, 0x37, 0xc4, 0xbb,
  0xe5, 0x17, 0xf1, 0xbc, 0x65, 0xc9, 0x48, 0x3c, 0xe5, 0x99, 0xf8, 0xbb,
  0xc7, 0xae, 0x98, 0xbc, 0x0a, 0x52, 0xf0, 0x3c, 0x5c, 0x7d, 0x2b, 0xbb,
  0x52, 0xc7, 0x0f, 0xbd, 0x30, 0xcc, 0x11, 0x3d, 0x85, 0x2c, 0x4d, 0x3c,
  0xf7, 0xf0, 0xb7, 0x3c, 0x9a, 0x4a, 0xd4, 0x3c, 0xba, 0x4f, 0x87, 0x3c,
  0xf3, 0x9d, 0x48, 0xbc, 0x32, 0x3a, 0x08, 0x3d, 0x00, 0xfc, 0x92, 0x3c,
  0x05, 0x68, 0xec, 0x3c, 0xb7, 0xa9, 0xcb, 0xbc, 0x0e, 0x61, 0xa1, 0x3c,
  0x25, 0xb1, 0x8b, 0xbc, 0x6c, 0xe8, 0x06, 0xbd, 0xaa, 0xf0, 0xd0, 0xbc,
  0xfa, 0xf2, 0xb2, 0xbc, 0x7c, 0x9f, 0xfe, 0x3c, 0x53, 0x22, 0x80, 0x3b,
  0x85, 0x8c, 0xf6, 0x3c, 0x4a, 0xa8, 0x6d, 0xbc, 0x50, 0xb9, 0x05, 0xbd,
  0x21, 0x5d, 0x3b, 0x3c, 0x95, 0xcd, 0xe7, 0xbc, 0x13, 0x0d, 0x94, 0x3b,
  0xf3, 0xb1, 0x59, 0xbc, 0x6e, 0xde, 0x1b, 0xbb, 0xc5, 0xb8, 0xc2, 0xbc,
  0x2e, 0x3e, 0x16, 0x3c, 0x4e, 0x6b, 0x20, 0x3c, 0xdc, 0x92, 0x1d, 0xbc,
  0xdc, 0x97, 0x31, 0x3c, 0x6e, 0xe0, 0x75, 0x3b, 0xb7, 0xa7, 0xab, 0x3c,
  0x61, 0xd8, 0xf8, 0x3c, 0x53, 0xfe, 0xb4, 0xbc, 0x55, 0x14, 0x90, 0xbc,
  0x2a, 0xb1, 0xec, 0xbc, 0x98, 0xb3, 0x6e, 0xbc, 0xf1, 0x8d, 0xd6, 0x3c,
  0xb3, 0x6f, 0x4d, 0x3c, 0xa7, 0x0c, 0xca, 0xbc, 0x37, 0xb0, 0x4a, 0xbc,
  0x80, 0xf1, 0x0a, 0x3d, 0x78, 0x13, 0x5f, 0xbc, 0xaa, 0xb6, 0x4d, 0xbc,
  0x45, 0x57, 0x2b, 0xbc, 0xe0, 0x06, 0x88, 0xbc, 0xee, 0x2c, 0x1e, 0x3b,
  0x0a, 0xc9, 0xba, 0x3b, 0xc3, 0xce, 0x93, 0x3c, 0xee, 0x25, 0xdc, 0xbc,
  0xdc, 0xa6, 0x96, 0x3b, 0x9e, 0xbe, 0xe8, 0x3c, 0xec, 0xc5, 0xb3, 0x3c,
  0xe5, 0xc1, 0xfc, 0xbc, 0x01, 0xa9, 0xee, 0xbc, 0x25, 0x51, 0xda, 0x3a,
  0x83, 0x9f, 0x0f, 0x3d, 0x8a, 0x6a, 0x31, 0x3c, 0x25, 0x6d, 0xd1, 0xbc,
  0xee, 0xe3, 0x5e, 0xbc, 0xaa, 0xf5, 0x12, 0x3c, 0x23, 0x19, 0xa4, 0x3c,
  0x93, 0x67, 0xf2, 0x3a, 0xaa, 0xde, 0x37, 0x3c, 0x65, 0x51, 0x00, 0xbc,
  0xbb, 0xd4, 0x11, 0x3d, 0x45, 0xfe, 0xfc, 0x3c, 0xf5, 0xe0, 0xe9, 0xbc,
  0xbc, 0x81, 0x10, 0x3c, 0x4a, 0x67, 0x96, 0x3a, 0x5e, 0xfa, 0x04, 0xbd,
  0x93, 0x65, 0xd9, 0xba, 0x97, 0xc3, 0x8a, 0x3c, 0x27, 0x08, 0x84, 0x3c,
  0x21, 0xde, 0x55, 0x3c, 0xf3, 0x7b, 0x6d, 0x3c, 0xa5, 0x5c, 0x06, 0xbc,
  0x0e, 0x6a, 0x85, 0xbc, 0xca, 0xde, 0x10, 0xbb, 0xac, 0x3c, 0xfd, 0x3c,
  0xc1, 0xa3, 0xb5, 0xbb, 0x6a, 0x6d, 0x43, 0xbc, 0xb3, 0x34, 0x47, 0x3c,
  0x81, 0xe8, 0x67, 0x3b, 0xe3, 0x2c, 0x8e, 0xbc, 0x8e, 0xff, 0xff, 0xff,
  0x04, 0x00, 0x00, 0x00, 0x08, 0x00, 0x00, 0x00, 0x25, 0x89, 0x65, 0xb9,
  0x64, 0x85, 0x0d, 0x3d, 0xa2, 0xff, 0xff, 0xff, 0x04, 0x00, 0x00, 0x00,
  0x50, 0x00, 0x00, 0x00, 0x76, 0x97, 0x27, 0xbe, 0xd2, 0x2d, 0x18, 0x3f,
  0xa5, 0x84, 0x60, 0x3d, 0x62, 0x8e, 0xe5, 0xbe, 0xbf, 0xfb, 0xe0, 0xbe,
  0xf9, 0xb7, 0x54, 0xbe, 0x97, 0xf1, 0x2f, 0xbf, 0xcc, 0xc5, 0xe2, 0x3e,
  0x9a, 0x79, 0x24, 0x3f, 0xd3, 0xa1, 0x05, 0x3e, 0xfa, 0x1f, 0x2e, 0x3f,
  0xd9, 0x1d, 0x1c, 0x3f, 0x66, 0x08, 0xdf, 0xbd, 0x18, 0xbc, 0xe5, 0xbe,
  0x37, 0xd4, 0xcf, 0xbd, 0xaf, 0x84, 0xae, 0x3e, 0x31, 0xe9, 0x63, 0xbe,
  0x79, 0x5e, 0x81, 0xbe, 0x1c, 0xf1, 0xc0, 0x3e, 0x27, 0x5e, 0x94, 0x3e,
  0x00, 0x00, 0x06, 0x00, 0x08, 0x00, 0x04, 0x00, 0x06, 0x00, 0x00, 0x00,
  0x04, 0x00, 0x00, 0x00, 0x28, 0x00, 0x00, 0x00, 0xaa, 0xce, 0x4c, 0xbe,
  0x73, 0x10, 0x81, 0xbe, 0x36, 0x4f, 0x30, 0x3f, 0xf5, 0xd9, 0xc7, 0xbe,
  0x36, 0x78, 0xe3, 0x3e, 0x1b, 0xb2, 0xf8, 0xbe, 0xee, 0x6d, 0x15, 0xbf,
  0xb3, 0xbb, 0x16, 0x3f, 0x73, 0x59, 0xbd, 0x3e, 0x6b, 0x2e, 0xac, 0xbe,
  0xe4, 0xfb, 0xff, 0xff, 0xe8, 0xfb, 0xff, 0xff, 0x0f, 0x00, 0x00, 0x00,
  0x4d, 0x4c, 0x49, 0x52, 0x20, 0x43, 0x6f, 0x6e, 0x76, 0x65, 0x72, 0x74,
  0x65, 0x64, 0x2e, 0x00, 0x01, 0x00, 0x00, 0x00, 0x14, 0x00, 0x00, 0x00,
  0x00, 0x00, 0x0e, 0x00, 0x18, 0x00, 0x14, 0x00, 0x10, 0x00, 0x0c, 0x00,
  0x08, 0x00, 0x04, 0x00, 0x0e, 0x00, 0x00, 0x00, 0x14, 0x00, 0x00, 0x00,
  0x1c, 0x00, 0x00, 0x00, 0xf8, 0x00, 0x00, 0x00, 0xfc, 0x00, 0x00, 0x00,
  0x00, 0x01, 0x00, 0x00, 0x04, 0x00, 0x00, 0x00, 0x6d, 0x61, 0x69, 0x6e,
  0x00, 0x00, 0x00, 0x00, 0x03, 0x00, 0x00, 0x00, 0x9c, 0x00, 0x00, 0x00,
  0x4c, 0x00, 0x00, 0x00, 0x04, 0x00, 0x00, 0x00, 0x7e, 0xff, 0xff, 0xff,
  0x10, 0x00, 0x00, 0x00, 0x00, 0x00, 0x00, 0x08, 0x10, 0x00, 0x00, 0x00,
  0x14, 0x00, 0x00, 0x00, 0x6e, 0xff, 0xff, 0xff, 0x00, 0x00, 0x00, 0x01,
  0x01, 0x00, 0x00, 0x00, 0x07, 0x00, 0x00, 0x00, 0x03, 0x00, 0x00, 0x00,
  0x06, 0x00, 0x00, 0x00, 0x02, 0x00, 0x00, 0x00, 0x01, 0x00, 0x00, 0x00,
  0x00, 0x00, 0x0e, 0x00, 0x1a, 0x00, 0x14, 0x00, 0x10, 0x00, 0x0c, 0x00,
  0x0b, 0x00, 0x04, 0x00, 0x0e, 0x00, 0x00, 0x00, 0x1c, 0x00, 0x00, 0x00,
  0x00, 0x00, 0x00, 0x0b, 0x1c, 0x00, 0x00, 0x00, 0x20, 0x00, 0x00, 0x00,
  0x01, 0x00, 0x00, 0x00, 0x00, 0x00, 0x06, 0x00, 0x08, 0x00, 0x07, 0x00,
  0x06, 0x00, 0x00, 0x00, 0x00, 0x00, 0x00, 0x01, 0x01, 0x00, 0x00, 0x00,
  0x06, 0x00, 0x00, 0x00, 0x02, 0x00, 0x00, 0x00, 0x05, 0x00, 0x00, 0x00,
  0x03, 0x00, 0x00, 0x00, 0x00, 0x00, 0x0e, 0x00, 0x16, 0x00, 0x00, 0x00,
  0x10, 0x00, 0x0c, 0x00, 0x0b, 0x00, 0x04, 0x00, 0x0e, 0x00, 0x00, 0x00,
  0x1c, 0x00, 0x00, 0x00, 0x00, 0x00, 0x00, 0x08, 0x1c, 0x00, 0x00, 0x00,
  0x20, 0x00, 0x00, 0x00, 0x00, 0x00, 0x0a, 0x00, 0x08, 0x00, 0x00, 0x00,
  0x00, 0x00, 0x07, 0x00, 0x0a, 0x00, 0x00, 0x00, 0x00, 0x00, 0x00, 0x01,
  0x01, 0x00, 0x00, 0x00, 0x05, 0x00, 0x00, 0x00, 0x03, 0x00, 0x00, 0x00,
  0x00, 0x00, 0x00, 0x00, 0x04, 0x00, 0x00, 0x00, 0xff, 0xff, 0xff, 0xff,
  0x01, 0x00, 0x00, 0x00, 0x07, 0x00, 0x00, 0x00, 0x01, 0x00, 0x00, 0x00,
  0x00, 0x00, 0x00, 0x00, 0x08, 0x00, 0x00, 0x00, 0x7c, 0x02, 0x00, 0x00,
  0x28, 0x02, 0x00, 0x00, 0xe8, 0x01, 0x00, 0x00, 0xa8, 0x01, 0x00, 0x00,
  0x3c, 0x01, 0x00, 0x00, 0xd0, 0x00, 0x00, 0x00, 0x50, 0x00, 0x00, 0x00,
  0x04, 0x00, 0x00, 0x00, 0xba, 0xfd, 0xff, 0xff, 0x00, 0x00, 0x00, 0x01,
  0x10, 0x00, 0x00, 0x00, 0x10, 0x00, 0x00, 0x00, 0x08, 0x00, 0x00, 0x00,
  0x28, 0x00, 0x00, 0x00, 0x68, 0xfd, 0xff, 0xff, 0x19, 0x00, 0x00, 0x00,
  0x53, 0x74, 0x61, 0x74, 0x65, 0x66, 0x75, 0x6c, 0x50, 0x61, 0x72, 0x74,
  0x69, 0x74, 0x69, 0x6f, 0x6e, 0x65, 0x64, 0x43, 0x61, 0x6c, 0x6c, 0x3a,
  0x30, 0x00, 0x00, 0x00, 0x02, 0x00, 0x00, 0x00, 0x01, 0x00, 0x00, 0x00,
  0x0a, 0x00, 0x00, 0x00, 0x02, 0xfe, 0xff, 0xff, 0x00, 0x00, 0x00, 0x01,
  0x10, 0x00, 0x00, 0x00, 0x10, 0x00, 0x00, 0x00, 0x07, 0x00, 0x00, 0x00,
  0x5c, 0x00, 0x00, 0x00, 0xb0, 0xfd, 0xff, 0xff, 0x4e, 0x00, 0x00, 0x00,
  0x67, 0x65, 0x6e, 0x65, 0x72, 0x61, 0x74, 0x6f, 0x72, 0x2e, 0x6d, 0x6f,
  0x64, 0x65, 0x6c, 0x73, 0x2e, 0x4d, 0x4c, 0x50, 0x3b, 0x3b, 0x67, 0x65,
  0x6e, 0x65, 0x72, 0x61, 0x74, 0x6f, 0x72, 0x2e, 0x6d, 0x6f, 0x64, 0x65,
  0x6c, 0x73, 0x2e, 0x4d, 0x4c, 0x50, 0x2f, 0x74, 0x6f, 0x72, 0x63, 0x68,
  0x2e, 0x6e, 0x6e, 0x2e, 0x6d, 0x6f, 0x64, 0x75, 0x6c, 0x65, 0x73, 0x2e,
  0x6c, 0x69, 0x6e, 0x65, 0x61, 0x72, 0x2e, 0x4c, 0x69, 0x6e, 0x65, 0x61,
  0x72, 0x5f, 0x66, 0x63, 0x31, 0x3b, 0x00, 0x00, 0x02, 0x00, 0x00, 0x00,
  0x01, 0x00, 0x00, 0x00, 0x02, 0x00, 0x00, 0x00, 0x7e, 0xfe, 0xff, 0xff,
  0x00, 0x00, 0x00, 0x01, 0x10, 0x00, 0x00, 0x00, 0x10, 0x00, 0x00, 0x00,
  0x06, 0x00, 0x00, 0x00, 0x48, 0x00, 0x00, 0x00, 0x2c, 0xfe, 0xff, 0xff,
  0x39, 0x00, 0x00, 0x00, 0x67, 0x65, 0x6e, 0x65, 0x72, 0x61, 0x74, 0x6f,
  0x72, 0x2e, 0x6d, 0x6f, 0x64, 0x65, 0x6c, 0x73, 0x2e, 0x4d, 0x4c, 0x50,
  0x2f, 0x74, 0x6f, 0x72, 0x63, 0x68, 0x2e, 0x6e, 0x6e, 0x2e, 0x6d, 0x6f,
  0x64, 0x75, 0x6c, 0x65, 0x73, 0x2e, 0x6c, 0x69, 0x6e, 0x65, 0x61, 0x72,
  0x2e, 0x4c, 0x69, 0x6e, 0x65, 0x61, 0x72, 0x5f, 0x66, 0x63, 0x31, 0x3b,
  0x31, 0x00, 0x00, 0x00, 0x02, 0x00, 0x00, 0x00, 0x01, 0x00, 0x00, 0x00,
  0x02, 0x00, 0x00, 0x00, 0xe6, 0xfe, 0xff, 0xff, 0x00, 0x00, 0x00, 0x01,
  0x10, 0x00, 0x00, 0x00, 0x10, 0x00, 0x00, 0x00, 0x05, 0x00, 0x00, 0x00,
  0x48, 0x00, 0x00, 0x00, 0x94, 0xfe, 0xff, 0xff, 0x38, 0x00, 0x00, 0x00,
  0x67, 0x65, 0x6e, 0x65, 0x72, 0x61, 0x74, 0x6f, 0x72, 0x2e, 0x6d, 0x6f,
  0x64, 0x65, 0x6c, 0x73, 0x2e, 0x4d, 0x4c, 0x50, 0x2f, 0x74, 0x6f, 0x72,
  0x63, 0x68, 0x2e, 0x6e, 0x6e, 0x2e, 0x6d, 0x6f, 0x64, 0x75, 0x6c, 0x65,
  0x73, 0x2e, 0x6c, 0x69, 0x6e, 0x65, 0x61, 0x72, 0x2e, 0x4c, 0x69, 0x6e,
  0x65, 0x61, 0x72, 0x5f, 0x66, 0x63, 0x31, 0x3b, 0x00, 0x00, 0x00, 0x00,
  0x02, 0x00, 0x00, 0x00, 0x02, 0x00, 0x00, 0x00, 0x10, 0x03, 0x00, 0x00,
  0x4e, 0xff, 0xff, 0xff, 0x00, 0x00, 0x00, 0x01, 0x10, 0x00, 0x00, 0x00,
  0x10, 0x00, 0x00, 0x00, 0x04, 0x00, 0x00, 0x00, 0x1c, 0x00, 0x00, 0x00,
  0xfc, 0xfe, 0xff, 0xff, 0x0f, 0x00, 0x00, 0x00, 0x61, 0x72, 0x69, 0x74,
  0x68, 0x2e, 0x63, 0x6f, 0x6e, 0x73, 0x74, 0x61, 0x6e, 0x74, 0x32, 0x00,
  0x02, 0x00, 0x00, 0x00, 0x01, 0x00, 0x00, 0x00, 0x02, 0x00, 0x00, 0x00,
  0x8a, 0xff, 0xff, 0xff, 0x00, 0x00, 0x00, 0x01, 0x10, 0x00, 0x00, 0x00,
  0x10, 0x00, 0x00, 0x00, 0x03, 0x00, 0x00, 0x00, 0x1c, 0x00, 0x00, 0x00,
  0x38, 0xff, 0xff, 0xff, 0x0f, 0x00, 0x00, 0x00, 0x61, 0x72, 0x69, 0x74,
  0x68, 0x2e, 0x63, 0x6f, 0x6e, 0x73, 0x74, 0x61, 0x6e, 0x74, 0x31, 0x00,
  0x02, 0x00, 0x00, 0x00, 0x0a, 0x00, 0x00, 0x00, 0x02, 0x00, 0x00, 0x00,
  0xc6, 0xff, 0xff, 0xff, 0x00, 0x00, 0x00, 0x01, 0x10, 0x00, 0x00, 0x00,
  0x10, 0x00, 0x00, 0x00, 0x02, 0x00, 0x00, 0x00, 0x1c, 0x00, 0x00, 0x00,
  0x74, 0xff, 0xff, 0xff, 0x0e, 0x00, 0x00, 0x00, 0x61, 0x72, 0x69, 0x74,
  0x68, 0x2e, 0x63, 0x6f, 0x6e, 0x73, 0x74, 0x61, 0x6e, 0x74, 0x00, 0x00,
  0x01, 0x00, 0x00, 0x00, 0x0a, 0x00, 0x00, 0x00, 0x00, 0x00, 0x16, 0x00,
  0x18, 0x00, 0x14, 0x00, 0x00, 0x00, 0x10, 0x00, 0x0c, 0x00, 0x08, 0x00,
  0x00, 0x00, 0x00, 0x00, 0x00, 0x00, 0x07, 0x00, 0x16, 0x00, 0x00, 0x00,
  0x00, 0x00, 0x00, 0x01, 0x10, 0x00, 0x00, 0x00, 0x10, 0x00, 0x00, 0x00,
  0x01, 0x00, 0x00, 0x00, 0x28, 0x00, 0x00, 0x00, 0xc4, 0xff, 0xff, 0xff,
  0x18, 0x00, 0x00, 0x00, 0x73, 0x65, 0x72, 0x76, 0x69, 0x6e, 0x67, 0x5f,
  0x64, 0x65, 0x66, 0x61, 0x75, 0x6c, 0x74, 0x5f, 0x61, 0x72, 0x67, 0x73,
  0x5f, 0x30, 0x3a, 0x30, 0x00, 0x00, 0x00, 0x00, 0x02, 0x00, 0x00, 0x00,
  0x01, 0x00, 0x00, 0x00, 0x10, 0x03, 0x00, 0x00, 0x02, 0x00, 0x00, 0x00,
  0x1c, 0x00, 0x00, 0x00, 0x08, 0x00, 0x00, 0x00, 0x04, 0x00, 0x04, 0x00,
  0x04, 0x00, 0x00, 0x00, 0x0c, 0x00, 0x10, 0x00, 0x0f, 0x00, 0x00, 0x00,
  0x08, 0x00, 0x04, 0x00, 0x0c, 0x00, 0x00, 0x00, 0x09, 0x00, 0x00, 0x00,
  0x05, 0x00, 0x00, 0x00, 0x00, 0x00, 0x00, 0x09
};
const unsigned int model_tflite_len = 8012;
