#include <model.h>
const unsigned char outputs_model_tflite[] = {
  0x20, 0x00, 0x00, 0x00, 0x54, 0x46, 0x4c, 0x33, 0x00, 0x00, 0x00, 0x00,
  0x14, 0x00, 0x20, 0x00, 0x1c, 0x00, 0x18, 0x00, 0x14, 0x00, 0x10, 0x00,
  0x0c, 0x00, 0x00, 0x00, 0x08, 0x00, 0x04, 0x00, 0x14, 0x00, 0x00, 0x00,
  0x1c, 0x00, 0x00, 0x00, 0x90, 0x00, 0x00, 0x00, 0xe8, 0x00, 0x00, 0x00,
  0x4c, 0x08, 0x00, 0x00, 0x5c, 0x08, 0x00, 0x00, 0x30, 0x0d, 0x00, 0x00,
  0x03, 0x00, 0x00, 0x00, 0x01, 0x00, 0x00, 0x00, 0x10, 0x00, 0x00, 0x00,
  0x00, 0x00, 0x0a, 0x00, 0x10, 0x00, 0x0c, 0x00, 0x08, 0x00, 0x04, 0x00,
  0x0a, 0x00, 0x00, 0x00, 0x0c, 0x00, 0x00, 0x00, 0x1c, 0x00, 0x00, 0x00,
  0x3c, 0x00, 0x00, 0x00, 0x0f, 0x00, 0x00, 0x00, 0x73, 0x65, 0x72, 0x76,
  0x69, 0x6e, 0x67, 0x5f, 0x64, 0x65, 0x66, 0x61, 0x75, 0x6c, 0x74, 0x00,
  0x01, 0x00, 0x00, 0x00, 0x04, 0x00, 0x00, 0x00, 0x98, 0xff, 0xff, 0xff,
  0x07, 0x00, 0x00, 0x00, 0x04, 0x00, 0x00, 0x00, 0x08, 0x00, 0x00, 0x00,
  0x6f, 0x75, 0x74, 0x70, 0x75, 0x74, 0x5f, 0x30, 0x00, 0x00, 0x00, 0x00,
  0x01, 0x00, 0x00, 0x00, 0x04, 0x00, 0x00, 0x00, 0x6a, 0xf8, 0xff, 0xff,
  0x04, 0x00, 0x00, 0x00, 0x06, 0x00, 0x00, 0x00, 0x61, 0x72, 0x67, 0x73,
  0x5f, 0x30, 0x00, 0x00, 0x02, 0x00, 0x00, 0x00, 0x34, 0x00, 0x00, 0x00,
  0x04, 0x00, 0x00, 0x00, 0xdc, 0xff, 0xff, 0xff, 0x0a, 0x00, 0x00, 0x00,
  0x04, 0x00, 0x00, 0x00, 0x13, 0x00, 0x00, 0x00, 0x43, 0x4f, 0x4e, 0x56,
  0x45, 0x52, 0x53, 0x49, 0x4f, 0x4e, 0x5f, 0x4d, 0x45, 0x54, 0x41, 0x44,
  0x41, 0x54, 0x41, 0x00, 0x08, 0x00, 0x0c, 0x00, 0x08, 0x00, 0x04, 0x00,
  0x08, 0x00, 0x00, 0x00, 0x09, 0x00, 0x00, 0x00, 0x04, 0x00, 0x00, 0x00,
  0x13, 0x00, 0x00, 0x00, 0x6d, 0x69, 0x6e, 0x5f, 0x72, 0x75, 0x6e, 0x74,
  0x69, 0x6d, 0x65, 0x5f, 0x76, 0x65, 0x72, 0x73, 0x69, 0x6f, 0x6e, 0x00,
  0x0b, 0x00, 0x00, 0x00, 0x60, 0x07, 0x00, 0x00, 0x58, 0x07, 0x00, 0x00,
  0x20, 0x07, 0x00, 0x00, 0xf4, 0x06, 0x00, 0x00, 0xdc, 0x06, 0x00, 0x00,
  0xac, 0x00, 0x00, 0x00, 0xa4, 0x00, 0x00, 0x00, 0x9c, 0x00, 0x00, 0x00,
  0x94, 0x00, 0x00, 0x00, 0x74, 0x00, 0x00, 0x00, 0x04, 0x00, 0x00, 0x00,
  0x0a, 0xf9, 0xff, 0xff, 0x04, 0x00, 0x00, 0x00, 0x60, 0x00, 0x00, 0x00,
  0x10, 0x00, 0x00, 0x00, 0x00, 0x00, 0x00, 0x00, 0x08, 0x00, 0x0e, 0x00,
  0x08, 0x00, 0x04, 0x00, 0x08, 0x00, 0x00, 0x00, 0x10, 0x00, 0x00, 0x00,
  0x24, 0x00, 0x00, 0x00, 0x00, 0x00, 0x06, 0x00, 0x08, 0x00, 0x04, 0x00,
  0x06, 0x00, 0x00, 0x00, 0x04, 0x00, 0x00, 0x00, 0x00, 0x00, 0x00, 0x00,
  0x0c, 0x00, 0x18, 0x00, 0x14, 0x00, 0x10, 0x00, 0x0c, 0x00, 0x04, 0x00,
  0x0c, 0x00, 0x00, 0x00, 0x0d, 0xde, 0xc7, 0xdd, 0x24, 0x53, 0xd1, 0x42,
  0x01, 0x00, 0x00, 0x00, 0x02, 0x00, 0x00, 0x00, 0x04, 0x00, 0x00, 0x00,
  0x06, 0x00, 0x00, 0x00, 0x32, 0x2e, 0x31, 0x39, 0x2e, 0x30, 0x00, 0x00,
  0x76, 0xf9, 0xff, 0xff, 0x04, 0x00, 0x00, 0x00, 0x10, 0x00, 0x00, 0x00,
  0x32, 0x2e, 0x30, 0x2e, 0x30, 0x00, 0x00, 0x00, 0x00, 0x00, 0x00, 0x00,
  0x00, 0x00, 0x00, 0x00, 0x58, 0xf4, 0xff, 0xff, 0x5c, 0xf4, 0xff, 0xff,
  0x60, 0xf4, 0xff, 0xff, 0x9e, 0xf9, 0xff, 0xff, 0x04, 0x00, 0x00, 0x00,
  0x20, 0x06, 0x00, 0x00, 0xc1, 0x08, 0x58, 0x12, 0x06, 0x50, 0xc6, 0x68,
  0xd4, 0x68, 0xd8, 0x9c, 0x9a, 0xf9, 0xa8, 0x36, 0xbb, 0xdd, 0x28, 0xcf,
  0xa6, 0xbc, 0x19, 0x36, 0xf1, 0x39, 0x8a, 0x46, 0x63, 0xde, 0x37, 0xa9,
  0xd8, 0x7b, 0x13, 0x26, 0x65, 0x17, 0x04, 0x89, 0xbf, 0x3c, 0xea, 0x51,
  0x54, 0x01, 0x55, 0xa1, 0xc1, 0xbe, 0x6d, 0xf6, 0x42, 0x63, 0x78, 0xd0,
  0xad, 0xad, 0xfa, 0x24, 0xfc, 0x29, 0xc9, 0x9b, 0xa5, 0x72, 0x23, 0x4e,
  0x0a, 0xbd, 0xdd, 0xf3, 0xd7, 0xc3, 0x85, 0x2d, 0xdf, 0x56, 0x7b, 0x9e,
  0x69, 0x28, 0x43, 0x10, 0x5b, 0x37, 0x8a, 0xc4, 0xb0, 0x02, 0x0c, 0xfc,
  0x2c, 0xda, 0xf2, 0xc9, 0x9b, 0xe5, 0xb1, 0xb0, 0xd0, 0x83, 0xac, 0xa6,
  0x54, 0x40, 0xe1, 0x8d, 0x7d, 0xae, 0x2a, 0x8c, 0xc8, 0x29, 0x31, 0x90,
  0xce, 0xf6, 0x1c, 0x5c, 0x7c, 0x53, 0x44, 0x41, 0x62, 0xa9, 0xaf, 0xc2,
  0x99, 0xfc, 0xf2, 0x96, 0x52, 0x13, 0x8c, 0x62, 0xb8, 0x38, 0xaf, 0x14,
  0x07, 0x6e, 0x0c, 0x35, 0x58, 0x69, 0x36, 0x64, 0x0f, 0x90, 0x94, 0xde,
  0x5d, 0xbe, 0xf4, 0x88, 0x10, 0xf9, 0x73, 0x6e, 0x33, 0x8c, 0x29, 0x77,
  0x04, 0x40, 0x9b, 0x63, 0xec, 0x51, 0x36, 0x19, 0x6c, 0x73, 0x7b, 0x5f,
  0x46, 0x64, 0x67, 0x50, 0x92, 0xcd, 0x6c, 0xa0, 0xe4, 0x66, 0x2b, 0x83,
  0x96, 0x8c, 0x2b, 0x55, 0x3a, 0x5a, 0x0f, 0x7d, 0x83, 0x69, 0x14, 0x2d,
  0x35, 0x74, 0x36, 0xc0, 0xe3, 0xc7, 0xc8, 0x47, 0x31, 0x58, 0x14, 0x4a,
  0xcd, 0x8e, 0xf9, 0x98, 0x45, 0x19, 0xae, 0x56, 0xf1, 0x02, 0xed, 0x7b,
  0x44, 0xa5, 0x2b, 0x0d, 0x61, 0x6f, 0x7e, 0xf5, 0x2d, 0xe9, 0x0c, 0x3b,
  0x4c, 0x4a, 0x3e, 0x77, 0xf5, 0x64, 0xda, 0xa3, 0xc3, 0x30, 0xfe, 0xdb,
  0xe1, 0xc6, 0xac, 0x0d, 0x26, 0x6a, 0xeb, 0x5e, 0x32, 0x52, 0xd4, 0xfd,
  0x25, 0xad, 0x54, 0xf5, 0xa8, 0xea, 0x6a, 0xd9, 0x9c, 0xe9, 0x88, 0x3d,
  0xb8, 0x1d, 0x9c, 0x84, 0x44, 0x91, 0x1c, 0x90, 0x59, 0x31, 0x2b, 0x4f,
  0xd6, 0xf0, 0x24, 0xa7, 0x89, 0x16, 0x52, 0xb1, 0x6e, 0xa1, 0xf9, 0x99,
  0x07, 0xfc, 0x88, 0xbf, 0x7d, 0x23, 0x3f, 0x4f, 0xe5, 0x8c, 0x8d, 0xdf,
  0xf3, 0x37, 0x87, 0x39, 0x68, 0x9c, 0x97, 0xb6, 0xce, 0x14, 0x52, 0xca,
  0x38, 0xe4, 0xaa, 0x0d, 0x5c, 0x41, 0x52, 0x87, 0xec, 0x5e, 0xba, 0x0c,
  0xea, 0x7b, 0x3a, 0x3a, 0x6f, 0xec, 0x8a, 0x7b, 0x40, 0xe1, 0x15, 0x62,
  0x39, 0x21, 0xaa, 0x9b, 0x90, 0xe8, 0xef, 0x02, 0xae, 0xdf, 0xa4, 0xf2,
  0x64, 0xfd, 0xc6, 0xb8, 0x2a, 0x28, 0xc6, 0x93, 0xa4, 0x5b, 0x3b, 0xe2,
  0xd3, 0xab, 0x31, 0xf4, 0x36, 0x3d, 0x67, 0x63, 0x30, 0x41, 0x44, 0x97,
  0x10, 0xec, 0x0d, 0xd9, 0x5e, 0xab, 0x2d, 0x42, 0x05, 0x6b, 0xbf, 0xcd,
  0x8b, 0xdc, 0x23, 0x85, 0x1a, 0xff, 0xee, 0x23, 0x02, 0xde, 0x29, 0x82,
  0xd2, 0xaa, 0xd9, 0x53, 0x25, 0x62, 0x79, 0x36, 0xc0, 0xe4, 0x8a, 0xa6,
  0xaf, 0xde, 0x4b, 0x34, 0xd7, 0xe7, 0x7c, 0x6a, 0x3a, 0x61, 0x86, 0x70,
  0x53, 0x09, 0x5c, 0xe7, 0xba, 0x4e, 0xf6, 0xe3, 0x9c, 0x06, 0x40, 0xa4,
  0x31, 0x00, 0x09, 0x17, 0x49, 0x89, 0x32, 0xa5, 0x69, 0xfa, 0xc5, 0x96,
  0x74, 0xc4, 0x50, 0x9e, 0xaa, 0x0f, 0x13, 0xd0, 0xbb, 0x06, 0x49, 0x73,
  0x1e, 0x22, 0xd5, 0x35, 0xe6, 0x3e, 0x85, 0x9a, 0x66, 0x44, 0x36, 0x16,
  0x4b, 0x05, 0xd5, 0x11, 0x92, 0x3f, 0xd9, 0xd6, 0xa9, 0x11, 0x76, 0xea,
  0x92, 0x08, 0x06, 0xac, 0xe0, 0xe9, 0x35, 0x53, 0x8c, 0x8f, 0x87, 0x04,
  0x2a, 0x9f, 0x8b, 0x89, 0xb3, 0x75, 0x3f, 0xf5, 0x81, 0x36, 0xae, 0x57,
  0xb6, 0x22, 0xd0, 0xff, 0x3e, 0x38, 0xb7, 0x0f, 0x55, 0xf4, 0xf4, 0xd8,
  0x26, 0x5c, 0x4d, 0x62, 0xc4, 0xa2, 0x58, 0x0d, 0x19, 0x43, 0xc4, 0xf6,
  0x64, 0xf9, 0x70, 0x40, 0xf1, 0xa3, 0x98, 0x69, 0xbe, 0xdb, 0xda, 0x18,
  0xc3, 0xa2, 0x5b, 0xd1, 0xa2, 0x4e, 0xa9, 0x08, 0xa6, 0x2b, 0x0f, 0x74,
  0xa1, 0x26, 0x35, 0x4a, 0xba, 0xac, 0x16, 0x75, 0x72, 0x03, 0xd8, 0x89,
  0x61, 0xb8, 0xd5, 0x21, 0x73, 0x5e, 0xe1, 0xa9, 0x07, 0x6f, 0xac, 0x76,
  0x55, 0x26, 0x14, 0x26, 0x8c, 0x15, 0xdd, 0xd7, 0x46, 0x6e, 0x56, 0xa0,
  0x64, 0x0d, 0x5a, 0x70, 0xba, 0x43, 0x24, 0x31, 0x9b, 0x5e, 0xee, 0x9e,
  0x91, 0x2b, 0xa4, 0xc0, 0x0c, 0xc8, 0xe3, 0xdd, 0xd4, 0x19, 0xf9, 0xf4,
  0x5d, 0xe3, 0x09, 0x49, 0xdf, 0x56, 0x68, 0xa6, 0x66, 0x79, 0x6c, 0xa2,
  0x48, 0x97, 0xca, 0x98, 0xa7, 0x63, 0xd6, 0xdb, 0x2b, 0x00, 0x47, 0x44,
  0xdf, 0xf1, 0x03, 0x44, 0x2e, 0x33, 0xf3, 0xb8, 0xa2, 0x0b, 0x10, 0x6d,
  0x2d, 0x01, 0x63, 0xed, 0x07, 0xde, 0xac, 0xfc, 0x5e, 0x8d, 0x3c, 0x91,
  0x71, 0x33, 0xaf, 0x3e, 0xba, 0xa3, 0x34, 0xcf, 0x39, 0x99, 0x44, 0x4e,
  0x1f, 0xb7, 0x6d, 0x0a, 0x46, 0x0d, 0x14, 0xac, 0xe2, 0xfc, 0x63, 0x03,
  0x76, 0x48, 0xc5, 0xbf, 0xd7, 0xdd, 0xbf, 0xf5, 0x6c, 0x03, 0x58, 0x0f,
  0x9c, 0xa3, 0x17, 0x1e, 0x59, 0x84, 0x09, 0xed, 0xfe, 0x48, 0x12, 0x31,
  0x9b, 0xd8, 0x7a, 0xc1, 0xc7, 0x5f, 0xdf, 0xd8, 0xab, 0xf1, 0x29, 0x71,
  0xda, 0x01, 0x19, 0x75, 0x1c, 0x29, 0x5a, 0xde, 0xd3, 0x16, 0x1b, 0x22,
  0x12, 0xdd, 0x24, 0xf5, 0x41, 0xb3, 0x10, 0xf1, 0x09, 0xde, 0x12, 0xe8,
  0xa7, 0xaa, 0x22, 0x23, 0xce, 0x0c, 0xea, 0xea, 0x99, 0x15, 0x38, 0xaa,
  0x38, 0x81, 0x8d, 0xc1, 0x1a, 0xa7, 0xfc, 0xf4, 0x34, 0x32, 0x56, 0x93,
  0x41, 0x3a, 0x87, 0x68, 0xf7, 0x19, 0x6f, 0x47, 0xb8, 0xe3, 0xc1, 0xe5,
  0x1c, 0x26, 0x82, 0xb0, 0x69, 0x16, 0x85, 0x0b, 0x2c, 0xd5, 0xb4, 0xf9,
  0xb0, 0x95, 0x72, 0x76, 0xaf, 0xb4, 0x0b, 0xe0, 0xa1, 0x74, 0xa1, 0xd9,
  0x94, 0xd0, 0xec, 0x39, 0x79, 0x30, 0xcc, 0x89, 0xdd, 0x84, 0x21, 0xae,
  0x6b, 0xcb, 0x39, 0x0f, 0xb4, 0x4d, 0x76, 0x84, 0xa8, 0xba, 0x1f, 0x86,
  0xcc, 0x32, 0x89, 0xd6, 0x99, 0x54, 0xe4, 0x68, 0x5a, 0x13, 0x85, 0x8b,
  0x8b, 0xd2, 0xc2, 0x23, 0x76, 0xec, 0xcf, 0x82, 0xb8, 0xbc, 0xea, 0xa6,
  0x67, 0x82, 0x13, 0xf6, 0x97, 0xe4, 0xb9, 0x13, 0xe9, 0x93, 0xfa, 0x70,
  0xba, 0x69, 0x23, 0x2c, 0xc0, 0x9c, 0xfd, 0x72, 0x04, 0x48, 0xa8, 0xb8,
  0x11, 0xa4, 0xbe, 0x3d, 0xf8, 0x9f, 0xa1, 0x57, 0xb0, 0x9c, 0x49, 0xde,
  0x9f, 0x4b, 0x7c, 0xd0, 0x1e, 0xbe, 0x6e, 0xa2, 0x46, 0x98, 0x3a, 0x42,
  0x16, 0xd4, 0x9c, 0xca, 0x9d, 0x6d, 0x83, 0x3d, 0x25, 0x0a, 0xf7, 0x8e,
  0xe4, 0x52, 0xae, 0xec, 0xe3, 0xa1, 0x07, 0x42, 0xe2, 0x12, 0xfe, 0xb9,
  0x0f, 0xab, 0x98, 0xef, 0x42, 0xb8, 0x60, 0x0d, 0x92, 0xfe, 0x53, 0x2c,
  0x6e, 0x39, 0xa3, 0xb9, 0xd8, 0x84, 0xb6, 0x0d, 0xc9, 0xf3, 0x17, 0xd4,
  0xed, 0x7e, 0x35, 0x94, 0x20, 0xab, 0x48, 0xb3, 0xb8, 0x36, 0x00, 0xa0,
  0x52, 0xd1, 0x43, 0xd2, 0xfe, 0x22, 0x8b, 0x0f, 0x2e, 0xcf, 0x20, 0x3c,
  0x5e, 0x03, 0xf2, 0xa8, 0x71, 0xe4, 0x6b, 0xfc, 0xd8, 0xc4, 0xea, 0xe2,
  0xa3, 0x82, 0xe0, 0x69, 0x7c, 0x3b, 0x8c, 0x8a, 0x5a, 0xa4, 0x00, 0x53,
  0xa6, 0xf8, 0x43, 0x8d, 0xb4, 0x6e, 0x49, 0x05, 0x9e, 0x5c, 0x79, 0xee,
  0x1c, 0xec, 0x07, 0x89, 0x9d, 0xa6, 0xfc, 0xf9, 0x17, 0xa3, 0xf0, 0x4a,
  0xde, 0xd0, 0x7b, 0xe1, 0x3f, 0x89, 0x1a, 0xe5, 0xd8, 0x69, 0x45, 0x78,
  0x83, 0x75, 0xe0, 0xa4, 0x02, 0xc3, 0xc2, 0xf0, 0x4c, 0xa0, 0x3c, 0x0e,
  0x64, 0xc3, 0xda, 0x71, 0x13, 0xf6, 0x93, 0x64, 0x3c, 0x9b, 0x43, 0x62,
  0x4b, 0x1d, 0x44, 0x83, 0xdd, 0x9b, 0x6e, 0xa9, 0x21, 0x8c, 0x14, 0x16,
  0x5c, 0x0a, 0xd5, 0xde, 0x1f, 0xc5, 0xd5, 0x9e, 0xe4, 0x2d, 0x57, 0x04,
  0x2b, 0x23, 0x5b, 0xe0, 0x55, 0x11, 0x3a, 0x23, 0x79, 0x4f, 0xd0, 0x89,
  0xe2, 0xcc, 0x3e, 0xe4, 0x06, 0xbf, 0x89, 0xc2, 0xf7, 0x42, 0x96, 0x39,
  0xd6, 0xb1, 0x2f, 0x7f, 0x45, 0xd4, 0xe6, 0x07, 0x44, 0x94, 0x16, 0xdd,
  0x3a, 0xf6, 0x1a, 0xe5, 0xbb, 0x58, 0xb7, 0x25, 0xfe, 0xf5, 0xc7, 0xe7,
  0x17, 0x05, 0x03, 0xfd, 0x00, 0xa0, 0x8f, 0x70, 0xe8, 0x1e, 0x47, 0x0e,
  0x7d, 0x91, 0x51, 0x38, 0x3b, 0xe7, 0x57, 0x54, 0x55, 0x7f, 0x39, 0x7b,
  0x6a, 0x3a, 0x65, 0xfc, 0x47, 0x53, 0x4f, 0x17, 0x8c, 0x2b, 0x7a, 0x2f,
  0x30, 0x5f, 0xa9, 0x22, 0x5a, 0x56, 0xa1, 0xdb, 0xd3, 0x45, 0x5b, 0x85,
  0x6f, 0x41, 0x4a, 0x21, 0xb9, 0x70, 0x90, 0x46, 0x6a, 0xa4, 0xe6, 0xcb,
  0x77, 0xa2, 0x41, 0x02, 0xe4, 0x85, 0xa4, 0x19, 0x43, 0x1f, 0xe6, 0x22,
  0x85, 0x4e, 0x1c, 0x55, 0x66, 0x29, 0x9e, 0x8f, 0xf1, 0x63, 0x0d, 0xbf,
  0x01, 0x9d, 0x47, 0xa2, 0x84, 0x96, 0x41, 0xa5, 0x08, 0x9f, 0xd2, 0xb1,
  0x47, 0x9d, 0xe4, 0xa8, 0xf7, 0x01, 0x20, 0x68, 0xf7, 0xd1, 0x93, 0x95,
  0x1f, 0x02, 0xed, 0x31, 0xcf, 0xc7, 0x8b, 0x7c, 0x54, 0x11, 0x35, 0xab,
  0x1c, 0xde, 0xc8, 0x6e, 0xbb, 0xc5, 0xe0, 0x96, 0x31, 0x65, 0x40, 0x19,
  0x72, 0x87, 0x97, 0x55, 0x64, 0x1d, 0xb3, 0x0e, 0xcb, 0xed, 0x93, 0x41,
  0x8f, 0x68, 0x0d, 0x29, 0x73, 0xdc, 0x21, 0x81, 0x54, 0x2d, 0xba, 0x03,
  0x83, 0x4b, 0x2b, 0x88, 0x18, 0x7a, 0xd7, 0x99, 0xd8, 0x41, 0xb9, 0x54,
  0x09, 0x56, 0xaf, 0xce, 0x48, 0x90, 0x22, 0x85, 0x68, 0x99, 0xe5, 0xa7,
  0x21, 0x50, 0x0a, 0xf9, 0x9e, 0x26, 0x67, 0x52, 0x32, 0x0a, 0xc8, 0xd1,
  0x9d, 0xa5, 0xa3, 0x9d, 0x6b, 0xf4, 0x23, 0x83, 0x59, 0xc6, 0xd3, 0xb3,
  0x93, 0xaa, 0xfc, 0x4d, 0xc6, 0x1b, 0x26, 0xfe, 0xc3, 0x51, 0x57, 0x8b,
  0x37, 0x38, 0x8a, 0xaf, 0x8d, 0x98, 0x23, 0xb2, 0xe8, 0xf5, 0xb1, 0xb0,
  0xe7, 0x78, 0x27, 0x74, 0xe4, 0x86, 0xa7, 0x8b, 0x36, 0x8d, 0x2f, 0xf5,
  0x37, 0xa3, 0x8a, 0x19, 0xb7, 0x95, 0x4f, 0xd0, 0x2e, 0xd5, 0x59, 0x7c,
  0xc0, 0x02, 0x40, 0x4d, 0x4b, 0x9a, 0x08, 0xe2, 0x73, 0xf3, 0x1f, 0xb1,
  0x70, 0xca, 0x8e, 0x51, 0xe9, 0x09, 0x9a, 0x4a, 0x0c, 0xee, 0xc7, 0x54,
  0xff, 0x5f, 0x97, 0x65, 0x07, 0x65, 0xd9, 0x67, 0xb8, 0xe3, 0x7b, 0x94,
  0x63, 0x02, 0xe4, 0x1a, 0x14, 0xf3, 0x90, 0x05, 0x90, 0x96, 0xec, 0xaa,
  0x5a, 0x9d, 0xbc, 0xcd, 0xb7, 0x44, 0xc4, 0x67, 0xd0, 0x10, 0xf8, 0xf1,
  0x86, 0xf3, 0xfd, 0x85, 0xa4, 0x42, 0x20, 0x64, 0x83, 0x39, 0xbc, 0x9f,
  0x3a, 0xbd, 0xbe, 0x1a, 0x7d, 0x26, 0xe1, 0xd9, 0x6d, 0x03, 0x57, 0xe8,
  0x57, 0xae, 0xcf, 0x74, 0x9d, 0xe7, 0x2e, 0xb5, 0x04, 0x11, 0x35, 0xd2,
  0xd6, 0x48, 0x8a, 0x03, 0xb0, 0xe9, 0x51, 0xcc, 0x0b, 0x03, 0xa9, 0xd0,
  0xc0, 0x49, 0xe5, 0x72, 0x31, 0xe3, 0x9e, 0x8a, 0x81, 0x27, 0x35, 0xf5,
  0xbb, 0x2d, 0x04, 0x05, 0x5c, 0x5b, 0xbe, 0xcd, 0x68, 0x17, 0x6e, 0x8b,
  0xab, 0x7c, 0x78, 0x9e, 0x58, 0xe4, 0xb4, 0x7e, 0x2e, 0x65, 0x6a, 0x23,
  0xa8, 0x75, 0x41, 0x0b, 0xf8, 0xf6, 0x2e, 0xc5, 0x54, 0x2e, 0x67, 0x1b,
  0xc4, 0x8e, 0xcc, 0xb6, 0x45, 0x3f, 0x1a, 0xd1, 0x6c, 0x4f, 0x87, 0xbc,
  0x19, 0x04, 0xb1, 0x8c, 0x6c, 0x76, 0x1c, 0xb3, 0x17, 0x47, 0xc1, 0x40,
  0xca, 0xff, 0xff, 0xff, 0x04, 0x00, 0x00, 0x00, 0x08, 0x00, 0x00, 0x00,
  0x5c, 0x61, 0xcf, 0x3b, 0x60, 0x83, 0x10, 0x3c, 0xde, 0xff, 0xff, 0xff,
  0x04, 0x00, 0x00, 0x00, 0x14, 0x00, 0x00, 0x00, 0xc9, 0x7f, 0x81, 0x2b,
  0x81, 0x58, 0x3b, 0x7f, 0x81, 0xb7, 0x59, 0x7f, 0xb1, 0x7f, 0x81, 0x6e,
  0x7f, 0x6d, 0x7f, 0xaf, 0x00, 0x00, 0x06, 0x00, 0x08, 0x00, 0x04, 0x00,
  0x06, 0x00, 0x00, 0x00, 0x04, 0x00, 0x00, 0x00, 0x28, 0x00, 0x00, 0x00,
  0xdd, 0x82, 0xfe, 0x3e, 0xe4, 0x23, 0x12, 0xbe, 0x13, 0x65, 0xc1, 0xbe,
  0x0a, 0xea, 0x32, 0xbf, 0x32, 0x61, 0xac, 0xbe, 0xec, 0xea, 0x85, 0x3d,
  0x43, 0x87, 0x00, 0xbf, 0x29, 0x8c, 0x70, 0xbc, 0x4a, 0x08, 0x13, 0xbf,
  0x82, 0x39, 0xf2, 0x3d, 0x00, 0xfb, 0xff, 0xff, 0x04, 0xfb, 0xff, 0xff,
  0x0f, 0x00, 0x00, 0x00, 0x4d, 0x4c, 0x49, 0x52, 0x20, 0x43, 0x6f, 0x6e,
  0x76, 0x65, 0x72, 0x74, 0x65, 0x64, 0x2e, 0x00, 0x01, 0x00, 0x00, 0x00,
  0x14, 0x00, 0x00, 0x00, 0x00, 0x00, 0x0e, 0x00, 0x18, 0x00, 0x14, 0x00,
  0x10, 0x00, 0x0c, 0x00, 0x08, 0x00, 0x04, 0x00, 0x0e, 0x00, 0x00, 0x00,
  0x14, 0x00, 0x00, 0x00, 0x1c, 0x00, 0x00, 0x00, 0xf8, 0x00, 0x00, 0x00,
  0xfc, 0x00, 0x00, 0x00, 0x00, 0x01, 0x00, 0x00, 0x04, 0x00, 0x00, 0x00,
  0x6d, 0x61, 0x69, 0x6e, 0x00, 0x00, 0x00, 0x00, 0x03, 0x00, 0x00, 0x00,
  0x9c, 0x00, 0x00, 0x00, 0x4c, 0x00, 0x00, 0x00, 0x04, 0x00, 0x00, 0x00,
  0x7e, 0xff, 0xff, 0xff, 0x10, 0x00, 0x00, 0x00, 0x00, 0x00, 0x00, 0x08,
  0x10, 0x00, 0x00, 0x00, 0x14, 0x00, 0x00, 0x00, 0x6e, 0xff, 0xff, 0xff,
  0x00, 0x00, 0x00, 0x01, 0x01, 0x00, 0x00, 0x00, 0x07, 0x00, 0x00, 0x00,
  0x03, 0x00, 0x00, 0x00, 0x06, 0x00, 0x00, 0x00, 0x02, 0x00, 0x00, 0x00,
  0x01, 0x00, 0x00, 0x00, 0x00, 0x00, 0x0e, 0x00, 0x1a, 0x00, 0x14, 0x00,
  0x10, 0x00, 0x0c, 0x00, 0x0b, 0x00, 0x04, 0x00, 0x0e, 0x00, 0x00, 0x00,
  0x1c, 0x00, 0x00, 0x00, 0x00, 0x00, 0x00, 0x0b, 0x1c, 0x00, 0x00, 0x00,
  0x20, 0x00, 0x00, 0x00, 0x01, 0x00, 0x00, 0x00, 0x00, 0x00, 0x06, 0x00,
  0x08, 0x00, 0x07, 0x00, 0x06, 0x00, 0x00, 0x00, 0x00, 0x00, 0x00, 0x01,
  0x01, 0x00, 0x00, 0x00, 0x06, 0x00, 0x00, 0x00, 0x02, 0x00, 0x00, 0x00,
  0x05, 0x00, 0x00, 0x00, 0x03, 0x00, 0x00, 0x00, 0x00, 0x00, 0x0e, 0x00,
  0x16, 0x00, 0x00, 0x00, 0x10, 0x00, 0x0c, 0x00, 0x0b, 0x00, 0x04, 0x00,
  0x0e, 0x00, 0x00, 0x00, 0x1c, 0x00, 0x00, 0x00, 0x00, 0x00, 0x00, 0x08,
  0x1c, 0x00, 0x00, 0x00, 0x20, 0x00, 0x00, 0x00, 0x00, 0x00, 0x0a, 0x00,
  0x08, 0x00, 0x00, 0x00, 0x00, 0x00, 0x07, 0x00, 0x0a, 0x00, 0x00, 0x00,
  0x00, 0x00, 0x00, 0x01, 0x01, 0x00, 0x00, 0x00, 0x05, 0x00, 0x00, 0x00,
  0x03, 0x00, 0x00, 0x00, 0x00, 0x00, 0x00, 0x00, 0x04, 0x00, 0x00, 0x00,
  0xff, 0xff, 0xff, 0xff, 0x01, 0x00, 0x00, 0x00, 0x07, 0x00, 0x00, 0x00,
  0x01, 0x00, 0x00, 0x00, 0x00, 0x00, 0x00, 0x00, 0x08, 0x00, 0x00, 0x00,
  0x60, 0x03, 0x00, 0x00, 0x0c, 0x03, 0x00, 0x00, 0x30, 0x02, 0x00, 0x00,
  0xd8, 0x01, 0x00, 0x00, 0x3c, 0x01, 0x00, 0x00, 0xd0, 0x00, 0x00, 0x00,
  0x50, 0x00, 0x00, 0x00, 0x04, 0x00, 0x00, 0x00, 0xd6, 0xfc, 0xff, 0xff,
  0x00, 0x00, 0x00, 0x01, 0x10, 0x00, 0x00, 0x00, 0x10, 0x00, 0x00, 0x00,
  0x08, 0x00, 0x00, 0x00, 0x28, 0x00, 0x00, 0x00, 0x84, 0xfc, 0xff, 0xff,
  0x19, 0x00, 0x00, 0x00, 0x53, 0x74, 0x61, 0x74, 0x65, 0x66, 0x75, 0x6c,
  0x50, 0x61, 0x72, 0x74, 0x69, 0x74, 0x69, 0x6f, 0x6e, 0x65, 0x64, 0x43,
  0x61, 0x6c, 0x6c, 0x3a, 0x30, 0x00, 0x00, 0x00, 0x02, 0x00, 0x00, 0x00,
  0x01, 0x00, 0x00, 0x00, 0x0a, 0x00, 0x00, 0x00, 0x1e, 0xfd, 0xff, 0xff,
  0x00, 0x00, 0x00, 0x01, 0x10, 0x00, 0x00, 0x00, 0x10, 0x00, 0x00, 0x00,
  0x07, 0x00, 0x00, 0x00, 0x5c, 0x00, 0x00, 0x00, 0xcc, 0xfc, 0xff, 0xff,
  0x4e, 0x00, 0x00, 0x00, 0x67, 0x65, 0x6e, 0x65, 0x72, 0x61, 0x74, 0x6f,
  0x72, 0x2e, 0x6d, 0x6f, 0x64, 0x65, 0x6c, 0x73, 0x2e, 0x4d, 0x4c, 0x50,
  0x3b, 0x3b, 0x67, 0x65, 0x6e, 0x65, 0x72, 0x61, 0x74, 0x6f, 0x72, 0x2e,
  0x6d, 0x6f, 0x64, 0x65, 0x6c, 0x73, 0x2e, 0x4d, 0x4c, 0x50, 0x2f, 0x74,
  0x6f, 0x72, 0x63, 0x68, 0x2e, 0x6e, 0x6e, 0x2e, 0x6d, 0x6f, 0x64, 0x75,
  0x6c, 0x65, 0x73, 0x2e, 0x6c, 0x69, 0x6e, 0x65, 0x61, 0x72, 0x2e, 0x4c,
  0x69, 0x6e, 0x65, 0x61, 0x72, 0x5f, 0x66, 0x63, 0x31, 0x3b, 0x00, 0x00,
  0x02, 0x00, 0x00, 0x00, 0x01, 0x00, 0x00, 0x00, 0x02, 0x00, 0x00, 0x00,
  0x9a, 0xfd, 0xff, 0xff, 0x00, 0x00, 0x00, 0x01, 0x10, 0x00, 0x00, 0x00,
  0x10, 0x00, 0x00, 0x00, 0x06, 0x00, 0x00, 0x00, 0x48, 0x00, 0x00, 0x00,
  0x48, 0xfd, 0xff, 0xff, 0x39, 0x00, 0x00, 0x00, 0x67, 0x65, 0x6e, 0x65,
  0x72, 0x61, 0x74, 0x6f, 0x72, 0x2e, 0x6d, 0x6f, 0x64, 0x65, 0x6c, 0x73,
  0x2e, 0x4d, 0x4c, 0x50, 0x2f, 0x74, 0x6f, 0x72, 0x63, 0x68, 0x2e, 0x6e,
  0x6e, 0x2e, 0x6d, 0x6f, 0x64, 0x75, 0x6c, 0x65, 0x73, 0x2e, 0x6c, 0x69,
  0x6e, 0x65, 0x61, 0x72, 0x2e, 0x4c, 0x69, 0x6e, 0x65, 0x61, 0x72, 0x5f,
  0x66, 0x63, 0x31, 0x3b, 0x31, 0x00, 0x00, 0x00, 0x02, 0x00, 0x00, 0x00,
  0x01, 0x00, 0x00, 0x00, 0x02, 0x00, 0x00, 0x00, 0x2a, 0xff, 0xff, 0xff,
  0x00, 0x00, 0x00, 0x01, 0x14, 0x00, 0x00, 0x00, 0x40, 0x00, 0x00, 0x00,
  0x05, 0x00, 0x00, 0x00, 0x00, 0x00, 0x00, 0x09, 0x74, 0x00, 0x00, 0x00,
  0x14, 0xff, 0xff, 0xff, 0x08, 0x00, 0x00, 0x00, 0x1c, 0x00, 0x00, 0x00,
  0x02, 0x00, 0x00, 0x00, 0x00, 0x00, 0x00, 0x00, 0x00, 0x00, 0x00, 0x00,
  0x00, 0x00, 0x00, 0x00, 0x00, 0x00, 0x00, 0x00, 0x00, 0x00, 0x00, 0x00,
  0x02, 0x00, 0x00, 0x00, 0xe1, 0x92, 0x92, 0x39, 0x16, 0x49, 0x93, 0x39,
  0x38, 0x00, 0x00, 0x00, 0x67, 0x65, 0x6e, 0x65, 0x72, 0x61, 0x74, 0x6f,
  0x72, 0x2e, 0x6d, 0x6f, 0x64, 0x65, 0x6c, 0x73, 0x2e, 0x4d, 0x4c, 0x50,
  0x2f, 0x74, 0x6f, 0x72, 0x63, 0x68, 0x2e, 0x6e, 0x6e, 0x2e, 0x6d, 0x6f,
  0x64, 0x75, 0x6c, 0x65, 0x73, 0x2e, 0x6c, 0x69, 0x6e, 0x65, 0x61, 0x72,
  0x2e, 0x4c, 0x69, 0x6e, 0x65, 0x61, 0x72, 0x5f, 0x66, 0x63, 0x31, 0x3b,
  0x00, 0x00, 0x00, 0x00, 0x02, 0x00, 0x00, 0x00, 0x02, 0x00, 0x00, 0x00,
  0x10, 0x03, 0x00, 0x00, 0x9a, 0xfe, 0xff, 0xff, 0x00, 0x00, 0x00, 0x01,
  0x10, 0x00, 0x00, 0x00, 0x10, 0x00, 0x00, 0x00, 0x04, 0x00, 0x00, 0x00,
  0x1c, 0x00, 0x00, 0x00, 0x48, 0xfe, 0xff, 0xff, 0x0f, 0x00, 0x00, 0x00,
  0x61, 0x72, 0x69, 0x74, 0x68, 0x2e, 0x63, 0x6f, 0x6e, 0x73, 0x74, 0x61,
  0x6e, 0x74, 0x32, 0x00, 0x02, 0x00, 0x00, 0x00, 0x01, 0x00, 0x00, 0x00,
  0x02, 0x00, 0x00, 0x00, 0x00, 0x00, 0x16, 0x00, 0x1c, 0x00, 0x18, 0x00,
  0x17, 0x00, 0x10, 0x00, 0x0c, 0x00, 0x08, 0x00, 0x00, 0x00, 0x00, 0x00,
  0x00, 0x00, 0x07, 0x00, 0x16, 0x00, 0x00, 0x00, 0x00, 0x00, 0x00, 0x01,
  0x20, 0x00, 0x00, 0x00, 0xac, 0x00, 0x00, 0x00, 0x03, 0x00, 0x00, 0x00,
  0x00, 0x00, 0x00, 0x09, 0xb4, 0x00, 0x00, 0x00, 0x0c, 0x00, 0x0c, 0x00,
  0x00, 0x00, 0x00, 0x00, 0x08, 0x00, 0x04, 0x00, 0x0c, 0x00, 0x00, 0x00,
  0x08, 0x00, 0x00, 0x00, 0x5c, 0x00, 0x00, 0x00, 0x0a, 0x00, 0x00, 0x00,
  0x00, 0x00, 0x00, 0x00, 0x00, 0x00, 0x00, 0x00, 0x00, 0x00, 0x00, 0x00,
  0x00, 0x00, 0x00, 0x00, 0x00, 0x00, 0x00, 0x00, 0x00, 0x00, 0x00, 0x00,
  0x00, 0x00, 0x00, 0x00, 0x00, 0x00, 0x00, 0x00, 0x00, 0x00, 0x00, 0x00,
  0x00, 0x00, 0x00, 0x00, 0x00, 0x00, 0x00, 0x00, 0x00, 0x00, 0x00, 0x00,
  0x00, 0x00, 0x00, 0x00, 0x00, 0x00, 0x00, 0x00, 0x00, 0x00, 0x00, 0x00,
  0x00, 0x00, 0x00, 0x00, 0x00, 0x00, 0x00, 0x00, 0x00, 0x00, 0x00, 0x00,
  0x00, 0x00, 0x00, 0x00, 0x00, 0x00, 0x00, 0x00, 0x00, 0x00, 0x00, 0x00,
  0x0a, 0x00, 0x00, 0x00, 0xeb, 0xa0, 0x90, 0x3b, 0x9f, 0x9b, 0xa2, 0x3b,
  0x77, 0x31, 0x50, 0x3b, 0x96, 0x60, 0x99, 0x3b, 0x2c, 0x35, 0xc1, 0x3a,
  0xba, 0x2a, 0x96, 0x3b, 0xfc, 0x77, 0x20, 0x3b, 0x86, 0x91, 0xfb, 0x3a,
  0x93, 0x7a, 0x9d, 0x3b, 0x0d, 0x20, 0xec, 0x3a, 0x0f, 0x00, 0x00, 0x00,
  0x61, 0x72, 0x69, 0x74, 0x68, 0x2e, 0x63, 0x6f, 0x6e, 0x73, 0x74, 0x61,
  0x6e, 0x74, 0x31, 0x00, 0x02, 0x00, 0x00, 0x00, 0x0a, 0x00, 0x00, 0x00,
  0x02, 0x00, 0x00, 0x00, 0xc6, 0xff, 0xff, 0xff, 0x00, 0x00, 0x00, 0x01,
  0x10, 0x00, 0x00, 0x00, 0x10, 0x00, 0x00, 0x00, 0x02, 0x00, 0x00, 0x00,
  0x1c, 0x00, 0x00, 0x00, 0x74, 0xff, 0xff, 0xff, 0x0e, 0x00, 0x00, 0x00,
  0x61, 0x72, 0x69, 0x74, 0x68, 0x2e, 0x63, 0x6f, 0x6e, 0x73, 0x74, 0x61,
  0x6e, 0x74, 0x00, 0x00, 0x01, 0x00, 0x00, 0x00, 0x0a, 0x00, 0x00, 0x00,
  0x00, 0x00, 0x16, 0x00, 0x18, 0x00, 0x14, 0x00, 0x00, 0x00, 0x10, 0x00,
  0x0c, 0x00, 0x08, 0x00, 0x00, 0x00, 0x00, 0x00, 0x00, 0x00, 0x07, 0x00,
  0x16, 0x00, 0x00, 0x00, 0x00, 0x00, 0x00, 0x01, 0x10, 0x00, 0x00, 0x00,
  0x10, 0x00, 0x00, 0x00, 0x01, 0x00, 0x00, 0x00, 0x28, 0x00, 0x00, 0x00,
  0xc4, 0xff, 0xff, 0xff, 0x18, 0x00, 0x00, 0x00, 0x73, 0x65, 0x72, 0x76,
  0x69, 0x6e, 0x67, 0x5f, 0x64, 0x65, 0x66, 0x61, 0x75, 0x6c, 0x74, 0x5f,
  0x61, 0x72, 0x67, 0x73, 0x5f, 0x30, 0x3a, 0x30, 0x00, 0x00, 0x00, 0x00,
  0x02, 0x00, 0x00, 0x00, 0x01, 0x00, 0x00, 0x00, 0x10, 0x03, 0x00, 0x00,
  0x02, 0x00, 0x00, 0x00, 0x1c, 0x00, 0x00, 0x00, 0x08, 0x00, 0x00, 0x00,
  0x04, 0x00, 0x04, 0x00, 0x04, 0x00, 0x00, 0x00, 0x0c, 0x00, 0x10, 0x00,
  0x0f, 0x00, 0x00, 0x00, 0x08, 0x00, 0x04, 0x00, 0x0c, 0x00, 0x00, 0x00,
  0x09, 0x00, 0x00, 0x00, 0x05, 0x00, 0x00, 0x00, 0x00, 0x00, 0x00, 0x09
};
const unsigned int outputs_model_tflite_len = 3480;
