#include <model.h>
const unsigned char model_tflite[] = {
    0x1c, 0x00, 0x00, 0x00, 0x54, 0x46, 0x4c, 0x33, 0x14, 0x00, 0x20, 0x00,
    0x1c, 0x00, 0x18, 0x00, 0x14, 0x00, 0x10, 0x00, 0x0c, 0x00, 0x00, 0x00,
    0x08, 0x00, 0x04, 0x00, 0x14, 0x00, 0x00, 0x00, 0x1c, 0x00, 0x00, 0x00,
    0x90, 0x00, 0x00, 0x00, 0xe8, 0x00, 0x00, 0x00, 0x54, 0x27, 0x00, 0x00,
    0x64, 0x27, 0x00, 0x00, 0x54, 0x2b, 0x00, 0x00, 0x03, 0x00, 0x00, 0x00,
    0x01, 0x00, 0x00, 0x00, 0x10, 0x00, 0x00, 0x00, 0x00, 0x00, 0x0a, 0x00,
    0x10, 0x00, 0x0c, 0x00, 0x08, 0x00, 0x04, 0x00, 0x0a, 0x00, 0x00, 0x00,
    0x0c, 0x00, 0x00, 0x00, 0x1c, 0x00, 0x00, 0x00, 0x3c, 0x00, 0x00, 0x00,
    0x0f, 0x00, 0x00, 0x00, 0x73, 0x65, 0x72, 0x76, 0x69, 0x6e, 0x67, 0x5f,
    0x64, 0x65, 0x66, 0x61, 0x75, 0x6c, 0x74, 0x00, 0x01, 0x00, 0x00, 0x00,
    0x04, 0x00, 0x00, 0x00, 0x98, 0xff, 0xff, 0xff, 0x07, 0x00, 0x00, 0x00,
    0x04, 0x00, 0x00, 0x00, 0x08, 0x00, 0x00, 0x00, 0x6f, 0x75, 0x74, 0x70,
    0x75, 0x74, 0x5f, 0x30, 0x00, 0x00, 0x00, 0x00, 0x01, 0x00, 0x00, 0x00,
    0x04, 0x00, 0x00, 0x00, 0x62, 0xd9, 0xff, 0xff, 0x04, 0x00, 0x00, 0x00,
    0x06, 0x00, 0x00, 0x00, 0x61, 0x72, 0x67, 0x73, 0x5f, 0x30, 0x00, 0x00,
    0x02, 0x00, 0x00, 0x00, 0x34, 0x00, 0x00, 0x00, 0x04, 0x00, 0x00, 0x00,
    0xdc, 0xff, 0xff, 0xff, 0x0a, 0x00, 0x00, 0x00, 0x04, 0x00, 0x00, 0x00,
    0x13, 0x00, 0x00, 0x00, 0x43, 0x4f, 0x4e, 0x56, 0x45, 0x52, 0x53, 0x49,
    0x4f, 0x4e, 0x5f, 0x4d, 0x45, 0x54, 0x41, 0x44, 0x41, 0x54, 0x41, 0x00,
    0x08, 0x00, 0x0c, 0x00, 0x08, 0x00, 0x04, 0x00, 0x08, 0x00, 0x00, 0x00,
    0x09, 0x00, 0x00, 0x00, 0x04, 0x00, 0x00, 0x00, 0x13, 0x00, 0x00, 0x00,
    0x6d, 0x69, 0x6e, 0x5f, 0x72, 0x75, 0x6e, 0x74, 0x69, 0x6d, 0x65, 0x5f,
    0x76, 0x65, 0x72, 0x73, 0x69, 0x6f, 0x6e, 0x00, 0x0b, 0x00, 0x00, 0x00,
    0x68, 0x26, 0x00, 0x00, 0x60, 0x26, 0x00, 0x00, 0x28, 0x26, 0x00, 0x00,
    0x98, 0x25, 0x00, 0x00, 0x7c, 0x25, 0x00, 0x00, 0xac, 0x00, 0x00, 0x00,
    0xa4, 0x00, 0x00, 0x00, 0x9c, 0x00, 0x00, 0x00, 0x94, 0x00, 0x00, 0x00,
    0x74, 0x00, 0x00, 0x00, 0x04, 0x00, 0x00, 0x00, 0x02, 0xda, 0xff, 0xff,
    0x04, 0x00, 0x00, 0x00, 0x60, 0x00, 0x00, 0x00, 0x10, 0x00, 0x00, 0x00,
    0x00, 0x00, 0x00, 0x00, 0x08, 0x00, 0x0e, 0x00, 0x08, 0x00, 0x04, 0x00,
    0x08, 0x00, 0x00, 0x00, 0x10, 0x00, 0x00, 0x00, 0x24, 0x00, 0x00, 0x00,
    0x00, 0x00, 0x06, 0x00, 0x08, 0x00, 0x04, 0x00, 0x06, 0x00, 0x00, 0x00,
    0x04, 0x00, 0x00, 0x00, 0x00, 0x00, 0x00, 0x00, 0x0c, 0x00, 0x18, 0x00,
    0x14, 0x00, 0x10, 0x00, 0x0c, 0x00, 0x04, 0x00, 0x0c, 0x00, 0x00, 0x00,
    0x4c, 0x95, 0x38, 0xf7, 0xa3, 0x8a, 0x0f, 0x62, 0x01, 0x00, 0x00, 0x00,
    0x02, 0x00, 0x00, 0x00, 0x04, 0x00, 0x00, 0x00, 0x06, 0x00, 0x00, 0x00,
    0x32, 0x2e, 0x31, 0x39, 0x2e, 0x30, 0x00, 0x00, 0x6e, 0xda, 0xff, 0xff,
    0x04, 0x00, 0x00, 0x00, 0x10, 0x00, 0x00, 0x00, 0x32, 0x2e, 0x30, 0x2e,
    0x30, 0x00, 0x00, 0x00, 0x00, 0x00, 0x00, 0x00, 0x00, 0x00, 0x00, 0x00,
    0x34, 0xd6, 0xff, 0xff, 0x38, 0xd6, 0xff, 0xff, 0x3c, 0xd6, 0xff, 0xff,
    0x96, 0xda, 0xff, 0xff, 0x04, 0x00, 0x00, 0x00, 0xc0, 0x24, 0x00, 0x00,
    0x5e, 0x03, 0x8b, 0x3c, 0x10, 0x65, 0x91, 0x3c, 0x73, 0x47, 0x8c, 0x3c,
    0xb7, 0x6a, 0xbf, 0x3a, 0x65, 0xbf, 0x40, 0x3c, 0xa5, 0x1b, 0xc9, 0x3c,
    0x07, 0xab, 0xc9, 0xbc, 0x01, 0x91, 0xf4, 0xbb, 0x83, 0xc9, 0xf5, 0xbc,
    0xdc, 0xf7, 0x75, 0x3c, 0xe1, 0x77, 0xdd, 0xbc, 0x1b, 0x13, 0x11, 0x3d,
    0xf3, 0xe1, 0x4b, 0x3c, 0x25, 0x62, 0xd5, 0xba, 0xc0, 0xbb, 0xa0, 0x3b,
    0xbe, 0xda, 0xfb, 0xbc, 0x8c, 0x59, 0x9a, 0xbc, 0xde, 0x2e, 0x8f, 0xbc,
    0x9e, 0x6a, 0xeb, 0xbc, 0xae, 0xa2, 0x0a, 0xbd, 0x7f, 0x24, 0x0a, 0x3d,
    0x11, 0x86, 0xf5, 0xbc, 0xbe, 0xb5, 0xbd, 0xbc, 0xda, 0x17, 0xe8, 0x3c,
    0xa3, 0x51, 0xfc, 0x3c, 0x13, 0x0c, 0x1c, 0xbb, 0x5c, 0xff, 0xc1, 0x3b,
    0x8c, 0x29, 0x08, 0x3d, 0x0c, 0x85, 0x87, 0x3c, 0xdc, 0x88, 0x0c, 0xbb,
    0xe1, 0x51, 0xda, 0xbc, 0x93, 0xc4, 0x8b, 0xbb, 0x93, 0x24, 0xba, 0x36,
    0x41, 0x23, 0xd7, 0xbc, 0x2a, 0x94, 0xb5, 0xbc, 0x0e, 0xf7, 0x23, 0xbc,
    0xdc, 0xde, 0xb1, 0x3b, 0x9c, 0x41, 0xf8, 0x3b, 0x9c, 0x29, 0xf0, 0x3c,
    0x8c, 0x73, 0xdc, 0x3c, 0xe1, 0x9b, 0x6f, 0x3c, 0x9c, 0x68, 0xd1, 0x3c,
    0xfe, 0x65, 0xd8, 0xbc, 0x5e, 0xfd, 0xbe, 0xbc, 0xad, 0xec, 0x10, 0x3d,
    0x13, 0xef, 0x0a, 0x3d, 0x4e, 0xeb, 0x79, 0xbc, 0x01, 0xb0, 0xec, 0xbb,
    0xc5, 0x93, 0xdf, 0xbc, 0xd8, 0x58, 0x72, 0xbc, 0xe5, 0x68, 0x13, 0xbc,
    0x4a, 0x2b, 0xf2, 0xba, 0xa5, 0xe7, 0xfb, 0xbb, 0xb8, 0x8b, 0xe6, 0x3b,
    0x0e, 0xbc, 0xc7, 0x3c, 0xc8, 0x74, 0x0e, 0x3d, 0xca, 0x61, 0x9b, 0x3c,
    0x58, 0x6e, 0x5c, 0xbc, 0x43, 0x80, 0xb1, 0x3c, 0x5a, 0xe5, 0xdc, 0x3c,
    0x81, 0x46, 0xb0, 0x3c, 0xce, 0xb8, 0xe5, 0xbc, 0x77, 0x4d, 0x90, 0xbb,
    0xc5, 0xd7, 0x18, 0xbc, 0x6e, 0x85, 0xd6, 0x3b, 0x78, 0x55, 0xeb, 0x3c,
    0x03, 0xa3, 0xa6, 0x3c, 0xee, 0x19, 0x05, 0xbb, 0xf5, 0x82, 0xeb, 0x3c,
    0x83, 0xb1, 0xaf, 0x3c, 0x31, 0xf9, 0xcb, 0x3c, 0x17, 0xaa, 0x4f, 0x3c,
    0x5a, 0xaf, 0xb5, 0x3c, 0xc5, 0x51, 0x05, 0x3c, 0x25, 0x1a, 0x9f, 0x3a,
    0xf3, 0xaf, 0xd2, 0xbc, 0x53, 0x6a, 0xbe, 0xbc, 0x10, 0xa3, 0x8d, 0x3c,
    0x0e, 0x67, 0x4b, 0xbc, 0x7c, 0x10, 0x6d, 0xbc, 0x6e, 0xbb, 0x98, 0xbc,
    0x0b, 0x22, 0x04, 0xbd, 0x20, 0x20, 0x08, 0xbd, 0x45, 0xab, 0xf0, 0xbc,
    0x60, 0x47, 0x02, 0xbd, 0x8e, 0x16, 0xf9, 0x3c, 0x3e, 0x36, 0xdd, 0xbc,
    0x61, 0xb5, 0x36, 0x3c, 0xb7, 0xfc, 0xd8, 0xbc, 0x21, 0xe5, 0x73, 0x3c,
    0x5e, 0x92, 0xd2, 0xbc, 0x2e, 0x20, 0xed, 0xbb, 0xac, 0xc8, 0x8e, 0xbc,
    0x01, 0x94, 0x48, 0xbb, 0x5c, 0xfd, 0x98, 0xbc, 0xd5, 0x21, 0x82, 0x3c,
    0x0a, 0xc2, 0xdb, 0x3b, 0xae, 0xa5, 0xe8, 0x3b, 0x4e, 0x0c, 0xa7, 0x3c,
    0x5e, 0x81, 0xcb, 0xbc, 0xeb, 0x6b, 0x02, 0x3d, 0xe5, 0xcf, 0xde, 0x3b,
    0x55, 0x40, 0x96, 0xbc, 0x88, 0x4d, 0x05, 0x3d, 0xa1, 0xe9, 0x36, 0x3c,
    0x87, 0xf2, 0x11, 0xbd, 0xa5, 0xa0, 0xf2, 0xbc, 0x6a, 0x89, 0x8d, 0x3c,
    0x85, 0x48, 0x22, 0x3c, 0x25, 0xb8, 0xa1, 0x3b, 0x57, 0xb3, 0x17, 0x3c,
    0x85, 0xe7, 0x7d, 0xbc, 0xac, 0x95, 0xf5, 0xbc, 0x4a, 0x84, 0x16, 0xbc,
    0xb8, 0x75, 0x5b, 0xbb, 0xd5, 0xdb, 0x92, 0x3c, 0x97, 0xe1, 0x8a, 0xbc,
    0x33, 0x62, 0x04, 0xbd, 0x38, 0x41, 0xe1, 0xbb, 0xee, 0xa4, 0x98, 0x3c,
    0x84, 0x28, 0x05, 0xbd, 0x3c, 0xaf, 0xba, 0xbc, 0xf7, 0x6c, 0x04, 0x3d,
    0x61, 0xb1, 0xdc, 0xbc, 0x13, 0x98, 0xc1, 0x3c, 0x8e, 0x5a, 0xe2, 0xbc,
    0x53, 0xe2, 0x1b, 0xbc, 0x8a, 0x43, 0x9c, 0x3b, 0x8a, 0x87, 0xfd, 0xbc,
    0xfa, 0xd4, 0xa5, 0xbc, 0x97, 0x1f, 0x2e, 0xbc, 0x91, 0xf6, 0xd4, 0xbc,
    0x93, 0xe2, 0xde, 0x3b, 0x4a, 0x3e, 0x4f, 0xba, 0x4c, 0xb9, 0xa1, 0x3c,
    0x97, 0x22, 0x2b, 0x3c, 0x13, 0x00, 0x54, 0x3c, 0xf3, 0xf7, 0x15, 0x3c,
    0x17, 0x04, 0x08, 0xbc, 0x7c, 0xac, 0x96, 0x3c, 0x1c, 0x3d, 0xa2, 0x3c,
    0x58, 0xce, 0xed, 0xbc, 0x25, 0xae, 0x06, 0x3b, 0x41, 0xeb, 0xd0, 0xbc,
    0xb0, 0x4b, 0x04, 0xbd, 0xb5, 0xd0, 0x8f, 0x3c, 0x0c, 0xb2, 0x09, 0xbd,
    0x73, 0x66, 0x48, 0x3c, 0xaa, 0x34, 0x26, 0xbc, 0x1c, 0xed, 0xcc, 0x3c,
    0x33, 0x80, 0x43, 0xbc, 0xb3, 0x18, 0xf7, 0x3c, 0x0a, 0xbe, 0xb8, 0xbc,
    0xb7, 0x78, 0xc2, 0xbc, 0xba, 0x58, 0xf8, 0xbc, 0xfc, 0x02, 0x1d, 0xbc,
    0x23, 0xdb, 0x94, 0xbc, 0x2e, 0x71, 0xbc, 0x3b, 0x21, 0xdf, 0xd3, 0x3c,
    0xfa, 0x0f, 0xf6, 0xbc, 0x85, 0x4b, 0x6e, 0xbc, 0xe5, 0x6d, 0xb8, 0x3c,
    0xe5, 0x43, 0xc7, 0xbb, 0x25, 0xd3, 0xae, 0xba, 0x25, 0x5e, 0x1f, 0x3c,
    0x0a, 0x33, 0x11, 0x3d, 0x12, 0xb3, 0x06, 0x3d, 0x7c, 0x0f, 0xa1, 0x3c,
    0x4a, 0xaa, 0xfb, 0x39, 0xb8, 0x0d, 0xe9, 0x38, 0x61, 0xda, 0x76, 0xbc,
    0xe5, 0x9e, 0x92, 0x3c, 0x77, 0x5a, 0xb2, 0xbb, 0xa3, 0xee, 0xf6, 0xbc,
    0x8e, 0x21, 0xd8, 0xbc, 0x91, 0xbe, 0xf6, 0x3c, 0x94, 0x28, 0x07, 0x3d,
    0xe5, 0x38, 0xab, 0xbc, 0xa5, 0xdc, 0xe1, 0x3b, 0x93, 0x61, 0x01, 0x3b,
    0xa5, 0x77, 0x5d, 0x3b, 0x48, 0x9e, 0xf4, 0x3c, 0xc1, 0x73, 0xc2, 0xbc,
    0x4a, 0x9e, 0x91, 0xbc, 0xa5, 0xdb, 0xb5, 0x3c, 0xe3, 0x0a, 0xd8, 0xbc,
    0x18, 0x4e, 0xe8, 0x3c, 0x20, 0x05, 0x09, 0xbd, 0xf5, 0xe7, 0x0b, 0x3d,
    0xa3, 0xa1, 0xec, 0xbc, 0x62, 0xd8, 0x0e, 0xbd, 0x6e, 0xa9, 0xcc, 0xbb,
    0xfa, 0x26, 0xce, 0x3c, 0xfe, 0xd2, 0x9a, 0xbc, 0x13, 0x6a, 0x73, 0x3c,
    0xfa, 0xd6, 0x83, 0xbc, 0x93, 0x84, 0xed, 0xbb, 0xc6, 0x15, 0x07, 0x3d,
    0xdc, 0xc6, 0xcb, 0x3a, 0xd7, 0x88, 0x8e, 0xbc, 0xe0, 0x99, 0x27, 0xbc,
    0x4e, 0x63, 0xfb, 0xbc, 0xbf, 0xef, 0x10, 0xbd, 0xbc, 0xfe, 0x09, 0xbd,
    0x81, 0xfd, 0x7e, 0x3b, 0xee, 0x0c, 0xb4, 0xbb, 0x90, 0xbc, 0xa4, 0xbc,
    0x13, 0xfc, 0x41, 0xbc, 0x93, 0x98, 0xe8, 0x3c, 0x25, 0x84, 0xb2, 0x3a,
    0x4a, 0x9d, 0x22, 0xbb, 0x6e, 0xfe, 0x99, 0xbb, 0xb7, 0x28, 0xca, 0x3a,
    0x4e, 0xf0, 0x98, 0xbc, 0x25, 0x6d, 0xb0, 0xbc, 0x01, 0x1b, 0x48, 0xbc,
    0x5e, 0xfa, 0xba, 0xbc, 0xf3, 0x28, 0xe0, 0xbc, 0x93, 0x20, 0x79, 0xbb,
    0xe5, 0xba, 0x25, 0xbc, 0x93, 0x8c, 0xf6, 0xbb, 0x3a, 0xd9, 0xd3, 0x3c,
    0x2c, 0xfc, 0xf5, 0xbc, 0xa5, 0xf5, 0xa0, 0xbc, 0x5c, 0xd9, 0x60, 0x3c,
    0x8e, 0x45, 0x7f, 0x3c, 0xe3, 0x89, 0xf7, 0x3c, 0x13, 0x26, 0xf3, 0xbc,
    0x0c, 0x81, 0x93, 0x3c, 0x45, 0xf1, 0xd4, 0x3c, 0x6d, 0x94, 0x10, 0x3d,
    0x6a, 0x90, 0x07, 0x3d, 0x9e, 0x0a, 0x02, 0x3d, 0xd3, 0x84, 0xfd, 0xbb,
    0xd3, 0x98, 0x4a, 0xbc, 0xae, 0xa2, 0x4e, 0xbc, 0x6e, 0x64, 0xd2, 0xbc,
    0x13, 0xef, 0x5c, 0x3b, 0x16, 0x24, 0x0b, 0x3d, 0xce, 0xcd, 0x03, 0xbd,
    0xb5, 0x92, 0x87, 0xbc, 0xd7, 0xa6, 0xb3, 0xbc, 0x10, 0x05, 0xa6, 0xbc,
    0x1c, 0x5e, 0x94, 0x3c, 0xb0, 0x12, 0xa0, 0x3c, 0x1c, 0xab, 0xe8, 0xbb,
    0x93, 0xe1, 0x80, 0xba, 0x7c, 0x6c, 0x99, 0x3c, 0x4a, 0x05, 0x71, 0x3b,
    0xd7, 0xfc, 0x15, 0xbc, 0xe7, 0xdb, 0xd9, 0x3c, 0x6e, 0x83, 0xef, 0x3c,
    0x8b, 0xfd, 0x10, 0xbd, 0xd3, 0x0d, 0xc4, 0x3c, 0xac, 0xd2, 0xdb, 0x3c,
    0x05, 0xf6, 0x12, 0xbc, 0x77, 0xa2, 0xd4, 0xbc, 0x01, 0x75, 0xc3, 0xbc,
    0x6e, 0xbe, 0x19, 0xbc, 0xe1, 0xcf, 0xc6, 0x3c, 0x01, 0xdf, 0xc2, 0xba,
    0xf7, 0x0f, 0xa3, 0x3b, 0x3a, 0x4b, 0x0d, 0x3d, 0x50, 0x5a, 0x82, 0x3c,
    0xe5, 0x70, 0x1b, 0x3c, 0x8a, 0x9d, 0xca, 0x3b, 0xe7, 0xb1, 0xc8, 0x3c,
    0xca, 0xe5, 0x1e, 0x3c, 0x05, 0x8f, 0xa8, 0x3c, 0x25, 0x69, 0xb8, 0x3b,
    0xa5, 0x21, 0x94, 0x3b, 0xbc, 0xa4, 0x82, 0xbc, 0x51, 0x05, 0xc6, 0x3c,
    0x93, 0x24, 0x5e, 0xba, 0x57, 0x35, 0x22, 0x3c, 0x0a, 0x50, 0xe6, 0x3b,
    0x55, 0x13, 0x07, 0x3d, 0x37, 0xb3, 0xc2, 0x3c, 0x37, 0x38, 0xbb, 0x3b,
    0xdc, 0xba, 0x7c, 0x3b, 0x85, 0xb5, 0xb2, 0x3c, 0x28, 0x8a, 0x0f, 0xbd,
    0xae, 0xce, 0x56, 0x3c, 0x1e, 0x8d, 0xf0, 0xbc, 0xe3, 0xbb, 0x02, 0xbd,
    0x5c, 0xe8, 0x6b, 0x3b, 0xb7, 0xc2, 0x2e, 0xbb, 0xde, 0x13, 0xb9, 0x3c,
    0x83, 0x27, 0x8e, 0x3c, 0x6e, 0x35, 0xbb, 0xbc, 0xdc, 0x72, 0xc3, 0xba,
    0xce, 0xdc, 0xd5, 0x3c, 0x0e, 0xd4, 0x31, 0x3c, 0x17, 0x6a, 0x44, 0xbc,
    0x8c, 0xc4, 0xe1, 0x3c, 0xe1, 0x3b, 0xc5, 0xbc, 0xa5, 0xf5, 0x46, 0x3b,
    0xaa, 0x77, 0x9c, 0xbc, 0xe5, 0x94, 0x92, 0xbc, 0x75, 0xe2, 0x9f, 0xbc,
    0x53, 0x0a, 0x33, 0xbc, 0x81, 0x49, 0xcf, 0xbc, 0x2a, 0xe0, 0xb7, 0xbc,
    0x30, 0xe7, 0x0d, 0x3d, 0x77, 0xbe, 0xd0, 0x3b, 0x2e, 0x6b, 0xb4, 0x3c,
    0xef, 0x8b, 0x06, 0xbd, 0x7e, 0xa5, 0xd8, 0x3c, 0x0e, 0x8c, 0x49, 0xbc,
    0xa2, 0xfd, 0x03, 0x3d, 0x65, 0xc1, 0xfd, 0xbb, 0x57, 0x6a, 0xa1, 0xbc,
    0x25, 0xfc, 0xcf, 0xba, 0xc5, 0xc3, 0x65, 0xbc, 0x37, 0xb9, 0x9b, 0xbb,
    0x67, 0xae, 0x11, 0x3d, 0x78, 0x05, 0xf9, 0xbb, 0xde, 0x49, 0xd4, 0xbc,
    0xb7, 0xd1, 0xad, 0x3c, 0xb3, 0x11, 0x4d, 0x3c, 0x15, 0x80, 0xd8, 0xbc,
    0x4c, 0x83, 0xfe, 0xbc, 0xc0, 0xfa, 0x86, 0x3b, 0x6a, 0x50, 0xa1, 0xbc,
    0x18, 0x97, 0xf6, 0xbc, 0x6a, 0x71, 0x8e, 0x3c, 0x6a, 0x87, 0xb3, 0x3c,
    0x58, 0x20, 0xdc, 0x3c, 0x7d, 0x9d, 0x02, 0x3d, 0x37, 0xc7, 0xc7, 0x3b,
    0x6a, 0xb2, 0xa3, 0xbc, 0x7c, 0xff, 0x4b, 0xbc, 0x5c, 0xdd, 0x91, 0x3c,
    0x40, 0xb7, 0x1c, 0xbc, 0x17, 0xd7, 0x00, 0xbc, 0xac, 0xe3, 0x03, 0x3d,
    0x8e, 0xa9, 0x42, 0xbc, 0x00, 0xdc, 0x8c, 0xbb, 0x0e, 0x5a, 0x0f, 0x3c,
    0x6a, 0x19, 0xbf, 0x3c, 0x4e, 0xa7, 0xd9, 0x3c, 0x9e, 0xe1, 0x8e, 0x3c,
    0x9c, 0x36, 0xe0, 0xbb, 0x4e, 0xb4, 0x25, 0x3c, 0x6c, 0x58, 0xa1, 0x3c,
    0xfa, 0x8c, 0x87, 0xbc, 0xae, 0xd9, 0xab, 0xbc, 0x03, 0x4a, 0x95, 0x3c,
    0xa6, 0xd8, 0x0d, 0x3d, 0xce, 0xe4, 0x0b, 0xbc, 0xb3, 0x3f, 0x05, 0x3d,
    0x2e, 0x7d, 0x56, 0x3c, 0x00, 0x74, 0x9d, 0x3b, 0x4c, 0xc9, 0xa4, 0xbc,
    0x4a, 0x79, 0xf2, 0xbc, 0x25, 0xad, 0xc0, 0xba, 0x6e, 0xb7, 0x11, 0xbb,
    0x84, 0x20, 0x0d, 0x3d, 0x0a, 0xe2, 0xfe, 0x3b, 0xee, 0x01, 0xb3, 0x3c,
    0x25, 0x60, 0x28, 0x3c, 0x1b, 0xa0, 0x06, 0xbd, 0x2a, 0xe3, 0x91, 0x3c,
    0xbc, 0xdb, 0x04, 0x3d, 0xca, 0x39, 0x59, 0x3b, 0x2e, 0x7d, 0xf5, 0xbb,
    0xe5, 0xd7, 0xed, 0xbb, 0xe5, 0x5f, 0x9f, 0x3b, 0xea, 0x16, 0xef, 0xbc,
    0x53, 0x08, 0xa8, 0xbc, 0xf7, 0x81, 0x84, 0x3c, 0x53, 0x45, 0x84, 0x3b,
    0xc3, 0x8c, 0xe0, 0x3c, 0xbc, 0x80, 0x4a, 0x3c, 0xf7, 0x44, 0xb3, 0xbc,
    0xd3, 0x62, 0x63, 0xbc, 0x45, 0x7a, 0xcb, 0x3c, 0xce, 0x3c, 0x28, 0xbc,
    0xea, 0x80, 0xed, 0xbc, 0xb7, 0xfc, 0xc5, 0xbc, 0x4c, 0x34, 0xc3, 0xbc,
    0xd5, 0x70, 0x9f, 0xbc, 0xaa, 0x43, 0x34, 0xbc, 0x01, 0x04, 0xc9, 0xba,
    0x9e, 0x5f, 0x94, 0xbc, 0x5a, 0x8f, 0x9a, 0xbc, 0xee, 0xf7, 0x8b, 0x3c,
    0x77, 0x2c, 0x2a, 0x3c, 0xa5, 0x57, 0xdc, 0xbc, 0x2e, 0x91, 0x0d, 0xbc,
    0x98, 0xa8, 0xea, 0x3c, 0xdc, 0xa5, 0xd8, 0xbb, 0x67, 0x5f, 0x09, 0xbd,
    0x57, 0x88, 0x82, 0x3c, 0xa0, 0xef, 0x08, 0x3d, 0xcc, 0x31, 0xe8, 0x3c,
    0xdc, 0x9d, 0xca, 0x3c, 0x9c, 0x6f, 0xd6, 0x3c, 0xfc, 0x69, 0xb7, 0x3c,
    0xf7, 0xbe, 0x1b, 0xbc, 0x21, 0x85, 0x54, 0x3c, 0x6e, 0xc6, 0xa4, 0x3a,
    0xda, 0xeb, 0xf4, 0x3c, 0x8a, 0xe9, 0xd8, 0xbc, 0x61, 0x45, 0xe0, 0x3c,
    0x73, 0x77, 0x51, 0xbc, 0xb5, 0xd9, 0xcf, 0x3c, 0x1e, 0x7f, 0x0f, 0xbd,
    0xc1, 0x2e, 0x48, 0x3c, 0x05, 0x61, 0x6f, 0xbc, 0xf3, 0x19, 0x57, 0x3c,
    0xc1, 0xd7, 0xbf, 0x3b, 0x6c, 0x1d, 0xb2, 0xbc, 0xb7, 0x9e, 0xd8, 0x3c,
    0x0c, 0xef, 0x84, 0x3c, 0x21, 0xb7, 0xd6, 0x3c, 0xb8, 0xa8, 0xdc, 0xbb,
    0xf5, 0x68, 0x8d, 0x3c, 0xed, 0xd2, 0x11, 0xbd, 0xae, 0x84, 0xd6, 0xbb,
    0xd7, 0xf3, 0xd8, 0x3c, 0x65, 0xa1, 0x88, 0xbb, 0x6e, 0x2a, 0xf7, 0x3a,
    0x25, 0xbd, 0xd9, 0x39, 0x13, 0x4b, 0x11, 0x3b, 0x31, 0x6e, 0xd5, 0xbc,
    0xa5, 0xc3, 0x06, 0xbc, 0x65, 0xd6, 0x92, 0xbc, 0x00, 0xa9, 0x15, 0x3c,
    0x37, 0x88, 0x00, 0x3b, 0xa1, 0x8b, 0x67, 0xbc, 0x55, 0x95, 0xd3, 0xbc,
    0x81, 0x65, 0x5e, 0xbb, 0x8a, 0x25, 0x09, 0x3c, 0x2e, 0x86, 0x59, 0xbc,
    0xc4, 0x78, 0x03, 0xbd, 0x9e, 0x0b, 0xde, 0xbc, 0xd7, 0x0f, 0xb6, 0x3c,
    0x87, 0x6d, 0xcc, 0xbc, 0xaa, 0xf1, 0xbb, 0xbc, 0xb3, 0x67, 0x0f, 0xbd,
    0xae, 0x0b, 0x08, 0x3c, 0xf3, 0x8d, 0x36, 0xbc, 0x12, 0x82, 0x09, 0x3d,
    0x4e, 0x88, 0x37, 0x3c, 0x51, 0x38, 0xb9, 0x3c, 0xfe, 0x1a, 0xb4, 0x3c,
    0x81, 0x0d, 0x5c, 0x3c, 0x4e, 0x48, 0xd9, 0xbc, 0x4a, 0xb8, 0x0e, 0x3d,
    0xee, 0x42, 0x30, 0x3c, 0x4e, 0x61, 0x0f, 0x3d, 0xd1, 0xdf, 0xf2, 0xbc,
    0x38, 0x9c, 0xe8, 0x3b, 0x45, 0xcf, 0x56, 0x3c, 0xc1, 0x7f, 0xfb, 0x3c,
    0x65, 0xce, 0xce, 0x3b, 0x25, 0x96, 0xff, 0xbb, 0xa5, 0x2c, 0xfd, 0x3c,
    0x0a, 0xbe, 0xc0, 0x3b, 0xe5, 0x4f, 0x92, 0x3c, 0x93, 0x87, 0xa2, 0xbc,
    0x0c, 0xf0, 0xc5, 0xbc, 0xb5, 0x22, 0x80, 0xbc, 0x83, 0x6b, 0x06, 0x3d,
    0xfa, 0xaf, 0x0f, 0x3d, 0xfc, 0x9e, 0x78, 0xbc, 0x1c, 0xc4, 0xfb, 0xbb,
    0x5c, 0x70, 0x3a, 0xbc, 0xce, 0xaf, 0x01, 0x3c, 0x73, 0xc6, 0x64, 0x3c,
    0x3c, 0x77, 0xdc, 0xbc, 0x73, 0x75, 0x5d, 0x3c, 0x53, 0x67, 0xdc, 0xbb,
    0x47, 0xbc, 0xd5, 0xbc, 0xfa, 0x6c, 0xb2, 0xbc, 0x8e, 0x6f, 0x7b, 0x3c,
    0xdc, 0xd0, 0x28, 0xba, 0x4a, 0x0e, 0x07, 0x3b, 0x2e, 0xe2, 0x09, 0xbc,
    0x6e, 0x8e, 0xc9, 0x3b, 0xe5, 0xc4, 0xc9, 0x3b, 0x50, 0xf4, 0x01, 0x3d,
    0x0d, 0xb8, 0x0c, 0x3d, 0x25, 0xc4, 0x1d, 0xbc, 0x1e, 0x03, 0xf8, 0xbc,
    0xae, 0x17, 0xaf, 0x3b, 0xfc, 0x12, 0xce, 0x3c, 0xf3, 0x3f, 0x2c, 0xbc,
    0xa5, 0xe3, 0x29, 0x3b, 0xf1, 0x55, 0xe0, 0x3c, 0xc3, 0x85, 0x0f, 0x3d,
    0x1b, 0x84, 0x11, 0xbd, 0xfa, 0x19, 0xcb, 0xbc, 0xae, 0x14, 0x9a, 0x3c,
    0x55, 0x03, 0xd1, 0xbc, 0x9c, 0x09, 0x12, 0xbd, 0x8f, 0x30, 0x06, 0x3d,
    0x3f, 0x93, 0x08, 0xbd, 0x41, 0xf2, 0x7b, 0xbc, 0x01, 0x31, 0xd0, 0x3c,
    0xd0, 0x24, 0x04, 0x3d, 0x01, 0x36, 0xc7, 0x3c, 0x65, 0x21, 0x51, 0xbc,
    0xe1, 0xf6, 0x7f, 0xbc, 0x9c, 0x26, 0xf5, 0x3b, 0x9c, 0xa1, 0x65, 0xbc,
    0xfc, 0x99, 0xb1, 0xbc, 0xb0, 0x45, 0x10, 0x3d, 0x6e, 0xdd, 0x03, 0x3d,
    0x65, 0xe9, 0xb8, 0xbb, 0x5c, 0xdb, 0x29, 0xbc, 0xf7, 0x1d, 0x94, 0x3b,
    0x81, 0x3e, 0x3e, 0xbb, 0x95, 0x59, 0xc2, 0x3c, 0x25, 0xc6, 0xc7, 0xbc,
    0x5c, 0x71, 0x82, 0xbb, 0x9a, 0x70, 0xc7, 0x3c, 0x33, 0xd1, 0x14, 0xbc,
    0x13, 0xc2, 0xf9, 0xbc, 0xfd, 0xcd, 0x05, 0xbd, 0x81, 0xe4, 0x2b, 0x3c,
    0xb7, 0xe3, 0x41, 0x3c, 0xba, 0x23, 0x99, 0x3c, 0xd7, 0x2b, 0xb7, 0x3c,
    0x25, 0x61, 0x76, 0x3a, 0x87, 0xc6, 0xac, 0x3c, 0xc1, 0xcf, 0xaa, 0xbb,
    0xbe, 0xc7, 0x8e, 0xbc, 0x26, 0xf7, 0x04, 0x3d, 0xbb, 0x7e, 0x03, 0x3d,
    0x93, 0xed, 0x76, 0x3b, 0x53, 0x7f, 0x0d, 0xbc, 0x5a, 0xcb, 0x04, 0x3d,
    0x00, 0xe8, 0x9d, 0x3a, 0xbc, 0x44, 0x9f, 0x3c, 0x25, 0x0a, 0x57, 0x3b,
    0x6e, 0xe1, 0x56, 0xbc, 0x41, 0x65, 0xdc, 0xbc, 0xaa, 0xa5, 0xd7, 0xbc,
    0x6c, 0x9a, 0xaf, 0xbc, 0x7c, 0xf2, 0x71, 0xbc, 0xa5, 0xb1, 0x8d, 0xbc,
    0x93, 0x1a, 0x07, 0x3b, 0xcb, 0xe3, 0x0f, 0x3d, 0x25, 0x9f, 0xc0, 0xbb,
    0xc3, 0x37, 0xf2, 0xbc, 0xc4, 0xd1, 0x02, 0xbd, 0x93, 0x19, 0xd4, 0xba,
    0x13, 0x0a, 0x01, 0x3d, 0x25, 0xb1, 0x75, 0xbc, 0x81, 0x0d, 0x41, 0x3c,
    0xeb, 0xb3, 0x06, 0xbd, 0x8a, 0x7a, 0xe1, 0xbc, 0xe8, 0x8b, 0xf1, 0xbc,
    0x0a, 0x66, 0x26, 0x3c, 0xaa, 0xde, 0x04, 0xbd, 0x2e, 0x03, 0x0b, 0xbd,
    0x18, 0x8b, 0x5f, 0xbc, 0xc2, 0x67, 0x06, 0xbd, 0x93, 0x3d, 0x4e, 0x3c,
    0xc0, 0xc2, 0x11, 0xbd, 0x2a, 0x09, 0xe5, 0x3c, 0x33, 0xdf, 0xb6, 0x3c,
    0xc1, 0xa4, 0xed, 0xbb, 0xaa, 0xca, 0x0c, 0xbd, 0xca, 0xee, 0x52, 0xbc,
    0xee, 0x88, 0x30, 0x3b, 0x80, 0xb1, 0x90, 0x3c, 0x3c, 0x57, 0xb9, 0x3c,
    0x26, 0x05, 0x05, 0xbd, 0x3e, 0x13, 0xd9, 0x3c, 0xb8, 0x53, 0xe9, 0x3c,
    0x13, 0xdf, 0xf1, 0x3c, 0x78, 0x16, 0xfb, 0xbb, 0x9a, 0x78, 0xf5, 0xbc,
    0x8c, 0x6d, 0x93, 0xbc, 0xab, 0x59, 0x09, 0xbd, 0x6c, 0xd9, 0x9c, 0xbc,
    0x38, 0xf5, 0x68, 0xbc, 0x05, 0xe5, 0x33, 0xbc, 0x81, 0x6d, 0xed, 0x3c,
    0x63, 0x45, 0x81, 0xbc, 0xe3, 0x20, 0xfe, 0x3c, 0x13, 0xd9, 0xdf, 0x3c,
    0x35, 0x58, 0xc8, 0x3c, 0x6e, 0xc3, 0xb0, 0xbc, 0x7c, 0x4a, 0x3f, 0xbc,
    0x78, 0x2b, 0x6c, 0x3c, 0x47, 0x37, 0xb2, 0x3c, 0xf7, 0xcf, 0x9e, 0xbc,
    0xdc, 0xf4, 0xf5, 0x3a, 0x18, 0x78, 0x73, 0xbc, 0xc0, 0xe0, 0x16, 0xbc,
    0x97, 0x4d, 0x26, 0x3c, 0x33, 0xa2, 0x58, 0x3c, 0x9c, 0x27, 0xb6, 0xbc,
    0xc5, 0x1a, 0x2a, 0x3c, 0x9a, 0xd5, 0xda, 0x3c, 0x00, 0xce, 0xa6, 0x3b,
    0xce, 0xe6, 0xbe, 0xbc, 0xee, 0x6f, 0xa2, 0x3b, 0xb7, 0x9b, 0x0b, 0xbc,
    0xaa, 0x02, 0xdd, 0x3c, 0x9c, 0x71, 0x0f, 0x3c, 0x9a, 0xda, 0xb3, 0x3c,
    0xa0, 0xb0, 0xa3, 0xbc, 0x9c, 0x7e, 0xfa, 0xbc, 0x1a, 0x0d, 0xb0, 0xbc,
    0x0c, 0xa2, 0x87, 0xbc, 0xdc, 0xe4, 0x10, 0x3c, 0x07, 0x62, 0xb8, 0xbc,
    0xd3, 0xc2, 0xb8, 0xbb, 0x53, 0x35, 0x2e, 0x3c, 0x13, 0xcd, 0xf1, 0xbb,
    0x4a, 0x94, 0xb6, 0x3b, 0xf1, 0xe9, 0xad, 0xbc, 0xbb, 0x57, 0x0c, 0xbd,
    0x6e, 0x90, 0xa6, 0x3a, 0xea, 0x04, 0xab, 0x3c, 0xea, 0x48, 0x4e, 0xbc,
    0xca, 0x7e, 0x33, 0x3b, 0xf3, 0x7e, 0xb8, 0xbc, 0xc0, 0xc5, 0xa1, 0xbb,
    0x33, 0x1e, 0xae, 0xbc, 0xee, 0xbf, 0x77, 0x3b, 0x65, 0x22, 0x8c, 0xbb,
    0x73, 0x2b, 0x00, 0xbc, 0x63, 0x64, 0xdf, 0x3c, 0x3c, 0x39, 0x47, 0xbc,
    0xac, 0x1b, 0xa2, 0xbc, 0x8a, 0xf5, 0x01, 0xbd, 0xee, 0x32, 0x66, 0x3c,
    0x53, 0x68, 0x81, 0xbc, 0x17, 0xbb, 0x0e, 0xbc, 0xdc, 0x9a, 0x2d, 0x3b,
    0x83, 0x4d, 0xf2, 0xbc, 0x18, 0x72, 0x7a, 0xbc, 0xee, 0xb1, 0x60, 0x3b,
    0x01, 0x4a, 0x72, 0x3a, 0xde, 0x34, 0x94, 0xbc, 0xd3, 0x0e, 0x82, 0x3b,
    0x2e, 0xf9, 0x99, 0x3c, 0x80, 0x20, 0x1d, 0x3c, 0xae, 0x42, 0x8c, 0x3c,
    0x2a, 0xa6, 0xa0, 0x3c, 0xba, 0x92, 0xbc, 0x3c, 0xb1, 0x36, 0xb0, 0xbc,
    0x37, 0xb6, 0xd5, 0xbc, 0xb0, 0xd0, 0x04, 0xbd, 0x6e, 0xec, 0xd2, 0xbc,
    0xdc, 0xf5, 0xe3, 0xbc, 0x20, 0x6f, 0x93, 0x3c, 0x9d, 0x7f, 0x0d, 0xbd,
    0x72, 0x04, 0x0a, 0xbd, 0x3c, 0x40, 0xa5, 0xbc, 0xc5, 0x4e, 0x0c, 0xbd,
    0xee, 0xcc, 0x3a, 0x3c, 0xb7, 0xd7, 0x52, 0xba, 0x65, 0xf8, 0xe7, 0x3b,
    0x58, 0x6a, 0xe4, 0xbc, 0x8a, 0xd9, 0xec, 0x3c, 0x8a, 0x52, 0x9b, 0x3c,
    0x05, 0x01, 0x89, 0xbc, 0xec, 0x7d, 0xf6, 0x3c, 0x5e, 0x49, 0x9a, 0xbc,
    0xc1, 0x6e, 0xe2, 0x3b, 0xe3, 0x8a, 0xee, 0x3c, 0xa5, 0xdc, 0xd7, 0x3b,
    0x27, 0x8d, 0x89, 0xbc, 0xae, 0xdb, 0x8b, 0xbc, 0xac, 0x1f, 0x81, 0x3c,
    0xba, 0x16, 0x88, 0x3c, 0x6a, 0xb3, 0x06, 0xbc, 0xb3, 0x2e, 0xe0, 0x3c,
    0x57, 0xe7, 0x99, 0x3c, 0x85, 0x92, 0x01, 0x3d, 0x33, 0xa3, 0xe2, 0xbc,
    0x0a, 0xcf, 0x05, 0xbd, 0xd3, 0x94, 0x13, 0xbc, 0xe5, 0x6e, 0xb1, 0x3c,
    0xda, 0x3e, 0xc2, 0xbc, 0x47, 0x75, 0x90, 0xbc, 0x87, 0x74, 0x97, 0xbc,
    0x2e, 0x4d, 0xb3, 0xbb, 0x8a, 0xcc, 0x29, 0x3c, 0x81, 0xf2, 0xe9, 0x3c,
    0xcc, 0xc1, 0xfc, 0xbc, 0x3c, 0x5b, 0x79, 0xbc, 0x33, 0x80, 0x4f, 0x3c,
    0xc7, 0x82, 0xb2, 0xbc, 0xc0, 0xeb, 0x0b, 0x3d, 0x65, 0xb7, 0xf0, 0xbb,
    0x45, 0xc1, 0xc6, 0x3c, 0x25, 0x18, 0x7e, 0xbb, 0x6e, 0x90, 0x9c, 0x3a,
    0xc0, 0x3e, 0x25, 0xbc, 0xf5, 0x5d, 0xbd, 0xbc, 0x55, 0xda, 0xf3, 0x3c,
    0x01, 0x4a, 0x30, 0xbc, 0x9c, 0xe6, 0xe1, 0x3b, 0x3a, 0x41, 0x9c, 0xbc,
    0x6e, 0x04, 0xb8, 0x3c, 0xfc, 0x41, 0x43, 0xbc, 0xae, 0x3b, 0xe8, 0xbb,
    0x57, 0x4e, 0xc4, 0x3c, 0x00, 0x40, 0x94, 0x38, 0xc1, 0x55, 0xfb, 0x3c,
    0x4a, 0x32, 0xad, 0xba, 0xea, 0x32, 0xd3, 0xbc, 0x04, 0x29, 0x04, 0xbd,
    0x2e, 0x52, 0xea, 0xbb, 0xc5, 0xf2, 0x65, 0x3c, 0x13, 0x8e, 0x11, 0xbb,
    0xba, 0xf4, 0x94, 0xbc, 0xfc, 0xf6, 0x19, 0xbc, 0xdc, 0x06, 0x55, 0x3c,
    0x7a, 0xb4, 0x85, 0x3c, 0x61, 0xb5, 0xd7, 0x3c, 0xc1, 0x7c, 0xc5, 0xbc,
    0xa1, 0xb6, 0x74, 0xbc, 0xbc, 0x3a, 0x0b, 0xbd, 0xe5, 0xa0, 0x05, 0x3d,
    0x33, 0x52, 0x39, 0xbc, 0x1c, 0xdb, 0x33, 0xbc, 0x8f, 0xd5, 0x06, 0xbd,
    0xda, 0x86, 0xf3, 0x3c, 0x93, 0x6a, 0x66, 0x3b, 0x5a, 0xef, 0xe9, 0xbc,
    0xac, 0xb1, 0x93, 0x3c, 0x8a, 0xab, 0xc2, 0xbc, 0xba, 0xae, 0x0e, 0xbd,
    0x07, 0x54, 0xc4, 0x3c, 0x93, 0x9c, 0xc6, 0x3c, 0xba, 0xa6, 0xf1, 0xbc,
    0x40, 0xe4, 0x95, 0x3c, 0x4e, 0x5e, 0x02, 0xbd, 0x53, 0xfa, 0xcf, 0xbb,
    0x03, 0xbc, 0xc3, 0xbc, 0xce, 0xcc, 0x30, 0xbc, 0xae, 0x78, 0x61, 0x3c,
    0x25, 0xf5, 0x08, 0x3c, 0x5e, 0xfa, 0xc9, 0x3c, 0x81, 0xd0, 0xe0, 0x3b,
    0x87, 0x87, 0xb5, 0x3c, 0x43, 0x35, 0xb7, 0xbc, 0x4e, 0x35, 0x5e, 0x3c,
    0xea, 0x08, 0x93, 0x3c, 0x93, 0x28, 0x8f, 0x39, 0x11, 0x5f, 0xde, 0xbc,
    0xf7, 0x20, 0x04, 0xbc, 0xea, 0x4d, 0x20, 0xbc, 0x2a, 0x03, 0x12, 0x3d,
    0xaa, 0xed, 0xef, 0x3c, 0xe3, 0xcf, 0xf7, 0x3c, 0x43, 0x52, 0x8f, 0xbc,
    0x05, 0xe3, 0x17, 0xbc, 0x85, 0x23, 0x42, 0x3c, 0x25, 0x80, 0xf4, 0xba,
    0xf3, 0x83, 0xef, 0x3c, 0x4f, 0x92, 0x05, 0xbd, 0xe0, 0x24, 0x15, 0xbc,
    0x2e, 0x90, 0xb3, 0xbb, 0xa1, 0xc3, 0xc0, 0x3c, 0x2c, 0xea, 0x0a, 0xbd,
    0x4e, 0x91, 0x2a, 0x3c, 0x43, 0xf8, 0xc1, 0xbc, 0xf3, 0x0c, 0xcd, 0xbc,
    0xb7, 0x4f, 0x5b, 0x3b, 0x2a, 0xcc, 0xa7, 0xbc, 0xb8, 0x46, 0x5f, 0x3c,
    0xdc, 0xba, 0xde, 0x3c, 0xbc, 0xe1, 0x89, 0xbc, 0x2e, 0x49, 0xe6, 0x3b,
    0xfc, 0xd2, 0x44, 0xbc, 0x75, 0x28, 0x08, 0xbd, 0xb7, 0x4c, 0xa4, 0x3a,
    0xf3, 0x1e, 0x53, 0x3c, 0x6e, 0x61, 0x7d, 0xbb, 0x6c, 0x3d, 0x9b, 0x3c,
    0x4e, 0xa5, 0xae, 0x3c, 0x4a, 0xa3, 0x7e, 0xbc, 0xe5, 0x59, 0xc4, 0xbb,
    0x1a, 0x8a, 0xe5, 0xbc, 0xf3, 0x97, 0xae, 0x3c, 0x8e, 0x4a, 0xb1, 0x3c,
    0x0e, 0x75, 0xac, 0xbc, 0x97, 0xb3, 0x40, 0xbc, 0xf7, 0xe1, 0x97, 0x3b,
    0x97, 0x19, 0x0f, 0x3d, 0x65, 0xaa, 0x6d, 0xbc, 0xea, 0xa7, 0xde, 0x3c,
    0x00, 0xa2, 0x9f, 0x3a, 0x75, 0x35, 0x8b, 0xbc, 0xbc, 0x2a, 0xd4, 0x3c,
    0x77, 0xa0, 0x86, 0x3b, 0x51, 0x68, 0xf3, 0x3c, 0x71, 0x45, 0xdd, 0x3c,
    0x00, 0x30, 0x10, 0x3c, 0xca, 0x1b, 0x3f, 0x3b, 0x43, 0x6d, 0x8c, 0xbc,
    0x73, 0xd7, 0xe3, 0xbc, 0x0e, 0x10, 0x36, 0x3c, 0xe5, 0x45, 0x19, 0xbc,
    0xb7, 0x8b, 0x2a, 0xbb, 0x1c, 0xad, 0xde, 0x3c, 0xd4, 0xae, 0x0c, 0x3d,
    0x15, 0x15, 0xbd, 0x3c, 0x53, 0x41, 0xf2, 0xbb, 0x47, 0xef, 0xa8, 0x3c,
    0x8c, 0xf2, 0x91, 0x3c, 0x9e, 0x0d, 0xe6, 0xbc, 0xa6, 0xf7, 0x02, 0xbd,
    0x95, 0xa0, 0xa1, 0x3c, 0xba, 0x7f, 0x9e, 0xbc, 0x28, 0x43, 0xef, 0xbc,
    0xe1, 0xa3, 0xf8, 0xbc, 0x8b, 0x4f, 0x10, 0x3d, 0x43, 0xe8, 0xc9, 0x3c,
    0x9c, 0x1c, 0x8d, 0xbc, 0x6e, 0x82, 0xa1, 0x3a, 0x00, 0x68, 0x06, 0xbc,
    0xba, 0x68, 0xa0, 0x3c, 0xd1, 0xdc, 0xf2, 0xbc, 0x13, 0x9c, 0xfe, 0xbb,
    0x4e, 0xc3, 0x03, 0x3d, 0xec, 0xd5, 0xbd, 0xbc, 0x45, 0xf7, 0x5b, 0x3c,
    0x7c, 0x84, 0x03, 0x3c, 0x5c, 0x54, 0x0b, 0x3d, 0x81, 0x1c, 0x7e, 0xbc,
    0x6e, 0x52, 0x96, 0xba, 0xdc, 0x26, 0x0a, 0x3c, 0xdc, 0xcb, 0x8c, 0xbc,
    0x95, 0x4d, 0xab, 0x3c, 0x01, 0x19, 0x6e, 0xbb, 0xb8, 0x01, 0xde, 0xb9,
    0x45, 0x34, 0x91, 0x3c, 0xf5, 0xbc, 0xf5, 0xbc, 0xc8, 0xd5, 0xf7, 0x3c,
    0x77, 0x49, 0x8a, 0x3c, 0xa5, 0x73, 0x80, 0xbc, 0x25, 0x57, 0x02, 0x3a,
    0xc1, 0x45, 0xb8, 0xbc, 0x4a, 0xc2, 0x47, 0x3c, 0x27, 0x1d, 0x83, 0x3c,
    0x7c, 0x39, 0x03, 0xbd, 0xf5, 0xbd, 0xed, 0xbc, 0xcc, 0xce, 0xe3, 0xbc,
    0x15, 0x8f, 0x99, 0x3c, 0xd3, 0x1c, 0x0a, 0xbc, 0x5e, 0x9e, 0x11, 0x3d,
    0x91, 0x5a, 0xca, 0x3c, 0x33, 0x14, 0x80, 0x3c, 0x61, 0x8b, 0x3a, 0x3c,
    0x57, 0x4e, 0x47, 0xbc, 0xd5, 0x55, 0xb3, 0x3c, 0x0a, 0xbf, 0x22, 0xbc,
    0x40, 0x29, 0x9f, 0x3c, 0x50, 0x30, 0x80, 0x3c, 0x37, 0xeb, 0x1e, 0x3c,
    0xb8, 0x16, 0x5f, 0x3c, 0x25, 0x6b, 0x83, 0xba, 0xaa, 0x16, 0x08, 0x3c,
    0x2e, 0x37, 0x68, 0x3c, 0x98, 0x5a, 0x0a, 0xbd, 0x65, 0x07, 0x04, 0x3d,
    0x17, 0xfe, 0xbd, 0x3c, 0xfc, 0xd6, 0x99, 0xbc, 0xb7, 0x58, 0x1c, 0x3b,
    0x55, 0x6c, 0xb0, 0xbc, 0x93, 0x0d, 0x89, 0xba, 0x38, 0xcb, 0x7b, 0x3c,
    0x14, 0x37, 0x03, 0x3d, 0x4a, 0x06, 0x4f, 0x3c, 0xc8, 0x43, 0x01, 0x3d,
    0x01, 0xf8, 0x4e, 0xb9, 0x2e, 0x29, 0xfb, 0xbc, 0xc0, 0xb8, 0x1b, 0x3c,
    0xa1, 0x7a, 0xb5, 0x3c, 0x33, 0x23, 0xb8, 0x3c, 0xeb, 0x9b, 0x0e, 0x3d,
    0x1a, 0x55, 0xfa, 0xbc, 0xce, 0xa4, 0xe9, 0xbc, 0x4a, 0xfb, 0xff, 0x3b,
    0x20, 0x77, 0x96, 0xbc, 0x5c, 0x53, 0xf7, 0xbb, 0x0a, 0xb2, 0xaf, 0xbc,
    0x65, 0x5b, 0x09, 0xbc, 0x00, 0xf6, 0x0a, 0x3b, 0x2e, 0x3a, 0xf1, 0xbc,
    0xce, 0x3f, 0xbd, 0xbc, 0xda, 0x23, 0xc7, 0x3c, 0x3c, 0xaf, 0xd5, 0xbc,
    0x3b, 0x0b, 0x07, 0xbd, 0x7c, 0x75, 0x11, 0x3c, 0xa5, 0xec, 0x7b, 0x3c,
    0xde, 0x0e, 0xba, 0x3c, 0x21, 0x83, 0x35, 0x3c, 0x6c, 0x18, 0xb2, 0xbc,
    0x4a, 0x22, 0x20, 0x39, 0x85, 0xb0, 0x5a, 0xbc, 0x8f, 0x73, 0x10, 0x3d,
    0x0e, 0x75, 0xdc, 0xbc, 0x87, 0xa5, 0x98, 0xbc, 0x33, 0x5f, 0xa6, 0x3c,
    0xce, 0x10, 0x52, 0x3c, 0xc5, 0x6b, 0xbd, 0x3c, 0x53, 0x01, 0x42, 0x3c,
    0x65, 0xc8, 0x86, 0x3c, 0xaa, 0x30, 0x61, 0xbc, 0x55, 0xd9, 0xa4, 0x3c,
    0x13, 0x5b, 0x2d, 0xbc, 0x98, 0x53, 0xde, 0xbc, 0x4a, 0x26, 0x68, 0xba,
    0x2e, 0xdb, 0x9f, 0x3c, 0x91, 0xb6, 0xeb, 0x3c, 0xf7, 0x8e, 0xcd, 0xbb,
    0x4e, 0xbf, 0x5c, 0xbc, 0xbc, 0x7a, 0xd1, 0xbc, 0xd3, 0x8b, 0xbe, 0xbb,
    0x31, 0x47, 0xd1, 0xbc, 0x22, 0x61, 0x0a, 0x3d, 0xa3, 0xd5, 0xf2, 0x3c,
    0x6e, 0x1e, 0x0b, 0x3c, 0x25, 0xee, 0xbe, 0x3c, 0x05, 0xc6, 0xb7, 0xbc,
    0x4e, 0x73, 0xc4, 0x3c, 0xa5, 0xd4, 0x04, 0xbd, 0x01, 0x1d, 0xf1, 0xba,
    0x38, 0x4a, 0x62, 0x3b, 0xb7, 0x18, 0xb7, 0xba, 0x65, 0x53, 0xa5, 0x3b,
    0xb7, 0xc0, 0xb5, 0xbc, 0xae, 0xef, 0x9a, 0x3c, 0x91, 0x87, 0xb5, 0x3c,
    0x7e, 0x92, 0xb1, 0x3c, 0x38, 0xff, 0xef, 0x3b, 0xca, 0x64, 0x7c, 0x3c,
    0xd2, 0x7a, 0x11, 0x3d, 0x33, 0x8d, 0xf3, 0xbc, 0xd3, 0x91, 0xfd, 0xbc,
    0x3a, 0xe1, 0xc6, 0xbc, 0x57, 0x24, 0xac, 0x3c, 0x97, 0x30, 0xc4, 0x3c,
    0xca, 0x31, 0x2c, 0xbc, 0x13, 0x25, 0xef, 0x3b, 0xd7, 0x3a, 0x00, 0xbd,
    0x9c, 0xb8, 0x72, 0xbc, 0x73, 0x6c, 0x43, 0x3c, 0x77, 0x04, 0x8e, 0xbb,
    0x63, 0x4f, 0x80, 0x3c, 0xee, 0x13, 0x47, 0x3c, 0xe3, 0x62, 0xe4, 0x3c,
    0x4a, 0xbe, 0x3f, 0x3a, 0x2a, 0x97, 0x0a, 0xbd, 0x5c, 0xcb, 0x4e, 0xbb,
    0x2e, 0x48, 0xe5, 0xbb, 0x57, 0x8c, 0x16, 0x3c, 0x98, 0xb5, 0xee, 0x3c,
    0xe0, 0x87, 0x9f, 0x3c, 0xf3, 0x85, 0x6a, 0xbc, 0x65, 0xcc, 0x91, 0xbb,
    0x23, 0x98, 0xa7, 0x3c, 0x21, 0xc9, 0xcd, 0x3c, 0x83, 0x0f, 0xb4, 0x3c,
    0x0a, 0x3b, 0x39, 0x3c, 0x38, 0x64, 0xf9, 0xbc, 0x6e, 0x14, 0xd5, 0xba,
    0x8c, 0x31, 0xce, 0x3c, 0xb4, 0xd3, 0x04, 0x3d, 0xd5, 0x64, 0xa5, 0x3c,
    0x37, 0x74, 0xc7, 0x3c, 0xd7, 0x21, 0x43, 0xbc, 0xbe, 0x1d, 0x99, 0xbc,
    0x6a, 0xdd, 0xb0, 0x3c, 0xca, 0x53, 0x5f, 0xbc, 0x45, 0x8d, 0x0d, 0xbc,
    0xb3, 0xc1, 0xfa, 0xbc, 0x57, 0x53, 0xb8, 0xbc, 0x75, 0xf6, 0xba, 0xbc,
    0xc1, 0xd0, 0xb3, 0x3c, 0xfa, 0xa7, 0xa8, 0x3c, 0xf5, 0x5c, 0xf5, 0xbc,
    0x6e, 0x35, 0x4e, 0xba, 0xd5, 0xb1, 0x0b, 0xbd, 0xac, 0xe6, 0xd0, 0xbc,
    0x2f, 0x79, 0x05, 0xbd, 0x31, 0x97, 0xd4, 0xbc, 0x0c, 0xa2, 0xe7, 0xbc,
    0x1f, 0xc7, 0x00, 0xbd, 0xf7, 0x22, 0x01, 0x3d, 0xae, 0x73, 0xee, 0xbc,
    0xca, 0x7a, 0x62, 0x3c, 0xc1, 0x9b, 0xb3, 0x3b, 0x20, 0xe4, 0x06, 0x3d,
    0x93, 0x54, 0x46, 0x3b, 0x18, 0x5e, 0x78, 0x3c, 0xfc, 0x66, 0x00, 0x3d,
    0xc5, 0x2d, 0x2a, 0x3c, 0xb3, 0x6c, 0xdc, 0xbc, 0xe7, 0x16, 0x92, 0xbc,
    0xf3, 0xa2, 0x1b, 0xbc, 0xdc, 0xd0, 0x0b, 0x3a, 0xbc, 0xeb, 0x97, 0xbc,
    0xb7, 0xaa, 0xc5, 0xba, 0xaa, 0x2c, 0xa6, 0xbc, 0x45, 0x1b, 0x5f, 0xbc,
    0x50, 0x98, 0x00, 0xbd, 0x6a, 0xe5, 0x87, 0xbc, 0x0e, 0xb6, 0x29, 0x3c,
    0x13, 0xe4, 0xd4, 0x3b, 0x6c, 0xd8, 0x95, 0xbc, 0x8a, 0xef, 0xe3, 0xbc,
    0xb6, 0x4f, 0x11, 0xbd, 0xa5, 0x12, 0x39, 0xbc, 0xc7, 0x53, 0x9b, 0xbc,
    0x83, 0x98, 0xe4, 0xbc, 0x3e, 0x6d, 0xc8, 0xbc, 0xe5, 0xc4, 0x0c, 0x3c,
    0xda, 0x4f, 0xb1, 0x3c, 0xde, 0x4c, 0xe3, 0x3c, 0x6e, 0xbc, 0x30, 0x3c,
    0xee, 0x79, 0x09, 0x3b, 0x95, 0xc0, 0xd1, 0xbc, 0x93, 0x56, 0x57, 0xbc,
    0xbc, 0x82, 0xa4, 0xbc, 0x6a, 0x8a, 0xc5, 0x3c, 0xe8, 0x24, 0x0a, 0x3d,
    0xee, 0xc9, 0x68, 0xbc, 0xae, 0x79, 0xb4, 0x3b, 0x4a, 0x12, 0x45, 0x3a,
    0x73, 0xbb, 0x89, 0xbc, 0xfe, 0x31, 0xfb, 0x3c, 0xb7, 0xb6, 0x51, 0x3c,
    0x77, 0x07, 0x95, 0xbb, 0xdd, 0xcf, 0x0f, 0x3d, 0x77, 0x44, 0xc6, 0xbc,
    0xc0, 0xf7, 0x1b, 0xbc, 0x2e, 0xa0, 0xc5, 0xbc, 0x9c, 0x8d, 0x18, 0x3c,
    0xa5, 0xa0, 0x71, 0x3c, 0x73, 0x3b, 0x2d, 0xbc, 0x01, 0x00, 0xd1, 0xb8,
    0x8a, 0x6b, 0xef, 0xbb, 0x35, 0x42, 0x95, 0xbc, 0xbf, 0x32, 0x0c, 0x3d,
    0x37, 0x1a, 0x36, 0x3b, 0xc7, 0xd5, 0xcc, 0xbc, 0x9c, 0x90, 0xeb, 0xbb,
    0xa1, 0xca, 0xac, 0x3c, 0x5a, 0x94, 0xec, 0xbc, 0x93, 0x60, 0x7e, 0xba,
    0xa3, 0x3b, 0x87, 0xbc, 0xe1, 0x1f, 0xe4, 0x3c, 0x6e, 0x02, 0x6d, 0xbc,
    0xdc, 0x66, 0x8c, 0x3c, 0x15, 0x71, 0x0d, 0xbd, 0xa5, 0x87, 0xb8, 0xbc,
    0x1a, 0x78, 0xa9, 0xbc, 0x58, 0xbf, 0xfd, 0xbc, 0x25, 0x3f, 0x4c, 0xbc,
    0x4a, 0x10, 0x59, 0xba, 0x7a, 0x2c, 0xc5, 0x3c, 0x68, 0xc5, 0xdd, 0x3c,
    0xf8, 0xd1, 0xe6, 0xbc, 0x84, 0x3c, 0x10, 0xbd, 0x9c, 0xf6, 0xe6, 0x3b,
    0x01, 0x4c, 0xd6, 0xba, 0xa7, 0x99, 0xcc, 0x3c, 0x8e, 0x6d, 0x79, 0xbc,
    0x93, 0x57, 0x82, 0xbc, 0xdc, 0x9e, 0xce, 0x3a, 0x37, 0x1f, 0x99, 0x3c,
    0x33, 0x18, 0xdd, 0xbc, 0x4a, 0x21, 0xc2, 0x3b, 0x5a, 0x48, 0xd7, 0xbc,
    0xa0, 0x0c, 0xa1, 0xbc, 0xb3, 0x1c, 0x7d, 0xbc, 0x4a, 0xe6, 0x97, 0xb9,
    0x00, 0xfb, 0x84, 0x3b, 0xbc, 0x90, 0xcd, 0xbc, 0x15, 0x1b, 0x80, 0x3c,
    0x54, 0xc1, 0x05, 0xbd, 0x58, 0x8c, 0x72, 0x3c, 0x40, 0x60, 0x15, 0xbc,
    0xac, 0x03, 0xd7, 0xbc, 0xfc, 0x9d, 0x71, 0x3c, 0x3a, 0x63, 0xcb, 0x3c,
    0x4a, 0xa0, 0x15, 0x3c, 0x0a, 0x30, 0x0f, 0xbd, 0x4c, 0x29, 0xfe, 0xbc,
    0x13, 0x63, 0xbd, 0x3b, 0xae, 0x7c, 0x26, 0x3c, 0x45, 0xf7, 0xe1, 0x3c,
    0x1a, 0x72, 0xe4, 0x3c, 0x51, 0xfd, 0xd3, 0x3c, 0x1b, 0xf7, 0x01, 0xbd,
    0xa2, 0xb3, 0x04, 0xbd, 0xdc, 0xbc, 0x5b, 0x3a, 0xb8, 0xb8, 0x7e, 0x3b,
    0x0e, 0x7e, 0xe6, 0x3c, 0xe3, 0xfd, 0x8e, 0x3c, 0xb7, 0xc4, 0x94, 0x3b,
    0x65, 0x56, 0x5a, 0xbc, 0x81, 0xff, 0xb1, 0x3b, 0x85, 0x18, 0xca, 0xbc,
    0xa5, 0xe2, 0xfd, 0xbc, 0x4e, 0x33, 0x96, 0xbc, 0x38, 0xc4, 0x7b, 0x3b,
    0x25, 0x79, 0x70, 0xbb, 0x25, 0xd8, 0x32, 0x3b, 0x81, 0x29, 0xcf, 0xbb,
    0x1c, 0x69, 0x93, 0xbc, 0x80, 0x8e, 0xaa, 0x3c, 0x00, 0xd8, 0x8d, 0xba,
    0x3a, 0x1c, 0xea, 0x3c, 0x25, 0xdb, 0x40, 0xba, 0x78, 0x08, 0x01, 0x3d,
    0xbc, 0x63, 0xbe, 0x3c, 0x21, 0x00, 0xe8, 0x3c, 0xbc, 0x2e, 0x50, 0xbc,
    0x02, 0x4c, 0x02, 0xbd, 0x40, 0xe3, 0x8d, 0x3c, 0x6a, 0x92, 0xd9, 0x3c,
    0x61, 0xe5, 0xcb, 0x3c, 0xdc, 0x66, 0xd3, 0xba, 0x3f, 0x7b, 0x09, 0xbd,
    0xee, 0xb2, 0x92, 0x3c, 0xb7, 0xeb, 0x33, 0xba, 0x9c, 0x95, 0xef, 0xbb,
    0xca, 0x36, 0xce, 0xbb, 0x47, 0x28, 0xbb, 0xbc, 0x35, 0xf7, 0x96, 0x3c,
    0x3e, 0x23, 0x9c, 0xbc, 0xb3, 0x39, 0x10, 0x3c, 0x5c, 0x85, 0x41, 0x3c,
    0x48, 0x2f, 0x08, 0xbd, 0x8a, 0xa9, 0x06, 0xbd, 0x23, 0xc7, 0xcc, 0xbc,
    0x61, 0x2e, 0xff, 0xbc, 0xfc, 0xe9, 0x87, 0x3c, 0xfa, 0x1d, 0x84, 0xbc,
    0x81, 0x90, 0xd6, 0x3c, 0x01, 0x11, 0x61, 0x3b, 0x77, 0xa6, 0x27, 0xbc,
    0x7c, 0x56, 0x61, 0xbc, 0xe3, 0xc1, 0xe1, 0x3c, 0x85, 0x62, 0xaa, 0x3c,
    0x5c, 0x73, 0x4c, 0x3c, 0x2c, 0x12, 0xe5, 0x3c, 0x7c, 0x99, 0x8d, 0x3c,
    0x76, 0x9c, 0x03, 0xbd, 0xe5, 0x4f, 0x28, 0x3c, 0xa5, 0xf7, 0x62, 0x3c,
    0xdc, 0x2e, 0x56, 0xbb, 0x63, 0x41, 0xe7, 0x3c, 0x41, 0xf6, 0x7d, 0xbc,
    0xa1, 0xba, 0xb5, 0x3c, 0x65, 0xd0, 0x8f, 0xbc, 0x6a, 0xd1, 0x03, 0xbd,
    0xec, 0xe8, 0xf2, 0xbc, 0x61, 0x4e, 0xfd, 0xbc, 0x93, 0xc8, 0xfb, 0xba,
    0xc0, 0xd3, 0x0c, 0x3d, 0xf5, 0xc3, 0xd5, 0xbc, 0x45, 0x12, 0xcd, 0xbc,
    0x21, 0xd1, 0xc2, 0xbc, 0xbc, 0x3a, 0x02, 0x3d, 0x7a, 0x9f, 0xd3, 0x3c,
    0x83, 0xa1, 0x8b, 0x3c, 0x1e, 0x82, 0xac, 0xbc, 0x93, 0x30, 0xa8, 0x3a,
    0x53, 0xc1, 0xd1, 0xbb, 0x6c, 0xbc, 0x80, 0x3c, 0x41, 0xf0, 0x2d, 0xbc,
    0x5e, 0x3f, 0xa8, 0x3c, 0x38, 0x02, 0x7e, 0x3c, 0x8e, 0xfa, 0x09, 0x3c,
    0xb3, 0x21, 0x06, 0x3d, 0x80, 0x11, 0x0d, 0x3d, 0x6e, 0x83, 0x67, 0x39,
    0x7c, 0x88, 0xa7, 0xbc, 0xc0, 0xc1, 0x04, 0x3d, 0x4a, 0xf9, 0x9a, 0xbb,
    0xc8, 0xaa, 0xe6, 0xbc, 0xe5, 0x92, 0x24, 0xbc, 0x2c, 0xbd, 0x99, 0xbc,
    0xa1, 0x76, 0x75, 0xbc, 0x5c, 0x32, 0xeb, 0x3c, 0x20, 0x33, 0x90, 0xbc,
    0x93, 0xa2, 0xcf, 0xbb, 0xbe, 0x68, 0x83, 0xbc, 0xf3, 0x8e, 0xda, 0xbc,
    0x81, 0x68, 0xf3, 0xbb, 0x37, 0xd1, 0x06, 0x3c, 0x8c, 0x90, 0xd3, 0x3c,
    0x95, 0xa9, 0x97, 0xbc, 0x6e, 0x1f, 0xa0, 0xba, 0x13, 0x4f, 0xa9, 0x3c,
    0xe5, 0xf9, 0xf4, 0xbc, 0x95, 0x51, 0xbb, 0x3c, 0x1c, 0xd3, 0x9d, 0xbc,
    0x4a, 0xca, 0x07, 0xbb, 0xce, 0x22, 0x95, 0xbc, 0x53, 0x04, 0xbe, 0x3b,
    0x78, 0x32, 0x72, 0xbc, 0xd5, 0xae, 0xab, 0x3c, 0xca, 0x53, 0x43, 0xbb,
    0x3d, 0xdb, 0x01, 0x3d, 0x53, 0x47, 0xa8, 0x3b, 0xcc, 0x04, 0x12, 0x3d,
    0x98, 0x85, 0xfb, 0x3c, 0xe5, 0x07, 0xb8, 0xbb, 0xdf, 0x4f, 0x0d, 0xbd,
    0xca, 0xcb, 0x95, 0x3b, 0xc3, 0xd5, 0x08, 0xbd, 0x8a, 0x1e, 0x46, 0xbc,
    0xa7, 0xa9, 0x07, 0xbd, 0xa0, 0x17, 0x81, 0x3c, 0xdc, 0x73, 0xc1, 0x3b,
    0xc5, 0x50, 0xe7, 0x3c, 0x13, 0x6e, 0xe9, 0xbc, 0x9c, 0x5c, 0xda, 0x3b,
    0x2e, 0xdb, 0xd6, 0x3b, 0x00, 0xbc, 0x05, 0x3d, 0x71, 0x76, 0xf5, 0xbc,
    0x73, 0xba, 0x98, 0x3c, 0x6b, 0x17, 0x11, 0xbd, 0xfa, 0x02, 0xfd, 0x3c,
    0x53, 0x46, 0xba, 0xbc, 0xee, 0x4c, 0xac, 0xbc, 0x00, 0xe0, 0x85, 0x3c,
    0xda, 0x79, 0x8d, 0x3c, 0x93, 0x95, 0xd6, 0xbc, 0x37, 0xd4, 0x0d, 0xbc,
    0xbe, 0x0d, 0x9f, 0x3c, 0xa1, 0xa0, 0xec, 0x3c, 0xde, 0xe6, 0xe3, 0x3c,
    0x60, 0x9b, 0x9f, 0x3c, 0x2e, 0xcf, 0xb5, 0x3b, 0xb3, 0x67, 0x04, 0x3c,
    0xdc, 0x98, 0x41, 0x3c, 0xca, 0x0b, 0x0c, 0x3c, 0x0a, 0x9d, 0xb2, 0x3c,
    0x8c, 0x5c, 0xbd, 0xbc, 0x58, 0x47, 0x68, 0x3c, 0xc1, 0xf2, 0x5f, 0x3c,
    0xee, 0xdc, 0x1d, 0x3b, 0xa0, 0x18, 0x87, 0x3c, 0x53, 0xa0, 0x16, 0xbc,
    0x9f, 0xd8, 0x00, 0xbd, 0x87, 0x21, 0x9b, 0xbc, 0x13, 0xa2, 0xbe, 0xbb,
    0xee, 0x7a, 0x3c, 0x3c, 0x0a, 0xb1, 0xcd, 0x3b, 0x17, 0x69, 0xa5, 0x3c,
    0xfc, 0x79, 0x9a, 0x3c, 0xd1, 0x0c, 0xdb, 0xbc, 0xa1, 0x01, 0xfa, 0xbc,
    0xbc, 0x49, 0x1f, 0xbc, 0x01, 0xe8, 0x35, 0xbc, 0x0a, 0x20, 0x6e, 0xbc,
    0x67, 0x1a, 0xa8, 0x3c, 0x8a, 0xa4, 0x6a, 0xbc, 0xfc, 0x96, 0x79, 0x3c,
    0xa3, 0x82, 0xa9, 0x3c, 0x01, 0xfe, 0x38, 0x3c, 0x20, 0x5f, 0x11, 0x3c,
    0xcc, 0xb2, 0xb6, 0xbc, 0xdc, 0x6e, 0xcd, 0xbc, 0x50, 0x54, 0x8f, 0xbc,
    0xb7, 0x8a, 0x3f, 0x3b, 0x78, 0x99, 0xdd, 0x3c, 0xee, 0xe4, 0xd4, 0x3c,
    0x00, 0x08, 0xa3, 0xbc, 0x54, 0xb0, 0x01, 0xbd, 0x05, 0x3d, 0x58, 0xbc,
    0x0a, 0xf5, 0xd6, 0x3c, 0x6e, 0xc5, 0x7b, 0xba, 0xf7, 0x33, 0xa9, 0x3c,
    0x0a, 0x3f, 0xf7, 0x3b, 0xc5, 0x3d, 0x0a, 0x3c, 0xa0, 0x3b, 0x84, 0x3c,
    0xfb, 0xeb, 0x09, 0x3d, 0x93, 0xf9, 0x50, 0xbc, 0x85, 0x75, 0x3a, 0xbc,
    0xac, 0x56, 0xae, 0x3c, 0xec, 0x9a, 0xd5, 0x3c, 0x37, 0x81, 0xab, 0xbb,
    0x32, 0x0d, 0x10, 0xbd, 0x93, 0xc4, 0x10, 0xba, 0xce, 0x96, 0x25, 0xbc,
    0x8e, 0x63, 0xb6, 0xbc, 0x8e, 0xa3, 0x38, 0xbc, 0x80, 0x48, 0x1d, 0xbb,
    0xdc, 0xf4, 0x9d, 0xbb, 0x47, 0x1f, 0xcb, 0x3c, 0xd8, 0xf7, 0x0d, 0x3d,
    0x9c, 0x90, 0xec, 0x3c, 0x00, 0x56, 0x10, 0x3d, 0x57, 0x31, 0x47, 0xbc,
    0xea, 0x2c, 0x25, 0x3c, 0x81, 0x9e, 0xb7, 0xbc, 0x00, 0xcc, 0x01, 0xbc,
    0x73, 0xa4, 0x43, 0xbc, 0x54, 0xc8, 0x11, 0xbd, 0xee, 0x88, 0xb1, 0xbc,
    0x6e, 0x20, 0x5f, 0x3b, 0x33, 0x00, 0x72, 0xbc, 0xcd, 0x59, 0x10, 0x3d,
    0xce, 0xe7, 0x06, 0x3c, 0x02, 0x39, 0x04, 0xbd, 0xc3, 0x2e, 0xfb, 0xbc,
    0x7e, 0x97, 0x05, 0xbd, 0xa5, 0x10, 0x77, 0xbb, 0x4a, 0xb3, 0x14, 0x3b,
    0xb5, 0x82, 0x0f, 0x3d, 0x77, 0x8b, 0x88, 0x3b, 0x41, 0x85, 0xe7, 0xbc,
    0xca, 0xde, 0x48, 0xbc, 0xce, 0xbc, 0x67, 0xbc, 0x83, 0xc9, 0xe3, 0xbc,
    0x73, 0x0c, 0x93, 0x3c, 0x96, 0xb8, 0x06, 0xbd, 0xfc, 0x7b, 0x7b, 0xbc,
    0x1a, 0x70, 0xb8, 0xbc, 0xb3, 0x76, 0x87, 0x3c, 0xd3, 0xc6, 0xb1, 0x3c,
    0x37, 0xf0, 0x2f, 0xbc, 0xdd, 0x0f, 0x0e, 0xbd, 0x73, 0xe1, 0x32, 0x3c,
    0x85, 0xb3, 0x8f, 0xbc, 0x4e, 0x5a, 0x27, 0xbc, 0xc5, 0x6c, 0x06, 0x3d,
    0x4a, 0xac, 0x37, 0x3c, 0xda, 0x0e, 0x0a, 0xbd, 0x6e, 0x0e, 0xda, 0xba,
    0xf3, 0xab, 0xbb, 0x3c, 0x61, 0xb4, 0xf6, 0x3c, 0xf3, 0x3d, 0x4c, 0x3c,
    0x93, 0x6a, 0x78, 0x3a, 0xc5, 0x67, 0xe4, 0xbc, 0x6a, 0xd5, 0xac, 0xbc,
    0x18, 0xb2, 0xf0, 0x3c, 0xa5, 0xa4, 0x5a, 0x3c, 0xfc, 0x80, 0x21, 0xbc,
    0x1e, 0x5c, 0xe1, 0x3c, 0x93, 0xdb, 0xf3, 0x3c, 0x21, 0xe0, 0xe9, 0x3c,
    0xf1, 0x76, 0xe7, 0xbc, 0x93, 0xc6, 0xf4, 0x3b, 0xa8, 0x5d, 0xeb, 0x3c,
    0xa8, 0x20, 0xe9, 0xbc, 0x6a, 0xd2, 0x18, 0xbc, 0x93, 0xb2, 0x92, 0xbb,
    0x0a, 0x4b, 0x9c, 0xbc, 0xb3, 0x6c, 0xfd, 0xbc, 0xa5, 0x1f, 0xec, 0xbc,
    0x80, 0xc8, 0x11, 0xbc, 0xa5, 0xed, 0x07, 0xbc, 0x4e, 0xcd, 0x1a, 0x3c,
    0xc5, 0x24, 0xca, 0xbc, 0x4a, 0x4f, 0xc4, 0x3a, 0xcf, 0xc0, 0x05, 0xbd,
    0xde, 0x46, 0xc1, 0xbc, 0x25, 0x0c, 0xee, 0xbb, 0x81, 0x76, 0x62, 0xbc,
    0xb7, 0x93, 0x9a, 0x3b, 0x11, 0xac, 0xcf, 0xbc, 0x6e, 0xeb, 0x48, 0xb9,
    0xc5, 0xf2, 0x67, 0x3c, 0x41, 0x0d, 0xc7, 0xbc, 0xcb, 0x64, 0x0e, 0xbd,
    0x87, 0x57, 0x95, 0xbc, 0x9a, 0x8c, 0xcb, 0x3c, 0x58, 0x50, 0x68, 0xbc,
    0x93, 0x78, 0x07, 0x3c, 0x3c, 0x3c, 0xaf, 0x3c, 0x53, 0x78, 0x24, 0x3c,
    0xa1, 0x0d, 0xe2, 0xbc, 0x90, 0xf2, 0x90, 0x3c, 0xe5, 0x96, 0xc8, 0x3b,
    0xb1, 0x22, 0xf5, 0x3c, 0xe5, 0xb6, 0x89, 0xbc, 0x84, 0x8f, 0x10, 0x3d,
    0xde, 0xca, 0xb9, 0x3c, 0xca, 0x44, 0xfc, 0x3c, 0xd3, 0x7b, 0xf3, 0xbb,
    0xd7, 0x00, 0x29, 0x3c, 0x4a, 0x2c, 0x5e, 0x3c, 0x1c, 0xe6, 0x83, 0xbb,
    0x13, 0xc4, 0xb1, 0xbb, 0x6c, 0xc6, 0x8a, 0xbc, 0x21, 0x1a, 0x53, 0xbc,
    0xb7, 0x51, 0xc2, 0x39, 0x33, 0xb9, 0x3b, 0xbc, 0xcc, 0xb2, 0xdf, 0xbc,
    0x5c, 0x4a, 0x6d, 0x3b, 0xa5, 0xfb, 0x44, 0xbb, 0x3a, 0xa6, 0x86, 0xbc,
    0x41, 0xa1, 0xf9, 0xbc, 0x7a, 0x11, 0xcc, 0x3c, 0x73, 0x6f, 0xb1, 0xbc,
    0x02, 0x24, 0x09, 0x3d, 0xa5, 0xef, 0x40, 0x3b, 0x7e, 0xf2, 0xd8, 0xbc,
    0xfa, 0xca, 0x86, 0x3c, 0x45, 0xe6, 0xaa, 0x3c, 0xfa, 0x71, 0x97, 0x3c,
    0x8c, 0xc4, 0xdd, 0xbc, 0xaa, 0xf2, 0x86, 0xbc, 0xee, 0x35, 0x0a, 0x3c,
    0x55, 0xf8, 0x96, 0x3c, 0x01, 0xc8, 0x49, 0x3a, 0xbc, 0x2e, 0x01, 0x3d,
    0x81, 0xe5, 0x6f, 0xbc, 0xe3, 0x9c, 0xfa, 0xbc, 0xc0, 0xd5, 0x05, 0x3d,
    0x6c, 0xfa, 0xd5, 0xbc, 0x93, 0x19, 0x83, 0xba, 0xee, 0xbc, 0x53, 0xbc,
    0x7c, 0xe3, 0xc5, 0xbc, 0x18, 0x90, 0xff, 0xbc, 0x1c, 0x51, 0x8e, 0x3b,
    0xb2, 0xeb, 0x08, 0x3d, 0x0e, 0x86, 0x16, 0xbc, 0x01, 0x14, 0x2c, 0x3c,
    0x13, 0xfe, 0x16, 0x3b, 0x05, 0x8b, 0xdf, 0xbc, 0xc1, 0x55, 0x3b, 0x3c,
    0x03, 0x45, 0xea, 0x3c, 0xe4, 0x3c, 0x03, 0x3d, 0x05, 0x25, 0x5f, 0xbc,
    0xc5, 0xda, 0xc9, 0x3c, 0x93, 0x26, 0x1c, 0xbb, 0x81, 0x18, 0x70, 0x3c,
    0x2e, 0x6e, 0xcf, 0x3b, 0xa1, 0x51, 0xc8, 0xbc, 0xc7, 0x26, 0xb1, 0xbc,
    0xe1, 0x0d, 0x52, 0xbc, 0x03, 0xd7, 0x97, 0xbc, 0x00, 0x21, 0x93, 0x3b,
    0x4a, 0xc5, 0xe2, 0xba, 0x0c, 0x5e, 0x89, 0xbc, 0xae, 0x17, 0x80, 0xbc,
    0x5c, 0x4f, 0xf5, 0x3b, 0x5a, 0xb0, 0x02, 0x3d, 0xba, 0x58, 0xef, 0xbc,
    0xfc, 0x05, 0xe1, 0x3c, 0x34, 0x50, 0x04, 0xbd, 0x53, 0xec, 0x80, 0xbb,
    0x93, 0x4a, 0x9b, 0xbb, 0x9c, 0xa7, 0xc3, 0x3c, 0xe5, 0x69, 0xf6, 0xbb,
    0xdc, 0xae, 0x58, 0x39, 0xdd, 0xfd, 0x0b, 0x3d, 0x97, 0x48, 0xd3, 0xbc,
    0xa5, 0x2d, 0xa6, 0x3c, 0x53, 0x7b, 0x09, 0x3d, 0x23, 0x04, 0xd3, 0x3c,
    0xae, 0x65, 0xff, 0x3b, 0x37, 0xc2, 0xb9, 0x3b, 0x03, 0x04, 0xd2, 0x3c,
    0x9e, 0xb7, 0xcd, 0x3c, 0x93, 0x94, 0xba, 0x3a, 0x45, 0x73, 0x06, 0x3c,
    0x0f, 0xdc, 0x06, 0xbd, 0x3c, 0x72, 0x4c, 0x3c, 0x41, 0x46, 0xec, 0xbb,
    0x3c, 0x1c, 0xb5, 0xbc, 0xae, 0x84, 0xc5, 0xbb, 0xe6, 0xb6, 0x03, 0x3d,
    0x6e, 0x52, 0xa9, 0x3c, 0x9a, 0x61, 0xb2, 0x3c, 0xca, 0x3c, 0xfd, 0x3c,
    0x6e, 0xc1, 0x07, 0x3d, 0x5a, 0x8a, 0xc5, 0x3c, 0x07, 0x8e, 0x93, 0xbc,
    0xa5, 0x02, 0xeb, 0x3b, 0x75, 0xec, 0xca, 0x3c, 0xe3, 0xf8, 0xae, 0x3c,
    0x5c, 0x4f, 0x6a, 0xbc, 0xfc, 0xd9, 0x25, 0x3c, 0x07, 0x53, 0xcc, 0xbc,
    0xe5, 0x6b, 0xa2, 0xbc, 0xba, 0x94, 0xda, 0xbc, 0xe8, 0x79, 0x01, 0x3d,
    0xee, 0x63, 0xc0, 0x3b, 0x25, 0xf7, 0x6c, 0x3b, 0x31, 0x93, 0xc2, 0x3c,
    0xce, 0x97, 0x8c, 0xbc, 0xfa, 0x20, 0xf8, 0x3c, 0xfa, 0xb4, 0xac, 0xbc,
    0xe8, 0x7f, 0xea, 0x3c, 0x8e, 0xa2, 0xee, 0x3c, 0x0c, 0x19, 0xdc, 0x3c,
    0x65, 0xa9, 0x57, 0x3c, 0xe1, 0xf8, 0x75, 0xbc, 0x98, 0xe1, 0xe9, 0xbc,
    0x31, 0xea, 0xc8, 0x3c, 0xbb, 0x4a, 0x07, 0x3d, 0x80, 0x03, 0x12, 0xbc,
    0xfe, 0x08, 0xb1, 0xbc, 0x65, 0x53, 0x06, 0xbc, 0x1a, 0x6c, 0x03, 0x3d,
    0x25, 0x25, 0xd1, 0xba, 0xde, 0x81, 0xfc, 0x3c, 0xb8, 0xe0, 0xee, 0xbc,
    0xa3, 0xa4, 0xd6, 0x3c, 0x76, 0x36, 0x0e, 0xbd, 0xdc, 0x85, 0x96, 0x3a,
    0x85, 0xdc, 0x55, 0x3c, 0x91, 0x99, 0xc5, 0x3c, 0x10, 0x02, 0x9f, 0x3c,
    0x03, 0x28, 0xc7, 0x3c, 0x53, 0xa9, 0x95, 0xbc, 0x0a, 0x67, 0xe9, 0xbb,
    0x38, 0xe7, 0xe7, 0x3b, 0x88, 0x10, 0xfb, 0xbc, 0x1e, 0xcb, 0x92, 0x3c,
    0x53, 0xb1, 0xf9, 0x3c, 0xa1, 0x6a, 0xc6, 0x3c, 0x8a, 0x2d, 0x9b, 0x3c,
    0x31, 0x9e, 0xce, 0xbc, 0x76, 0xeb, 0x07, 0x3d, 0x45, 0x66, 0x63, 0xbc,
    0x87, 0xb7, 0xa1, 0xbc, 0x9c, 0xbb, 0xf2, 0x3b, 0xe4, 0xf1, 0x0d, 0xbd,
    0xb7, 0xb9, 0x48, 0x3a, 0xb6, 0xe1, 0x10, 0xbd, 0x75, 0xb1, 0x97, 0x3c,
    0x77, 0x87, 0x93, 0xbc, 0x25, 0x4e, 0x07, 0x3b, 0xcc, 0xe1, 0x10, 0x3d,
    0x98, 0x98, 0xe3, 0x3c, 0x4a, 0x3f, 0x50, 0xbb, 0x5c, 0xbb, 0xd9, 0xbb,
    0x6a, 0xb5, 0xf8, 0xbc, 0xac, 0x02, 0x8d, 0xbc, 0x41, 0xb0, 0xdf, 0xbc,
    0x8e, 0xf7, 0x8e, 0x3c, 0x97, 0x30, 0x9a, 0x3c, 0x57, 0x67, 0xba, 0xbc,
    0xe7, 0xc5, 0xd6, 0xbc, 0xd0, 0x1c, 0x87, 0xbc, 0x00, 0x69, 0x18, 0xbb,
    0x27, 0x32, 0xaa, 0xbc, 0x15, 0xd2, 0xab, 0xbc, 0x95, 0xa9, 0xe4, 0x3c,
    0xb7, 0x5a, 0xa2, 0xbb, 0xaa, 0x2c, 0x3f, 0x3c, 0xd3, 0x55, 0x76, 0xbc,
    0xde, 0xd2, 0x85, 0x3c, 0xce, 0xe3, 0xa2, 0x3c, 0x8a, 0x55, 0xe5, 0xbb,
    0x2c, 0x98, 0xf4, 0x3c, 0xba, 0x79, 0x8d, 0xbc, 0x35, 0x4f, 0xfd, 0xbc,
    0x85, 0x2a, 0xcf, 0xbc, 0x6a, 0xe6, 0x89, 0x3c, 0x45, 0xca, 0x35, 0xbc,
    0x65, 0x02, 0x98, 0x3c, 0x95, 0x08, 0x11, 0x3d, 0x53, 0x3b, 0x28, 0xbc,
    0x4a, 0xfd, 0xc1, 0xbc, 0x2f, 0xd4, 0x03, 0xbd, 0xb1, 0x4a, 0xbf, 0x3c,
    0x27, 0xd4, 0x9c, 0x3c, 0x00, 0xdc, 0x1e, 0xbb, 0x93, 0x68, 0x8b, 0xb9,
    0x9c, 0xc2, 0xe8, 0x3b, 0xa3, 0x21, 0x8a, 0x3c, 0x9f, 0x3c, 0x02, 0xbd,
    0xd1, 0xb1, 0xee, 0x3c, 0xac, 0x5c, 0x04, 0x3d, 0x8c, 0x9a, 0xec, 0xbc,
    0xe7, 0x13, 0xba, 0xbc, 0xbc, 0x96, 0x8e, 0xbc, 0x6e, 0x07, 0x7d, 0xba,
    0xd2, 0x2b, 0x06, 0x3d, 0xa1, 0x3b, 0x6d, 0x3c, 0x41, 0xb6, 0xcf, 0x3b,
    0xb8, 0x35, 0x75, 0x39, 0x78, 0x3c, 0xf9, 0x3b, 0x01, 0xd0, 0x52, 0x3c,
    0xf0, 0x50, 0x94, 0xbc, 0x93, 0xf5, 0xef, 0xbc, 0xe7, 0xe2, 0x83, 0xbc,
    0xf3, 0x6f, 0x16, 0x3c, 0x15, 0xb3, 0x8f, 0xbc, 0x38, 0x4a, 0xf0, 0x3b,
    0xee, 0x2f, 0x36, 0x3c, 0x81, 0x96, 0xbf, 0xbb, 0x9c, 0x05, 0x41, 0xbc,
    0x6c, 0xb0, 0x9c, 0xbc, 0xfc, 0x1b, 0x50, 0x3c, 0xd3, 0x71, 0x7b, 0xbc,
    0x55, 0xa9, 0xbb, 0x3c, 0xc1, 0x2b, 0xeb, 0x3b, 0x1c, 0x8a, 0xc1, 0x3c,
    0x3c, 0x69, 0xcc, 0x3c, 0xae, 0xb3, 0x85, 0x3b, 0xa5, 0xf2, 0x25, 0x3c,
    0x5c, 0x02, 0x7b, 0xbc, 0x8c, 0xdc, 0x91, 0x3c, 0x5e, 0xf1, 0x96, 0x3c,
    0x13, 0x27, 0x18, 0xbc, 0xe5, 0x09, 0x94, 0xbc, 0x43, 0xb6, 0x9a, 0x3c,
    0x65, 0x72, 0x3d, 0x3c, 0x37, 0xe9, 0x30, 0xbb, 0x1c, 0x12, 0xa7, 0x3b,
    0x5c, 0x9c, 0xcf, 0xbc, 0xe5, 0xa0, 0x9c, 0xbb, 0x30, 0xbc, 0x08, 0x3d,
    0xee, 0xb3, 0xfa, 0x3c, 0xda, 0x00, 0x8c, 0x3c, 0x80, 0x41, 0x01, 0xbc,
    0xbc, 0x0c, 0x8e, 0x3c, 0x67, 0xf3, 0x9b, 0xbc, 0x1c, 0xd9, 0x6e, 0x3c,
    0x65, 0x75, 0xa0, 0xbb, 0xd7, 0xf1, 0xa8, 0x3c, 0x93, 0xe8, 0xae, 0x3a,
    0xa0, 0xad, 0x09, 0xbc, 0xe8, 0x10, 0xfb, 0x3c, 0x93, 0x16, 0xc9, 0x3c,
    0x61, 0xd1, 0x46, 0x3c, 0xa7, 0xc8, 0xd1, 0x3c, 0xd7, 0xf0, 0x00, 0xbc,
    0x57, 0xd5, 0x45, 0xbc, 0x23, 0xaa, 0xa5, 0xbc, 0xcc, 0x82, 0x96, 0xbc,
    0xd3, 0xf2, 0xc3, 0x3b, 0x25, 0x26, 0x39, 0x3b, 0x63, 0x5b, 0xd8, 0xbc,
    0xc6, 0xcc, 0x0e, 0x3d, 0xda, 0x5c, 0xca, 0x3c, 0x45, 0x05, 0xaa, 0x3c,
    0x7e, 0xcc, 0xba, 0x3c, 0x87, 0xf1, 0x0c, 0xbd, 0xdc, 0x75, 0x3c, 0x3b,
    0x01, 0x00, 0x7f, 0xbb, 0xaa, 0x1e, 0x1d, 0x3c, 0x4a, 0xd5, 0xf6, 0xbc,
    0x65, 0x57, 0xe7, 0x3b, 0x57, 0x0e, 0xc7, 0x3c, 0x8a, 0xe7, 0x8a, 0x3b,
    0x4a, 0x8a, 0xe2, 0x3b, 0x9c, 0x21, 0x89, 0xbb, 0xc1, 0x23, 0xc8, 0x3b,
    0xee, 0xe5, 0x86, 0xbb, 0x97, 0x9d, 0x07, 0x3d, 0x7e, 0xe0, 0x09, 0x3d,
    0xda, 0x01, 0xbf, 0x3c, 0x5e, 0x39, 0xed, 0xbc, 0x36, 0xbd, 0x07, 0x3d,
    0x01, 0x59, 0x46, 0xbc, 0xfc, 0xb4, 0x29, 0x3c, 0xdc, 0x92, 0x40, 0xbb,
    0x01, 0x1c, 0x47, 0x3b, 0xce, 0x91, 0xa3, 0xbc, 0xae, 0x7a, 0xe8, 0xbb,
    0x85, 0x98, 0x32, 0x3c, 0xba, 0x5c, 0xf0, 0x3c, 0xbc, 0x72, 0x26, 0xbc,
    0xff, 0xd0, 0x01, 0x3d, 0x01, 0xc8, 0xc1, 0xb9, 0xf7, 0xcf, 0xa0, 0xbc,
    0x4a, 0xb2, 0xaf, 0x3c, 0x4a, 0x02, 0x89, 0x3c, 0x1a, 0xf5, 0x08, 0x3d,
    0xf3, 0xf7, 0x28, 0x3c, 0xb7, 0xa1, 0x85, 0x39, 0xf1, 0xe6, 0xf5, 0x3c,
    0x13, 0x3c, 0xfb, 0xbc, 0x95, 0x44, 0x8d, 0x3c, 0xc0, 0xfd, 0x93, 0x3c,
    0x85, 0xc7, 0x46, 0x3c, 0x6a, 0x11, 0x5e, 0x3c, 0x45, 0xe0, 0xe3, 0xbc,
    0x2e, 0xd4, 0x0e, 0xbd, 0xdc, 0x46, 0x9f, 0x3b, 0x60, 0x10, 0x8d, 0xbc,
    0x93, 0xa1, 0x02, 0x3c, 0x3f, 0x7d, 0x00, 0xbd, 0x90, 0x5d, 0x89, 0xbc,
    0x45, 0x03, 0xed, 0xbc, 0x4a, 0x56, 0x85, 0xbc, 0x9c, 0xbe, 0xe6, 0xbc,
    0x37, 0x45, 0x98, 0x3b, 0xb7, 0xd1, 0x2d, 0xba, 0xfd, 0x17, 0x06, 0xbd,
    0x6e, 0x72, 0x19, 0xbb, 0x9c, 0xb3, 0x0c, 0x3c, 0xdd, 0xce, 0x01, 0xbd,
    0x83, 0xa5, 0x86, 0x3c, 0x4a, 0xf2, 0xb6, 0x3c, 0x2e, 0x3a, 0x24, 0xbc,
    0x71, 0x9f, 0xc8, 0xbc, 0xfc, 0xab, 0x66, 0x3c, 0x7b, 0x59, 0x05, 0x3d,
    0xc5, 0xd4, 0xbf, 0xbc, 0x6e, 0x02, 0x1b, 0x3c, 0xa5, 0xfa, 0xb6, 0x3b,
    0x62, 0x1f, 0x0f, 0x3d, 0xae, 0xec, 0x08, 0xbc, 0x93, 0xc2, 0x04, 0xbc,
    0x9c, 0x9d, 0x6f, 0x3c, 0x21, 0xc9, 0xc9, 0xbc, 0x27, 0x97, 0xcb, 0x3c,
    0x8a, 0x87, 0x93, 0xbc, 0x37, 0x06, 0xc6, 0xbc, 0x61, 0xb4, 0xf8, 0xbc,
    0x93, 0x04, 0x25, 0x38, 0xc8, 0x2a, 0x05, 0x3d, 0xaa, 0xb0, 0x8d, 0xbc,
    0x4e, 0xe3, 0xc4, 0xbc, 0x67, 0x76, 0xcc, 0x3c, 0xe5, 0x3c, 0xc2, 0xbb,
    0x6f, 0x0b, 0x0d, 0xbd, 0x6c, 0xc4, 0xca, 0xbc, 0x2e, 0x5d, 0x80, 0x3c,
    0x08, 0x95, 0xdb, 0xbc, 0xee, 0x69, 0xa4, 0xbb, 0xea, 0x0f, 0xf8, 0xbc,
    0x9a, 0xc9, 0x86, 0xbc, 0xff, 0x70, 0x08, 0xbd, 0x0a, 0x32, 0xe8, 0xbc,
    0x8a, 0x06, 0xc8, 0xbb, 0xa5, 0xe3, 0xe0, 0xbc, 0xda, 0x5b, 0xb3, 0x3c,
    0xf3, 0xa0, 0x0d, 0x3c, 0x75, 0x3c, 0xa3, 0xbc, 0xc5, 0x1a, 0x11, 0x3c,
    0xdc, 0xc1, 0xaa, 0x3a, 0x46, 0x11, 0x11, 0x3d, 0x3c, 0x7d, 0x51, 0xbc,
    0x00, 0x0a, 0x95, 0x3b, 0xdc, 0x03, 0x76, 0x3b, 0x97, 0x81, 0x09, 0xbc,
    0xee, 0x2c, 0xd0, 0xbc, 0xf6, 0x30, 0x05, 0xbd, 0x13, 0x8b, 0x9a, 0x3b,
    0x13, 0x43, 0x40, 0x3b, 0x3c, 0x7a, 0x6d, 0x3c, 0xa5, 0xdf, 0x46, 0x3b,
    0x25, 0x93, 0xaa, 0xbc, 0x98, 0xb7, 0xed, 0x3c, 0xd3, 0xe7, 0xac, 0x3c,
    0x0e, 0xa2, 0x78, 0xbc, 0xa5, 0xde, 0x42, 0x3b, 0xc5, 0x63, 0x6e, 0x3c,
    0x78, 0xd9, 0x11, 0x3d, 0x12, 0x84, 0x02, 0xbd, 0x4a, 0x44, 0x6d, 0xba,
    0x7a, 0xa5, 0xe1, 0x3c, 0x90, 0xfc, 0x83, 0xbc, 0x1a, 0x74, 0x07, 0x3d,
    0xfc, 0x4a, 0xc8, 0x3c, 0xbc, 0x4f, 0x06, 0x3d, 0xe0, 0xa7, 0xa5, 0xbc,
    0xf3, 0x19, 0x01, 0xbd, 0xee, 0xa3, 0xe3, 0x3b, 0x1c, 0x93, 0x10, 0xbd,
    0x37, 0x8e, 0xac, 0x3b, 0x3a, 0x72, 0xf7, 0xbc, 0x8a, 0x32, 0xd5, 0x3c,
    0xbe, 0x7c, 0xbc, 0x3c, 0x07, 0xe1, 0x82, 0xbc, 0x57, 0x54, 0x83, 0x3c,
    0x00, 0xbc, 0x0c, 0xbc, 0x3c, 0xab, 0x0b, 0x3c, 0xbc, 0x4a, 0xbc, 0x3c,
    0xba, 0xa1, 0xb0, 0xbc, 0x46, 0x76, 0x07, 0xbd, 0x35, 0x69, 0x0c, 0x3d,
    0x13, 0x2a, 0x9d, 0x3b, 0xe5, 0x08, 0x13, 0xbc, 0xc1, 0x3d, 0xdb, 0xbb,
    0x25, 0x49, 0xfb, 0xbb, 0xc2, 0xe7, 0x0a, 0xbd, 0xb7, 0x32, 0xbf, 0xbb,
    0x0b, 0x60, 0x0a, 0xbd, 0x01, 0x62, 0x30, 0xbb, 0x07, 0x5b, 0x80, 0x3c,
    0x00, 0x28, 0x02, 0x3c, 0x93, 0x85, 0xb9, 0xbc, 0xa2, 0x58, 0x02, 0x3d,
    0xf3, 0x27, 0x5c, 0x3c, 0x2e, 0xbe, 0xcf, 0xbb, 0x13, 0x23, 0xf9, 0x3b,
    0x0c, 0xe6, 0xd2, 0x3c, 0x1c, 0x1f, 0x9d, 0xbc, 0xee, 0xc0, 0x80, 0xbc,
    0xf8, 0x76, 0xf8, 0x3b, 0x13, 0xe2, 0x05, 0x3d, 0x53, 0x21, 0xdf, 0x3b,
    0x25, 0x26, 0x02, 0xbc, 0xfc, 0x55, 0xc1, 0x3c, 0xd3, 0x28, 0xf5, 0x3b,
    0xb8, 0x41, 0x73, 0xbb, 0x72, 0x4b, 0x0d, 0xbd, 0x45, 0x63, 0x83, 0xbc,
    0x45, 0x28, 0x56, 0x3c, 0x93, 0xf0, 0xc8, 0xbc, 0x41, 0xc7, 0xeb, 0x3b,
    0x25, 0xcf, 0x89, 0x3a, 0x5c, 0xee, 0xab, 0x3c, 0x37, 0x2f, 0x82, 0xbc,
    0xb7, 0xa4, 0x2e, 0xbb, 0xe0, 0xf2, 0x96, 0x3c, 0xfe, 0xa9, 0xcd, 0x3c,
    0x0a, 0x6d, 0xfb, 0x3b, 0x55, 0x1a, 0xde, 0xbc, 0xee, 0x33, 0x80, 0xbc,
    0x8e, 0x83, 0x36, 0xbc, 0x57, 0xfe, 0x0d, 0xbd, 0xca, 0xb6, 0x6c, 0x3b,
    0x9c, 0x14, 0xd6, 0x3b, 0x67, 0x1d, 0x03, 0x3d, 0x67, 0x74, 0x8a, 0x3c,
    0xfe, 0x8e, 0xe5, 0x3c, 0x6e, 0x8d, 0xda, 0x3b, 0xa3, 0xe2, 0xeb, 0xbc,
    0x81, 0x70, 0xcf, 0x3b, 0x6c, 0xcc, 0xe9, 0xbc, 0xa5, 0x7e, 0x19, 0xbb,
    0x50, 0x05, 0x9f, 0xbc, 0x17, 0xec, 0x8d, 0xbc, 0x61, 0x6e, 0xf6, 0xbc,
    0x5e, 0x7e, 0x82, 0xbc, 0xdc, 0x44, 0x2c, 0x3b, 0xd1, 0x4e, 0xbf, 0xbc,
    0x4a, 0x08, 0x25, 0x3b, 0x0a, 0x15, 0xd4, 0x3c, 0x45, 0x1b, 0x5c, 0x3c,
    0xee, 0xa5, 0x71, 0xbb, 0xe5, 0x4b, 0x8f, 0xbc, 0x7e, 0x55, 0xa3, 0xbc,
    0x20, 0xa8, 0x03, 0x3c, 0x7c, 0x1b, 0xcb, 0xbc, 0xb3, 0x62, 0x4a, 0xbc,
    0x4c, 0xcd, 0x07, 0x3d, 0x4a, 0xe5, 0x94, 0xbc, 0x60, 0x8c, 0x0e, 0xbc,
    0xc1, 0xc6, 0x48, 0xbc, 0x17, 0xa7, 0x3e, 0xbc, 0x6a, 0x02, 0x0f, 0x3d,
    0x7e, 0x75, 0xf8, 0xbc, 0xba, 0xce, 0xcb, 0xbc, 0x6e, 0x83, 0xec, 0x39,
    0x93, 0x3e, 0xbd, 0xba, 0x61, 0xc9, 0xe3, 0x3c, 0x01, 0xb9, 0xc7, 0xbb,
    0xf7, 0xb2, 0xd0, 0x3c, 0xca, 0x7b, 0x46, 0xbb, 0xc6, 0xfc, 0x08, 0x3d,
    0x4e, 0x66, 0x4c, 0x3c, 0x7c, 0x8f, 0xfb, 0x3c, 0xc5, 0xd0, 0xee, 0xbc,
    0x2c, 0xfd, 0x05, 0x3d, 0x6a, 0xfd, 0xd9, 0x3c, 0x70, 0x50, 0x06, 0x3d,
    0xdc, 0x08, 0x54, 0xbb, 0xf7, 0x80, 0xb2, 0x3c, 0x25, 0x64, 0x29, 0xbc,
    0x4a, 0x74, 0x32, 0x3c, 0x6a, 0x31, 0xcb, 0xbc, 0x15, 0xf5, 0xd3, 0x3c,
    0x7c, 0x46, 0xca, 0x3c, 0x25, 0x65, 0x36, 0x3c, 0x13, 0x71, 0xfe, 0xbb,
    0x4c, 0x7f, 0x90, 0x3c, 0x9c, 0x45, 0x92, 0x3b, 0x6a, 0x0e, 0x90, 0x3c,
    0x2e, 0xf6, 0x2f, 0x3c, 0x25, 0x01, 0xf9, 0xb9, 0xbe, 0x37, 0xfc, 0x3c,
    0x83, 0x87, 0x06, 0x3d, 0x9c, 0xb8, 0xe1, 0x3b, 0xd7, 0x63, 0x9e, 0x3c,
    0x93, 0x82, 0x9f, 0xbb, 0x97, 0x23, 0xce, 0x3c, 0xf3, 0x55, 0x06, 0xbc,
    0xc3, 0xa5, 0xfe, 0xbc, 0xb3, 0x51, 0x0b, 0xbc, 0xf7, 0xcd, 0xc2, 0x3c,
    0xa3, 0x7f, 0xb6, 0xbc, 0xfc, 0x98, 0xc1, 0xbc, 0x85, 0x5d, 0xf9, 0x3c,
    0x6a, 0x6a, 0x2c, 0xbc, 0x7b, 0x70, 0x02, 0x3d, 0x01, 0xe7, 0xe2, 0x3a,
    0xbc, 0x53, 0x4a, 0x3c, 0x2e, 0xbf, 0xd8, 0x3b, 0xaa, 0xa0, 0xbf, 0xbc,
    0x6e, 0xd4, 0x63, 0x3b, 0x1c, 0x46, 0x78, 0x3c, 0xb8, 0x88, 0xe4, 0x3a,
    0xb7, 0x37, 0xc2, 0xbb, 0xf1, 0xe2, 0xb6, 0x3c, 0xb8, 0xf6, 0x76, 0x3b,
    0x1c, 0x70, 0xe9, 0x3c, 0x93, 0xc0, 0xda, 0xbc, 0x01, 0xdc, 0x63, 0xbb,
    0x6e, 0x1f, 0xf6, 0x3a, 0x4a, 0xbc, 0x00, 0xbb, 0xaa, 0x44, 0xd4, 0x3c,
    0x30, 0xbd, 0x0d, 0x3d, 0x98, 0xa0, 0x76, 0xbc, 0xc1, 0x9b, 0xbf, 0x3b,
    0x81, 0x10, 0x5b, 0xbb, 0x2e, 0xa8, 0xf8, 0xbb, 0xaa, 0x5d, 0x9e, 0x3c,
    0xca, 0x8c, 0x67, 0xbc, 0xa5, 0xe3, 0x7c, 0x3b, 0xee, 0x56, 0xef, 0xbb,
    0xee, 0x5f, 0x76, 0x3c, 0x97, 0x7a, 0x20, 0x3c, 0xda, 0x53, 0xf5, 0xbc,
    0xf1, 0x34, 0xf0, 0xbc, 0x43, 0x0a, 0xea, 0xbc, 0xfe, 0xf0, 0xbd, 0xbc,
    0x0e, 0x1b, 0x97, 0xbc, 0x2e, 0xb9, 0xb4, 0xbb, 0x57, 0xdc, 0x03, 0xbc,
    0xe5, 0xcd, 0xd3, 0xbb, 0x1c, 0xf9, 0x14, 0xbc, 0xda, 0xc3, 0xc5, 0x3c,
    0x77, 0x73, 0xd5, 0x3c, 0x0a, 0x73, 0xa5, 0xbb, 0xb7, 0xeb, 0xa5, 0xbb,
    0xe5, 0xde, 0x8a, 0xbc, 0x23, 0x6d, 0xa3, 0xbc, 0xdc, 0x8c, 0x97, 0xbc,
    0x7e, 0x5c, 0xe6, 0x3c, 0x2e, 0xd8, 0x52, 0x3c, 0xad, 0x40, 0x02, 0x3d,
    0x61, 0x74, 0xf1, 0xbc, 0xc3, 0xb1, 0x91, 0xbc, 0xec, 0x52, 0x04, 0xbd,
    0x45, 0x45, 0x91, 0xbc, 0xd3, 0xc6, 0x11, 0x3d, 0xfa, 0xf5, 0xe4, 0xbc,
    0x13, 0xa3, 0xf0, 0xbc, 0x41, 0x32, 0x43, 0x3c, 0xda, 0xea, 0x0d, 0x3d,
    0xb7, 0xab, 0x9e, 0x3c, 0xdc, 0xa6, 0xff, 0xbc, 0x36, 0xeb, 0x07, 0x3d,
    0x80, 0x85, 0x99, 0x3b, 0xd3, 0xee, 0xbb, 0xbb, 0xd5, 0xd4, 0x10, 0xbd,
    0x93, 0x5a, 0x0f, 0x3c, 0x63, 0xc8, 0x94, 0x3c, 0x25, 0x3c, 0x93, 0xbb,
    0x71, 0xa0, 0xcc, 0x3c, 0x01, 0x80, 0xb6, 0xb8, 0x81, 0x63, 0xf8, 0xbc,
    0x7a, 0x41, 0x8f, 0xbc, 0xa7, 0xee, 0x8b, 0x3c, 0x65, 0x62, 0x38, 0xbc,
    0xf1, 0xb5, 0xc3, 0x3c, 0x41, 0x93, 0xb3, 0xbc, 0xa5, 0x60, 0xc3, 0x3c,
    0x4a, 0x32, 0x5b, 0x3b, 0x1c, 0x2e, 0xfa, 0xbc, 0x6a, 0x79, 0x5e, 0xbc,
    0x4a, 0x34, 0x0c, 0x3a, 0x73, 0x08, 0xe3, 0xbc, 0xca, 0x8c, 0x55, 0x3b,
    0xe5, 0xce, 0xbf, 0xbc, 0x3e, 0xd3, 0xac, 0x3c, 0x93, 0x96, 0x6c, 0x3c,
    0xae, 0xda, 0x25, 0x3c, 0x1c, 0x5b, 0xbb, 0xbc, 0x33, 0x05, 0x6e, 0x3c,
    0xc4, 0xdb, 0x0e, 0x3d, 0x8f, 0xf0, 0x07, 0x3d, 0xa1, 0xad, 0xd4, 0x3c,
    0x6e, 0x07, 0x9a, 0x3a, 0xba, 0xee, 0xd6, 0xbc, 0x53, 0xa3, 0xd0, 0xbc,
    0x4a, 0xb2, 0x44, 0xbc, 0xec, 0x5f, 0x9c, 0x3c, 0x65, 0xcd, 0x68, 0xbc,
    0xa8, 0xdb, 0xf2, 0x3c, 0x13, 0xf7, 0xb7, 0xbb, 0x5c, 0x17, 0xe4, 0x3c,
    0x07, 0x84, 0xad, 0xbc, 0x71, 0xa5, 0xd6, 0xbc, 0xd7, 0xd2, 0x8a, 0x3c,
    0x01, 0x20, 0x75, 0xbb, 0x5e, 0xa7, 0xbb, 0xbc, 0x4a, 0xf0, 0xfb, 0x3a,
    0x6e, 0x9c, 0xc8, 0x3a, 0xdc, 0x5a, 0x86, 0xb9, 0xec, 0x9b, 0x03, 0x3d,
    0xdc, 0xce, 0xc7, 0xba, 0xe5, 0x96, 0xc9, 0x3c, 0xe0, 0xb5, 0x86, 0x3c,
    0x8a, 0x56, 0xf3, 0xbb, 0xe5, 0xda, 0x30, 0x3c, 0x77, 0x25, 0xcd, 0x3b,
    0x41, 0x25, 0x43, 0xbc, 0xca, 0x26, 0xa3, 0x3b, 0xbe, 0x4e, 0xe3, 0xbc,
    0x8b, 0xa6, 0x0e, 0xbd, 0x65, 0xb4, 0x72, 0xbc, 0xfc, 0x3e, 0xdc, 0xbc,
    0xc8, 0xaf, 0xde, 0xbc, 0xee, 0xd1, 0x43, 0x3b, 0xae, 0x21, 0xcf, 0xbc,
    0xf8, 0xfb, 0xe7, 0xbc, 0xae, 0xae, 0xb1, 0x3c, 0xc1, 0x88, 0x6d, 0x3c,
    0x9c, 0xb8, 0xa8, 0xbb, 0x93, 0x22, 0x0f, 0x3a, 0xb8, 0xbf, 0x78, 0xbc,
    0xae, 0x8e, 0x63, 0x3c, 0x53, 0x55, 0x1d, 0x3c, 0x85, 0x35, 0xbb, 0xbc,
    0xde, 0x19, 0xc4, 0x3c, 0xfa, 0x26, 0xd5, 0x3c, 0xae, 0x62, 0xc2, 0x3b,
    0x2a, 0x71, 0xc9, 0xbc, 0x93, 0xf3, 0xd6, 0x3a, 0x8a, 0x5f, 0x36, 0xbc,
    0x98, 0xa8, 0xdb, 0x3c, 0x97, 0xba, 0xb9, 0xbc, 0xdc, 0x22, 0x91, 0x3c,
    0x9a, 0xcf, 0xaf, 0x3c, 0xe0, 0x4f, 0x20, 0x3c, 0x18, 0x53, 0x66, 0xbc,
    0x85, 0x49, 0x1e, 0x3c, 0xc5, 0xec, 0x0a, 0x3c, 0xd3, 0x3d, 0xf8, 0x3b,
    0x73, 0xc9, 0x06, 0xbc, 0x73, 0x9f, 0xfb, 0xbc, 0xdc, 0x4c, 0x5c, 0x3b,
    0x65, 0x23, 0x87, 0xbc, 0x1c, 0x0e, 0xe9, 0xbb, 0x5c, 0x54, 0x1c, 0xbb,
    0xf0, 0x8c, 0x0f, 0x3d, 0xcc, 0x42, 0xfc, 0x3c, 0x1c, 0x93, 0x2c, 0x3c,
    0x77, 0x8f, 0x87, 0x3b, 0x9c, 0x0c, 0xec, 0xbb, 0x1e, 0xf2, 0xe2, 0x3c,
    0xaa, 0x34, 0x5f, 0x3c, 0x40, 0x25, 0x0c, 0xbc, 0xe0, 0xf6, 0x84, 0xbc,
    0x7a, 0x2a, 0xd4, 0xbc, 0xa5, 0xc6, 0x02, 0xbb, 0x97, 0x99, 0x9b, 0x3c,
    0xf1, 0xe0, 0xad, 0x3c, 0x4e, 0x01, 0x38, 0xbc, 0xc5, 0x92, 0x2c, 0x3c,
    0x7e, 0x86, 0x93, 0xbc, 0x43, 0xe6, 0xe9, 0xbc, 0xae, 0x0a, 0xa6, 0xbb,
    0xea, 0x97, 0x36, 0xbc, 0xae, 0x28, 0x49, 0xbc, 0x2e, 0x66, 0x43, 0xbc,
    0x2e, 0x94, 0xc3, 0x3b, 0x93, 0x6c, 0xfc, 0xbc, 0x80, 0x0d, 0x05, 0x3d,
    0x80, 0x0b, 0x09, 0x3c, 0x41, 0x78, 0xf2, 0xbc, 0xa3, 0x71, 0xa7, 0x3c,
    0xe5, 0x2b, 0x71, 0x3c, 0xd5, 0x72, 0xad, 0xbc, 0x0a, 0x64, 0xe4, 0xbc,
    0x1a, 0xac, 0xc1, 0xbc, 0xee, 0xe9, 0xb9, 0x3b, 0x93, 0xd7, 0x01, 0xbb,
    0x6a, 0xb1, 0xbe, 0xbc, 0x27, 0xef, 0x0e, 0x3d, 0x1c, 0x14, 0xbe, 0x3c,
    0xe5, 0x25, 0x97, 0xbb, 0x4a, 0x71, 0xef, 0x3b, 0x80, 0x46, 0xa3, 0xbc,
    0x5a, 0x3d, 0xc6, 0x3c, 0x1a, 0x77, 0x08, 0x3d, 0xc5, 0x8f, 0x23, 0x3c,
    0x13, 0x85, 0x23, 0x3b, 0xf7, 0x61, 0x11, 0x3d, 0xee, 0x6d, 0xf1, 0xbb,
    0xbc, 0xac, 0x3e, 0xbc, 0xd3, 0xa7, 0x03, 0xbc, 0xac, 0xf1, 0xcc, 0xbc,
    0x25, 0x95, 0x64, 0x3c, 0x4e, 0x18, 0x6c, 0x3c, 0x01, 0x5b, 0x35, 0x3c,
    0xd2, 0x63, 0x00, 0x3d, 0x9a, 0xfe, 0xc4, 0x3c, 0x07, 0xa0, 0xc4, 0xbc,
    0xae, 0x40, 0xab, 0xbc, 0x3e, 0x51, 0xe0, 0xbc, 0xb3, 0x03, 0x06, 0x3d,
    0x65, 0xe2, 0xe7, 0x3c, 0x4a, 0xad, 0x06, 0xbc, 0x6e, 0xf9, 0x53, 0xba,
    0xbc, 0x59, 0x4f, 0xbc, 0x46, 0x68, 0x0d, 0x3d, 0x38, 0xa0, 0xe9, 0xbc,
    0xb7, 0xc3, 0x81, 0xbb, 0x4a, 0x0f, 0x09, 0xbb, 0xb7, 0x2f, 0x02, 0xba,
    0x81, 0xfd, 0xca, 0x3c, 0xe5, 0x19, 0xe5, 0xbc, 0xa5, 0x06, 0xc1, 0xbb,
    0xb8, 0x03, 0xfa, 0x3c, 0x3a, 0x2c, 0x09, 0xbd, 0x73, 0x42, 0x50, 0xbc,
    0xac, 0x71, 0xe4, 0x3c, 0x01, 0xf2, 0x34, 0x3b, 0x13, 0x0c, 0xb4, 0xbc,
    0x37, 0x0d, 0x0b, 0xbb, 0xdc, 0x77, 0xa6, 0xbc, 0xf1, 0xd0, 0xee, 0x3c,
    0x33, 0xe9, 0x2f, 0x3c, 0xa5, 0x0b, 0xdd, 0xbc, 0x73, 0x44, 0x42, 0x3c,
    0x25, 0x89, 0x61, 0xba, 0x4a, 0x0a, 0xbe, 0x3a, 0x1c, 0x36, 0x91, 0x3c,
    0x93, 0xc2, 0x40, 0xba, 0x6a, 0x4e, 0x31, 0x3c, 0x25, 0x79, 0x79, 0x3c,
    0xa8, 0x6e, 0x0f, 0xbd, 0xe0, 0xf1, 0xa0, 0xbc, 0x65, 0xf6, 0xd0, 0x3b,
    0x53, 0x57, 0xf2, 0x3c, 0xb7, 0x49, 0x31, 0xbc, 0xf1, 0x79, 0xd5, 0xbc,
    0x05, 0x69, 0x67, 0x3c, 0xd3, 0x0b, 0xa4, 0x3c, 0x01, 0x2b, 0xff, 0x3b,
    0x17, 0x47, 0x07, 0xbc, 0x70, 0x1e, 0x02, 0xbd, 0xdc, 0x08, 0x21, 0xbb,
    0x4a, 0x50, 0x4d, 0x3a, 0xa1, 0x3b, 0x55, 0x3c, 0x6c, 0xf4, 0xce, 0x3c,
    0x16, 0x83, 0x10, 0xbd, 0x8c, 0x7f, 0x09, 0x3d, 0xb7, 0x60, 0x22, 0xbc,
    0x91, 0xf1, 0xae, 0xbc, 0xee, 0xd0, 0xa1, 0xbc, 0x88, 0x0d, 0xf5, 0xbc,
    0x33, 0xdc, 0x02, 0xbc, 0xce, 0x9e, 0x26, 0xbc, 0x2e, 0x92, 0x0e, 0xbd,
    0xce, 0x10, 0x37, 0xbc, 0x5e, 0x3b, 0x08, 0xbd, 0x40, 0x4c, 0xaa, 0x3c,
    0x1c, 0xe9, 0x97, 0x3b, 0x17, 0x59, 0xc8, 0x3c, 0x23, 0xdc, 0xdf, 0xbc,
    0x9c, 0xa2, 0x97, 0x3b, 0x0a, 0xfa, 0x0e, 0x3d, 0x25, 0xed, 0x0c, 0x3a,
    0x5c, 0xb3, 0xea, 0x3b, 0x5c, 0x1e, 0x17, 0xbc, 0x6a, 0xfa, 0x7c, 0xbc,
    0xce, 0x43, 0xa6, 0x3c, 0xa5, 0xd8, 0xf5, 0xbb, 0x2c, 0x00, 0x9e, 0xbc,
    0x4a, 0x9f, 0xe9, 0x3b, 0x53, 0x59, 0xba, 0xbb, 0xa0, 0x3e, 0x8c, 0xbc,
    0x65, 0x5f, 0xe1, 0xbc, 0x17, 0xe1, 0x27, 0xbc, 0xd3, 0x0e, 0xf5, 0x3c,
    0xb7, 0x34, 0x96, 0x3b, 0xb3, 0x2f, 0xfe, 0x3c, 0x0e, 0x6b, 0x29, 0xbc,
    0x20, 0xd2, 0x0a, 0xbd, 0xb5, 0x60, 0x82, 0x3c, 0x45, 0x94, 0x0d, 0xbc,
    0x53, 0x3a, 0x33, 0x3c, 0x35, 0x75, 0xb3, 0xbc, 0xdc, 0xeb, 0xcd, 0xbc,
    0x6e, 0xa2, 0x3f, 0x3b, 0x5c, 0x5c, 0x2b, 0x3c, 0x4a, 0x3d, 0xec, 0xbc,
    0xf5, 0x38, 0x84, 0x3c, 0x8c, 0x8f, 0x80, 0x3c, 0x56, 0xf1, 0x11, 0xbd,
    0x8a, 0x22, 0xdf, 0xbc, 0xfe, 0xea, 0xdb, 0xbc, 0x6e, 0x07, 0x9d, 0x3a,
    0x13, 0xc0, 0xb8, 0x3c, 0x77, 0x67, 0x0c, 0xbd, 0x95, 0x45, 0xd7, 0x3c,
    0xf1, 0xb2, 0xbd, 0xbc, 0x01, 0x94, 0x46, 0x3c, 0xbe, 0x8d, 0xc6, 0xbc,
    0x0b, 0x58, 0x0d, 0xbd, 0x4a, 0x69, 0x5a, 0x3b, 0xf6, 0xf8, 0x03, 0xbd,
    0x0c, 0x58, 0x9d, 0xbc, 0x8a, 0x7b, 0x81, 0x3c, 0x0e, 0x80, 0x89, 0xbc,
    0x9c, 0x2d, 0x81, 0xbc, 0x80, 0x65, 0x08, 0xbc, 0x78, 0xb9, 0xee, 0xbc,
    0x8e, 0xe0, 0xe7, 0xbc, 0x7c, 0xe8, 0x40, 0xbc, 0xac, 0x00, 0xc1, 0xbc,
    0xb5, 0xbe, 0xf1, 0xbc, 0x0e, 0x7a, 0x9c, 0xbc, 0x4a, 0x59, 0x4c, 0x3b,
    0x6e, 0x1a, 0xe0, 0x3c, 0x1c, 0xb7, 0x0f, 0x3c, 0x3c, 0xab, 0xc1, 0x3c,
    0x8e, 0x37, 0x53, 0xbc, 0x9a, 0x78, 0xd5, 0xbc, 0xf0, 0x18, 0x05, 0xbd,
    0x71, 0x23, 0xfb, 0xbc, 0x83, 0x80, 0x86, 0xbc, 0xc7, 0x2b, 0xcc, 0x3c,
    0xd3, 0xab, 0x44, 0x3c, 0xf8, 0xf3, 0x06, 0xbd, 0x13, 0xb4, 0xca, 0xbc,
    0xe4, 0x54, 0x04, 0x3d, 0x57, 0x6d, 0xd7, 0x3c, 0xb5, 0x97, 0xc9, 0xbc,
    0xae, 0x65, 0x03, 0xbc, 0x5e, 0xfa, 0xf0, 0x3c, 0x51, 0x6c, 0xfe, 0xbc,
    0x87, 0x2e, 0x98, 0x3c, 0x9c, 0x24, 0xaa, 0x3b, 0xc1, 0x4d, 0x76, 0x3c,
    0x1c, 0x2c, 0x0a, 0x3d, 0xb8, 0x37, 0xe6, 0x3b, 0xca, 0xa3, 0x77, 0x3b,
    0xbe, 0x76, 0xff, 0x3c, 0x9e, 0xe6, 0xf5, 0xbc, 0x2e, 0x37, 0x06, 0x3d,
    0x87, 0x53, 0xa7, 0x3c, 0xb8, 0x95, 0xdc, 0x3b, 0x4a, 0x2e, 0x7a, 0x3c,
    0x1c, 0x78, 0xd8, 0xbb, 0xa3, 0x4c, 0xf0, 0xbc, 0xe1, 0x34, 0x64, 0x3c,
    0xb3, 0xfc, 0x46, 0x3c, 0xbb, 0xfa, 0x05, 0x3d, 0x0e, 0xf9, 0x70, 0xbc,
    0xca, 0xb8, 0x02, 0x3d, 0xdc, 0xd3, 0xa9, 0x3a, 0xdc, 0x9f, 0x84, 0x3c,
    0x1e, 0x99, 0x10, 0xbd, 0x10, 0x36, 0x82, 0xbc, 0xa1, 0xc0, 0x7b, 0xbc,
    0xd3, 0x93, 0x0c, 0x3d, 0x23, 0x48, 0x05, 0xbd, 0xaa, 0x80, 0x07, 0x3d,
    0x41, 0x75, 0x34, 0xbc, 0x4c, 0x3d, 0x92, 0x3c, 0x4e, 0x3b, 0x85, 0x3c,
    0x25, 0x3b, 0x96, 0x3c, 0x0a, 0x50, 0xa8, 0xbb, 0x05, 0xe0, 0xfc, 0x3c,
    0x0a, 0x6a, 0xd9, 0xbb, 0xca, 0xd2, 0x64, 0x3b, 0xfc, 0x29, 0x12, 0x3c,
    0xdd, 0x96, 0x07, 0x3d, 0xd1, 0x76, 0xc6, 0xbc, 0x4e, 0xfb, 0xc2, 0x3c,
    0xa5, 0xbb, 0x8d, 0x3b, 0x61, 0x29, 0xf7, 0x3c, 0x21, 0xb2, 0xcf, 0x3c,
    0xe5, 0x06, 0x19, 0x3c, 0x04, 0xa7, 0x0e, 0xbd, 0x50, 0x2b, 0x81, 0x3c,
    0x91, 0x37, 0xb8, 0x3c, 0xdc, 0xe3, 0x1d, 0xbc, 0x01, 0xb8, 0xf7, 0xbc,
    0x55, 0x14, 0x91, 0xbc, 0xb8, 0x07, 0xe0, 0x3c, 0x85, 0xda, 0x3b, 0xbc,
    0x8a, 0x15, 0xa7, 0xbb, 0x8a, 0xb6, 0x8e, 0x3b, 0x81, 0xa5, 0xcb, 0xbb,
    0x36, 0x1c, 0x0a, 0xbd, 0x7c, 0xf4, 0x62, 0xbc, 0x1a, 0x7c, 0x08, 0x3d,
    0x61, 0x2e, 0xf6, 0x3c, 0xb7, 0x52, 0x9a, 0xbc, 0x00, 0xe0, 0x0e, 0xbd,
    0xd7, 0x2b, 0xda, 0xbc, 0x4a, 0x89, 0xd6, 0xba, 0x0a, 0x17, 0x97, 0xbb,
    0xe5, 0xbe, 0xcc, 0xbc, 0x13, 0xac, 0x9a, 0xbb, 0x5c, 0xf5, 0x42, 0x3b,
    0xd5, 0xd7, 0xc4, 0xbc, 0xce, 0xd9, 0x60, 0xbc, 0x97, 0xf5, 0x13, 0x3c,
    0x51, 0x7b, 0xe9, 0xbc, 0x65, 0x95, 0xda, 0xbb, 0x3c, 0x1c, 0x19, 0x3c,
    0x37, 0x3f, 0xd0, 0x3b, 0xc5, 0xf3, 0x17, 0x3c, 0xea, 0x44, 0xe5, 0x3c,
    0x01, 0x79, 0x2c, 0xbc, 0xa5, 0x11, 0xa2, 0xbc, 0xac, 0x75, 0xee, 0x3c,
    0x0e, 0xb3, 0x26, 0xbc, 0xd3, 0x09, 0xf3, 0x3c, 0x81, 0xd1, 0x38, 0x3b,
    0x13, 0x32, 0xa2, 0x3c, 0x64, 0x19, 0x06, 0x3d, 0xa5, 0x3e, 0xb7, 0xbc,
    0xd3, 0xa3, 0xf5, 0x3b, 0x36, 0xcc, 0x01, 0xbd, 0xaa, 0x4e, 0x04, 0xbd,
    0xcc, 0xbe, 0x03, 0x3d, 0x38, 0xac, 0x64, 0x3c, 0xbe, 0xbd, 0xa7, 0x3c,
    0x53, 0x12, 0xe7, 0xbb, 0x51, 0xd1, 0xd8, 0xbc, 0x62, 0x89, 0x05, 0xbd,
    0x8c, 0xf6, 0xcf, 0x3c, 0x70, 0x3b, 0x89, 0xbc, 0xf3, 0x34, 0xf6, 0x3c,
    0x74, 0x7e, 0x04, 0xbd, 0x91, 0x2f, 0xae, 0x3c, 0x24, 0xc9, 0x0f, 0x3d,
    0x6e, 0xc1, 0x97, 0xbc, 0xef, 0x49, 0x00, 0xbd, 0x85, 0x48, 0x76, 0x3c,
    0x13, 0x9a, 0x19, 0x3c, 0x23, 0x87, 0x9c, 0xbc, 0xfd, 0xd0, 0x0a, 0xbd,
    0x8e, 0x52, 0xda, 0xbc, 0x14, 0xb0, 0x11, 0xbd, 0x18, 0x8e, 0x7c, 0xbc,
    0x74, 0xa2, 0x11, 0xbd, 0xc0, 0x4e, 0xa0, 0x3c, 0x04, 0xb7, 0x0c, 0xbd,
    0xbe, 0x59, 0xe5, 0xbc, 0x61, 0xe7, 0xdc, 0xbc, 0x41, 0x9d, 0xf1, 0x3b,
    0x65, 0x91, 0x54, 0x3c, 0x8a, 0x1f, 0xcf, 0xbc, 0xce, 0xca, 0xbf, 0xbc,
    0x62, 0xff, 0xff, 0xff, 0x04, 0x00, 0x00, 0x00, 0x0c, 0x00, 0x00, 0x00,
    0x0a, 0xc2, 0xf0, 0x3c, 0x38, 0x73, 0x7a, 0xbc, 0xc5, 0x9b, 0x65, 0x3c,
    0x7a, 0xff, 0xff, 0xff, 0x04, 0x00, 0x00, 0x00, 0x78, 0x00, 0x00, 0x00,
    0x86, 0x9f, 0xdb, 0x3e, 0xda, 0x2e, 0x5e, 0xbe, 0x75, 0xeb, 0x56, 0xbd,
    0x30, 0x42, 0x95, 0x3e, 0xfb, 0xfc, 0xa9, 0x3e, 0x84, 0x41, 0xd3, 0xbd,
    0x65, 0x0f, 0xe9, 0xbe, 0x7a, 0x43, 0x48, 0xbe, 0x51, 0xd9, 0xe2, 0x3d,
    0xd4, 0xdf, 0x91, 0x3e, 0x33, 0xd3, 0x87, 0xbe, 0xb7, 0x2b, 0xb0, 0x3d,
    0x06, 0x05, 0x09, 0x3e, 0x58, 0x00, 0xcc, 0xbe, 0xeb, 0x5d, 0x25, 0x3d,
    0x0e, 0x2f, 0xe5, 0xbc, 0xa8, 0xd6, 0x89, 0x3e, 0x97, 0x1b, 0xb4, 0x3d,
    0x19, 0x69, 0x34, 0xbe, 0x79, 0x0c, 0xb9, 0x3e, 0x03, 0xd0, 0x68, 0xbe,
    0x18, 0x43, 0x06, 0x3f, 0xb8, 0xfe, 0xb1, 0xbd, 0x3f, 0x85, 0x05, 0xbf,
    0x7e, 0x55, 0xaf, 0x3e, 0x8d, 0x87, 0x89, 0xbe, 0xf2, 0xba, 0xc2, 0x3d,
    0x72, 0x2c, 0xd6, 0x3e, 0x95, 0xd0, 0x86, 0x3e, 0x7c, 0xc3, 0xe0, 0xbd,
    0x00, 0x00, 0x06, 0x00, 0x08, 0x00, 0x04, 0x00, 0x06, 0x00, 0x00, 0x00,
    0x04, 0x00, 0x00, 0x00, 0x28, 0x00, 0x00, 0x00, 0x5c, 0x43, 0x0b, 0xbe,
    0x45, 0x4b, 0xed, 0xbe, 0x47, 0xb8, 0x08, 0x3f, 0xb9, 0xcc, 0x62, 0x3d,
    0xae, 0xce, 0x88, 0x3d, 0xef, 0xc0, 0x0c, 0xbf, 0x30, 0xc0, 0xfe, 0x3c,
    0xdf, 0x12, 0xb2, 0xbe, 0xb4, 0x63, 0xc1, 0xbe, 0xc3, 0xe4, 0x50, 0xbe,
    0xe4, 0xfb, 0xff, 0xff, 0xe8, 0xfb, 0xff, 0xff, 0x0f, 0x00, 0x00, 0x00,
    0x4d, 0x4c, 0x49, 0x52, 0x20, 0x43, 0x6f, 0x6e, 0x76, 0x65, 0x72, 0x74,
    0x65, 0x64, 0x2e, 0x00, 0x01, 0x00, 0x00, 0x00, 0x14, 0x00, 0x00, 0x00,
    0x00, 0x00, 0x0e, 0x00, 0x18, 0x00, 0x14, 0x00, 0x10, 0x00, 0x0c, 0x00,
    0x08, 0x00, 0x04, 0x00, 0x0e, 0x00, 0x00, 0x00, 0x14, 0x00, 0x00, 0x00,
    0x1c, 0x00, 0x00, 0x00, 0xf8, 0x00, 0x00, 0x00, 0xfc, 0x00, 0x00, 0x00,
    0x00, 0x01, 0x00, 0x00, 0x04, 0x00, 0x00, 0x00, 0x6d, 0x61, 0x69, 0x6e,
    0x00, 0x00, 0x00, 0x00, 0x03, 0x00, 0x00, 0x00, 0x9c, 0x00, 0x00, 0x00,
    0x4c, 0x00, 0x00, 0x00, 0x04, 0x00, 0x00, 0x00, 0x7e, 0xff, 0xff, 0xff,
    0x10, 0x00, 0x00, 0x00, 0x00, 0x00, 0x00, 0x08, 0x10, 0x00, 0x00, 0x00,
    0x14, 0x00, 0x00, 0x00, 0x6e, 0xff, 0xff, 0xff, 0x00, 0x00, 0x00, 0x01,
    0x01, 0x00, 0x00, 0x00, 0x07, 0x00, 0x00, 0x00, 0x03, 0x00, 0x00, 0x00,
    0x06, 0x00, 0x00, 0x00, 0x02, 0x00, 0x00, 0x00, 0x01, 0x00, 0x00, 0x00,
    0x00, 0x00, 0x0e, 0x00, 0x1a, 0x00, 0x14, 0x00, 0x10, 0x00, 0x0c, 0x00,
    0x0b, 0x00, 0x04, 0x00, 0x0e, 0x00, 0x00, 0x00, 0x1c, 0x00, 0x00, 0x00,
    0x00, 0x00, 0x00, 0x0b, 0x1c, 0x00, 0x00, 0x00, 0x20, 0x00, 0x00, 0x00,
    0x01, 0x00, 0x00, 0x00, 0x00, 0x00, 0x06, 0x00, 0x08, 0x00, 0x07, 0x00,
    0x06, 0x00, 0x00, 0x00, 0x00, 0x00, 0x00, 0x01, 0x01, 0x00, 0x00, 0x00,
    0x06, 0x00, 0x00, 0x00, 0x02, 0x00, 0x00, 0x00, 0x05, 0x00, 0x00, 0x00,
    0x03, 0x00, 0x00, 0x00, 0x00, 0x00, 0x0e, 0x00, 0x16, 0x00, 0x00, 0x00,
    0x10, 0x00, 0x0c, 0x00, 0x0b, 0x00, 0x04, 0x00, 0x0e, 0x00, 0x00, 0x00,
    0x1c, 0x00, 0x00, 0x00, 0x00, 0x00, 0x00, 0x08, 0x1c, 0x00, 0x00, 0x00,
    0x20, 0x00, 0x00, 0x00, 0x00, 0x00, 0x0a, 0x00, 0x08, 0x00, 0x00, 0x00,
    0x00, 0x00, 0x07, 0x00, 0x0a, 0x00, 0x00, 0x00, 0x00, 0x00, 0x00, 0x01,
    0x01, 0x00, 0x00, 0x00, 0x05, 0x00, 0x00, 0x00, 0x03, 0x00, 0x00, 0x00,
    0x00, 0x00, 0x00, 0x00, 0x04, 0x00, 0x00, 0x00, 0xff, 0xff, 0xff, 0xff,
    0x01, 0x00, 0x00, 0x00, 0x07, 0x00, 0x00, 0x00, 0x01, 0x00, 0x00, 0x00,
    0x00, 0x00, 0x00, 0x00, 0x08, 0x00, 0x00, 0x00, 0x7c, 0x02, 0x00, 0x00,
    0x28, 0x02, 0x00, 0x00, 0xe8, 0x01, 0x00, 0x00, 0xa8, 0x01, 0x00, 0x00,
    0x3c, 0x01, 0x00, 0x00, 0xd0, 0x00, 0x00, 0x00, 0x50, 0x00, 0x00, 0x00,
    0x04, 0x00, 0x00, 0x00, 0xba, 0xfd, 0xff, 0xff, 0x00, 0x00, 0x00, 0x01,
    0x10, 0x00, 0x00, 0x00, 0x10, 0x00, 0x00, 0x00, 0x08, 0x00, 0x00, 0x00,
    0x28, 0x00, 0x00, 0x00, 0x68, 0xfd, 0xff, 0xff, 0x19, 0x00, 0x00, 0x00,
    0x53, 0x74, 0x61, 0x74, 0x65, 0x66, 0x75, 0x6c, 0x50, 0x61, 0x72, 0x74,
    0x69, 0x74, 0x69, 0x6f, 0x6e, 0x65, 0x64, 0x43, 0x61, 0x6c, 0x6c, 0x3a,
    0x30, 0x00, 0x00, 0x00, 0x02, 0x00, 0x00, 0x00, 0x20, 0x00, 0x00, 0x00,
    0x0a, 0x00, 0x00, 0x00, 0x02, 0xfe, 0xff, 0xff, 0x00, 0x00, 0x00, 0x01,
    0x10, 0x00, 0x00, 0x00, 0x10, 0x00, 0x00, 0x00, 0x07, 0x00, 0x00, 0x00,
    0x5c, 0x00, 0x00, 0x00, 0xb0, 0xfd, 0xff, 0xff, 0x4e, 0x00, 0x00, 0x00,
    0x67, 0x65, 0x6e, 0x65, 0x72, 0x61, 0x74, 0x6f, 0x72, 0x2e, 0x6d, 0x6f,
    0x64, 0x65, 0x6c, 0x73, 0x2e, 0x4d, 0x4c, 0x50, 0x3b, 0x3b, 0x67, 0x65,
    0x6e, 0x65, 0x72, 0x61, 0x74, 0x6f, 0x72, 0x2e, 0x6d, 0x6f, 0x64, 0x65,
    0x6c, 0x73, 0x2e, 0x4d, 0x4c, 0x50, 0x2f, 0x74, 0x6f, 0x72, 0x63, 0x68,
    0x2e, 0x6e, 0x6e, 0x2e, 0x6d, 0x6f, 0x64, 0x75, 0x6c, 0x65, 0x73, 0x2e,
    0x6c, 0x69, 0x6e, 0x65, 0x61, 0x72, 0x2e, 0x4c, 0x69, 0x6e, 0x65, 0x61,
    0x72, 0x5f, 0x66, 0x63, 0x31, 0x3b, 0x00, 0x00, 0x02, 0x00, 0x00, 0x00,
    0x20, 0x00, 0x00, 0x00, 0x03, 0x00, 0x00, 0x00, 0x7e, 0xfe, 0xff, 0xff,
    0x00, 0x00, 0x00, 0x01, 0x10, 0x00, 0x00, 0x00, 0x10, 0x00, 0x00, 0x00,
    0x06, 0x00, 0x00, 0x00, 0x48, 0x00, 0x00, 0x00, 0x2c, 0xfe, 0xff, 0xff,
    0x39, 0x00, 0x00, 0x00, 0x67, 0x65, 0x6e, 0x65, 0x72, 0x61, 0x74, 0x6f,
    0x72, 0x2e, 0x6d, 0x6f, 0x64, 0x65, 0x6c, 0x73, 0x2e, 0x4d, 0x4c, 0x50,
    0x2f, 0x74, 0x6f, 0x72, 0x63, 0x68, 0x2e, 0x6e, 0x6e, 0x2e, 0x6d, 0x6f,
    0x64, 0x75, 0x6c, 0x65, 0x73, 0x2e, 0x6c, 0x69, 0x6e, 0x65, 0x61, 0x72,
    0x2e, 0x4c, 0x69, 0x6e, 0x65, 0x61, 0x72, 0x5f, 0x66, 0x63, 0x31, 0x3b,
    0x31, 0x00, 0x00, 0x00, 0x02, 0x00, 0x00, 0x00, 0x20, 0x00, 0x00, 0x00,
    0x03, 0x00, 0x00, 0x00, 0xe6, 0xfe, 0xff, 0xff, 0x00, 0x00, 0x00, 0x01,
    0x10, 0x00, 0x00, 0x00, 0x10, 0x00, 0x00, 0x00, 0x05, 0x00, 0x00, 0x00,
    0x48, 0x00, 0x00, 0x00, 0x94, 0xfe, 0xff, 0xff, 0x38, 0x00, 0x00, 0x00,
    0x67, 0x65, 0x6e, 0x65, 0x72, 0x61, 0x74, 0x6f, 0x72, 0x2e, 0x6d, 0x6f,
    0x64, 0x65, 0x6c, 0x73, 0x2e, 0x4d, 0x4c, 0x50, 0x2f, 0x74, 0x6f, 0x72,
    0x63, 0x68, 0x2e, 0x6e, 0x6e, 0x2e, 0x6d, 0x6f, 0x64, 0x75, 0x6c, 0x65,
    0x73, 0x2e, 0x6c, 0x69, 0x6e, 0x65, 0x61, 0x72, 0x2e, 0x4c, 0x69, 0x6e,
    0x65, 0x61, 0x72, 0x5f, 0x66, 0x63, 0x31, 0x3b, 0x00, 0x00, 0x00, 0x00,
    0x02, 0x00, 0x00, 0x00, 0x03, 0x00, 0x00, 0x00, 0x10, 0x03, 0x00, 0x00,
    0x4e, 0xff, 0xff, 0xff, 0x00, 0x00, 0x00, 0x01, 0x10, 0x00, 0x00, 0x00,
    0x10, 0x00, 0x00, 0x00, 0x04, 0x00, 0x00, 0x00, 0x1c, 0x00, 0x00, 0x00,
    0xfc, 0xfe, 0xff, 0xff, 0x0f, 0x00, 0x00, 0x00, 0x61, 0x72, 0x69, 0x74,
    0x68, 0x2e, 0x63, 0x6f, 0x6e, 0x73, 0x74, 0x61, 0x6e, 0x74, 0x32, 0x00,
    0x02, 0x00, 0x00, 0x00, 0x01, 0x00, 0x00, 0x00, 0x03, 0x00, 0x00, 0x00,
    0x8a, 0xff, 0xff, 0xff, 0x00, 0x00, 0x00, 0x01, 0x10, 0x00, 0x00, 0x00,
    0x10, 0x00, 0x00, 0x00, 0x03, 0x00, 0x00, 0x00, 0x1c, 0x00, 0x00, 0x00,
    0x38, 0xff, 0xff, 0xff, 0x0f, 0x00, 0x00, 0x00, 0x61, 0x72, 0x69, 0x74,
    0x68, 0x2e, 0x63, 0x6f, 0x6e, 0x73, 0x74, 0x61, 0x6e, 0x74, 0x31, 0x00,
    0x02, 0x00, 0x00, 0x00, 0x0a, 0x00, 0x00, 0x00, 0x03, 0x00, 0x00, 0x00,
    0xc6, 0xff, 0xff, 0xff, 0x00, 0x00, 0x00, 0x01, 0x10, 0x00, 0x00, 0x00,
    0x10, 0x00, 0x00, 0x00, 0x02, 0x00, 0x00, 0x00, 0x1c, 0x00, 0x00, 0x00,
    0x74, 0xff, 0xff, 0xff, 0x0e, 0x00, 0x00, 0x00, 0x61, 0x72, 0x69, 0x74,
    0x68, 0x2e, 0x63, 0x6f, 0x6e, 0x73, 0x74, 0x61, 0x6e, 0x74, 0x00, 0x00,
    0x01, 0x00, 0x00, 0x00, 0x0a, 0x00, 0x00, 0x00, 0x00, 0x00, 0x16, 0x00,
    0x18, 0x00, 0x14, 0x00, 0x00, 0x00, 0x10, 0x00, 0x0c, 0x00, 0x08, 0x00,
    0x00, 0x00, 0x00, 0x00, 0x00, 0x00, 0x07, 0x00, 0x16, 0x00, 0x00, 0x00,
    0x00, 0x00, 0x00, 0x01, 0x10, 0x00, 0x00, 0x00, 0x10, 0x00, 0x00, 0x00,
    0x01, 0x00, 0x00, 0x00, 0x28, 0x00, 0x00, 0x00, 0xc4, 0xff, 0xff, 0xff,
    0x18, 0x00, 0x00, 0x00, 0x73, 0x65, 0x72, 0x76, 0x69, 0x6e, 0x67, 0x5f,
    0x64, 0x65, 0x66, 0x61, 0x75, 0x6c, 0x74, 0x5f, 0x61, 0x72, 0x67, 0x73,
    0x5f, 0x30, 0x3a, 0x30, 0x00, 0x00, 0x00, 0x00, 0x02, 0x00, 0x00, 0x00,
    0x20, 0x00, 0x00, 0x00, 0x10, 0x03, 0x00, 0x00, 0x02, 0x00, 0x00, 0x00,
    0x1c, 0x00, 0x00, 0x00, 0x08, 0x00, 0x00, 0x00, 0x04, 0x00, 0x04, 0x00,
    0x04, 0x00, 0x00, 0x00, 0x0c, 0x00, 0x10, 0x00, 0x0f, 0x00, 0x00, 0x00,
    0x08, 0x00, 0x04, 0x00, 0x0c, 0x00, 0x00, 0x00, 0x09, 0x00, 0x00, 0x00,
    0x05, 0x00, 0x00, 0x00, 0x00, 0x00, 0x00, 0x09};
const unsigned int model_tflite_len = 11192;
