#include <model.h>
const unsigned char model_tflite[] = {  0x1c, 0x00, 0x00, 0x00, 0x54, 0x46, 0x4c, 0x33, 0x14, 0x00, 0x20, 0x00,
  0x1c, 0x00, 0x18, 0x00, 0x14, 0x00, 0x10, 0x00, 0x0c, 0x00, 0x00, 0x00,
  0x08, 0x00, 0x04, 0x00, 0x14, 0x00, 0x00, 0x00, 0x1c, 0x00, 0x00, 0x00,
  0x90, 0x00, 0x00, 0x00, 0xe8, 0x00, 0x00, 0x00, 0x88, 0x38, 0x00, 0x00,
  0x98, 0x38, 0x00, 0x00, 0xb0, 0x44, 0x00, 0x00, 0x03, 0x00, 0x00, 0x00,
  0x01, 0x00, 0x00, 0x00, 0x10, 0x00, 0x00, 0x00, 0x00, 0x00, 0x0a, 0x00,
  0x10, 0x00, 0x0c, 0x00, 0x08, 0x00, 0x04, 0x00, 0x0a, 0x00, 0x00, 0x00,
  0x0c, 0x00, 0x00, 0x00, 0x1c, 0x00, 0x00, 0x00, 0x3c, 0x00, 0x00, 0x00,
  0x0f, 0x00, 0x00, 0x00, 0x73, 0x65, 0x72, 0x76, 0x69, 0x6e, 0x67, 0x5f,
  0x64, 0x65, 0x66, 0x61, 0x75, 0x6c, 0x74, 0x00, 0x01, 0x00, 0x00, 0x00,
  0x04, 0x00, 0x00, 0x00, 0x98, 0xff, 0xff, 0xff, 0x0c, 0x00, 0x00, 0x00,
  0x04, 0x00, 0x00, 0x00, 0x08, 0x00, 0x00, 0x00, 0x6f, 0x75, 0x74, 0x70,
  0x75, 0x74, 0x5f, 0x30, 0x00, 0x00, 0x00, 0x00, 0x01, 0x00, 0x00, 0x00,
  0x04, 0x00, 0x00, 0x00, 0x2e, 0xc8, 0xff, 0xff, 0x04, 0x00, 0x00, 0x00,
  0x06, 0x00, 0x00, 0x00, 0x61, 0x72, 0x67, 0x73, 0x5f, 0x30, 0x00, 0x00,
  0x02, 0x00, 0x00, 0x00, 0x34, 0x00, 0x00, 0x00, 0x04, 0x00, 0x00, 0x00,
  0xdc, 0xff, 0xff, 0xff, 0x0f, 0x00, 0x00, 0x00, 0x04, 0x00, 0x00, 0x00,
  0x13, 0x00, 0x00, 0x00, 0x43, 0x4f, 0x4e, 0x56, 0x45, 0x52, 0x53, 0x49,
  0x4f, 0x4e, 0x5f, 0x4d, 0x45, 0x54, 0x41, 0x44, 0x41, 0x54, 0x41, 0x00,
  0x08, 0x00, 0x0c, 0x00, 0x08, 0x00, 0x04, 0x00, 0x08, 0x00, 0x00, 0x00,
  0x0e, 0x00, 0x00, 0x00, 0x04, 0x00, 0x00, 0x00, 0x13, 0x00, 0x00, 0x00,
  0x6d, 0x69, 0x6e, 0x5f, 0x72, 0x75, 0x6e, 0x74, 0x69, 0x6d, 0x65, 0x5f,
  0x76, 0x65, 0x72, 0x73, 0x69, 0x6f, 0x6e, 0x00, 0x10, 0x00, 0x00, 0x00,
  0x9c, 0x37, 0x00, 0x00, 0x94, 0x37, 0x00, 0x00, 0x5c, 0x37, 0x00, 0x00,
  0x24, 0x37, 0x00, 0x00, 0x94, 0x34, 0x00, 0x00, 0x84, 0x32, 0x00, 0x00,
  0xf4, 0x31, 0x00, 0x00, 0xe4, 0x00, 0x00, 0x00, 0xcc, 0x00, 0x00, 0x00,
  0xc4, 0x00, 0x00, 0x00, 0xbc, 0x00, 0x00, 0x00, 0xb4, 0x00, 0x00, 0x00,
  0xac, 0x00, 0x00, 0x00, 0xa4, 0x00, 0x00, 0x00, 0x84, 0x00, 0x00, 0x00,
  0x04, 0x00, 0x00, 0x00, 0xe2, 0xc8, 0xff, 0xff, 0x04, 0x00, 0x00, 0x00,
  0x70, 0x00, 0x00, 0x00, 0x10, 0x00, 0x00, 0x00, 0x00, 0x00, 0x00, 0x00,
  0x08, 0x00, 0x0e, 0x00, 0x08, 0x00, 0x04, 0x00, 0x08, 0x00, 0x00, 0x00,
  0x10, 0x00, 0x00, 0x00, 0x24, 0x00, 0x00, 0x00, 0x00, 0x00, 0x06, 0x00,
  0x08, 0x00, 0x04, 0x00, 0x06, 0x00, 0x00, 0x00, 0x04, 0x00, 0x00, 0x00,
  0x00, 0x00, 0x00, 0x00, 0x0c, 0x00, 0x1c, 0x00, 0x18, 0x00, 0x14, 0x00,
  0x10, 0x00, 0x04, 0x00, 0x0c, 0x00, 0x00, 0x00, 0x20, 0x72, 0xb3, 0x77,
  0x55, 0x6e, 0x3f, 0xe7, 0x00, 0x00, 0x00, 0x00, 0x01, 0x00, 0x00, 0x00,
  0x02, 0x00, 0x00, 0x00, 0x04, 0x00, 0x00, 0x00, 0x12, 0x00, 0x00, 0x00,
  0x32, 0x2e, 0x32, 0x30, 0x2e, 0x30, 0x2d, 0x64, 0x65, 0x76, 0x32, 0x30,
  0x32, 0x35, 0x30, 0x35, 0x31, 0x35, 0x00, 0x00, 0x5e, 0xc9, 0xff, 0xff,
  0x04, 0x00, 0x00, 0x00, 0x10, 0x00, 0x00, 0x00, 0x32, 0x2e, 0x30, 0x2e,
  0x30, 0x00, 0x00, 0x00, 0x00, 0x00, 0x00, 0x00, 0x00, 0x00, 0x00, 0x00,
  0x44, 0xbd, 0xff, 0xff, 0x48, 0xbd, 0xff, 0xff, 0x4c, 0xbd, 0xff, 0xff,
  0x50, 0xbd, 0xff, 0xff, 0x54, 0xbd, 0xff, 0xff, 0x8e, 0xc9, 0xff, 0xff,
  0x04, 0x00, 0x00, 0x00, 0x08, 0x00, 0x00, 0x00, 0x01, 0x00, 0x00, 0x00,
  0x10, 0x03, 0x00, 0x00, 0xa2, 0xc9, 0xff, 0xff, 0x04, 0x00, 0x00, 0x00,
  0x00, 0x31, 0x00, 0x00, 0x9f, 0x54, 0x0a, 0x3d, 0x9f, 0x19, 0x1f, 0xbc,
  0x51, 0x0c, 0xc2, 0x3c, 0x74, 0x96, 0x76, 0x3d, 0x97, 0x5e, 0x44, 0x3c,
  0x6d, 0x9f, 0x0d, 0x3d, 0xb9, 0xab, 0x1e, 0x3d, 0xfb, 0xec, 0x46, 0x3d,
  0x17, 0xb9, 0x60, 0x3d, 0x55, 0x41, 0xbd, 0x3c, 0xe6, 0x39, 0x1e, 0xb9,
  0xcb, 0x5b, 0x3d, 0x3d, 0x85, 0x26, 0x23, 0x3d, 0x1c, 0x45, 0x07, 0x3d,
  0x54, 0x86, 0xb6, 0xba, 0x43, 0x44, 0x4d, 0x3d, 0x22, 0x67, 0xb1, 0xbb,
  0x81, 0x96, 0xde, 0x3c, 0x24, 0xce, 0x16, 0xbc, 0x93, 0x05, 0x3d, 0x3d,
  0xb9, 0xd7, 0x72, 0x3d, 0x95, 0xaa, 0x2b, 0x3c, 0x05, 0x92, 0xbb, 0xbb,
  0xe1, 0xd6, 0x3f, 0x3d, 0xb6, 0x7f, 0x51, 0x3c, 0xcf, 0xf3, 0x6a, 0x3d,
  0xfd, 0x3d, 0x2e, 0x3c, 0xe3, 0x9a, 0x51, 0x3d, 0x75, 0x14, 0x18, 0x3d,
  0x8f, 0xc9, 0x94, 0x3c, 0xfd, 0x9f, 0x58, 0x3d, 0x68, 0x67, 0x0b, 0x3d,
  0x55, 0x3d, 0x8a, 0xbb, 0x74, 0x1a, 0x62, 0x3d, 0xee, 0x54, 0xb6, 0x3c,
  0x58, 0xfb, 0x1e, 0x3d, 0x67, 0x33, 0x55, 0x3d, 0x44, 0x8b, 0x0a, 0x3d,
  0x98, 0xc0, 0x44, 0x3c, 0xac, 0xc2, 0x7a, 0x3d, 0x3b, 0x04, 0xcd, 0x3c,
  0x38, 0xe9, 0x4c, 0x3d, 0x91, 0xb2, 0x2e, 0x3c, 0x0e, 0xd2, 0x49, 0x3c,
  0x46, 0x43, 0x93, 0xbc, 0xa8, 0xbd, 0xe4, 0xbb, 0x13, 0x50, 0x45, 0x3d,
  0xe7, 0x42, 0x08, 0x3d, 0xb0, 0x87, 0x7b, 0x3d, 0xfd, 0xfb, 0x39, 0x3d,
  0xa4, 0xc3, 0x46, 0x3c, 0x9c, 0x5e, 0x12, 0x3d, 0x95, 0xa3, 0xaa, 0x3b,
  0xba, 0xa6, 0x8d, 0xbb, 0xcb, 0xaa, 0x12, 0x3c, 0xf8, 0xa1, 0x57, 0x3c,
  0x55, 0xe1, 0x69, 0xbb, 0xc9, 0x86, 0xa8, 0x3c, 0xd4, 0x3d, 0x2c, 0xbc,
  0x02, 0xfe, 0x16, 0x3d, 0x89, 0x5c, 0xaf, 0x3c, 0xc5, 0xd6, 0x42, 0x3d,
  0x45, 0xf4, 0x2e, 0x3d, 0x51, 0x77, 0x77, 0x3c, 0xbb, 0x81, 0x35, 0x3c,
  0x24, 0x75, 0x36, 0xbb, 0xe7, 0x03, 0x17, 0x3d, 0xbd, 0xd4, 0x2c, 0x3d,
  0xc0, 0x17, 0xd4, 0x3c, 0x0e, 0x49, 0x10, 0x3d, 0x4b, 0x97, 0x83, 0xbd,
  0xbd, 0x6a, 0x0d, 0xbe, 0xaf, 0x82, 0xc9, 0xbd, 0x55, 0xdd, 0xc8, 0xbd,
  0x2c, 0x1a, 0xd8, 0xbc, 0x5c, 0x03, 0x16, 0x3d, 0x0d, 0x92, 0x1b, 0x3d,
  0x21, 0x0b, 0x81, 0xbb, 0xb6, 0x7a, 0x8a, 0x3c, 0x87, 0xfc, 0x26, 0x3a,
  0xc4, 0x65, 0xc7, 0x3c, 0x4a, 0xb1, 0x5f, 0xbc, 0x85, 0x34, 0x27, 0x3d,
  0x97, 0xab, 0x4b, 0x3d, 0x37, 0xed, 0x71, 0x3c, 0x96, 0x2c, 0x3d, 0x3a,
  0xe3, 0x86, 0x45, 0x3d, 0x2a, 0x18, 0xf8, 0x3c, 0x01, 0x91, 0x64, 0xbb,
  0xab, 0xab, 0xac, 0x3c, 0xa5, 0x77, 0xc0, 0x3c, 0x1f, 0xa0, 0xee, 0x3c,
  0xfe, 0x4e, 0x60, 0x3d, 0xda, 0x1a, 0x80, 0x3c, 0xbc, 0x72, 0xc2, 0x3a,
  0x6a, 0x3b, 0x13, 0xbc, 0x60, 0xee, 0xa2, 0xbd, 0xf3, 0x2f, 0xbf, 0xbd,
  0x73, 0x41, 0xb7, 0xbc, 0xca, 0xa2, 0xe7, 0xbc, 0xf4, 0x15, 0x21, 0xbd,
  0x90, 0x1c, 0xbc, 0x3c, 0xc8, 0x0d, 0x80, 0xbd, 0x78, 0xdf, 0x15, 0xbd,
  0x2e, 0x93, 0x50, 0xbc, 0x9b, 0xc2, 0xc0, 0x3c, 0x3a, 0xe2, 0x36, 0x3d,
  0xd4, 0xe6, 0xba, 0x3b, 0x8e, 0x77, 0x2e, 0x3d, 0xf8, 0x40, 0xe5, 0x3c,
  0x44, 0xc4, 0x37, 0x3b, 0x5f, 0xb9, 0xd8, 0xbb, 0x95, 0x02, 0xbc, 0x3c,
  0x85, 0x57, 0x87, 0x3c, 0xcd, 0xaa, 0x03, 0x3c, 0xcc, 0xf9, 0xfb, 0x3c,
  0x7b, 0x73, 0x8c, 0xbc, 0x33, 0x46, 0x80, 0xbd, 0xd5, 0x39, 0xc8, 0xbc,
  0xd0, 0xe2, 0xdb, 0xbc, 0xc8, 0x90, 0xe9, 0xbd, 0x05, 0x3f, 0xce, 0xbd,
  0x33, 0x60, 0x02, 0xbe, 0xd7, 0x61, 0xd0, 0xbd, 0x46, 0x96, 0xf5, 0xbd,
  0x85, 0xfd, 0xdc, 0xbd, 0xdf, 0x3b, 0x18, 0xbe, 0xea, 0x9e, 0xcd, 0xbd,
  0x6f, 0xa0, 0x8c, 0xbd, 0x75, 0xde, 0x91, 0x3c, 0xea, 0x6c, 0xbb, 0xbc,
  0xfa, 0x89, 0xb1, 0x3b, 0x7f, 0xb5, 0x2b, 0xbc, 0xc3, 0x2d, 0x2f, 0x3d,
  0xcf, 0xdc, 0x86, 0x3d, 0x9e, 0x41, 0xaf, 0x3d, 0x6c, 0xf2, 0x61, 0x3d,
  0xc3, 0x3c, 0x0a, 0x3c, 0xc7, 0xad, 0x52, 0x3c, 0x83, 0xa3, 0xdb, 0x3c,
  0xcb, 0xe2, 0x4d, 0x3d, 0x61, 0x7e, 0xaa, 0x3c, 0x32, 0xb9, 0xe6, 0xbb,
  0x63, 0x5a, 0x62, 0xbc, 0x7b, 0xdb, 0x10, 0xbd, 0x5a, 0x5e, 0xd6, 0xbd,
  0x6d, 0xb5, 0x81, 0xbd, 0xaf, 0x52, 0x4d, 0xbd, 0x09, 0x09, 0xb5, 0xbc,
  0x2f, 0x23, 0x4c, 0xbd, 0x6d, 0x01, 0xfb, 0xbb, 0x98, 0xba, 0x9f, 0xbd,
  0xe4, 0x27, 0xdd, 0xbd, 0x61, 0xbd, 0x94, 0xbd, 0xc3, 0xef, 0x76, 0xbd,
  0xc3, 0x09, 0xb0, 0xbd, 0xec, 0x56, 0x4a, 0xbd, 0xde, 0x32, 0x84, 0xbc,
  0x6f, 0x34, 0x02, 0xbc, 0x3c, 0x48, 0x8a, 0xbc, 0x42, 0x20, 0x5d, 0xbc,
  0x6a, 0xe1, 0x3c, 0xbc, 0xb6, 0xab, 0x7b, 0x3d, 0x8d, 0xf5, 0xe2, 0x3d,
  0xbc, 0xe8, 0x48, 0x3d, 0x69, 0xf9, 0xb8, 0xbc, 0xe5, 0x86, 0x0a, 0x3d,
  0x29, 0x77, 0x31, 0x3d, 0x66, 0xe5, 0xe2, 0x3b, 0xa5, 0x88, 0xc4, 0x3c,
  0x7d, 0x2c, 0xa2, 0xba, 0x74, 0x72, 0x14, 0x3c, 0x6f, 0xe1, 0x53, 0xbd,
  0x3d, 0x3b, 0x1d, 0xbd, 0xe5, 0x1f, 0xf9, 0x3a, 0x28, 0xa5, 0x3b, 0xbc,
  0xb9, 0xe9, 0x0d, 0xbc, 0x9a, 0xd4, 0xc5, 0xbc, 0xc9, 0x5b, 0x2e, 0xbc,
  0xe1, 0xf0, 0x4d, 0xbd, 0xb3, 0x1f, 0x80, 0xbd, 0xd1, 0xbd, 0x87, 0xbd,
  0x9a, 0x84, 0x2c, 0xbd, 0x0c, 0x66, 0xa9, 0xbd, 0xbe, 0xec, 0x3d, 0xbd,
  0x9d, 0x53, 0x8c, 0xbb, 0xe8, 0x3d, 0x05, 0xbd, 0xe4, 0x60, 0x81, 0xbc,
  0xc7, 0xad, 0xad, 0x3c, 0xcf, 0xab, 0xa1, 0x3d, 0x5d, 0x9e, 0xcf, 0x3d,
  0xc8, 0x32, 0x80, 0x3d, 0xd0, 0xc3, 0x07, 0xbc, 0x2e, 0x66, 0x15, 0x3c,
  0xd3, 0x30, 0x29, 0xbd, 0x7f, 0x87, 0xdf, 0x3c, 0x7d, 0x1f, 0x1c, 0x3d,
  0xd8, 0xb1, 0x1c, 0xbc, 0xc3, 0xc9, 0x9e, 0x3c, 0x5e, 0x71, 0x15, 0xbd,
  0xdb, 0x5d, 0x0a, 0xbe, 0x32, 0x06, 0xf6, 0xbb, 0xea, 0xfc, 0x5d, 0xbc,
  0x99, 0x86, 0x0e, 0x3d, 0x05, 0x02, 0x37, 0xbd, 0x43, 0x3a, 0x98, 0x3b,
  0x8d, 0x5e, 0x04, 0x3d, 0xad, 0xb5, 0x93, 0x3b, 0x4e, 0x7e, 0xa2, 0xbc,
  0xda, 0x8d, 0x9b, 0xbd, 0x93, 0xba, 0x74, 0xbd, 0xb8, 0xe9, 0xd5, 0xbd,
  0xa3, 0x1b, 0x2b, 0xbd, 0xa2, 0xc2, 0xd5, 0x3c, 0xd7, 0x24, 0xfe, 0xbb,
  0xc2, 0x0e, 0x47, 0x3d, 0x09, 0x4a, 0xee, 0xbc, 0xbe, 0x90, 0xe6, 0xbb,
  0x78, 0x77, 0xff, 0x3c, 0x94, 0x94, 0x48, 0x3d, 0x92, 0xe4, 0x48, 0x3d,
  0x75, 0x0c, 0x59, 0xbc, 0x61, 0x66, 0x3a, 0x3c, 0x2b, 0xb4, 0x69, 0x3d,
  0xc2, 0x66, 0x1d, 0x3c, 0xfa, 0xd6, 0x1f, 0x3d, 0x44, 0xbb, 0x75, 0x3d,
  0x28, 0x86, 0x10, 0xbd, 0xae, 0xa6, 0x2c, 0xbe, 0xb7, 0x81, 0xb0, 0xbc,
  0x23, 0x0d, 0x19, 0x3b, 0xf9, 0xab, 0xbd, 0x3c, 0x09, 0xc6, 0x8d, 0x3d,
  0x03, 0xd7, 0x33, 0x3d, 0x3d, 0xdb, 0x1a, 0x3b, 0xec, 0xf7, 0x96, 0x3d,
  0xb3, 0xbf, 0x27, 0xbc, 0x6b, 0x46, 0xc1, 0xbd, 0xbe, 0x28, 0x24, 0xbd,
  0xad, 0x6f, 0x2b, 0xbd, 0xa9, 0x8e, 0xe5, 0x3c, 0x45, 0x14, 0xaf, 0xbc,
  0x5d, 0xbf, 0x0a, 0xbc, 0x9f, 0xa2, 0xa4, 0xbd, 0x06, 0xe5, 0x0b, 0xbc,
  0x17, 0x3f, 0x4c, 0xbd, 0x87, 0x82, 0x21, 0xbc, 0x05, 0x79, 0xf7, 0x3d,
  0x05, 0x9a, 0x7a, 0x3c, 0xda, 0xec, 0x77, 0x3c, 0x14, 0x81, 0x70, 0xbd,
  0xbc, 0xf5, 0xf8, 0x3b, 0xd6, 0x88, 0xb4, 0x3c, 0x9f, 0xf3, 0x89, 0x3c,
  0xa7, 0xdf, 0xcc, 0x3c, 0xd1, 0x60, 0xb4, 0x3c, 0xd3, 0x81, 0xb8, 0xbd,
  0x0f, 0xbc, 0x02, 0x3d, 0x70, 0xca, 0x66, 0xbd, 0x8e, 0xd9, 0x27, 0xbd,
  0x6e, 0xdc, 0x2b, 0x3d, 0xea, 0xf6, 0x1a, 0xbd, 0x95, 0x5a, 0xc0, 0xbb,
  0x8e, 0xbc, 0x14, 0x3d, 0xbd, 0xbf, 0x9c, 0x3d, 0xad, 0x08, 0x14, 0x3d,
  0x6b, 0x69, 0x28, 0xbd, 0x2d, 0x3c, 0x0d, 0xbd, 0x38, 0x9b, 0xea, 0x3c,
  0xc8, 0x9e, 0xaa, 0x3b, 0xdd, 0x68, 0x90, 0x3c, 0x6f, 0xc1, 0x97, 0x3c,
  0xb1, 0xc0, 0x20, 0x3c, 0x16, 0xe4, 0x69, 0xbd, 0x7d, 0xc5, 0x3f, 0xbd,
  0x35, 0x07, 0xe0, 0xbb, 0xdd, 0x02, 0x90, 0x3d, 0x67, 0x11, 0x43, 0xbd,
  0xb8, 0xad, 0x50, 0xbd, 0xdb, 0x46, 0xd6, 0x3c, 0x33, 0xb6, 0x44, 0x3d,
  0x64, 0x18, 0x79, 0x3c, 0x2c, 0xd1, 0xe9, 0x3c, 0xec, 0x0d, 0x58, 0x3c,
  0xd9, 0x5f, 0xab, 0x3c, 0x26, 0xe6, 0xd0, 0x3c, 0xbd, 0x11, 0xa3, 0xbd,
  0x09, 0xc3, 0x33, 0xbd, 0xf7, 0xd4, 0xca, 0x3c, 0x9a, 0x74, 0x49, 0x3d,
  0x75, 0x13, 0xc7, 0x3c, 0x9a, 0x17, 0x96, 0x3d, 0x0e, 0x8d, 0xa0, 0x3d,
  0x49, 0x96, 0xd7, 0x3d, 0x0f, 0x5e, 0xaf, 0xbd, 0x4c, 0xe4, 0x14, 0xbd,
  0x06, 0x2d, 0x0e, 0x3d, 0x3f, 0x79, 0x45, 0x3d, 0xbc, 0x0e, 0xa4, 0x3c,
  0x83, 0x99, 0xfd, 0x3b, 0xb8, 0x04, 0x51, 0x3d, 0xc4, 0x7e, 0x98, 0x3c,
  0x2a, 0x7b, 0x67, 0xbd, 0x8e, 0x57, 0x89, 0xbd, 0xde, 0x6c, 0x49, 0xbd,
  0xf8, 0x89, 0xa3, 0xbd, 0x53, 0x7b, 0x38, 0xbc, 0x9c, 0x9a, 0x19, 0x3d,
  0x1b, 0x0c, 0x99, 0x3b, 0x26, 0xa6, 0x81, 0x3d, 0x0a, 0xa1, 0xa4, 0x3d,
  0xd7, 0xb5, 0x6c, 0x3d, 0x43, 0xbd, 0x03, 0xbd, 0x50, 0x73, 0x2f, 0xbd,
  0x50, 0x21, 0x80, 0x3b, 0x9a, 0x47, 0x1b, 0x3c, 0x5f, 0x20, 0x10, 0x3d,
  0xba, 0xb3, 0x6d, 0x3d, 0xc0, 0x0c, 0x96, 0x3d, 0xbd, 0xa3, 0xc1, 0x3d,
  0x67, 0x3c, 0x83, 0x3d, 0xa2, 0x23, 0x0a, 0x3d, 0xcd, 0xef, 0x69, 0xbe,
  0xdc, 0x33, 0x1a, 0xbe, 0xdd, 0xec, 0xc9, 0x3c, 0x29, 0x0b, 0x15, 0x3c,
  0xfe, 0xe2, 0x45, 0xbd, 0xfe, 0xd3, 0xc0, 0xbc, 0x2d, 0x28, 0xaa, 0xbb,
  0x03, 0x2b, 0x9e, 0x3d, 0x87, 0x68, 0x13, 0xbd, 0x1f, 0xa5, 0xc3, 0xbd,
  0x64, 0x0d, 0x6d, 0xbe, 0xc7, 0x72, 0x33, 0xbe, 0xd6, 0x11, 0xb4, 0xbd,
  0x75, 0xaa, 0x55, 0x3c, 0xe4, 0xad, 0xa6, 0x3c, 0x34, 0xfe, 0x5f, 0x3c,
  0x89, 0xd7, 0x01, 0x3d, 0x51, 0xce, 0x70, 0x3d, 0xd2, 0x4a, 0xb1, 0xbc,
  0x26, 0x58, 0x82, 0x3c, 0x88, 0x90, 0xd2, 0x3d, 0x83, 0xff, 0xdf, 0x3d,
  0x43, 0x71, 0xaa, 0x3d, 0x0b, 0xa2, 0xc9, 0x3c, 0xfb, 0xf6, 0x74, 0x3d,
  0x39, 0xf9, 0xd9, 0x3d, 0xc8, 0x4f, 0xc7, 0x3d, 0xc5, 0x64, 0x93, 0xbd,
  0x1d, 0xcf, 0xb4, 0xbe, 0x95, 0x90, 0x24, 0xbe, 0x2d, 0xd7, 0x8b, 0xbb,
  0xca, 0xd9, 0x33, 0xbd, 0x04, 0x33, 0xb5, 0xbd, 0x7b, 0x17, 0xd0, 0xbd,
  0xf5, 0x0e, 0xa4, 0xbd, 0xa3, 0x46, 0x62, 0xbd, 0xd2, 0x8f, 0x2e, 0x3d,
  0x72, 0x13, 0xbd, 0x3a, 0x53, 0x52, 0x69, 0xbd, 0x16, 0x69, 0x45, 0xbe,
  0x61, 0x6e, 0xa3, 0xbd, 0x54, 0x85, 0x69, 0x3c, 0xb5, 0xa6, 0x2a, 0x3d,
  0xee, 0xa3, 0x03, 0x3d, 0x19, 0x96, 0x96, 0x3d, 0x56, 0x9e, 0xb5, 0xb9,
  0xd1, 0xe7, 0x93, 0x3d, 0xb6, 0x69, 0xf3, 0x3d, 0xb2, 0xd9, 0x07, 0x3e,
  0x21, 0x0a, 0xd5, 0x3d, 0x23, 0x1a, 0x70, 0x3d, 0x9c, 0x67, 0x94, 0x3d,
  0xbc, 0x58, 0x11, 0x3e, 0xf1, 0x04, 0xa5, 0x3d, 0x1c, 0x63, 0x77, 0x3d,
  0x29, 0x18, 0x54, 0xbe, 0xb4, 0xa9, 0xaf, 0xbe, 0x44, 0x68, 0x0d, 0xbe,
  0x8f, 0xec, 0x03, 0xbd, 0x34, 0xc9, 0x00, 0xbc, 0x39, 0x3d, 0xf5, 0xbd,
  0xc5, 0x9f, 0xa4, 0xbd, 0xe9, 0x3d, 0xdb, 0xbd, 0xd4, 0xf8, 0x80, 0x3c,
  0xa9, 0x57, 0x19, 0x3e, 0x3d, 0x81, 0x59, 0x3e, 0x3e, 0xa1, 0xed, 0x3d,
  0xd6, 0x25, 0xe0, 0xbd, 0x75, 0xf9, 0x44, 0xbd, 0x17, 0xe8, 0x3d, 0x3c,
  0x33, 0x9f, 0x21, 0x3d, 0x9d, 0x13, 0x42, 0x3d, 0xe0, 0x8b, 0x23, 0x3d,
  0xbe, 0x66, 0xbc, 0x3b, 0xad, 0x38, 0xd6, 0x3c, 0x71, 0xf3, 0x39, 0x3e,
  0x71, 0xfe, 0xc3, 0x3d, 0x4e, 0xf1, 0x01, 0x3e, 0x6f, 0x44, 0x36, 0x3d,
  0x10, 0x05, 0x94, 0x3d, 0xb9, 0x54, 0xd5, 0x3d, 0x1d, 0xec, 0x8a, 0x3d,
  0xcb, 0x18, 0x62, 0x3c, 0xb7, 0x8d, 0x58, 0xbe, 0x39, 0xb4, 0x98, 0xbe,
  0x67, 0x14, 0x18, 0xbe, 0x50, 0xae, 0xa3, 0xbc, 0xcc, 0x18, 0x23, 0xbd,
  0x73, 0xbc, 0x06, 0xbd, 0xcd, 0xc1, 0x07, 0x3d, 0x44, 0x1e, 0xec, 0x3d,
  0x90, 0x49, 0x96, 0x3d, 0xc0, 0x39, 0x64, 0x3e, 0x6a, 0xa2, 0x74, 0x3e,
  0x3f, 0x7b, 0x2d, 0x3e, 0x92, 0x4b, 0x47, 0xbd, 0x74, 0x83, 0x75, 0xbc,
  0x7d, 0xa4, 0x34, 0x3d, 0xf9, 0xa3, 0x73, 0x3d, 0x89, 0x25, 0xcf, 0xbb,
  0xeb, 0x6a, 0x31, 0x3d, 0xb6, 0x8a, 0x84, 0xbd, 0x1f, 0x30, 0xf3, 0x3b,
  0x2d, 0x01, 0xb6, 0x3d, 0xbf, 0x6a, 0x8c, 0xbb, 0x66, 0x3b, 0xaa, 0x3d,
  0x17, 0x57, 0x94, 0x3d, 0x79, 0x62, 0xb9, 0x3d, 0xa6, 0xb9, 0xe4, 0x3d,
  0x01, 0xad, 0x91, 0x3d, 0x98, 0x71, 0x82, 0xbd, 0x19, 0x41, 0x8e, 0xbe,
  0x67, 0x21, 0x94, 0xbe, 0x4d, 0x68, 0xd4, 0xbd, 0x4e, 0x5b, 0x33, 0x3d,
  0x64, 0x0e, 0xdb, 0x3c, 0xd0, 0xd4, 0x70, 0x3d, 0x4e, 0x33, 0x5f, 0x3d,
  0x59, 0x85, 0x25, 0x3e, 0x5b, 0x10, 0x04, 0x3e, 0xd8, 0x51, 0x12, 0x3e,
  0x48, 0xf7, 0x43, 0x3e, 0xe5, 0x36, 0x4a, 0x3d, 0xe5, 0x18, 0x94, 0xbd,
  0x2c, 0x80, 0xe8, 0xbc, 0x3b, 0x89, 0x36, 0x3d, 0x3d, 0x34, 0xbc, 0xbb,
  0x75, 0xde, 0x06, 0xbc, 0x72, 0xdd, 0x85, 0xbc, 0xb2, 0x5b, 0xb8, 0xbd,
  0xd7, 0x87, 0x46, 0xbd, 0x42, 0xab, 0x09, 0x3d, 0xf6, 0x5c, 0x87, 0x3d,
  0x79, 0x02, 0x0f, 0x3d, 0x4f, 0x67, 0x75, 0x3d, 0x1d, 0xc9, 0xa1, 0x3b,
  0x89, 0x71, 0xa5, 0xbb, 0x45, 0x2f, 0xd5, 0xbc, 0xe8, 0x59, 0xea, 0xbd,
  0x9d, 0xec, 0x80, 0xbe, 0xa9, 0xd9, 0x52, 0xbe, 0x5c, 0xa2, 0xde, 0x3c,
  0x1b, 0xfd, 0x48, 0x3d, 0x56, 0x80, 0x85, 0x3d, 0xb8, 0xf1, 0xbd, 0x3d,
  0xea, 0xa4, 0xc6, 0x3d, 0xa0, 0x27, 0x21, 0x3e, 0xc2, 0xb5, 0x9e, 0x3d,
  0xb0, 0x9c, 0xb4, 0x3d, 0x03, 0xf1, 0x0a, 0x3c, 0x74, 0x7e, 0x72, 0xbd,
  0xe9, 0x2a, 0x16, 0xbe, 0xa0, 0xae, 0xac, 0xbd, 0xd7, 0x9a, 0x1c, 0x3c,
  0x93, 0x16, 0xc1, 0x3c, 0x00, 0x0f, 0xf3, 0x3a, 0xaf, 0x3e, 0xbe, 0xba,
  0x35, 0xd0, 0xae, 0xbd, 0xf9, 0x38, 0x89, 0xbd, 0xe5, 0x63, 0x11, 0xbc,
  0xfd, 0x61, 0xc5, 0xbb, 0xf6, 0x39, 0x97, 0x3d, 0x3f, 0xea, 0xca, 0x3c,
  0x20, 0x37, 0xa2, 0xbc, 0x20, 0x91, 0x0c, 0xbd, 0x27, 0x50, 0x2d, 0xbd,
  0x9b, 0xf0, 0x32, 0xbe, 0xa7, 0x8e, 0x69, 0xbe, 0xc2, 0x58, 0x53, 0xbd,
  0x34, 0x65, 0x90, 0x3d, 0x90, 0x88, 0x9d, 0x3d, 0x12, 0x8a, 0x9e, 0x3d,
  0xcc, 0xfd, 0xda, 0x3d, 0x25, 0x1e, 0x0e, 0x3c, 0xf7, 0x79, 0x6c, 0x3d,
  0x39, 0x85, 0x93, 0x3c, 0xe5, 0xf8, 0x05, 0x3d, 0xda, 0x0d, 0x46, 0xbd,
  0x14, 0x1a, 0x87, 0xbd, 0xaa, 0xd4, 0x5d, 0xbd, 0xdf, 0x8f, 0x02, 0xbd,
  0x2b, 0x9d, 0x1d, 0x3d, 0x0e, 0xf3, 0xe1, 0x3c, 0x1b, 0x83, 0x95, 0x3c,
  0xac, 0x1c, 0x14, 0x3c, 0xcf, 0xde, 0x00, 0xbe, 0x70, 0xe4, 0xb9, 0xbd,
  0xba, 0x6d, 0xc2, 0xbc, 0x89, 0x59, 0xd3, 0x3c, 0xbc, 0x67, 0x0d, 0x3d,
  0x1d, 0x4d, 0x58, 0x3d, 0x51, 0xe8, 0xc3, 0x3c, 0x10, 0x90, 0x74, 0xbd,
  0x2b, 0xf7, 0x7b, 0xbd, 0xba, 0x42, 0xa3, 0xbd, 0x08, 0x11, 0x94, 0xbd,
  0x90, 0xed, 0x02, 0xbd, 0x57, 0xb1, 0x0c, 0x3d, 0xe9, 0x76, 0xe2, 0x3b,
  0x0e, 0xff, 0x62, 0x3d, 0xb9, 0xbf, 0x36, 0x3c, 0xe5, 0x6e, 0x4d, 0x3c,
  0x3b, 0x23, 0x94, 0xba, 0x1b, 0x8b, 0x74, 0x3c, 0x78, 0x0a, 0x70, 0xbd,
  0x38, 0xe6, 0xb4, 0xbd, 0xff, 0xa6, 0x94, 0xbd, 0x17, 0x2b, 0x82, 0xbd,
  0xc3, 0x9a, 0x84, 0xbb, 0xd4, 0x46, 0xd8, 0x3b, 0x84, 0x59, 0xaf, 0x3a,
  0xd3, 0x22, 0x3e, 0x3d, 0x20, 0xfa, 0x0c, 0xbc, 0x37, 0x2a, 0xce, 0xbd,
  0x2a, 0xd4, 0xbd, 0xb9, 0xca, 0xc9, 0x84, 0xbc, 0xe6, 0x08, 0x4b, 0x3c,
  0x4c, 0x57, 0xb7, 0x3b, 0x2b, 0x32, 0x75, 0xba, 0x82, 0x84, 0x4f, 0xbd,
  0x1a, 0x98, 0x6c, 0x3b, 0x85, 0x09, 0x70, 0x3d, 0x1f, 0x54, 0x17, 0x3d,
  0x1a, 0xb8, 0xb5, 0xbc, 0x7d, 0x5d, 0x24, 0xbd, 0x9a, 0xe6, 0xba, 0xbc,
  0x1c, 0x22, 0xae, 0xbc, 0xb3, 0x0a, 0x05, 0xbd, 0xcc, 0xdb, 0x81, 0xbd,
  0x2a, 0x2c, 0x8a, 0xbc, 0xf7, 0xfb, 0x03, 0x3d, 0x8d, 0x88, 0x43, 0x3c,
  0x51, 0x90, 0xe0, 0xbd, 0x35, 0xd4, 0x16, 0xbe, 0x1b, 0xcc, 0x37, 0xbd,
  0x29, 0x50, 0x5d, 0xbd, 0xe4, 0x49, 0x90, 0x3c, 0x76, 0xb0, 0x08, 0x3d,
  0xe3, 0x31, 0x9e, 0x3b, 0x0c, 0x11, 0x05, 0x3d, 0x60, 0xe5, 0x98, 0x3c,
  0x28, 0x9f, 0x04, 0xbe, 0x86, 0xfc, 0x8c, 0xbd, 0xd1, 0x50, 0x2d, 0x3c,
  0x22, 0x3d, 0x2d, 0xbd, 0x5c, 0x2a, 0x1c, 0xbe, 0x55, 0x66, 0x79, 0xbd,
  0xa0, 0xef, 0x5e, 0xbd, 0x4e, 0x10, 0x99, 0xbc, 0x49, 0x79, 0x31, 0x3d,
  0x55, 0x3e, 0xef, 0x3d, 0x35, 0xa0, 0x46, 0x3d, 0x16, 0x34, 0x1d, 0x3d,
  0xbc, 0x4f, 0xeb, 0xba, 0x4e, 0x42, 0x28, 0xbc, 0x04, 0xec, 0x77, 0xbb,
  0x3f, 0xc7, 0x0d, 0xbd, 0x62, 0x05, 0x4f, 0xbd, 0x9f, 0xef, 0xdb, 0xbd,
  0x9e, 0x4e, 0x8e, 0xbd, 0x4a, 0x33, 0xb6, 0xbd, 0xa4, 0x4c, 0xee, 0xbd,
  0x6f, 0x84, 0x07, 0xbd, 0x42, 0x4e, 0xf8, 0xbc, 0x30, 0x7b, 0xc9, 0xbb,
  0x61, 0xf2, 0x3b, 0x3c, 0xb2, 0x05, 0x1f, 0x3d, 0xb4, 0x80, 0x18, 0xbc,
  0x7b, 0x3b, 0x9a, 0xba, 0x36, 0x38, 0x01, 0xbe, 0xc3, 0xa4, 0x6b, 0xbd,
  0xe6, 0x1f, 0x58, 0xbd, 0x35, 0x94, 0xde, 0xbd, 0xe2, 0x46, 0x9d, 0xbd,
  0x01, 0xe8, 0x59, 0xbd, 0x10, 0x08, 0xf8, 0xba, 0x05, 0x32, 0x07, 0xbc,
  0xd7, 0xf7, 0x7b, 0x3d, 0x49, 0x5b, 0x53, 0x3d, 0x74, 0xe7, 0xfb, 0x3c,
  0x94, 0xa0, 0x66, 0x39, 0x7a, 0x8d, 0x57, 0x3d, 0x82, 0xb3, 0x28, 0xbc,
  0x95, 0x3e, 0xc1, 0xbc, 0x58, 0xe9, 0x43, 0xbd, 0x3f, 0xa4, 0x87, 0xbd,
  0x73, 0xae, 0x8b, 0xbd, 0x02, 0xff, 0x59, 0xbc, 0xf6, 0xb8, 0x86, 0xbd,
  0x16, 0xfe, 0x85, 0xbd, 0x1b, 0xb2, 0x19, 0xbd, 0x37, 0xe9, 0xe8, 0x3a,
  0x0b, 0x81, 0x43, 0x3d, 0x5a, 0xbf, 0xbb, 0x39, 0xb6, 0x77, 0x19, 0x3d,
  0x8c, 0x1c, 0x92, 0x3b, 0x34, 0x82, 0xe3, 0xbc, 0x0b, 0x4e, 0xef, 0xbd,
  0xb0, 0x67, 0x24, 0xbe, 0x9f, 0x66, 0xfe, 0xbd, 0x37, 0xee, 0xee, 0xbd,
  0xf5, 0xb3, 0x32, 0xbd, 0x36, 0xed, 0xda, 0xba, 0xdc, 0x1f, 0xae, 0x3c,
  0x63, 0x0b, 0xc0, 0xbc, 0xef, 0xe5, 0xfc, 0xbc, 0xb9, 0xf4, 0x46, 0x3c,
  0x0e, 0xe4, 0x7e, 0x3d, 0x0d, 0x65, 0x18, 0xbb, 0xa8, 0x46, 0x72, 0x3d,
  0x34, 0x10, 0x02, 0x3d, 0x47, 0xcb, 0x21, 0xbc, 0x17, 0x6e, 0x17, 0xbd,
  0xe2, 0x7a, 0xbb, 0x3c, 0x5e, 0xfc, 0x54, 0xbd, 0x50, 0xbb, 0x88, 0xbc,
  0xdd, 0x0d, 0xe6, 0x3c, 0x5f, 0x57, 0x11, 0xbd, 0x83, 0x72, 0x77, 0xbc,
  0x0b, 0x7a, 0x20, 0x3d, 0x0f, 0x49, 0x45, 0x3d, 0x68, 0xd5, 0xdf, 0x3c,
  0xf3, 0x97, 0x60, 0x3d, 0x39, 0x63, 0x1f, 0x3d, 0x46, 0x20, 0x9c, 0xba,
  0xc5, 0x96, 0x2e, 0xbd, 0x71, 0xcd, 0x0a, 0xbe, 0xe7, 0xdf, 0x49, 0xbd,
  0x6f, 0xe2, 0xb2, 0xbc, 0xa9, 0x4a, 0x12, 0xbc, 0x67, 0xe1, 0x20, 0xbb,
  0x58, 0x4a, 0x85, 0xbc, 0x4d, 0x61, 0x53, 0x3d, 0x90, 0x27, 0xdb, 0x3b,
  0x12, 0x36, 0xe1, 0xbc, 0xdc, 0x0d, 0x52, 0xbd, 0x31, 0x53, 0xc1, 0x3b,
  0xda, 0xe1, 0xfd, 0xbc, 0xfe, 0x5d, 0xe0, 0xbc, 0xe9, 0x3b, 0xf8, 0xbb,
  0x36, 0x14, 0x5f, 0xbd, 0x7e, 0xa6, 0x5e, 0xbd, 0x85, 0x1c, 0x96, 0xbc,
  0x24, 0xb2, 0x1e, 0xbd, 0x78, 0xdd, 0x13, 0xbd, 0xaf, 0xd5, 0xb0, 0xbc,
  0x6c, 0xbc, 0xd8, 0xbc, 0x30, 0x83, 0x82, 0xba, 0x7e, 0x67, 0x99, 0x3c,
  0xd9, 0x39, 0x16, 0x3c, 0xf1, 0xd2, 0xa5, 0x3c, 0xd1, 0x12, 0x3f, 0x3d,
  0xee, 0xbb, 0xe7, 0xbc, 0xb3, 0xe3, 0xac, 0xbc, 0xac, 0x05, 0xad, 0xbb,
  0xa5, 0xfa, 0x5c, 0x3d, 0x4e, 0xf4, 0x79, 0xbc, 0x2a, 0xb3, 0x9a, 0x3c,
  0x51, 0xf6, 0x3c, 0xbd, 0x6a, 0x5d, 0x1a, 0xbd, 0x5c, 0x69, 0xf3, 0xbc,
  0x2c, 0x10, 0x6d, 0xbd, 0xa7, 0x10, 0x65, 0xbd, 0x37, 0x76, 0xb9, 0xbc,
  0x70, 0x9d, 0x43, 0xbd, 0xa4, 0x6a, 0x62, 0xbd, 0x09, 0xb7, 0x85, 0xbd,
  0x8d, 0xc0, 0xb9, 0xbc, 0xdb, 0x8e, 0x35, 0xbd, 0x72, 0x9d, 0xc7, 0xbd,
  0xa8, 0x3e, 0x03, 0xbe, 0xf0, 0x67, 0xaf, 0xbd, 0x87, 0xb2, 0xaa, 0xbd,
  0x85, 0x7a, 0x89, 0xbd, 0xbc, 0x9f, 0xe4, 0x3c, 0xe4, 0x4e, 0x3d, 0x3d,
  0x6f, 0xfb, 0xc7, 0x3c, 0x05, 0xa5, 0x4e, 0x3d, 0xdb, 0xed, 0x53, 0x3d,
  0x60, 0x0e, 0x00, 0x3d, 0x2d, 0xbc, 0xb4, 0x3c, 0x85, 0xa4, 0x9c, 0x3d,
  0x91, 0x70, 0x51, 0x3d, 0xbc, 0xc5, 0xac, 0x3d, 0xe7, 0x69, 0xa0, 0x3b,
  0x3c, 0x52, 0x87, 0x3b, 0x24, 0x0b, 0x61, 0xbd, 0xda, 0x8d, 0x15, 0xbd,
  0x73, 0x80, 0x90, 0xbd, 0x54, 0x1e, 0x7c, 0xbc, 0x2f, 0xa7, 0xc7, 0xbd,
  0x3f, 0xbd, 0x87, 0xbd, 0xb3, 0xad, 0x86, 0xbd, 0xc4, 0xb8, 0xd7, 0xbc,
  0x8d, 0x5e, 0xe1, 0xbd, 0x29, 0x87, 0x49, 0xbe, 0xe3, 0x8d, 0x40, 0xbe,
  0x97, 0x3d, 0x6c, 0xbe, 0x6c, 0x41, 0x59, 0xbe, 0x18, 0x46, 0xea, 0xbd,
  0xb9, 0x44, 0x6d, 0xbd, 0xac, 0x36, 0x30, 0xbd, 0xac, 0xbc, 0xec, 0x3c,
  0x78, 0x2e, 0x66, 0x3d, 0xd6, 0xe4, 0x3e, 0x3d, 0x39, 0x87, 0x3c, 0x3c,
  0xff, 0x01, 0x81, 0x3c, 0xda, 0xf3, 0xff, 0x3c, 0xe1, 0xf3, 0x28, 0x3d,
  0x89, 0x9e, 0x76, 0x3d, 0xe7, 0x4b, 0xb4, 0x3c, 0xd0, 0xf3, 0xb8, 0x3b,
  0xd9, 0xc4, 0x3b, 0x3d, 0xc0, 0x54, 0x4d, 0xbc, 0x6c, 0xc9, 0x3f, 0x3d,
  0xfe, 0xfa, 0x1f, 0xbb, 0x6d, 0x98, 0x2f, 0x3b, 0x8a, 0x19, 0xe2, 0xba,
  0x57, 0x02, 0xdb, 0x3b, 0x4a, 0x96, 0x46, 0xbd, 0xea, 0x89, 0x8b, 0xbd,
  0xbb, 0xed, 0x4f, 0xbd, 0xb2, 0x3b, 0x33, 0xbd, 0xc4, 0x29, 0x89, 0xbd,
  0x2c, 0xf9, 0xd6, 0xbd, 0xf4, 0x07, 0x34, 0xbd, 0x96, 0x37, 0xc2, 0xbd,
  0xa7, 0x1e, 0x3f, 0xbd, 0x9b, 0x97, 0x07, 0x3d, 0xd0, 0x25, 0x06, 0x3d,
  0xec, 0x84, 0x04, 0x3c, 0x5b, 0x97, 0x09, 0x3c, 0xa1, 0x6f, 0xd2, 0x3c,
  0xe7, 0x83, 0x00, 0x3d, 0x21, 0x8b, 0x42, 0x3d, 0x73, 0x07, 0x3a, 0x3c,
  0xc3, 0x53, 0x62, 0x3d, 0x29, 0xc8, 0x4f, 0x3d, 0xc1, 0x07, 0x57, 0x3d,
  0xec, 0x58, 0xd5, 0x3b, 0x36, 0x10, 0x6b, 0x3d, 0x99, 0xdc, 0x67, 0x3d,
  0x63, 0x22, 0x9b, 0xbb, 0x67, 0xb2, 0x14, 0x3d, 0xda, 0xf1, 0x6a, 0x3d,
  0x38, 0x82, 0x5f, 0x3c, 0x07, 0x5c, 0x8b, 0x3a, 0x15, 0xef, 0x4b, 0x3d,
  0xa6, 0x8a, 0x88, 0x3a, 0x62, 0xcb, 0x75, 0x3d, 0x6b, 0xc4, 0x8b, 0x3d,
  0xb1, 0x8e, 0x28, 0x3c, 0x67, 0x06, 0x6c, 0x3d, 0xed, 0x7d, 0x15, 0x3c,
  0x0c, 0x49, 0x5a, 0x3c, 0xc1, 0x3e, 0x99, 0xbb, 0x25, 0x43, 0x52, 0x3b,
  0x82, 0x98, 0xc9, 0x3a, 0x7b, 0x7d, 0x10, 0x3d, 0x0b, 0x60, 0x15, 0x3c,
  0xf2, 0x4d, 0xb1, 0xba, 0x7b, 0xac, 0x1c, 0x3d, 0xf8, 0x53, 0x09, 0xbd,
  0x0e, 0x66, 0x10, 0x3c, 0xab, 0x23, 0xa2, 0xbc, 0x61, 0x5d, 0x10, 0xbd,
  0xa6, 0x0f, 0xf5, 0xbc, 0x16, 0xc8, 0x14, 0x3c, 0xa6, 0x76, 0x0b, 0x3c,
  0xc6, 0xdb, 0x73, 0xbd, 0xa8, 0x0d, 0x21, 0xbd, 0x40, 0x07, 0x41, 0xbd,
  0x12, 0x96, 0x2c, 0xbc, 0x36, 0x72, 0x21, 0xbd, 0x27, 0xcf, 0x56, 0xbc,
  0x98, 0xb3, 0x1a, 0x3c, 0xab, 0x3d, 0x3b, 0xbc, 0x58, 0x17, 0x17, 0xbd,
  0xe4, 0xb5, 0xf5, 0xbc, 0x4e, 0x5a, 0x55, 0xbd, 0x9b, 0x86, 0x4e, 0xbb,
  0xe4, 0x02, 0x1d, 0xbd, 0xa8, 0x17, 0x29, 0xbd, 0xd2, 0x61, 0x6a, 0xbd,
  0xf5, 0x4c, 0xba, 0xbc, 0xf0, 0x45, 0xb7, 0xbc, 0xdb, 0x39, 0x98, 0xbc,
  0x16, 0x58, 0x0e, 0x3c, 0xb0, 0x9e, 0x4d, 0xbd, 0x0b, 0x6d, 0xd2, 0x3b,
  0xc0, 0x6a, 0xc6, 0xbb, 0xcc, 0x1b, 0x69, 0xbd, 0x00, 0x5c, 0x13, 0xbd,
  0x1e, 0x9a, 0xc1, 0xbc, 0xa4, 0x8d, 0x48, 0xbd, 0xed, 0xc7, 0xe9, 0xbc,
  0x21, 0x49, 0x61, 0xba, 0xe9, 0x97, 0x9e, 0xbc, 0x63, 0x26, 0x09, 0xbd,
  0x23, 0x78, 0x3d, 0xbd, 0x15, 0xca, 0x96, 0xbc, 0xe8, 0xfd, 0xa8, 0xbc,
  0x64, 0x17, 0xe0, 0x3c, 0xe2, 0x2c, 0xa9, 0xbc, 0xb5, 0xe6, 0x34, 0xbd,
  0x64, 0x53, 0x98, 0xbd, 0xbe, 0x76, 0x97, 0xbc, 0xec, 0x7b, 0x4c, 0xbd,
  0x11, 0xdf, 0xe0, 0x3a, 0x77, 0x45, 0xef, 0x3b, 0x57, 0xb4, 0x84, 0xbc,
  0xc9, 0x30, 0x42, 0xbd, 0x1f, 0xf4, 0x3e, 0xbc, 0xef, 0x70, 0x50, 0xbd,
  0x44, 0x28, 0xb6, 0x3b, 0x78, 0xa4, 0xf7, 0xbb, 0x22, 0x1b, 0xa8, 0xbc,
  0x22, 0xf6, 0xc5, 0xbc, 0x9e, 0x9b, 0x49, 0xbd, 0x82, 0xc7, 0xf3, 0xbc,
  0x5d, 0x01, 0x92, 0xbc, 0xfe, 0x8a, 0x48, 0xbd, 0xdf, 0x73, 0x5d, 0xbc,
  0xdb, 0xe9, 0x6e, 0xbb, 0x4b, 0xdc, 0xc9, 0xbc, 0x07, 0x65, 0x7e, 0xbc,
  0xb2, 0xb6, 0xad, 0xbc, 0x64, 0x6b, 0x01, 0xbd, 0xb3, 0xab, 0x1b, 0x3d,
  0xaf, 0x66, 0x4d, 0x3d, 0x17, 0xf0, 0x8b, 0x3d, 0x58, 0x1a, 0x91, 0x3c,
  0x20, 0x2d, 0x3d, 0xbd, 0x38, 0xca, 0x54, 0xbd, 0x65, 0xc1, 0x92, 0xbc,
  0xb0, 0xdd, 0x83, 0x3c, 0xef, 0x0f, 0x23, 0x3c, 0x04, 0xe1, 0x25, 0x3d,
  0x3f, 0xa8, 0xa9, 0xbc, 0x42, 0xd4, 0x2e, 0xbc, 0x88, 0xcb, 0x87, 0x3c,
  0x81, 0xd8, 0xa6, 0xbb, 0xac, 0xe4, 0x6a, 0xbc, 0xf3, 0x58, 0x35, 0xbd,
  0x98, 0xe5, 0x0d, 0x3b, 0xdb, 0xbd, 0x01, 0xbd, 0x4e, 0xe9, 0x75, 0xbd,
  0xae, 0x2f, 0x17, 0xbd, 0x17, 0x26, 0x40, 0xbd, 0x8e, 0x28, 0x5e, 0xbd,
  0xc9, 0x3a, 0xd2, 0xb8, 0x46, 0x39, 0x9b, 0xbc, 0x89, 0x3b, 0x1d, 0xbc,
  0x89, 0x7e, 0xd2, 0x3c, 0x03, 0x3c, 0x94, 0x3d, 0xa9, 0xf0, 0xa4, 0x3d,
  0xd2, 0xd2, 0x28, 0x3e, 0x1b, 0xab, 0x24, 0x3e, 0x93, 0x13, 0xc6, 0x3d,
  0xc5, 0x50, 0xc3, 0x3d, 0x75, 0x68, 0xed, 0x3d, 0xc6, 0xae, 0x7c, 0x3c,
  0x2f, 0x70, 0x0c, 0x3d, 0xc0, 0x9a, 0x52, 0x3d, 0x25, 0x2d, 0x38, 0x3e,
  0xbd, 0x1b, 0x08, 0x3e, 0x92, 0xe7, 0xde, 0x3d, 0xb4, 0x42, 0xea, 0x3d,
  0x77, 0xb0, 0x8b, 0x3d, 0xd2, 0x41, 0x90, 0x3d, 0xd5, 0x74, 0x47, 0x3c,
  0x8e, 0x4d, 0x9f, 0xbc, 0xe7, 0xca, 0x45, 0xbd, 0x8b, 0x9a, 0xad, 0xbb,
  0x27, 0x74, 0x75, 0xbb, 0xe9, 0x4b, 0x3c, 0xbd, 0xfa, 0x9d, 0x25, 0x3b,
  0x48, 0x4e, 0xaf, 0xbc, 0x67, 0x5c, 0x01, 0xbd, 0x9d, 0xd2, 0x4b, 0xbd,
  0xe3, 0x37, 0x72, 0xbd, 0x8a, 0x51, 0x37, 0xbd, 0xce, 0x69, 0x21, 0xbd,
  0x85, 0x8c, 0x71, 0x3c, 0x52, 0x7c, 0x8e, 0x3b, 0xb4, 0x2c, 0x6b, 0x3b,
  0x27, 0x68, 0xfc, 0xbc, 0xef, 0x74, 0x27, 0xbd, 0x05, 0x8b, 0x20, 0x3d,
  0x43, 0xbe, 0x73, 0x3d, 0xe0, 0x34, 0x61, 0x3d, 0x6b, 0x47, 0xb8, 0xb9,
  0xee, 0xb4, 0x8f, 0x3c, 0xf5, 0x00, 0x0b, 0xbd, 0x9b, 0x29, 0xd8, 0xbd,
  0xac, 0x47, 0x5b, 0xbd, 0x00, 0x93, 0x34, 0xbd, 0x79, 0x38, 0x16, 0x3d,
  0x41, 0x45, 0x48, 0x3d, 0x1b, 0xdf, 0x33, 0x3d, 0xea, 0xdc, 0x0a, 0xbd,
  0xbb, 0x91, 0x45, 0xbd, 0xa6, 0xd3, 0x61, 0xbd, 0x94, 0x0e, 0x6f, 0xbd,
  0xf8, 0x8b, 0x8c, 0xbc, 0x33, 0x31, 0x45, 0xbd, 0xdc, 0x63, 0x01, 0xbd,
  0x4d, 0xa8, 0x0f, 0xbe, 0x11, 0x7c, 0xec, 0xbd, 0x80, 0xaa, 0xc6, 0xbd,
  0xad, 0x0b, 0xbb, 0xbd, 0xca, 0xd3, 0xf9, 0xbc, 0x5f, 0xe2, 0x4e, 0x3c,
  0xf0, 0xd7, 0x50, 0xbc, 0xcb, 0xe6, 0x5d, 0xbd, 0x5f, 0x2e, 0x85, 0xbc,
  0x83, 0xb3, 0xe5, 0x3b, 0x85, 0xda, 0x12, 0x3c, 0x90, 0x00, 0x0e, 0x3e,
  0x15, 0x1b, 0x33, 0x3e, 0xda, 0xb2, 0xc7, 0x3d, 0x7c, 0x17, 0xc6, 0x3d,
  0x02, 0x7f, 0xd1, 0x3d, 0xea, 0xa9, 0xd2, 0x3b, 0x08, 0x1d, 0x4e, 0x3d,
  0xd8, 0x31, 0xb9, 0x3d, 0x52, 0xd9, 0x0c, 0x3e, 0x7a, 0x0e, 0xce, 0x3d,
  0x9e, 0x24, 0x42, 0xbc, 0xf9, 0x1a, 0xf8, 0xbc, 0xba, 0x1a, 0x86, 0xbc,
  0x0c, 0x1e, 0xaa, 0xbc, 0x78, 0x57, 0xa4, 0xbc, 0x75, 0x15, 0x05, 0xbd,
  0x64, 0xf8, 0xce, 0xbd, 0x1d, 0xfe, 0x83, 0xbd, 0x7a, 0x47, 0x9a, 0xbd,
  0xd5, 0x15, 0x40, 0xbd, 0x9f, 0x9d, 0x22, 0xbd, 0xae, 0x72, 0x8e, 0xbc,
  0x5a, 0x85, 0x71, 0xbd, 0x26, 0x6e, 0x0c, 0xbd, 0x4b, 0xa0, 0x6f, 0x39,
  0x5d, 0xba, 0x6b, 0xbd, 0x25, 0x16, 0x19, 0xbd, 0x2d, 0x1f, 0x1b, 0xbc,
  0xbd, 0xc3, 0x96, 0xbd, 0x57, 0x5b, 0x27, 0xbd, 0x34, 0x7d, 0x02, 0xbb,
  0xf3, 0x18, 0x8b, 0x3d, 0x02, 0x1e, 0x97, 0x3d, 0x4c, 0xb7, 0x0b, 0xbc,
  0x55, 0xbc, 0xe4, 0x3d, 0x80, 0xfa, 0xa9, 0x3e, 0x73, 0xc9, 0xbf, 0x3e,
  0xf3, 0x04, 0x88, 0x3e, 0xab, 0xf8, 0x99, 0x3d, 0x1b, 0xb4, 0x13, 0x3c,
  0xf2, 0x14, 0x18, 0xbd, 0xfe, 0x7a, 0x72, 0x3b, 0xc8, 0xd7, 0x2d, 0xbd,
  0x2b, 0x0e, 0xde, 0xbd, 0x7b, 0x80, 0xc8, 0xbd, 0x96, 0xe6, 0xac, 0xbd,
  0x50, 0xf1, 0xf1, 0xbd, 0x22, 0x58, 0x70, 0xbd, 0x91, 0xcd, 0x01, 0x3d,
  0xae, 0x78, 0x87, 0xbb, 0x2a, 0x6b, 0xb4, 0xbc, 0x83, 0x91, 0x7c, 0x3c,
  0x86, 0x79, 0x80, 0xbd, 0xc4, 0x5f, 0x44, 0xbd, 0x3d, 0xbe, 0x3e, 0x3b,
  0xaa, 0x61, 0x5a, 0xbc, 0x44, 0x70, 0xb8, 0x3b, 0x29, 0x36, 0xb6, 0xbc,
  0x76, 0x73, 0xb5, 0x3b, 0xa5, 0xcf, 0x44, 0xbd, 0x33, 0x8f, 0x7d, 0xbd,
  0x0f, 0xff, 0x81, 0x3c, 0xd9, 0x61, 0xbc, 0x3c, 0x53, 0x7a, 0x6e, 0x3e,
  0x49, 0x97, 0xf3, 0x3e, 0xfe, 0xb3, 0xab, 0x3e, 0x30, 0x74, 0x38, 0x3d,
  0x0d, 0xc0, 0x03, 0xbd, 0xfe, 0xf3, 0x0e, 0x3c, 0xad, 0x66, 0x2e, 0xbd,
  0x6d, 0x00, 0x36, 0xbd, 0xfa, 0xd1, 0x06, 0xbe, 0xfc, 0x79, 0x0c, 0xbe,
  0xe2, 0xcc, 0xbf, 0xbd, 0xca, 0xdf, 0x44, 0xbd, 0x5a, 0x67, 0x90, 0xbd,
  0x36, 0x17, 0x68, 0xbd, 0x0f, 0xd0, 0xb3, 0x3c, 0xb2, 0x96, 0xf1, 0x3b,
  0xc7, 0xfd, 0x28, 0x3a, 0x73, 0x87, 0xdc, 0xbc, 0x81, 0x8c, 0x07, 0xbd,
  0x01, 0x56, 0xa6, 0xbd, 0xe0, 0x70, 0xd4, 0xbc, 0x71, 0xbf, 0x72, 0x3b,
  0xe6, 0x27, 0xa8, 0xbd, 0xec, 0xa2, 0xaa, 0xbd, 0x00, 0x0d, 0x31, 0xbc,
  0xea, 0xb3, 0x33, 0x3d, 0x8f, 0xe9, 0x6e, 0xbc, 0xbd, 0xb0, 0xe5, 0xbc,
  0xa8, 0x10, 0x55, 0x3e, 0xbd, 0x3a, 0x07, 0x3f, 0xdb, 0x13, 0xd6, 0x3e,
  0xc8, 0x58, 0xbb, 0x3d, 0x97, 0xc3, 0x8a, 0x3c, 0x92, 0xb1, 0x30, 0xbd,
  0x91, 0x28, 0x36, 0xbd, 0x22, 0xd1, 0x88, 0xbd, 0x81, 0x3e, 0x2f, 0xbe,
  0x80, 0xc9, 0x24, 0xbe, 0x29, 0x28, 0xdf, 0xbd, 0x55, 0xcc, 0x06, 0xbd,
  0x00, 0xfb, 0xbf, 0xbc, 0x94, 0xbc, 0x8b, 0x3c, 0x87, 0x07, 0xd5, 0x3c,
  0x0c, 0xe2, 0x33, 0x3d, 0xd9, 0x8b, 0xb7, 0x3c, 0xbb, 0xd5, 0xc9, 0xbc,
  0x46, 0x95, 0xa9, 0xbd, 0xf7, 0xad, 0x3c, 0xbe, 0xf9, 0x2c, 0x62, 0xbe,
  0x31, 0x90, 0xd5, 0xbd, 0x9d, 0x69, 0xf9, 0xbd, 0x13, 0xe4, 0x99, 0xbd,
  0x75, 0x40, 0x1b, 0xbd, 0x97, 0xfc, 0x0d, 0xbc, 0x5c, 0xea, 0xb2, 0x3c,
  0xd6, 0xcc, 0xac, 0x3c, 0x7b, 0xc0, 0x81, 0x3e, 0x10, 0xeb, 0x12, 0x3f,
  0x64, 0x09, 0xe4, 0x3e, 0x6a, 0xd4, 0xed, 0x3d, 0xfc, 0xc5, 0x01, 0xbd,
  0x06, 0x8a, 0x64, 0xbd, 0x4e, 0x4c, 0x9d, 0xbd, 0x86, 0x4d, 0x09, 0xbe,
  0x59, 0xf2, 0x25, 0xbe, 0x71, 0xe2, 0x5e, 0xbd, 0x67, 0xf0, 0x44, 0xbd,
  0x6a, 0xc4, 0x3d, 0xbb, 0xe2, 0x2f, 0xf4, 0x3b, 0x86, 0x8d, 0x4d, 0x3d,
  0xeb, 0xae, 0x22, 0x3d, 0x6d, 0x57, 0x9d, 0x3d, 0xa9, 0xa8, 0xd1, 0x3d,
  0x34, 0x3f, 0xbd, 0x3d, 0x32, 0x7e, 0x00, 0x3d, 0x3d, 0x8d, 0x34, 0xbe,
  0xcc, 0x59, 0x87, 0xbe, 0x46, 0x1e, 0x56, 0xbe, 0xd3, 0xf1, 0x05, 0xbe,
  0x07, 0x3c, 0xd8, 0xbd, 0x97, 0x16, 0xc9, 0xbd, 0xf1, 0xb9, 0x81, 0xbd,
  0x0b, 0x71, 0x0d, 0xbd, 0x98, 0x55, 0x9f, 0xbc, 0x86, 0xc0, 0x81, 0x3e,
  0x92, 0xb8, 0x0c, 0x3f, 0x90, 0x55, 0xb6, 0x3e, 0xb1, 0x84, 0xb6, 0x3d,
  0xf5, 0x0b, 0xed, 0xbc, 0x68, 0xda, 0x4d, 0xbd, 0x98, 0xb2, 0xa3, 0xbd,
  0xfa, 0x18, 0x21, 0xbe, 0x79, 0x05, 0xf3, 0xbd, 0x4a, 0x2f, 0x29, 0xbd,
  0xf3, 0x59, 0x96, 0x3b, 0xb4, 0xa0, 0x61, 0x3d, 0x41, 0xfa, 0x83, 0x3c,
  0xdb, 0x1d, 0x8f, 0x3d, 0x51, 0xfc, 0xcd, 0x3d, 0xc3, 0x11, 0xb2, 0x3d,
  0xef, 0xe1, 0xb2, 0x3d, 0x88, 0x80, 0x0f, 0x3e, 0xd8, 0x2d, 0xf1, 0x3d,
  0x1a, 0x47, 0x18, 0xbe, 0xb1, 0x5e, 0x85, 0xbe, 0xd2, 0x8b, 0xef, 0xbd,
  0x5c, 0xa8, 0xe3, 0xbd, 0x28, 0xc4, 0x0b, 0xbe, 0xd7, 0x2a, 0xa1, 0xbd,
  0xf8, 0x2a, 0x1b, 0xbe, 0xde, 0xae, 0x2c, 0xbe, 0xbb, 0x32, 0x39, 0xbe,
  0xc9, 0x84, 0x18, 0x3e, 0xb9, 0x8f, 0xbf, 0x3e, 0x51, 0x53, 0x86, 0x3e,
  0xbe, 0x39, 0xd6, 0x3c, 0x9b, 0x38, 0xa3, 0xbb, 0x8f, 0x47, 0x28, 0xbd,
  0xd6, 0x6a, 0x12, 0xbd, 0x18, 0xf1, 0xc3, 0xbd, 0x1a, 0xb7, 0x09, 0xbe,
  0x7d, 0x47, 0x93, 0xbd, 0x64, 0x6b, 0x82, 0x3c, 0x7a, 0xb7, 0xc9, 0x3d,
  0x30, 0x03, 0xd7, 0xbb, 0x04, 0x9b, 0xca, 0xbc, 0x3a, 0xe8, 0x47, 0x3d,
  0x97, 0xd7, 0x90, 0x3d, 0x11, 0x29, 0xfd, 0x3d, 0xe1, 0x3f, 0x79, 0x3e,
  0x4d, 0xa5, 0x6e, 0x3e, 0x0f, 0x84, 0x7f, 0xbd, 0xe7, 0xf7, 0xfd, 0xbd,
  0x78, 0xf0, 0x16, 0xbd, 0x9b, 0x6b, 0x08, 0xbd, 0x3e, 0xdd, 0x66, 0xbd,
  0xfd, 0xda, 0xe3, 0xbc, 0x5a, 0x0c, 0x01, 0xbd, 0x9e, 0x53, 0xab, 0xbd,
  0xa0, 0xa1, 0xac, 0xbd, 0x34, 0x4a, 0x2b, 0x3d, 0x21, 0x8b, 0x37, 0x3e,
  0x8c, 0xe3, 0xd3, 0x3d, 0x10, 0xe3, 0xa7, 0x3c, 0xe0, 0x3b, 0xa7, 0xbb,
  0x8e, 0xee, 0x49, 0xbc, 0xbf, 0xe2, 0xaf, 0xbb, 0x2e, 0x19, 0xa4, 0xbd,
  0x33, 0x7d, 0x0d, 0xbd, 0x0c, 0x36, 0x96, 0xbd, 0x55, 0x12, 0xa3, 0x3c,
  0xd3, 0x23, 0x44, 0xb9, 0x0d, 0x01, 0x59, 0x3d, 0x7d, 0x80, 0x6b, 0x3d,
  0xb2, 0x2e, 0x3b, 0x3d, 0xf1, 0xc2, 0x28, 0x3d, 0x6e, 0x60, 0x43, 0x3e,
  0x8c, 0x70, 0x99, 0x3e, 0x64, 0xa7, 0x0b, 0x3e, 0x27, 0xb2, 0x17, 0xbd,
  0x30, 0xb6, 0x72, 0xbd, 0x49, 0x60, 0x3f, 0xbc, 0xd2, 0x11, 0xf8, 0xbc,
  0xae, 0x68, 0xeb, 0xba, 0x3c, 0x5e, 0xab, 0x3c, 0x0e, 0xd0, 0x82, 0xbd,
  0x5c, 0x1a, 0x43, 0xbd, 0xc7, 0x24, 0x60, 0xbd, 0xde, 0x28, 0xd5, 0x3c,
  0x04, 0x2d, 0xf6, 0x3d, 0x84, 0xc8, 0x41, 0xbc, 0x63, 0x3e, 0xd5, 0xbc,
  0x0d, 0x0e, 0x6b, 0xbd, 0x96, 0xc5, 0x1c, 0xbd, 0xbb, 0x47, 0xf3, 0xbb,
  0xdb, 0x40, 0x92, 0xbd, 0x63, 0x61, 0x86, 0xbd, 0xf1, 0x1e, 0x88, 0xbd,
  0xb5, 0xd8, 0x43, 0x3d, 0x30, 0x11, 0x8a, 0x3c, 0xa0, 0xa6, 0x84, 0x3c,
  0xfe, 0x15, 0xe1, 0x3c, 0xe3, 0x4a, 0x7d, 0x3c, 0x25, 0x52, 0xbe, 0x3d,
  0xfc, 0x5a, 0x6f, 0x3e, 0xa1, 0xf3, 0x5b, 0x3e, 0x1a, 0x0d, 0x9b, 0x3d,
  0x85, 0xc5, 0x93, 0xbd, 0x1a, 0xc4, 0x30, 0xbd, 0xb5, 0x40, 0x17, 0x3c,
  0xd7, 0xf0, 0x5f, 0xbd, 0xdf, 0x6b, 0xc5, 0xbd, 0xb9, 0x53, 0xce, 0xbd,
  0xa9, 0x10, 0x7d, 0xbd, 0x1d, 0x74, 0x45, 0xbd, 0xea, 0xfb, 0xe5, 0xbd,
  0xbe, 0x7e, 0x64, 0xbd, 0x7e, 0xf0, 0x39, 0x3d, 0x82, 0xdd, 0x36, 0xbd,
  0xa5, 0xf8, 0x1a, 0x3c, 0x0d, 0xe5, 0xdc, 0x3b, 0x9e, 0x17, 0x29, 0x3c,
  0xd7, 0x00, 0xb5, 0xbc, 0x04, 0x1e, 0xc5, 0xbc, 0xe0, 0xb1, 0x1a, 0xbd,
  0x77, 0x9e, 0x7e, 0xbc, 0x0e, 0x9c, 0x63, 0x3c, 0xf2, 0x86, 0x0c, 0xbd,
  0xab, 0x77, 0x8b, 0x3c, 0xfe, 0xd5, 0xf9, 0x3c, 0x5a, 0x5d, 0xb5, 0x3d,
  0x0d, 0xdb, 0x56, 0x3d, 0x2e, 0xaa, 0xe4, 0x3d, 0x77, 0x5c, 0x30, 0x3e,
  0x46, 0xeb, 0x60, 0x3d, 0x18, 0x34, 0x5c, 0xbd, 0xc8, 0xe4, 0xd7, 0xbc,
  0x66, 0x7e, 0x93, 0xbc, 0x14, 0xa1, 0x0a, 0xbe, 0xe9, 0x77, 0x13, 0xbe,
  0xa5, 0x1d, 0xe9, 0xbd, 0xd8, 0x26, 0x13, 0xbe, 0x90, 0x83, 0xa9, 0xbd,
  0x8d, 0x80, 0x1d, 0xbe, 0x91, 0x27, 0x8d, 0xbd, 0xc1, 0x45, 0xd2, 0x3d,
  0x7b, 0xa6, 0xfd, 0x3c, 0xcd, 0x76, 0x34, 0xbd, 0xa7, 0x9d, 0xd7, 0xbc,
  0x8b, 0x11, 0x5a, 0x3b, 0x08, 0x4b, 0x33, 0xbb, 0xa0, 0x46, 0x64, 0xbc,
  0xf3, 0x41, 0xdc, 0x3c, 0x79, 0x4e, 0xce, 0xbc, 0xc6, 0x9f, 0xf4, 0xbc,
  0x05, 0x38, 0xed, 0xbc, 0x6b, 0x2c, 0x73, 0xbd, 0x97, 0x41, 0x30, 0xbd,
  0x1f, 0x03, 0x20, 0x3d, 0xf2, 0xc7, 0x47, 0x3d, 0xe7, 0x96, 0xe4, 0x3d,
  0x18, 0x75, 0x1c, 0x3e, 0xe7, 0xf1, 0x23, 0xbd, 0x44, 0x38, 0x7e, 0xbd,
  0xfd, 0xe3, 0xda, 0xbb, 0xb7, 0x2d, 0x0c, 0xbd, 0x3d, 0x43, 0xf7, 0xbd,
  0x6d, 0xc9, 0x60, 0xbd, 0xc1, 0x46, 0x76, 0xbd, 0xa6, 0x21, 0x8a, 0xbd,
  0x80, 0x9a, 0xa5, 0xbd, 0x78, 0x56, 0x4f, 0xbd, 0x44, 0x1e, 0xcc, 0x3d,
  0xd0, 0xa3, 0x09, 0x3e, 0x95, 0x66, 0xac, 0x3d, 0xa4, 0xef, 0x45, 0xbd,
  0x5e, 0x6c, 0xd7, 0xbb, 0xc0, 0x5b, 0x5f, 0xbc, 0x04, 0x41, 0x03, 0xbd,
  0x9b, 0x46, 0x76, 0xbc, 0x32, 0xb0, 0x7a, 0xbc, 0xb1, 0x47, 0x30, 0xbd,
  0xbc, 0xa1, 0x57, 0x3c, 0x85, 0x28, 0x23, 0x3d, 0x6e, 0xb8, 0x0f, 0xbd,
  0x2f, 0x2a, 0xc3, 0xbb, 0x97, 0x47, 0x24, 0x3c, 0x3d, 0x81, 0x50, 0x3d,
  0xe9, 0x7b, 0x14, 0x3e, 0x0e, 0x0a, 0x2b, 0x3d, 0xe9, 0xc7, 0xe9, 0xbd,
  0x57, 0x93, 0xfd, 0xbd, 0x5d, 0x4f, 0x73, 0xbd, 0x48, 0xe3, 0x0d, 0xbc,
  0xcc, 0xec, 0x43, 0x3c, 0xd2, 0x10, 0xf8, 0xbc, 0xc0, 0x8e, 0xdc, 0xbb,
  0x54, 0xee, 0xd5, 0xbb, 0xd7, 0xff, 0x41, 0xbd, 0xb7, 0x02, 0xd3, 0xbc,
  0xf3, 0x15, 0x27, 0x3d, 0xf6, 0x60, 0xbf, 0x3d, 0xf9, 0x31, 0xb3, 0x3d,
  0x3f, 0x2e, 0x1a, 0xbd, 0xc4, 0x99, 0xf3, 0xbb, 0x7a, 0x3a, 0x4f, 0xbd,
  0x50, 0xc3, 0xb6, 0x3b, 0x9f, 0xb9, 0x34, 0xbb, 0x33, 0x82, 0x48, 0xbd,
  0x59, 0xf1, 0x0b, 0xbd, 0x4e, 0xea, 0xf0, 0x3c, 0xc8, 0x89, 0xe3, 0x3d,
  0x6d, 0x94, 0xab, 0x3d, 0x98, 0x80, 0x89, 0x3d, 0x6f, 0xa8, 0xc3, 0x3d,
  0xc7, 0xfe, 0xf5, 0x3d, 0x55, 0xbb, 0xc7, 0x3d, 0x21, 0x6d, 0xc0, 0xbb,
  0x51, 0xb2, 0x00, 0xbe, 0xab, 0x45, 0xe1, 0xbd, 0x87, 0xa2, 0xc1, 0xbc,
  0x7e, 0x43, 0x2a, 0x3d, 0x9e, 0xf2, 0x2b, 0x3c, 0x5f, 0x56, 0x94, 0x3c,
  0x7a, 0x49, 0x4e, 0xbc, 0x9d, 0x7a, 0x39, 0x3c, 0xac, 0x1f, 0x9b, 0xbc,
  0xe8, 0xa7, 0x4b, 0x3d, 0x8a, 0x87, 0x1b, 0x3e, 0x93, 0xef, 0x0d, 0x3e,
  0x86, 0xde, 0x2c, 0x3c, 0x96, 0x8f, 0xcc, 0xbc, 0xa1, 0xd0, 0x13, 0xbc,
  0x1a, 0x7b, 0x13, 0xbd, 0x7b, 0x2c, 0x03, 0xbd, 0x30, 0x3c, 0x64, 0xbc,
  0x23, 0x46, 0x94, 0xbd, 0x54, 0x4a, 0x06, 0x3d, 0x18, 0x33, 0xaf, 0x3d,
  0x1a, 0x1e, 0xfa, 0x3d, 0x39, 0x49, 0xb6, 0x3d, 0x84, 0xf8, 0x04, 0x3e,
  0x9c, 0x93, 0xf7, 0x3d, 0xf3, 0x10, 0x28, 0x3e, 0x40, 0x1b, 0x8f, 0x3d,
  0x94, 0x82, 0x39, 0x3d, 0x93, 0xfa, 0x6d, 0xbd, 0xf8, 0x0a, 0x56, 0xbb,
  0xf4, 0xd5, 0xa7, 0x3d, 0x3f, 0x62, 0xb9, 0x3d, 0xef, 0x3d, 0x79, 0x3d,
  0xc8, 0x67, 0xfa, 0x3d, 0x57, 0x02, 0xc8, 0x3c, 0x43, 0x0f, 0x75, 0x3d,
  0x65, 0xf6, 0x97, 0x3d, 0x23, 0xf2, 0x07, 0x3e, 0x8f, 0xa0, 0x42, 0x3e,
  0xf4, 0x43, 0xe3, 0x3d, 0xbd, 0xc9, 0x51, 0xbb, 0xe9, 0xa8, 0xd0, 0xbb,
  0x7a, 0xdd, 0x46, 0xbd, 0x44, 0x63, 0x3a, 0xbd, 0x77, 0xcb, 0x8b, 0x3b,
  0xdf, 0x3c, 0x07, 0xbd, 0x7f, 0xdc, 0x92, 0xbc, 0x86, 0x52, 0x84, 0x3d,
  0x5a, 0x34, 0x02, 0x3e, 0x45, 0x0d, 0xda, 0x3d, 0x94, 0x03, 0x05, 0x3e,
  0x59, 0x47, 0x16, 0x3e, 0x3a, 0x07, 0xd5, 0x3d, 0x1f, 0x61, 0x8f, 0x3d,
  0x0b, 0x52, 0x48, 0x3d, 0x8e, 0xfb, 0xc0, 0x3d, 0x51, 0x1e, 0xd5, 0x3c,
  0x69, 0xce, 0x2f, 0xbc, 0x86, 0x3c, 0xc4, 0x3d, 0x48, 0x52, 0x4d, 0x3d,
  0x4a, 0x39, 0xc5, 0x3d, 0xbe, 0xdb, 0xdf, 0x3d, 0xce, 0xe3, 0xe5, 0x3d,
  0x13, 0x83, 0xa7, 0x3d, 0xf3, 0xe2, 0xa5, 0x3d, 0x8e, 0x77, 0x55, 0x3e,
  0x23, 0xa4, 0xf4, 0x3d, 0xfb, 0x55, 0x15, 0x3b, 0x16, 0xee, 0x63, 0xbd,
  0x39, 0x18, 0xb0, 0xbc, 0x42, 0xb5, 0x43, 0xbd, 0x23, 0x83, 0x0e, 0xbd,
  0xd3, 0xda, 0x00, 0xbc, 0x57, 0xc5, 0x16, 0x3c, 0xe3, 0x44, 0x60, 0x3c,
  0x1e, 0x08, 0xd9, 0x3d, 0xd9, 0xfa, 0xc1, 0x3c, 0x47, 0x9c, 0xb2, 0x3d,
  0xa7, 0x66, 0x08, 0x3e, 0x34, 0xb1, 0x0c, 0x3d, 0x3c, 0x02, 0xd6, 0x3c,
  0xfe, 0xe8, 0xf9, 0x3c, 0x92, 0x7c, 0xd1, 0x3d, 0x5b, 0xc0, 0xdc, 0x3d,
  0xb1, 0x61, 0x11, 0x3e, 0xe7, 0xaf, 0x8f, 0x3d, 0x91, 0x3a, 0x87, 0x3d,
  0x79, 0x55, 0xed, 0x3c, 0x8c, 0x84, 0xf2, 0x3d, 0x87, 0x1b, 0x96, 0x3d,
  0x71, 0xa5, 0x24, 0x3d, 0x9c, 0x84, 0xb0, 0x3d, 0xc8, 0x0a, 0x95, 0x3d,
  0x88, 0xb0, 0x1e, 0x3e, 0x6d, 0x7b, 0x98, 0x3d, 0x92, 0x30, 0x68, 0xbc,
  0x4b, 0x06, 0x09, 0xbc, 0x5e, 0xb0, 0xdc, 0x3b, 0xbd, 0xf2, 0x45, 0xbd,
  0xe6, 0xaf, 0x2a, 0xbd, 0xb5, 0x71, 0x53, 0xbc, 0xaa, 0xda, 0xa6, 0xbc,
  0x55, 0x24, 0x21, 0x3d, 0xbe, 0xe7, 0x9f, 0x3d, 0xdb, 0x85, 0x44, 0xbd,
  0x9b, 0xa3, 0xa8, 0xbc, 0x69, 0x1d, 0xc7, 0xbc, 0xd5, 0xaa, 0xd5, 0xba,
  0x46, 0xfa, 0xb8, 0x3a, 0xe7, 0x9c, 0xb1, 0x3b, 0x09, 0xda, 0xdf, 0x3d,
  0xea, 0xc2, 0xe8, 0x3d, 0x73, 0xde, 0x20, 0x3e, 0x46, 0x09, 0x02, 0x3c,
  0xf8, 0xfa, 0x27, 0x3c, 0x7f, 0xf9, 0x9e, 0x3c, 0x49, 0xca, 0x7c, 0x3d,
  0xf2, 0x22, 0x91, 0x3d, 0x82, 0x01, 0xed, 0x3d, 0x98, 0x7d, 0x80, 0x3d,
  0x70, 0x95, 0x21, 0x3e, 0x23, 0x96, 0xf0, 0x3d, 0x6d, 0xe4, 0xf6, 0x3c,
  0xc0, 0x6d, 0x25, 0xbd, 0xb7, 0x16, 0x88, 0xbd, 0x63, 0x76, 0x05, 0xbc,
  0x14, 0x34, 0x57, 0xbd, 0x08, 0x07, 0x7a, 0xbd, 0xf0, 0xe8, 0x39, 0xbd,
  0x62, 0xf9, 0x34, 0x3b, 0x61, 0xbc, 0xcb, 0x3d, 0x85, 0x4d, 0x00, 0x3d,
  0x1b, 0x78, 0x02, 0xbe, 0xb0, 0x01, 0xc0, 0xbd, 0x52, 0xbe, 0x03, 0xbe,
  0x30, 0xcc, 0x57, 0x3d, 0x42, 0x2d, 0x8d, 0x3b, 0x07, 0x2d, 0x31, 0x3d,
  0xe7, 0x17, 0xb2, 0x3d, 0x13, 0xb2, 0x97, 0x3d, 0x63, 0x47, 0xfb, 0x3d,
  0x32, 0x48, 0xa9, 0x3d, 0xf2, 0x9b, 0x9f, 0x3d, 0xf8, 0xf5, 0xa7, 0x3d,
  0xdc, 0x1f, 0x4b, 0x3c, 0x3d, 0x80, 0x7e, 0x3d, 0x88, 0xfd, 0xda, 0x3d,
  0xdd, 0xb6, 0x27, 0x3e, 0x11, 0x1b, 0xb0, 0x3d, 0x6d, 0x58, 0x91, 0x3c,
  0x18, 0x88, 0x16, 0x3d, 0x52, 0xe7, 0x5f, 0xbd, 0x2e, 0xc3, 0xcc, 0xbb,
  0xbc, 0xda, 0xef, 0xba, 0x9d, 0x58, 0xa8, 0xba, 0x15, 0x0c, 0xb4, 0xbc,
  0x63, 0xba, 0x0b, 0xbd, 0x43, 0xe1, 0x89, 0x3b, 0x15, 0xfb, 0x85, 0x3c,
  0xca, 0x8e, 0x30, 0xbd, 0x2d, 0x7c, 0x2c, 0xbe, 0xeb, 0x11, 0xf3, 0xbd,
  0x05, 0xa7, 0x48, 0xbd, 0x37, 0x8f, 0x0d, 0x3d, 0xdd, 0xac, 0xc4, 0x3d,
  0x32, 0x8d, 0xf6, 0x3c, 0xdb, 0x6c, 0xee, 0x3d, 0x97, 0x04, 0xe2, 0x3d,
  0xee, 0x24, 0xf5, 0x3d, 0xec, 0x47, 0x0a, 0x3e, 0xab, 0x5f, 0xf6, 0x3d,
  0x0d, 0xa3, 0x14, 0x3e, 0x06, 0xa0, 0xcd, 0x3d, 0x2f, 0x23, 0x0f, 0x3e,
  0x7e, 0xac, 0xc0, 0x3d, 0xbf, 0x83, 0x61, 0x3d, 0x15, 0xcc, 0x2c, 0xbc,
  0x51, 0x2a, 0xb0, 0x3c, 0x68, 0xe4, 0x26, 0xbc, 0x17, 0x1d, 0x22, 0xbd,
  0x1e, 0xc9, 0x87, 0xbb, 0xab, 0x5f, 0x04, 0xbb, 0x7e, 0x9a, 0xa0, 0xbc,
  0x4c, 0xd7, 0x13, 0xbd, 0xf8, 0x13, 0x44, 0xbd, 0xdc, 0x9d, 0x45, 0xbd,
  0x92, 0xb1, 0xb0, 0xbc, 0x61, 0xf5, 0x5f, 0xbd, 0x4b, 0xf8, 0xa1, 0xbd,
  0xc0, 0xc7, 0xb6, 0xbd, 0x04, 0x8d, 0xa6, 0xbd, 0x7d, 0xa6, 0xb7, 0xbd,
  0x15, 0xef, 0x86, 0xbd, 0x5d, 0xe8, 0x40, 0x3d, 0xa1, 0xb2, 0xa9, 0xbd,
  0xc6, 0xd7, 0xb8, 0xbd, 0x41, 0x7b, 0x16, 0xbd, 0x32, 0x97, 0x58, 0xbc,
  0x31, 0xc1, 0x00, 0x3d, 0x0f, 0x85, 0x90, 0x3d, 0x0a, 0xae, 0x99, 0x3d,
  0x9d, 0xf4, 0x35, 0x3c, 0xea, 0x9c, 0x8c, 0xbc, 0xdc, 0x6e, 0x87, 0x3b,
  0xad, 0x24, 0xe0, 0xbc, 0x19, 0xd2, 0x8c, 0x3b, 0x4f, 0x8c, 0x33, 0x3c,
  0xea, 0x45, 0xf1, 0xbc, 0xc2, 0xcf, 0x22, 0xbd, 0x02, 0x77, 0x3f, 0xbd,
  0x69, 0xba, 0x04, 0xbd, 0x66, 0x5c, 0x73, 0xbd, 0x40, 0xf5, 0x20, 0x3c,
  0x4c, 0xd4, 0x71, 0xbd, 0x31, 0x2c, 0x7b, 0xbd, 0xe2, 0x0d, 0xe1, 0x3b,
  0xb4, 0xc8, 0x2c, 0xbd, 0xc0, 0x43, 0x75, 0xbd, 0xce, 0x33, 0x21, 0xbe,
  0x14, 0xd1, 0x62, 0xbe, 0x87, 0x2c, 0x5f, 0xbe, 0x77, 0x77, 0x33, 0xbe,
  0xc3, 0x62, 0xb1, 0xbd, 0x53, 0x58, 0x5a, 0xbd, 0xb3, 0x5e, 0xa7, 0xbd,
  0x20, 0x3c, 0x1a, 0xbe, 0xa2, 0xa6, 0x15, 0xbe, 0xa0, 0x79, 0x0a, 0xbe,
  0x2a, 0x43, 0x13, 0xbe, 0x63, 0xaa, 0xc5, 0xbd, 0x3a, 0x73, 0xe0, 0xbd,
  0x59, 0xa6, 0x79, 0xbd, 0x84, 0x3d, 0x8e, 0xbd, 0x9e, 0xe8, 0x2a, 0xbd,
  0x7e, 0x21, 0xab, 0x3b, 0xa4, 0xa6, 0x61, 0xbd, 0x1b, 0xd2, 0x4b, 0xbd,
  0x10, 0x71, 0x75, 0xbc, 0x0e, 0xa0, 0xcb, 0xbc, 0x96, 0x90, 0x49, 0xbd,
  0xc4, 0x0c, 0x47, 0x3b, 0x4c, 0x2c, 0x1e, 0xbd, 0x0d, 0x69, 0xca, 0xbb,
  0x6a, 0x4e, 0x17, 0x3c, 0x40, 0x73, 0xe7, 0xbc, 0x30, 0x4f, 0x75, 0xbd,
  0x31, 0x92, 0x28, 0xbd, 0x16, 0x0a, 0x45, 0xbd, 0x24, 0xa4, 0x82, 0xbd,
  0xfe, 0x3d, 0x95, 0xbd, 0x24, 0x55, 0xb6, 0xbd, 0x76, 0x42, 0x61, 0xbd,
  0x73, 0x03, 0x0e, 0xbe, 0x03, 0x4c, 0xfa, 0xbd, 0x6c, 0xb5, 0xc0, 0xbd,
  0x52, 0x08, 0x9b, 0xbd, 0xca, 0x44, 0x9c, 0xbd, 0x6c, 0x96, 0x95, 0xbd,
  0x6e, 0x0a, 0x4b, 0xbd, 0x97, 0xac, 0xa3, 0xbb, 0x2a, 0x94, 0x90, 0xbd,
  0xde, 0xc0, 0x11, 0xbd, 0xfe, 0x85, 0x4a, 0xbd, 0x56, 0x60, 0x58, 0xbd,
  0x10, 0x70, 0x19, 0x3b, 0xc8, 0x70, 0x56, 0xbd, 0xc4, 0xa7, 0xe4, 0xbc,
  0xcc, 0x93, 0x8e, 0x3c, 0xe0, 0x77, 0x96, 0x3d, 0xd6, 0x30, 0xd9, 0x3c,
  0xee, 0x9e, 0x9b, 0x3d, 0xc6, 0x22, 0x9e, 0x3c, 0x76, 0xa5, 0x2a, 0x3d,
  0x58, 0x26, 0xaa, 0x3c, 0x26, 0x28, 0x39, 0x3d, 0x51, 0xe0, 0x80, 0x3d,
  0xf6, 0xce, 0x0c, 0x3d, 0x90, 0x7f, 0xe9, 0x3c, 0x2a, 0x68, 0x75, 0x3d,
  0xda, 0x4d, 0x77, 0x3d, 0x53, 0x35, 0x51, 0x3d, 0xad, 0x04, 0xcd, 0x3c,
  0xeb, 0x8b, 0x23, 0x3d, 0x92, 0x75, 0x86, 0x3c, 0x18, 0x86, 0x43, 0x3c,
  0xb4, 0x75, 0x9e, 0x3d, 0x36, 0x7b, 0x8b, 0x3d, 0x4c, 0x15, 0x1b, 0x3d,
  0x8a, 0x73, 0x93, 0x3d, 0x82, 0x1a, 0x16, 0x3d, 0x8e, 0xda, 0x19, 0x3c,
  0x30, 0xa9, 0xa5, 0x3c, 0x66, 0xb6, 0x34, 0x3d, 0xf0, 0xb2, 0x57, 0x3d,
  0x8a, 0x7b, 0x4c, 0x3c, 0x7f, 0x8a, 0x77, 0x3d, 0x26, 0xb8, 0x8f, 0x3d,
  0x4e, 0x49, 0x86, 0x3d, 0xea, 0xfe, 0x23, 0x3d, 0x61, 0xad, 0x6e, 0x3d,
  0x82, 0xfe, 0xed, 0x3c, 0xb2, 0x85, 0x70, 0x3d, 0x24, 0x7f, 0x12, 0x3d,
  0x95, 0xe8, 0x9a, 0x3d, 0xde, 0x71, 0x6e, 0x3d, 0xe0, 0x5a, 0xb7, 0x3d,
  0x34, 0x5e, 0xb0, 0x3d, 0x22, 0x58, 0xe2, 0x3c, 0x06, 0x13, 0x2f, 0x3d,
  0x2e, 0x19, 0x63, 0x3c, 0x8e, 0x16, 0x88, 0x3c, 0x0a, 0x90, 0x88, 0xbc,
  0x2c, 0x57, 0x14, 0x3d, 0x60, 0x29, 0x64, 0x3d, 0x64, 0x77, 0x7b, 0x3d,
  0xbc, 0xd9, 0x49, 0x3d, 0x18, 0x3d, 0x93, 0x3d, 0x99, 0xed, 0xcb, 0x3c,
  0x76, 0xfb, 0x92, 0x3c, 0xfc, 0x0a, 0x19, 0x3d, 0xac, 0x07, 0x0b, 0x3d,
  0x18, 0x83, 0x92, 0x3d, 0x52, 0xc4, 0x99, 0x3c, 0xc4, 0x4a, 0x60, 0x3d,
  0xcc, 0x6b, 0x1a, 0x3c, 0x7e, 0x84, 0xe6, 0x3c, 0xa3, 0xab, 0x49, 0x3d,
  0xe4, 0x92, 0x60, 0x3c, 0x9e, 0xc0, 0x53, 0x3d, 0x30, 0xe7, 0x5c, 0x3d,
  0x1a, 0xfc, 0xf3, 0x3d, 0x14, 0x3e, 0x09, 0x3e, 0xbd, 0x6e, 0x39, 0x3e,
  0xe1, 0x27, 0x62, 0x3e, 0x9b, 0x53, 0x31, 0x3e, 0x01, 0xec, 0x75, 0x3e,
  0xc0, 0x08, 0x6f, 0x3e, 0x3c, 0x97, 0x4a, 0x3e, 0x94, 0x3b, 0x75, 0x3e,
  0xb1, 0x91, 0x2b, 0x3e, 0xd8, 0x8a, 0x15, 0x3e, 0xd5, 0x25, 0x51, 0x3e,
  0x55, 0x94, 0x3d, 0x3e, 0x8d, 0xca, 0x0e, 0x3e, 0xda, 0x22, 0xe4, 0x3d,
  0x17, 0x3e, 0xb6, 0x3d, 0x07, 0x4d, 0x80, 0x3d, 0x6d, 0x69, 0x8b, 0x3d,
  0x50, 0xe4, 0x40, 0x3c, 0x84, 0xcc, 0x8e, 0x3d, 0x3c, 0xf0, 0x04, 0x3d,
  0x58, 0xa4, 0xb3, 0x3c, 0x1a, 0x95, 0x51, 0x3d, 0x9d, 0xf1, 0x03, 0x3d,
  0xc7, 0xd0, 0x92, 0x3d, 0xe5, 0xd7, 0x9d, 0x3d, 0xf8, 0x17, 0x95, 0x3d,
  0x64, 0xc6, 0x4c, 0x3d, 0x67, 0x99, 0xc3, 0x3d, 0x53, 0xf6, 0xc2, 0x3d,
  0x86, 0xc9, 0x05, 0x3e, 0x1f, 0x82, 0xe2, 0x3d, 0x6c, 0x7a, 0x99, 0x3c,
  0x8f, 0xd0, 0xdc, 0xbc, 0xfa, 0x26, 0x61, 0x3b, 0xfd, 0x61, 0xd7, 0x3c,
  0x0d, 0xba, 0x2b, 0x3d, 0x39, 0x77, 0x62, 0x3d, 0xd4, 0x1c, 0xdb, 0x3c,
  0x98, 0x52, 0xd0, 0x3d, 0x74, 0x6b, 0x0b, 0x3e, 0x24, 0xc4, 0xf0, 0x3d,
  0xf7, 0x75, 0xab, 0x3d, 0xbd, 0x50, 0xc0, 0x3d, 0x72, 0x89, 0xcf, 0x3d,
  0x6d, 0xba, 0x25, 0x3c, 0xd6, 0xb4, 0x62, 0x3d, 0xa8, 0x04, 0x9c, 0x3d,
  0xac, 0xfe, 0x32, 0x3d, 0x0a, 0xb8, 0xbf, 0x3c, 0x51, 0x82, 0x7a, 0x3d,
  0x6b, 0xf3, 0x66, 0x3d, 0x88, 0x44, 0x2e, 0x3d, 0xf3, 0xb4, 0x00, 0x3c,
  0xeb, 0x31, 0xb2, 0x3c, 0x7e, 0xb7, 0x65, 0xbc, 0x49, 0xab, 0x4b, 0xbd,
  0x16, 0x71, 0xbd, 0xbd, 0x10, 0xd5, 0xce, 0xbd, 0x2f, 0x45, 0x06, 0xbe,
  0xbb, 0xd0, 0x4e, 0xbe, 0xd3, 0x53, 0x06, 0xbe, 0xe3, 0x3b, 0xb4, 0xbd,
  0xe2, 0x32, 0x8c, 0xbd, 0x8c, 0x5e, 0x1b, 0xbe, 0x2a, 0x89, 0x97, 0xbd,
  0x28, 0xe8, 0x87, 0xbd, 0x50, 0x1e, 0x12, 0xbe, 0xa9, 0x11, 0x2a, 0xbd,
  0x6a, 0x05, 0xc5, 0x3c, 0x5f, 0xa4, 0xd8, 0xbc, 0x46, 0xf4, 0xc5, 0x3c,
  0xdc, 0xf0, 0x7a, 0x3d, 0x17, 0xb0, 0x85, 0xbd, 0x37, 0x1e, 0xb2, 0xbd,
  0xaf, 0x75, 0x47, 0x3c, 0x5a, 0x86, 0xd7, 0x3c, 0xeb, 0x37, 0x76, 0x3d,
  0x6a, 0x4c, 0x06, 0x3d, 0xf1, 0x97, 0x91, 0x3d, 0x08, 0x4a, 0x26, 0x3d,
  0x64, 0x50, 0x1f, 0xba, 0xa9, 0x54, 0x93, 0xbd, 0x77, 0xa1, 0x9a, 0xbd,
  0xb9, 0x78, 0xbb, 0xbd, 0xbb, 0x45, 0xbf, 0xbd, 0x1d, 0x23, 0xaf, 0xbd,
  0x36, 0xa7, 0xd1, 0xbd, 0x52, 0x1f, 0x0f, 0xbe, 0xde, 0xf4, 0x44, 0xbd,
  0x62, 0x8d, 0x94, 0xbd, 0x50, 0x0a, 0x20, 0x3b, 0x07, 0xcd, 0x32, 0x3d,
  0x1f, 0x9e, 0x87, 0x3c, 0x2d, 0xa2, 0x1f, 0x3c, 0xab, 0xc6, 0x43, 0x3c,
  0xf5, 0x95, 0xbc, 0x3c, 0xc4, 0x6a, 0xd3, 0xbc, 0x83, 0x7e, 0xf1, 0xbc,
  0xf4, 0xb0, 0x63, 0xbd, 0x22, 0x93, 0x1d, 0x3c, 0x62, 0x01, 0xc1, 0xbd,
  0x67, 0x33, 0xd4, 0xbd, 0xed, 0xa7, 0x35, 0x3d, 0x92, 0xe1, 0x89, 0x3d,
  0x50, 0x06, 0x8c, 0x3d, 0x47, 0xd8, 0x9f, 0x3d, 0x58, 0x72, 0x4f, 0x3d,
  0xfb, 0x23, 0x9c, 0xbc, 0x4e, 0xcf, 0x13, 0xbd, 0xc7, 0x6c, 0x7b, 0xbd,
  0x79, 0xf1, 0xba, 0xbd, 0x81, 0x56, 0xaa, 0x3b, 0x89, 0x99, 0x79, 0xbd,
  0x2f, 0x6f, 0xbd, 0xbd, 0x61, 0xc0, 0xbc, 0xbd, 0x1a, 0xd8, 0xee, 0xbd,
  0x1c, 0x06, 0x9b, 0xbd, 0x4f, 0x0f, 0xd7, 0xbd, 0x50, 0xb3, 0xeb, 0xbd,
  0x2d, 0x0d, 0x01, 0xbe, 0x87, 0xc1, 0x00, 0xbe, 0x2a, 0x9a, 0xd0, 0xbd,
  0xc8, 0x22, 0xcd, 0xbd, 0xff, 0x4d, 0x83, 0xbd, 0x65, 0x95, 0x6a, 0xbd,
  0xb8, 0x24, 0x4e, 0xbd, 0x68, 0xe3, 0x8c, 0xbc, 0x22, 0xe2, 0x22, 0xbc,
  0xe9, 0x0d, 0x2c, 0xbe, 0x87, 0x33, 0xff, 0xbd, 0x65, 0xc6, 0x9c, 0x3c,
  0xec, 0xad, 0x0f, 0x3d, 0x99, 0x26, 0xea, 0x3c, 0x17, 0x32, 0x5c, 0x3c,
  0xa5, 0x57, 0x30, 0x3d, 0x57, 0xc4, 0x30, 0xbd, 0x7a, 0xf2, 0x53, 0xbd,
  0x06, 0x91, 0xa3, 0xbd, 0x9f, 0x6e, 0xb7, 0xbd, 0xb2, 0x4e, 0xdd, 0xbc,
  0xe7, 0x96, 0x56, 0xbd, 0xbc, 0xa4, 0x98, 0xbd, 0xd9, 0xc8, 0x90, 0xbd,
  0x90, 0x9f, 0xa6, 0xbd, 0xf3, 0x6d, 0xe9, 0xbd, 0x00, 0xd5, 0xe7, 0xbd,
  0x79, 0x77, 0xdd, 0xbd, 0xc7, 0xb5, 0xf2, 0xbd, 0xc4, 0xd3, 0xcc, 0xbd,
  0x36, 0x39, 0xe7, 0xbd, 0x8f, 0x12, 0xd7, 0xbd, 0xd1, 0x0b, 0x99, 0xbd,
  0x81, 0x64, 0xe5, 0xbd, 0x11, 0x3d, 0x22, 0xbd, 0xaf, 0xa3, 0x3d, 0xbb,
  0xc5, 0x10, 0xd5, 0xbd, 0xec, 0x3f, 0x0d, 0xbe, 0xc2, 0x2c, 0x49, 0xbe,
  0xe4, 0x9c, 0xcb, 0x3b, 0x78, 0x47, 0x44, 0x3c, 0x78, 0x2a, 0x21, 0x3d,
  0xb9, 0x84, 0x8c, 0x3d, 0x10, 0x65, 0xcc, 0xbc, 0x69, 0x15, 0xe6, 0xbd,
  0xbc, 0xaf, 0x3c, 0xbd, 0xce, 0xe6, 0x5c, 0xbc, 0x3a, 0x2d, 0xce, 0xbc,
  0xe2, 0xb8, 0x8a, 0xbb, 0xe0, 0x1b, 0x16, 0xbd, 0x59, 0xd0, 0xa3, 0x3c,
  0x2e, 0x9f, 0xa4, 0xbc, 0x1c, 0xdc, 0x5f, 0xbd, 0xf2, 0xa6, 0xc9, 0xbd,
  0xc8, 0x0e, 0xe4, 0xbd, 0xa4, 0xfd, 0x00, 0xbe, 0xdf, 0x9c, 0xc2, 0xbd,
  0x1b, 0x15, 0x06, 0xbe, 0x11, 0xf6, 0xbe, 0xbd, 0xbe, 0x17, 0xe9, 0xbd,
  0x06, 0x61, 0xc7, 0xbd, 0xad, 0xe1, 0xbb, 0xbd, 0xd6, 0xde, 0x40, 0xbd,
  0xca, 0x0d, 0x87, 0xbd, 0x70, 0xc5, 0xea, 0xbd, 0xb8, 0x3d, 0x95, 0xbe,
  0xd0, 0xc9, 0x53, 0xbe, 0xb2, 0x05, 0x8c, 0xbc, 0xb6, 0xa9, 0x12, 0x3c,
  0x1c, 0xe4, 0x77, 0x3d, 0x31, 0xa0, 0x18, 0x3c, 0xe9, 0x61, 0x62, 0x3c,
  0xf9, 0x81, 0x14, 0xbe, 0x96, 0x79, 0xb2, 0xbd, 0x49, 0xea, 0x45, 0xbd,
  0x6f, 0xea, 0xd3, 0xbc, 0x7a, 0x32, 0xb7, 0x3c, 0xd1, 0x0c, 0x41, 0xbb,
  0x6a, 0x7d, 0x15, 0xbc, 0xff, 0x01, 0x30, 0xbd, 0x6d, 0x89, 0x5a, 0xbd,
  0xbc, 0x3b, 0x7d, 0xbd, 0xaf, 0x83, 0x7b, 0xbd, 0xea, 0xe4, 0xad, 0xbd,
  0xbf, 0xb0, 0xf5, 0xbd, 0xf7, 0x9d, 0xd1, 0xbd, 0x90, 0xe1, 0x11, 0xbe,
  0xf4, 0xa3, 0xa4, 0xbd, 0xaa, 0xa0, 0xbf, 0xbd, 0xa7, 0x12, 0xd2, 0xbd,
  0x19, 0x2b, 0x48, 0xbd, 0x5e, 0xa0, 0x87, 0xbd, 0x67, 0x38, 0xfc, 0xbd,
  0xd8, 0x07, 0x9d, 0xbe, 0xc6, 0x58, 0x93, 0xbe, 0xd8, 0x29, 0x7c, 0xbd,
  0xf3, 0xfb, 0x08, 0xbc, 0x7c, 0x39, 0x87, 0x3d, 0x13, 0xa6, 0x44, 0x3c,
  0xa3, 0xd5, 0x2b, 0xbc, 0xe3, 0x1b, 0x32, 0xbe, 0xcc, 0xcd, 0xbc, 0xbd,
  0x00, 0xa0, 0x7a, 0xb7, 0xf2, 0x27, 0x52, 0x3c, 0xe3, 0x2a, 0x0e, 0x3d,
  0x34, 0x17, 0x45, 0xbc, 0x3f, 0x3b, 0x61, 0xbd, 0x32, 0x74, 0x11, 0x3b,
  0xfb, 0x6b, 0x99, 0xbc, 0xff, 0xd6, 0x06, 0x3d, 0xbb, 0x2f, 0x08, 0xbd,
  0xd3, 0xde, 0xe9, 0xbd, 0xf8, 0x0e, 0x0d, 0xbe, 0x27, 0x12, 0x15, 0xbe,
  0x2f, 0xc5, 0xa6, 0xbd, 0xc3, 0x00, 0xc8, 0xbd, 0x1f, 0xed, 0xb1, 0xbd,
  0xde, 0x7e, 0xf5, 0xbd, 0xe2, 0xb8, 0x8f, 0xbd, 0x20, 0x68, 0xd9, 0xbd,
  0x82, 0xdb, 0x33, 0xbe, 0xc8, 0xe7, 0x9d, 0xbe, 0xb4, 0xd2, 0x7a, 0xbe,
  0xa8, 0xfb, 0x4a, 0xbd, 0xda, 0x47, 0x08, 0x3d, 0x5a, 0x83, 0x0e, 0x3c,
  0x28, 0xe4, 0x58, 0xbc, 0x1f, 0x50, 0x7e, 0xbd, 0x56, 0xde, 0xde, 0xbd,
  0x01, 0xf0, 0x09, 0xbd, 0xe7, 0x26, 0x00, 0x3d, 0xe9, 0xc0, 0x8d, 0xbd,
  0x94, 0x21, 0x36, 0xbd, 0xfe, 0x0e, 0x41, 0xbd, 0x3f, 0xa6, 0x16, 0xbd,
  0xcd, 0x9c, 0x8b, 0xbc, 0xb4, 0x37, 0x5a, 0xbd, 0x1a, 0x7e, 0xad, 0x3c,
  0x46, 0x2d, 0xa5, 0xbd, 0x4d, 0xb8, 0xbc, 0xbd, 0x61, 0xb0, 0xce, 0xbd,
  0xa6, 0x9f, 0x39, 0xbd, 0xc5, 0x99, 0xae, 0xbd, 0xd6, 0xe8, 0x26, 0xbd,
  0x07, 0xb1, 0xbf, 0xbc, 0xbb, 0xcf, 0x9b, 0xbd, 0xf2, 0x26, 0xe2, 0x3b,
  0x6d, 0x12, 0x41, 0xbd, 0xb8, 0x57, 0xb6, 0xbc, 0x4a, 0xbe, 0x15, 0xbe,
  0xb4, 0x2e, 0x20, 0xbe, 0x43, 0xfe, 0x79, 0xbd, 0x69, 0x50, 0x99, 0x3d,
  0x0e, 0xdd, 0x78, 0x3d, 0x23, 0x03, 0x37, 0xbc, 0xec, 0xb6, 0xd6, 0xbc,
  0xbb, 0x36, 0xb0, 0xbd, 0x1f, 0x17, 0x6b, 0xbd, 0x28, 0x27, 0x82, 0xbd,
  0xde, 0x4c, 0x8c, 0xbd, 0xee, 0xb3, 0xc2, 0xbd, 0x5a, 0xa0, 0x49, 0xbd,
  0x6d, 0x79, 0xb7, 0x3b, 0x89, 0x1d, 0x5f, 0xbc, 0xcf, 0xfb, 0x11, 0xbd,
  0xe1, 0xdf, 0x93, 0x3c, 0xbe, 0x86, 0x50, 0xbd, 0x1b, 0xfb, 0xc4, 0xbc,
  0x24, 0x8c, 0x42, 0x3d, 0xd1, 0x54, 0x26, 0x3c, 0x3b, 0x55, 0x72, 0xbc,
  0x37, 0xf9, 0xc5, 0x3c, 0x95, 0x92, 0x73, 0x3d, 0xac, 0xe2, 0x52, 0x3c,
  0x7e, 0x9c, 0xd6, 0x3d, 0x5b, 0x12, 0x6b, 0x3d, 0x0b, 0x2d, 0xa7, 0x3d,
  0x90, 0x72, 0xa4, 0x3d, 0xfa, 0xe2, 0x12, 0xbe, 0x71, 0x65, 0xa7, 0xbd,
  0x5c, 0xbb, 0x36, 0x3d, 0xf2, 0x2c, 0x13, 0x3d, 0x53, 0x22, 0xee, 0x3a,
  0x9c, 0x05, 0x0b, 0xb9, 0xc6, 0x6b, 0x1d, 0xbd, 0x44, 0x2f, 0x10, 0xbd,
  0x23, 0x6c, 0xce, 0xbd, 0x65, 0x61, 0x4a, 0xbd, 0xe5, 0x00, 0x4b, 0xbd,
  0x40, 0xdf, 0x5e, 0xbb, 0xd0, 0xad, 0x58, 0x3d, 0xd4, 0xdd, 0xf8, 0x3c,
  0xce, 0x10, 0xa3, 0x3c, 0xce, 0x6d, 0x44, 0xbd, 0xb4, 0x95, 0x30, 0x3d,
  0x5e, 0xf2, 0x03, 0x3e, 0xbd, 0x96, 0xde, 0x3d, 0xdf, 0x60, 0x08, 0xbd,
  0x0f, 0x13, 0x09, 0x3d, 0xf7, 0x39, 0x10, 0x3d, 0x81, 0x9d, 0xa6, 0x3c,
  0x4f, 0xa5, 0x5a, 0xbc, 0x1d, 0xcb, 0x0e, 0x3d, 0x57, 0xab, 0xdf, 0x3d,
  0x8d, 0xc2, 0x2d, 0x3e, 0xc5, 0x74, 0x2d, 0x3d, 0xdb, 0x33, 0x20, 0xbd,
  0xd2, 0x0c, 0x11, 0x3b, 0xc6, 0x22, 0x1a, 0x3d, 0x5e, 0xc6, 0x83, 0x3d,
  0x04, 0xc2, 0xf2, 0x3c, 0xdc, 0xf6, 0x1e, 0x3d, 0x60, 0x0b, 0xa4, 0x3d,
  0xb5, 0x2a, 0x82, 0xbc, 0x6e, 0x61, 0xc7, 0xbc, 0x7e, 0x33, 0x6a, 0x3d,
  0x83, 0x56, 0xc9, 0x3c, 0x71, 0x9f, 0x30, 0x3d, 0x69, 0xbc, 0x7c, 0x3d,
  0x52, 0x09, 0x7d, 0xbc, 0x9c, 0xd3, 0xd6, 0x3d, 0x0c, 0xfc, 0x8b, 0x3d,
  0x1c, 0x37, 0x93, 0x3d, 0x90, 0x58, 0xf6, 0x3d, 0xcc, 0xbb, 0x9d, 0x3d,
  0x7b, 0x87, 0x52, 0x3c, 0x6e, 0x9b, 0x83, 0xba, 0x11, 0x9c, 0xf8, 0xbc,
  0x2d, 0xb2, 0x02, 0x3d, 0x61, 0x14, 0xce, 0x3b, 0x1c, 0x48, 0x56, 0xbc,
  0xbc, 0x7f, 0xa5, 0x3d, 0x28, 0x65, 0x86, 0x3d, 0x06, 0x65, 0x83, 0x3c,
  0x19, 0x46, 0x7b, 0xbb, 0x06, 0x06, 0x15, 0xbc, 0xbe, 0x4d, 0x8d, 0x3d,
  0x3a, 0xf2, 0x2b, 0x3d, 0x06, 0x73, 0xee, 0x3c, 0xc3, 0x0a, 0x7f, 0x3d,
  0xe0, 0x3f, 0x42, 0x3c, 0x8a, 0x80, 0x16, 0xbd, 0x98, 0x77, 0x46, 0x3c,
  0x7a, 0xdb, 0xbc, 0x3d, 0x58, 0xa6, 0x02, 0x3d, 0x01, 0x86, 0xb6, 0x3d,
  0x20, 0x4a, 0xbf, 0x3c, 0xb5, 0x5c, 0xd8, 0x3c, 0x3a, 0xc8, 0xfb, 0x3d,
  0x08, 0xfb, 0x87, 0x3d, 0x16, 0xf3, 0xec, 0x3d, 0x06, 0xe6, 0x3f, 0x3e,
  0xcf, 0x48, 0x29, 0x3d, 0xe3, 0x05, 0xad, 0x3c, 0xf4, 0x4c, 0x86, 0xbb,
  0x3f, 0xa0, 0x2a, 0xbd, 0x24, 0xeb, 0x3a, 0xbd, 0x60, 0x84, 0x51, 0xbd,
  0x2d, 0xac, 0x5d, 0x3c, 0x5d, 0x73, 0x88, 0x3c, 0xe6, 0xa4, 0x9f, 0x3c,
  0x25, 0xa0, 0x2b, 0x3d, 0xbd, 0x87, 0xe8, 0x3c, 0x6b, 0x57, 0x01, 0x3d,
  0xa4, 0xbf, 0x9a, 0x3c, 0x02, 0x32, 0xc8, 0x3c, 0x3a, 0xb9, 0x6f, 0x3d,
  0xfe, 0xf8, 0x29, 0x3d, 0xf3, 0x8a, 0x09, 0xbd, 0x85, 0x26, 0x6f, 0xbd,
  0x7d, 0x57, 0x3a, 0x3d, 0xc7, 0x4e, 0xa9, 0x3d, 0x27, 0xdb, 0xbc, 0x3d,
  0x12, 0x19, 0x28, 0x3d, 0xd2, 0x28, 0x85, 0x3d, 0x20, 0x84, 0xcf, 0x3d,
  0x73, 0x09, 0x30, 0x3e, 0x0d, 0x15, 0x3d, 0x3d, 0x12, 0x71, 0x07, 0x3e,
  0xc5, 0x24, 0x56, 0x3e, 0xc8, 0x3d, 0x60, 0x3d, 0x44, 0x3b, 0x14, 0x3d,
  0xe8, 0x1b, 0x8f, 0x3c, 0x62, 0x41, 0xc3, 0xbc, 0xaa, 0xac, 0xea, 0xbc,
  0x58, 0x9f, 0xa0, 0x3c, 0x97, 0x86, 0xb0, 0x3c, 0x52, 0xb9, 0x24, 0xbc,
  0x52, 0x76, 0x6d, 0xbb, 0xd1, 0x9c, 0x91, 0xbc, 0x23, 0x2d, 0x04, 0x3e,
  0xbc, 0x63, 0xde, 0x3c, 0xc6, 0xcb, 0x9a, 0x3d, 0x8a, 0x74, 0x81, 0x3d,
  0x86, 0xb4, 0x28, 0x3c, 0x37, 0xe8, 0x8c, 0x3c, 0x23, 0x64, 0x9f, 0xbd,
  0x66, 0xf8, 0xc5, 0xbd, 0x0b, 0xbd, 0x83, 0xbc, 0xdd, 0xb0, 0xde, 0x3c,
  0x56, 0xed, 0x68, 0x3d, 0x2e, 0x91, 0x96, 0x3d, 0x19, 0xec, 0xc8, 0x3d,
  0x4b, 0x27, 0x39, 0x3e, 0x21, 0x70, 0x0f, 0x3e, 0x09, 0xe5, 0xc0, 0x3d,
  0x22, 0x41, 0x15, 0x3e, 0xdb, 0x84, 0x2a, 0x3e, 0x77, 0xe6, 0x99, 0x3d,
  0x7b, 0x73, 0x0d, 0x3c, 0x49, 0x40, 0x87, 0xbd, 0x66, 0x39, 0x80, 0xbc,
  0xb3, 0x3a, 0xca, 0xbc, 0xcb, 0xca, 0xbe, 0x3c, 0x3a, 0x90, 0x22, 0xbd,
  0x56, 0x3a, 0x21, 0xbd, 0x69, 0xbb, 0x87, 0xbc, 0x52, 0x17, 0x07, 0xbd,
  0xb1, 0x87, 0x88, 0x3d, 0xd1, 0x11, 0xc0, 0x3c, 0x3c, 0x61, 0x3a, 0x3d,
  0x68, 0x66, 0x5a, 0x3d, 0x39, 0x07, 0x10, 0x3d, 0x3c, 0x87, 0x0c, 0xbd,
  0x52, 0x17, 0xcd, 0xbd, 0xf6, 0x07, 0xbe, 0xbd, 0x51, 0x99, 0xc5, 0xbb,
  0x1c, 0xcd, 0x9f, 0xbd, 0xd1, 0x94, 0x56, 0x3d, 0xf2, 0xef, 0xb3, 0x3d,
  0xa9, 0x2c, 0xbe, 0x3d, 0x03, 0x46, 0x21, 0x3e, 0x6c, 0x7a, 0xe9, 0x3d,
  0x4b, 0xa6, 0x3b, 0x3e, 0xac, 0x71, 0xfe, 0x3d, 0x45, 0x03, 0xdc, 0x3d,
  0x96, 0xd8, 0x2c, 0x3b, 0x51, 0x6d, 0x3b, 0x3c, 0x3d, 0xdd, 0xcf, 0xbb,
  0x87, 0xac, 0x93, 0x3b, 0x51, 0x03, 0xe3, 0xbb, 0x36, 0x20, 0x08, 0x3b,
  0x05, 0x57, 0x46, 0xbd, 0xfa, 0xfd, 0x98, 0xbd, 0xdf, 0x66, 0x6d, 0x3c,
  0xce, 0xed, 0x6e, 0x3d, 0x14, 0x49, 0xdb, 0x3c, 0xc9, 0x8c, 0x86, 0x3c,
  0xe1, 0xf5, 0xa6, 0x3d, 0xba, 0x23, 0x0c, 0x3d, 0xf3, 0x02, 0x30, 0x3d,
  0xf2, 0x67, 0x15, 0xbd, 0x66, 0xc4, 0x2d, 0xbe, 0xe6, 0x78, 0xa1, 0xbd,
  0xd5, 0x79, 0x5b, 0xbd, 0xe4, 0x02, 0xc1, 0xbd, 0xbd, 0x38, 0xac, 0xbc,
  0x8f, 0x7f, 0x38, 0x3d, 0xf3, 0x2d, 0x99, 0x3d, 0x83, 0x8e, 0xfd, 0x3d,
  0x81, 0xa8, 0x31, 0x3e, 0x96, 0xdb, 0xe2, 0x3d, 0x90, 0xb8, 0x99, 0x3d,
  0x6c, 0x1c, 0xf2, 0x3d, 0xbd, 0xb5, 0xab, 0x3d, 0x93, 0xc0, 0x13, 0x3d,
  0xae, 0xb6, 0x60, 0x3d, 0x1a, 0x1f, 0x99, 0x3c, 0x0d, 0xd7, 0x96, 0x3c,
  0x5c, 0x8b, 0x72, 0xbc, 0x03, 0x68, 0xba, 0x3c, 0x29, 0x1d, 0x36, 0xbc,
  0xc0, 0x95, 0xe7, 0x3c, 0x09, 0xa8, 0x76, 0x3c, 0xcc, 0x27, 0x9b, 0x3c,
  0xff, 0x47, 0x60, 0x3d, 0xdd, 0x56, 0xe8, 0x3c, 0x1f, 0xa3, 0xdf, 0x3c,
  0xfb, 0x69, 0x32, 0x3d, 0xe7, 0xf2, 0x37, 0xbd, 0xf5, 0xc1, 0xd6, 0xbd,
  0x0c, 0x94, 0xf4, 0xbd, 0xe1, 0xeb, 0xbf, 0xbd, 0xb2, 0x89, 0xdc, 0xbc,
  0x56, 0x59, 0x89, 0xbc, 0x01, 0x29, 0xdb, 0xba, 0xb3, 0x43, 0x98, 0x3c,
  0x77, 0xc7, 0xa4, 0x3d, 0xff, 0x89, 0xbf, 0x3d, 0xcc, 0xa4, 0xd3, 0x3d,
  0x03, 0xd6, 0x7b, 0x3d, 0x81, 0x85, 0xa6, 0x3d, 0x7a, 0xd6, 0xd3, 0x3d,
  0x34, 0x43, 0x99, 0x3d, 0x8a, 0xbc, 0x96, 0x3c, 0xe2, 0xcc, 0x5e, 0x3d,
  0xcc, 0x76, 0xdb, 0x3a, 0xfb, 0xe8, 0xec, 0x3c, 0xab, 0x41, 0x2f, 0x3d,
  0x5c, 0xc0, 0x91, 0xbc, 0x56, 0x75, 0x98, 0x3d, 0x66, 0x1b, 0x85, 0x3d,
  0xee, 0x16, 0x6f, 0x3d, 0xe5, 0x73, 0x82, 0x3c, 0x87, 0xf6, 0x8b, 0x3d,
  0x7d, 0x9d, 0x84, 0x3d, 0x28, 0xe2, 0x65, 0x3d, 0x58, 0xc6, 0x34, 0x3c,
  0xea, 0xdd, 0x96, 0xbd, 0xeb, 0xdf, 0xc8, 0xbd, 0x4a, 0x7c, 0x5d, 0xbc,
  0x2e, 0x27, 0x69, 0xbd, 0x13, 0xfa, 0x13, 0xbd, 0x9c, 0x39, 0x9c, 0xbc,
  0x48, 0xd6, 0xa8, 0x3c, 0x83, 0xd4, 0x86, 0x3c, 0x5f, 0x4a, 0x8c, 0x3d,
  0xbe, 0x12, 0x9c, 0x3d, 0xe6, 0x3d, 0x61, 0x3d, 0xce, 0xfe, 0xed, 0x3d,
  0xcb, 0xb3, 0xbd, 0x3d, 0x4f, 0x8f, 0x62, 0x3d, 0x39, 0xe3, 0x8e, 0x3d,
  0x8a, 0xca, 0x89, 0x3d, 0x75, 0x1d, 0x35, 0x3d, 0xe1, 0xc5, 0xd4, 0xbb,
  0x82, 0xa8, 0x20, 0x3d, 0x8c, 0x09, 0x8e, 0x3c, 0xe0, 0x51, 0xc2, 0x3d,
  0x6f, 0xb8, 0x3b, 0x3d, 0xa0, 0x73, 0x91, 0x3d, 0x64, 0x27, 0x5c, 0x3d,
  0xbb, 0x2a, 0x0e, 0x3d, 0xbc, 0xb7, 0x5c, 0x3c, 0x91, 0xc2, 0xdc, 0x3c,
  0x08, 0x61, 0x52, 0x3d, 0x7a, 0x5e, 0x85, 0xbb, 0xeb, 0xc9, 0xa6, 0xbb,
  0x46, 0xc3, 0x43, 0x3d, 0xc6, 0x5f, 0x19, 0x3d, 0x29, 0x82, 0x38, 0xbc,
  0x3d, 0x07, 0xa3, 0xbb, 0xdd, 0xd8, 0x32, 0xbd, 0xd4, 0x13, 0x35, 0x3b,
  0xc8, 0xa6, 0x57, 0xbd, 0xda, 0xd6, 0x4c, 0xbd, 0x24, 0xd7, 0x29, 0xbd,
  0x65, 0xe1, 0x17, 0xbc, 0x33, 0x64, 0x2e, 0xbc, 0x98, 0xd3, 0xcc, 0xba,
  0xb4, 0x93, 0x4f, 0x3c, 0x92, 0x03, 0x82, 0x3d, 0x3c, 0x08, 0x17, 0x3d,
  0x86, 0xd7, 0xa7, 0x3d, 0x91, 0x6c, 0x14, 0x3e, 0xef, 0x1d, 0x88, 0x3c,
  0x4b, 0xe4, 0x16, 0x3d, 0xf0, 0x5f, 0x84, 0x3d, 0xa9, 0xb3, 0x39, 0x3c,
  0x95, 0xae, 0x99, 0x3d, 0xcf, 0xa5, 0x8d, 0x3d, 0x70, 0x06, 0xa2, 0x3d,
  0x6a, 0x4c, 0x87, 0x3d, 0xe5, 0x11, 0x58, 0x3d, 0x61, 0x9c, 0x10, 0xbd,
  0x16, 0x79, 0xc3, 0xbd, 0xc3, 0xc6, 0x82, 0xbc, 0xbd, 0xc4, 0x28, 0x3d,
  0x2d, 0xad, 0xc0, 0xbb, 0x0d, 0xb4, 0x90, 0x3d, 0x76, 0xca, 0x2a, 0x3d,
  0x80, 0x44, 0x0d, 0xbd, 0xa4, 0x86, 0x44, 0xbd, 0x1d, 0x6d, 0x17, 0xbc,
  0x07, 0x9c, 0x0a, 0xbd, 0x23, 0x48, 0x19, 0xbd, 0x35, 0x3e, 0x07, 0x3d,
  0xd4, 0x0b, 0x14, 0x3d, 0x6e, 0xae, 0x76, 0x3d, 0x9e, 0xe1, 0x8a, 0x3d,
  0x8f, 0xa8, 0x01, 0x3e, 0xf2, 0xf8, 0x16, 0x3e, 0xb6, 0x78, 0xff, 0x3d,
  0x3f, 0xf3, 0x9f, 0x3d, 0x59, 0x95, 0x50, 0xbb, 0x97, 0x26, 0x80, 0xb9,
  0xc5, 0xbf, 0x94, 0x3d, 0x17, 0x37, 0xf6, 0x3c, 0xca, 0x04, 0x3f, 0x3d,
  0x18, 0x92, 0x11, 0x3d, 0xf8, 0xab, 0x79, 0x3d, 0x00, 0x7a, 0xaf, 0x3c,
  0x62, 0x3d, 0x0b, 0xbd, 0x9a, 0x40, 0xbe, 0xbd, 0x5a, 0x27, 0x3d, 0xbe,
  0x7f, 0x74, 0x26, 0xbe, 0x9d, 0x42, 0x58, 0xbe, 0x51, 0xe5, 0x07, 0xbe,
  0x6b, 0xdf, 0x9b, 0xbd, 0x02, 0x9d, 0xd4, 0xbd, 0x6a, 0xcd, 0xa1, 0xbd,
  0x22, 0x23, 0xba, 0xbd, 0x8e, 0x61, 0xe4, 0xbd, 0x9e, 0x1f, 0x25, 0xbd,
  0x3f, 0x05, 0xd2, 0xbc, 0xcc, 0x37, 0xb1, 0xbc, 0x8b, 0x58, 0x7f, 0xbd,
  0xec, 0x7c, 0x04, 0x3d, 0x92, 0x29, 0x4e, 0x3d, 0x37, 0x94, 0x37, 0x3d,
  0x62, 0xc3, 0x28, 0x3c, 0xc6, 0x22, 0x39, 0x3c, 0x7b, 0x24, 0x0d, 0x3d,
  0x02, 0x84, 0x75, 0x3d, 0x70, 0xbe, 0x50, 0x3d, 0x97, 0x37, 0x93, 0x3d,
  0x37, 0x54, 0x7d, 0x3d, 0xe1, 0xa7, 0xe3, 0x3c, 0xd6, 0x79, 0x5c, 0x3d,
  0x2c, 0x61, 0x44, 0x3c, 0x28, 0x7d, 0x6e, 0xba, 0xb3, 0x61, 0xd9, 0xbc,
  0x7f, 0xea, 0x84, 0xbd, 0x57, 0x35, 0x25, 0xbe, 0x9a, 0x4c, 0x75, 0xbe,
  0xbd, 0xe2, 0xa2, 0xbe, 0xce, 0xce, 0xa8, 0xbe, 0x0b, 0xa0, 0x8a, 0xbe,
  0xa7, 0x98, 0xaa, 0xbe, 0x92, 0xeb, 0xaf, 0xbe, 0x65, 0x45, 0x9b, 0xbe,
  0x35, 0xc4, 0x91, 0xbe, 0x31, 0x94, 0x8b, 0xbe, 0xc0, 0xa0, 0x95, 0xbe,
  0x60, 0x1e, 0x97, 0xbe, 0x66, 0xac, 0x98, 0xbe, 0xfe, 0x9e, 0xa4, 0xbe,
  0x6f, 0x7b, 0x30, 0xbe, 0xa0, 0xb8, 0xdf, 0xbd, 0x04, 0xe3, 0xc5, 0xbc,
  0xd1, 0x4c, 0x2b, 0xbc, 0x77, 0xb6, 0xf1, 0x3b, 0x68, 0x68, 0x0f, 0x3d,
  0xd8, 0x16, 0x43, 0x3d, 0xa4, 0x69, 0x9f, 0x3d, 0x9f, 0xb1, 0xec, 0x3c,
  0xd4, 0x74, 0x46, 0x3d, 0x44, 0x16, 0x4a, 0x3d, 0xf7, 0x3c, 0x65, 0x3d,
  0xe6, 0x8b, 0x34, 0x3d, 0xd2, 0x80, 0x0d, 0x3d, 0xc9, 0x11, 0x8e, 0xbc,
  0x0e, 0xf3, 0xa3, 0xbd, 0xfb, 0x7d, 0xc3, 0xbd, 0x16, 0x4c, 0x01, 0xbe,
  0x62, 0xcc, 0x30, 0xbe, 0x4e, 0x17, 0x45, 0xbe, 0x42, 0x09, 0x34, 0xbe,
  0x37, 0x8a, 0x63, 0xbe, 0xe4, 0xab, 0x85, 0xbe, 0x99, 0x34, 0x76, 0xbe,
  0x60, 0x59, 0x7e, 0xbe, 0x3d, 0xda, 0x84, 0xbe, 0x1b, 0xf0, 0x17, 0xbe,
  0x07, 0xdc, 0xec, 0xbd, 0x5d, 0xa9, 0xda, 0xbd, 0x44, 0x0a, 0xfb, 0xbc,
  0x1a, 0x3b, 0xd2, 0x3c, 0x94, 0x62, 0x8a, 0x3d, 0xd5, 0x82, 0x5d, 0x3d,
  0xd1, 0x20, 0xcd, 0x3c, 0x6c, 0xc6, 0x89, 0x3d, 0xea, 0x9c, 0xa0, 0x3c,
  0x09, 0x39, 0x72, 0x3d, 0xa1, 0x56, 0x70, 0x3d, 0x7e, 0xa4, 0xf3, 0x3c,
  0x2e, 0x54, 0xbf, 0x3c, 0xcc, 0xfb, 0x9a, 0x3c, 0xf9, 0x2b, 0x81, 0x3d,
  0x64, 0xdc, 0xe8, 0x3c, 0x51, 0xbb, 0x52, 0x3d, 0xcd, 0xf5, 0x41, 0x3d,
  0xd5, 0x7e, 0x11, 0x3c, 0x2a, 0x70, 0xc2, 0xbc, 0x1f, 0x55, 0x0a, 0x3d,
  0xe9, 0xb5, 0xdd, 0x3c, 0x5d, 0x06, 0x6f, 0xbc, 0x4d, 0x6f, 0xe4, 0xbc,
  0x00, 0xf1, 0x40, 0x3b, 0x50, 0x2b, 0x2c, 0xbd, 0xdc, 0x3b, 0x72, 0x3c,
  0x1e, 0x57, 0x93, 0xbc, 0xfe, 0x40, 0x2e, 0x3d, 0x99, 0x1a, 0xd0, 0x3c,
  0x36, 0x37, 0x5b, 0x3c, 0x49, 0xe0, 0x6a, 0x3b, 0x25, 0x1e, 0x6a, 0x3d,
  0x1f, 0xff, 0x07, 0x3c, 0xe8, 0x80, 0x9a, 0x3d, 0x6c, 0x3a, 0x37, 0x3c,
  0x38, 0xd7, 0x96, 0x3d, 0x76, 0x6c, 0x84, 0xbd, 0x79, 0x78, 0x57, 0xbd,
  0xc2, 0xd9, 0x15, 0xbc, 0x55, 0x05, 0x54, 0xbd, 0x8e, 0x9e, 0xad, 0xbc,
  0x4e, 0x3f, 0x32, 0xbc, 0x36, 0x84, 0xb6, 0xbc, 0x2e, 0x85, 0xe3, 0xbc,
  0xef, 0xb4, 0x97, 0xbb, 0xa1, 0x71, 0x4e, 0xbd, 0x25, 0x80, 0x28, 0xbd,
  0xf7, 0x0f, 0x4f, 0xbd, 0x11, 0xaf, 0x0a, 0xbc, 0x35, 0xc8, 0x8e, 0xbd,
  0xf9, 0xb0, 0x6a, 0xbd, 0x8f, 0x4b, 0x82, 0xbd, 0x18, 0x7d, 0xf6, 0xbc,
  0x53, 0x03, 0xfa, 0xbc, 0x68, 0xa3, 0x92, 0xbd, 0xdd, 0xf8, 0x42, 0xbd,
  0x2d, 0x87, 0x6c, 0xbd, 0xfb, 0x63, 0x1a, 0xbd, 0x6e, 0xb1, 0x8f, 0xbd,
  0x91, 0x5f, 0x58, 0xbd, 0x9d, 0x90, 0x6d, 0xbd, 0x48, 0x01, 0x8d, 0xbd,
  0x4e, 0xc3, 0x8f, 0xbd, 0x6b, 0xb2, 0x4b, 0xbd, 0x07, 0xa1, 0x24, 0xbd,
  0x60, 0x81, 0x8e, 0xbd, 0x10, 0x93, 0x90, 0xbd, 0xdd, 0xb5, 0x5a, 0xbd,
  0x89, 0xc7, 0xe3, 0xbb, 0xfc, 0xee, 0x20, 0xbd, 0xef, 0xe9, 0x0e, 0xbd,
  0x0c, 0x66, 0xac, 0xbc, 0x22, 0x04, 0xd7, 0xbc, 0x40, 0x4e, 0x82, 0xbc,
  0xda, 0xfb, 0xc0, 0x3a, 0x04, 0x72, 0x34, 0x3c, 0xcf, 0x6d, 0x3c, 0xbc,
  0x87, 0x44, 0x01, 0xbd, 0x41, 0xa7, 0x5b, 0xbc, 0xcf, 0xf9, 0xf1, 0xbc,
  0xdd, 0xb3, 0x69, 0x3d, 0xf0, 0xee, 0xfc, 0x3c, 0x18, 0x19, 0x86, 0xbc,
  0x1b, 0x4e, 0x3f, 0xbc, 0x33, 0x68, 0x10, 0xbd, 0x1e, 0x2f, 0x8a, 0xbc,
  0xdb, 0x9f, 0x48, 0xbd, 0xdc, 0xd4, 0x17, 0xbc, 0x16, 0x05, 0x0d, 0xbd,
  0x0b, 0xde, 0x20, 0xbd, 0xb2, 0xa1, 0x8b, 0xbc, 0x7d, 0xac, 0x20, 0xbd,
  0xf7, 0x78, 0x3b, 0xbd, 0xc6, 0x48, 0x26, 0xbc, 0xb6, 0x47, 0x74, 0xbd,
  0x4d, 0x8b, 0x90, 0xbd, 0x83, 0xd6, 0x90, 0xbd, 0x0d, 0xb2, 0x70, 0xbd,
  0x4c, 0xb3, 0x41, 0xbd, 0x30, 0xb0, 0x1c, 0x3b, 0xfb, 0xfb, 0xe3, 0x3c,
  0x5e, 0x65, 0xaf, 0x3b, 0xf2, 0x5f, 0x26, 0x3d, 0x72, 0x7d, 0x21, 0x3e,
  0x4f, 0xa6, 0x0e, 0x3e, 0x04, 0x63, 0x0b, 0x3e, 0xf7, 0xb0, 0xad, 0x3d,
  0x05, 0x06, 0x87, 0x3d, 0x62, 0x51, 0xb5, 0x3d, 0x05, 0x91, 0x01, 0x3e,
  0xea, 0x6c, 0xfa, 0x3c, 0x79, 0x03, 0x24, 0xbc, 0xf3, 0x5d, 0xb7, 0x3c,
  0xaa, 0x4c, 0xd3, 0xbc, 0xb1, 0x2c, 0xd4, 0xbc, 0x75, 0x14, 0xfe, 0xbc,
  0x3c, 0x22, 0x9a, 0xbc, 0x25, 0x21, 0x02, 0xbd, 0xe3, 0x72, 0x4d, 0xbd,
  0xff, 0x46, 0x11, 0xbc, 0xe8, 0xb1, 0xd9, 0xbc, 0x9d, 0x15, 0x22, 0xbd,
  0x41, 0x3c, 0x8c, 0xbd, 0x96, 0x97, 0x56, 0xbd, 0xa9, 0x53, 0x0a, 0xbc,
  0x5c, 0xab, 0x8b, 0xbd, 0xa3, 0x10, 0x8d, 0xbb, 0xcf, 0x00, 0x90, 0xbb,
  0x80, 0xa2, 0x33, 0x3d, 0x9b, 0xa3, 0xa9, 0x3c, 0x4c, 0xe8, 0xbe, 0x3d,
  0xc5, 0x73, 0x0f, 0x3e, 0xa2, 0x05, 0x0e, 0x3e, 0xe4, 0x92, 0x29, 0x3e,
  0xe3, 0x83, 0xb5, 0x3d, 0x0a, 0x32, 0xa5, 0x3d, 0xa7, 0x58, 0xb9, 0x3d,
  0x59, 0xb2, 0xb4, 0x3d, 0x7e, 0xcf, 0x9f, 0x3c, 0x80, 0xb7, 0xfa, 0xbc,
  0xbf, 0x5e, 0x13, 0x3d, 0xf0, 0xa2, 0xcd, 0xbc, 0x94, 0x65, 0xf0, 0xbd,
  0xbf, 0xac, 0x01, 0xbd, 0xc5, 0x4b, 0x69, 0xbd, 0x64, 0x4a, 0x1c, 0xbd,
  0x01, 0xda, 0x80, 0xbd, 0x45, 0xf0, 0x81, 0xbc, 0x14, 0x02, 0xbf, 0xbc,
  0xbd, 0xc3, 0x0b, 0xbc, 0x57, 0xbf, 0x8c, 0xbd, 0xe8, 0xee, 0x22, 0xbd,
  0x25, 0x11, 0xb1, 0xbd, 0x39, 0xa1, 0x33, 0xbd, 0x47, 0x44, 0x10, 0x3c,
  0x94, 0xc1, 0x5a, 0xbc, 0x51, 0x1e, 0xa4, 0x3c, 0x38, 0x31, 0x8f, 0x3d,
  0xf2, 0xc5, 0x00, 0x3e, 0xc2, 0xfd, 0xf3, 0x3d, 0x94, 0xd1, 0x9c, 0x3d,
  0x88, 0x1a, 0xcc, 0x3d, 0xcf, 0x5a, 0xd5, 0x3c, 0xf9, 0xbd, 0x35, 0x3d,
  0xfb, 0xd8, 0x06, 0xbb, 0x36, 0xa3, 0xaa, 0xbc, 0x30, 0xc6, 0x37, 0xbd,
  0x18, 0xd9, 0xf0, 0xbd, 0xba, 0x7d, 0xc4, 0xbd, 0x3c, 0xe2, 0x07, 0xbe,
  0x4a, 0x38, 0x36, 0xbe, 0xf9, 0x06, 0x6d, 0xbe, 0xe9, 0x5e, 0x15, 0xbe,
  0x98, 0x28, 0xf7, 0xbc, 0xa1, 0x91, 0x0e, 0xbd, 0x59, 0x3c, 0x81, 0xbd,
  0x3c, 0x3a, 0x7b, 0xbd, 0xaf, 0x99, 0x56, 0xbd, 0x95, 0xfd, 0x86, 0xbd,
  0x84, 0x6a, 0x11, 0x39, 0x1f, 0x46, 0x1f, 0xbd, 0x03, 0x80, 0x8b, 0xbc,
  0x07, 0xef, 0x8e, 0xbc, 0xf9, 0x89, 0x0c, 0x3d, 0xf6, 0x5f, 0xc7, 0x3d,
  0x97, 0x33, 0xaf, 0x3d, 0xe0, 0x95, 0x02, 0x3e, 0x21, 0xc3, 0xaf, 0x3d,
  0x1d, 0x20, 0x76, 0x3d, 0xda, 0x96, 0xe2, 0x3d, 0x12, 0x89, 0x97, 0x3d,
  0xe7, 0x66, 0xdf, 0x3d, 0x7e, 0x2e, 0x08, 0x3e, 0x98, 0xfd, 0xac, 0x3d,
  0x91, 0xea, 0x7f, 0x3d, 0xce, 0xa5, 0xff, 0x3c, 0xb9, 0xbc, 0xea, 0xbc,
  0x0b, 0x28, 0x24, 0xbd, 0xfb, 0x7a, 0xa6, 0xbd, 0xf4, 0xbb, 0x32, 0xbe,
  0x82, 0xde, 0xfd, 0xbd, 0x1c, 0x14, 0xdb, 0xbc, 0xbc, 0x59, 0x49, 0xbc,
  0x2e, 0x0e, 0x08, 0xbd, 0x4d, 0x80, 0x66, 0xbd, 0x12, 0xd0, 0xd9, 0xbc,
  0x2d, 0xe2, 0x0c, 0xbd, 0x32, 0xe7, 0x5b, 0xbb, 0xe3, 0x73, 0x8e, 0xbc,
  0x96, 0xdd, 0xa8, 0x3b, 0x2d, 0x99, 0x38, 0x3d, 0x47, 0x1f, 0x83, 0x3d,
  0xba, 0x7b, 0xda, 0x3d, 0x25, 0x97, 0x3a, 0x3d, 0x9c, 0x18, 0x6f, 0x3d,
  0xbb, 0xe3, 0x64, 0x3d, 0x20, 0x86, 0x72, 0x3d, 0xd9, 0x70, 0xaa, 0x3d,
  0xfd, 0x50, 0xa2, 0x3d, 0xac, 0x36, 0x58, 0x3c, 0x97, 0x55, 0x2b, 0x3d,
  0x20, 0x2f, 0xac, 0x3c, 0x85, 0x18, 0x8c, 0x3c, 0xb2, 0x26, 0x34, 0xbd,
  0x84, 0x94, 0x8a, 0xbc, 0x50, 0xe1, 0xa5, 0xbb, 0xb6, 0xeb, 0xe3, 0xbc,
  0x01, 0xf5, 0x76, 0xbe, 0xb9, 0x47, 0x1a, 0xbe, 0x1b, 0xd8, 0x21, 0xbd,
  0xd0, 0x91, 0xd5, 0xbc, 0xd3, 0x6c, 0x12, 0xbc, 0xda, 0xd1, 0x8e, 0xbc,
  0xad, 0x11, 0x09, 0xbd, 0xb3, 0xbe, 0x30, 0xbd, 0x55, 0xcb, 0xb9, 0x3c,
  0xf3, 0x5e, 0xfa, 0x3d, 0x17, 0xe2, 0x83, 0x3d, 0x55, 0xb9, 0xd9, 0x3d,
  0xd0, 0x0f, 0x3d, 0x3d, 0x23, 0x99, 0x7b, 0x3a, 0x34, 0xac, 0x01, 0x3a,
  0x9d, 0x1c, 0x54, 0x3c, 0x6c, 0x4d, 0x54, 0x3d, 0xed, 0x96, 0x46, 0x3d,
  0x31, 0x7c, 0x03, 0x3c, 0xcf, 0x00, 0xc9, 0x3c, 0x88, 0x00, 0xb9, 0xbc,
  0xea, 0x5b, 0x76, 0xbd, 0x80, 0xaf, 0x47, 0xbc, 0x74, 0xc4, 0xca, 0xbb,
  0x38, 0x7c, 0xb3, 0xbc, 0x97, 0x3a, 0x20, 0xbd, 0x5d, 0xb4, 0xce, 0xbb,
  0xb7, 0x4e, 0x01, 0x3c, 0x0c, 0x79, 0x23, 0xbe, 0xd0, 0xbf, 0x74, 0xbe,
  0x94, 0x2d, 0x22, 0xbd, 0xe6, 0x82, 0x49, 0xbd, 0xb0, 0x6f, 0x8b, 0xbc,
  0xf1, 0x76, 0x0f, 0xbd, 0x1d, 0xdb, 0x54, 0xbd, 0x6a, 0x04, 0xab, 0xbb,
  0xea, 0x6f, 0x15, 0x3d, 0x66, 0x37, 0x9c, 0x3d, 0xa4, 0x0b, 0xf4, 0x3c,
  0x32, 0x99, 0x48, 0x3d, 0xde, 0xbe, 0xc5, 0xbb, 0xe3, 0xc2, 0x0d, 0xbd,
  0x43, 0x8d, 0x5f, 0xbd, 0x6a, 0xd4, 0x88, 0x3c, 0x21, 0x61, 0x84, 0xbb,
  0xe9, 0x42, 0x99, 0x3c, 0x5b, 0x6b, 0x18, 0xbc, 0x66, 0xbb, 0xc0, 0x3d,
  0xa8, 0x8a, 0x62, 0x3d, 0x44, 0xeb, 0xee, 0x3c, 0x5a, 0x8c, 0x55, 0x3c,
  0x8f, 0xff, 0x36, 0xbd, 0x88, 0xf4, 0x7a, 0x3c, 0x13, 0x1e, 0x21, 0x3d,
  0x0c, 0x98, 0x12, 0xbd, 0x71, 0x4a, 0x37, 0xbc, 0x93, 0xf7, 0xde, 0xbd,
  0xb4, 0x80, 0x98, 0xbe, 0xe7, 0x4c, 0xaa, 0xbd, 0xec, 0x43, 0xbe, 0xbc,
  0xd1, 0x8e, 0xe6, 0xbc, 0xe4, 0xb0, 0x5c, 0xbd, 0xf0, 0xee, 0x73, 0xbc,
  0x0b, 0x1a, 0x5d, 0x3b, 0x0c, 0x48, 0x1f, 0x3e, 0xcd, 0xf1, 0x3a, 0x3e,
  0xe4, 0x18, 0xf7, 0x3c, 0x47, 0x5b, 0xe9, 0xbc, 0xe0, 0xe4, 0x9b, 0xbc,
  0x6b, 0xb1, 0xa3, 0xbc, 0xef, 0xe4, 0x09, 0xbd, 0xfc, 0x79, 0x78, 0xbd,
  0x7c, 0x7f, 0xb3, 0xbc, 0x6e, 0x30, 0x1f, 0xbc, 0xaf, 0x9a, 0x67, 0x3d,
  0xa6, 0x45, 0xf4, 0x3d, 0x80, 0x8d, 0xb1, 0x3d, 0x4e, 0x30, 0xae, 0x3d,
  0x27, 0x24, 0xef, 0x3c, 0xcd, 0xaf, 0x2d, 0x3c, 0xd8, 0xcf, 0x81, 0x3a,
  0x42, 0x5d, 0xde, 0xbc, 0x3f, 0x69, 0xa5, 0xbc, 0x1d, 0x6e, 0x70, 0xbc,
  0x42, 0xf2, 0x7e, 0xbd, 0xa3, 0x06, 0x2b, 0xbe, 0x0e, 0xea, 0x0c, 0xbd,
  0x7d, 0x83, 0x67, 0x3b, 0x56, 0x14, 0x38, 0xbd, 0xe6, 0xa1, 0x1a, 0xbd,
  0x6c, 0x5a, 0xfe, 0xbc, 0x2a, 0x35, 0xeb, 0x3c, 0x4b, 0x42, 0x2c, 0x3e,
  0xf0, 0x1a, 0x29, 0x3e, 0x02, 0x0d, 0x45, 0x3d, 0xe3, 0xec, 0x23, 0x3d,
  0x93, 0xb5, 0x96, 0xbd, 0xbd, 0x8e, 0xb1, 0xbd, 0xf5, 0xa2, 0x04, 0xbe,
  0x5e, 0xbf, 0x09, 0xbe, 0x19, 0x01, 0xd8, 0xbd, 0xf1, 0x49, 0xf7, 0xbd,
  0x77, 0xe1, 0xd9, 0xbc, 0xe3, 0x14, 0x05, 0x3e, 0x85, 0xf5, 0x9b, 0x3d,
  0x1b, 0xb4, 0xce, 0x3d, 0x9e, 0x31, 0x71, 0x3d, 0xc7, 0x72, 0xa2, 0x3d,
  0xbe, 0x92, 0x0b, 0x3d, 0x4a, 0x00, 0xa9, 0x3d, 0x22, 0xa7, 0x51, 0x3b,
  0xb4, 0xf3, 0xcf, 0x3c, 0xf4, 0xa8, 0xdb, 0x3c, 0x8f, 0xbe, 0xa7, 0x3c,
  0xb4, 0xdd, 0x4b, 0x3b, 0xb6, 0x81, 0x49, 0x3c, 0xf0, 0xde, 0x36, 0xbb,
  0x9d, 0x42, 0x02, 0xbd, 0xda, 0x02, 0x60, 0x3c, 0x36, 0x89, 0x1b, 0x3d,
  0x6e, 0xbc, 0x31, 0x3e, 0x4d, 0x53, 0x81, 0x3d, 0x0a, 0x7a, 0x6d, 0xbd,
  0xdb, 0x0a, 0xe8, 0xbd, 0xc4, 0xa7, 0x14, 0xbe, 0x93, 0x21, 0x33, 0xbe,
  0x46, 0xc9, 0x34, 0xbe, 0x59, 0x4f, 0x61, 0xbe, 0x01, 0x9a, 0x33, 0xbe,
  0x93, 0x99, 0x5b, 0xbe, 0xad, 0x1f, 0x13, 0xbe, 0xf1, 0x58, 0xf3, 0xbd,
  0xa3, 0x73, 0xd8, 0xbd, 0x3f, 0x53, 0xf9, 0xbc, 0x33, 0x91, 0x8f, 0xbd,
  0x22, 0x6d, 0x34, 0xbd, 0xae, 0x47, 0x16, 0x3d, 0xb6, 0x9b, 0x1c, 0x3c,
  0x6b, 0xd5, 0x80, 0x3d, 0x46, 0xa1, 0x3e, 0x3c, 0xc5, 0xa9, 0x9a, 0x3d,
  0x0f, 0x16, 0x7b, 0x3d, 0xeb, 0xa7, 0x8a, 0x3b, 0x99, 0xac, 0x56, 0xbd,
  0xfe, 0x5f, 0x82, 0xbd, 0xc4, 0x05, 0x8a, 0xbc, 0x23, 0x1e, 0x3b, 0xbc,
  0x28, 0x13, 0xfc, 0x3c, 0x3b, 0x2d, 0xda, 0x3d, 0x86, 0xbf, 0x98, 0xbc,
  0x14, 0xed, 0x46, 0xbe, 0xc2, 0x97, 0x5e, 0xbe, 0xb7, 0xf8, 0x64, 0xbe,
  0x86, 0x25, 0x4b, 0xbe, 0x5a, 0xa5, 0x37, 0xbe, 0x45, 0x17, 0x1c, 0xbe,
  0xe5, 0xc0, 0x2b, 0xbe, 0xcf, 0xef, 0xde, 0xbd, 0xb8, 0x0e, 0xe1, 0xbd,
  0x3d, 0x6c, 0x20, 0xbe, 0x93, 0x36, 0x1c, 0xbe, 0x2e, 0x48, 0xd5, 0xbd,
  0x81, 0x4a, 0xff, 0xbd, 0x3c, 0x17, 0xf4, 0xbd, 0x3d, 0xcf, 0xbc, 0xbd,
  0xbe, 0x03, 0x09, 0xbd, 0x5c, 0x07, 0x3d, 0xbd, 0x9c, 0x08, 0x81, 0xbd,
  0x28, 0xe2, 0xaf, 0x3b, 0x20, 0x30, 0x21, 0x3e, 0x49, 0x3d, 0xf0, 0x3d,
  0x7f, 0xa9, 0x7e, 0x3c, 0xb9, 0xd1, 0xfd, 0xbc, 0x96, 0xee, 0xd1, 0xbc,
  0x28, 0x44, 0x33, 0xbd, 0x87, 0x75, 0x2d, 0x3d, 0x45, 0xed, 0x2c, 0x3d,
  0xf2, 0xb5, 0x2e, 0xbe, 0x98, 0xbd, 0x5c, 0xbe, 0x86, 0xa6, 0x72, 0xbe,
  0xe1, 0x9e, 0x59, 0xbe, 0xdc, 0xaf, 0x14, 0xbe, 0xcd, 0x0c, 0xd5, 0xbd,
  0xaa, 0xba, 0xc1, 0xbd, 0x69, 0x65, 0xf3, 0xbc, 0x4b, 0x7f, 0x73, 0x3c,
  0x79, 0x31, 0xa2, 0xbd, 0x4b, 0x66, 0xd3, 0xbd, 0xa5, 0x8b, 0xfb, 0xbd,
  0xe2, 0xc3, 0xd5, 0xbd, 0xff, 0x09, 0x13, 0xbe, 0xa8, 0x9c, 0x04, 0xbe,
  0x92, 0x19, 0xd2, 0xbd, 0xb6, 0x20, 0x02, 0xbe, 0x86, 0x71, 0xe4, 0xbd,
  0x07, 0x81, 0x72, 0xbd, 0x8d, 0x72, 0x0b, 0x3e, 0x32, 0x5e, 0x77, 0x3e,
  0x08, 0x80, 0x48, 0x3e, 0x84, 0xa6, 0xb3, 0x3d, 0x3f, 0x12, 0x23, 0x3c,
  0xbe, 0xab, 0x6a, 0xbd, 0x68, 0x0f, 0x59, 0xbd, 0xd9, 0xae, 0x35, 0xbd,
  0x44, 0xf4, 0x83, 0xbd, 0x53, 0xbe, 0x68, 0xbe, 0x26, 0x13, 0x55, 0xbe,
  0x15, 0xaa, 0x44, 0xbe, 0x55, 0x3c, 0x9b, 0xbd, 0xf4, 0x68, 0x6d, 0xbd,
  0x37, 0xe0, 0x30, 0xbd, 0x6d, 0xd8, 0x9e, 0xbc, 0x2a, 0x14, 0xf1, 0xb9,
  0x57, 0x50, 0xb7, 0xbc, 0x5f, 0x6d, 0xf4, 0xbd, 0x2a, 0xa4, 0x03, 0xbe,
  0x22, 0xbb, 0xc4, 0xbd, 0xb0, 0xa4, 0x9e, 0xbd, 0xbf, 0x65, 0x05, 0xbe,
  0xd4, 0x69, 0x19, 0xbd, 0x98, 0x87, 0x8e, 0xbd, 0xc5, 0x1c, 0x07, 0xbd,
  0x51, 0x72, 0x74, 0x3d, 0xe4, 0x5d, 0x1f, 0x3d, 0xfc, 0x54, 0x4e, 0x3e,
  0x6b, 0x1c, 0x3c, 0x3e, 0xae, 0x29, 0x14, 0x3e, 0xac, 0x56, 0xa3, 0x3d,
  0x34, 0x0a, 0x8f, 0xbd, 0xe2, 0x78, 0x76, 0xbd, 0xe9, 0x88, 0x8a, 0xbd,
  0x6e, 0x37, 0xfe, 0xbc, 0x90, 0x72, 0x80, 0xbc, 0xff, 0x45, 0xda, 0xbd,
  0x0b, 0x7c, 0x18, 0x3d, 0x78, 0x42, 0x21, 0xbd, 0xff, 0xe3, 0x64, 0xbd,
  0x39, 0xa2, 0x53, 0xbc, 0x4a, 0x91, 0xa4, 0x3c, 0x40, 0x68, 0x22, 0x3d,
  0x3e, 0x10, 0xbe, 0xbc, 0x54, 0x03, 0xab, 0xbd, 0x8b, 0x27, 0xa9, 0xbd,
  0x3a, 0xb2, 0x32, 0xbd, 0x40, 0x01, 0x4a, 0xbd, 0x91, 0x06, 0xe0, 0xbd,
  0x8f, 0x16, 0x11, 0xbe, 0x4f, 0x82, 0xd0, 0xbc, 0x84, 0xa1, 0xa0, 0x3c,
  0x5d, 0x1e, 0x2a, 0x3d, 0x04, 0xbf, 0xae, 0x3d, 0x41, 0x2a, 0x02, 0xbc,
  0x8c, 0x3d, 0x95, 0x3d, 0xee, 0x11, 0x8b, 0x3e, 0xad, 0x15, 0x78, 0x3e,
  0x66, 0x68, 0x4c, 0x3d, 0x99, 0x89, 0xc6, 0xbc, 0xc3, 0x85, 0x27, 0xbc,
  0x15, 0xb0, 0xe4, 0xbc, 0xba, 0xeb, 0x28, 0xbd, 0x33, 0x60, 0x7d, 0x3d,
  0xf8, 0x81, 0xf2, 0x3d, 0xdc, 0x2c, 0xb2, 0x3d, 0x72, 0x62, 0xaa, 0x3c,
  0x3f, 0xaa, 0x2b, 0x3c, 0x7e, 0xe6, 0xc3, 0xbd, 0x97, 0x10, 0x7a, 0x3d,
  0xa1, 0x2b, 0x05, 0x3d, 0xe7, 0x00, 0x0f, 0x3c, 0x28, 0x5e, 0xab, 0xbd,
  0x75, 0x4e, 0x7e, 0xbd, 0x6e, 0xb6, 0x78, 0xbd, 0x66, 0x20, 0x40, 0xbd,
  0xb4, 0xf2, 0xaf, 0xbd, 0x35, 0x2c, 0x9c, 0xbc, 0xf2, 0x46, 0x9f, 0x3d,
  0x9f, 0xec, 0xc3, 0x3d, 0x38, 0xf9, 0xfd, 0x3c, 0x5c, 0xfd, 0xa5, 0x3d,
  0xfb, 0xdc, 0x44, 0x3d, 0xcd, 0xaa, 0x65, 0x3d, 0xf0, 0x31, 0x82, 0x3e,
  0x3d, 0x0e, 0xbc, 0x3e, 0x0c, 0xaa, 0x18, 0x3e, 0xb6, 0xa6, 0x13, 0xbd,
  0x8c, 0xdd, 0xd1, 0xbc, 0x85, 0xf5, 0x33, 0xbd, 0x41, 0xea, 0xe4, 0x3b,
  0x78, 0x6c, 0x27, 0x3e, 0x17, 0x90, 0x4a, 0x3e, 0x56, 0x89, 0xb2, 0x3d,
  0x64, 0xcf, 0xbc, 0x3d, 0xf9, 0x60, 0x72, 0x3b, 0xd3, 0xe2, 0xa5, 0xbc,
  0x8e, 0x1b, 0x1f, 0x3c, 0xc0, 0x31, 0xe0, 0x3b, 0x42, 0x2d, 0xd7, 0xbc,
  0xd9, 0x77, 0xd0, 0xbd, 0x4b, 0xe6, 0xc4, 0xbd, 0x49, 0x69, 0x47, 0xbd,
  0x1f, 0xcd, 0x56, 0xbd, 0x8e, 0x6c, 0x7d, 0xbc, 0x0f, 0x09, 0x41, 0x3d,
  0x05, 0xfc, 0x8f, 0x3d, 0x0a, 0x8c, 0xc5, 0x3d, 0xae, 0x42, 0xb6, 0x3c,
  0xb8, 0xf5, 0x54, 0x3d, 0x09, 0x3c, 0x95, 0x3d, 0x03, 0x21, 0x23, 0x3d,
  0xbd, 0xed, 0x70, 0x3e, 0xa0, 0xf3, 0xd9, 0x3e, 0xf5, 0x54, 0x9e, 0x3d,
  0xb1, 0x90, 0x45, 0xbd, 0x06, 0x09, 0xa9, 0xbb, 0x93, 0xf5, 0x74, 0xbd,
  0x6f, 0x3e, 0xad, 0xbc, 0x2c, 0xc5, 0x08, 0x3e, 0xfe, 0x2d, 0x59, 0x3e,
  0x6c, 0xda, 0xf0, 0x3d, 0xfd, 0x3d, 0xae, 0x3c, 0x14, 0x4f, 0xa9, 0x3d,
  0x86, 0x2a, 0x64, 0x3d, 0x34, 0xc5, 0xa4, 0x3b, 0x72, 0x71, 0x11, 0x3d,
  0x5e, 0x5e, 0x35, 0x3c, 0xb9, 0x30, 0x17, 0x3c, 0xa8, 0x8d, 0x24, 0x3c,
  0xe6, 0x69, 0x5f, 0x3c, 0xb4, 0xfc, 0x72, 0x3c, 0xf9, 0x68, 0x65, 0x3d,
  0xf9, 0x3a, 0x0e, 0x3e, 0x29, 0xee, 0xda, 0x3d, 0xe3, 0x56, 0xc2, 0x3d,
  0xef, 0x91, 0x39, 0x3d, 0xe6, 0xc2, 0x8d, 0x3d, 0x37, 0x82, 0x00, 0x3e,
  0xc2, 0x47, 0x42, 0x3e, 0x8f, 0x78, 0xa8, 0x3e, 0x6a, 0x6f, 0x94, 0x3e,
  0x6b, 0x9d, 0x38, 0xbc, 0x25, 0xf8, 0xd8, 0xbc, 0xbe, 0xdf, 0x8b, 0xbd,
  0x25, 0x07, 0x5e, 0xbd, 0x72, 0x52, 0x86, 0xbd, 0x2c, 0x23, 0x08, 0x3e,
  0xf5, 0xb7, 0x73, 0x3e, 0x65, 0x0d, 0xef, 0x3d, 0xc3, 0xd0, 0x8a, 0x3d,
  0x78, 0x51, 0xfc, 0x3d, 0xc4, 0xe1, 0x05, 0x3e, 0x16, 0x78, 0xbd, 0x3d,
  0xdb, 0xa4, 0xdf, 0x3d, 0x06, 0x0d, 0xc5, 0x3d, 0x73, 0x6a, 0x36, 0x3e,
  0xd7, 0x8d, 0xcf, 0x3d, 0x98, 0x36, 0xaf, 0x3c, 0x80, 0x5c, 0x53, 0x3d,
  0x68, 0x5b, 0x85, 0x3d, 0xf9, 0xd5, 0xbb, 0x3d, 0x3f, 0xbc, 0x96, 0x3d,
  0xb9, 0x9a, 0xe7, 0x3c, 0xdc, 0xac, 0x49, 0x3d, 0xd4, 0xaa, 0xc2, 0x3d,
  0x63, 0x33, 0x1f, 0x3e, 0x2d, 0x1e, 0x65, 0x3e, 0xda, 0xe5, 0x7d, 0x3e,
  0xe9, 0x55, 0x51, 0x3e, 0xe6, 0xbd, 0xd9, 0xbb, 0xc3, 0x95, 0x4f, 0xbd,
  0x95, 0xa4, 0x78, 0xbd, 0x03, 0xaa, 0x59, 0xbb, 0xe8, 0x42, 0xe7, 0xbc,
  0x2b, 0xfb, 0x19, 0x3e, 0x00, 0x80, 0xb5, 0x3e, 0xa9, 0x8b, 0x34, 0x3e,
  0x05, 0x76, 0xe0, 0x3d, 0x06, 0xe5, 0x3d, 0x3e, 0x68, 0xf7, 0xf0, 0x3d,
  0xd3, 0x02, 0x25, 0x3e, 0xf3, 0xc8, 0xea, 0x3d, 0xd3, 0x73, 0xf2, 0x3d,
  0x04, 0x00, 0x84, 0x3d, 0xbf, 0x18, 0x3e, 0x3d, 0xb3, 0x6a, 0x85, 0x3c,
  0xb7, 0xa2, 0xf0, 0x3c, 0x3d, 0x6c, 0x1e, 0x3d, 0xe6, 0xda, 0x81, 0x3b,
  0x76, 0x2c, 0x8a, 0x3d, 0x3e, 0xa6, 0x82, 0x3d, 0x0e, 0x5f, 0xba, 0x3d,
  0x0d, 0x07, 0xa8, 0x3d, 0x71, 0x04, 0x06, 0x3e, 0x13, 0x72, 0x3a, 0x3e,
  0x36, 0xcb, 0x75, 0x3e, 0x7f, 0x0b, 0xc7, 0x3d, 0x81, 0x00, 0x18, 0xbc,
  0x04, 0x25, 0xce, 0xbb, 0xf2, 0xeb, 0x52, 0xbd, 0xbd, 0xf2, 0xae, 0xbc,
  0xa4, 0x5e, 0x9b, 0xba, 0xa4, 0xe5, 0x40, 0x3e, 0xaf, 0x2a, 0x7a, 0x3e,
  0x6f, 0x5b, 0xf3, 0x3d, 0xf3, 0xfc, 0xbf, 0x3d, 0xd6, 0x9e, 0xa5, 0x3d,
  0x67, 0x70, 0x21, 0x3d, 0x6a, 0xf4, 0x0c, 0x3d, 0x62, 0x23, 0x71, 0x3d,
  0x2b, 0x00, 0xb8, 0x3d, 0xfb, 0xa2, 0x4d, 0x3d, 0x51, 0x4f, 0x6c, 0x3d,
  0x40, 0x95, 0x95, 0x3d, 0x43, 0xe7, 0xe0, 0x3c, 0x44, 0x2f, 0x2d, 0x3d,
  0x0f, 0x1a, 0x84, 0x3d, 0x74, 0x0d, 0xc6, 0x3d, 0x5c, 0x49, 0x8f, 0x3d,
  0xe6, 0xf6, 0xf6, 0x3c, 0x80, 0xe5, 0xa5, 0x3d, 0x65, 0xe8, 0xdf, 0x3d,
  0xee, 0x29, 0x30, 0x3e, 0xf8, 0xb4, 0xbb, 0x3d, 0xc2, 0x86, 0x5a, 0x3d,
  0xc5, 0x92, 0x85, 0xbc, 0x89, 0x02, 0xc1, 0xbc, 0x60, 0x2d, 0x74, 0xbd,
  0x9e, 0x68, 0xbd, 0xbc, 0xc1, 0x18, 0x93, 0xbb, 0xb9, 0xe0, 0x06, 0x3e,
  0x4d, 0x21, 0x3b, 0x3e, 0xce, 0x1c, 0xfb, 0x3d, 0xa8, 0x22, 0x1a, 0x3e,
  0xda, 0x6f, 0xdd, 0x3d, 0xf5, 0xda, 0x08, 0x3e, 0xd3, 0x46, 0xf0, 0x3d,
  0x37, 0xde, 0xd5, 0x3d, 0xd2, 0x39, 0x41, 0x3d, 0x55, 0xc2, 0x23, 0x3d,
  0xa6, 0x6f, 0x69, 0x3d, 0xc0, 0xfd, 0x2d, 0x3c, 0x90, 0x3e, 0x8e, 0x3d,
  0x87, 0x23, 0xd9, 0x3c, 0xbc, 0x6b, 0xd3, 0x3c, 0xdf, 0x9c, 0x3a, 0x3d,
  0x46, 0x57, 0x6b, 0x3d, 0x16, 0x6c, 0xe9, 0x3d, 0x10, 0x07, 0x34, 0x3d,
  0xd7, 0xbc, 0xa8, 0x3d, 0xa8, 0x21, 0xd1, 0x3d, 0x24, 0xe7, 0x08, 0x3b,
  0x0a, 0x1f, 0xf2, 0xbc, 0x3e, 0x1f, 0x9a, 0xbc, 0xed, 0x62, 0x27, 0xbd,
  0xe0, 0xcc, 0x1a, 0xbc, 0x09, 0x5b, 0x19, 0xbd, 0xa6, 0x8e, 0xe1, 0xbb,
  0x29, 0xde, 0x0c, 0x3d, 0xe3, 0x14, 0x14, 0x3e, 0x8e, 0x4a, 0x2b, 0x3e,
  0xa5, 0x5e, 0x29, 0x3e, 0x93, 0xbd, 0x03, 0x3e, 0x11, 0x6b, 0x95, 0x3b,
  0x18, 0x76, 0xb7, 0x3d, 0xc8, 0xdb, 0xb7, 0x3d, 0x37, 0x78, 0xad, 0x3d,
  0xaa, 0x9a, 0x96, 0x3d, 0x6a, 0x53, 0x4d, 0x3d, 0x40, 0x88, 0x14, 0x3d,
  0x3c, 0x6d, 0xec, 0x3c, 0x41, 0xbd, 0x59, 0xbd, 0xc2, 0xc5, 0x09, 0xbd,
  0xfa, 0x48, 0x0d, 0xbd, 0xca, 0xf7, 0x2c, 0x39, 0xe7, 0x7f, 0x81, 0xbd,
  0xa3, 0x82, 0x85, 0xbc, 0xba, 0x41, 0x40, 0x3d, 0x77, 0x74, 0x8b, 0xbb,
  0x6a, 0x41, 0x30, 0xbd, 0x38, 0xd8, 0xd2, 0x3b, 0x6f, 0x03, 0xaa, 0xbc,
  0x16, 0x9a, 0x42, 0xbc, 0xa2, 0x72, 0x92, 0xbd, 0x96, 0xab, 0x97, 0xbd,
  0x1e, 0xe8, 0x39, 0xbd, 0x36, 0xd1, 0x7c, 0x3c, 0x10, 0x15, 0xea, 0x3d,
  0x9f, 0x5d, 0x84, 0x3d, 0xed, 0x9d, 0x3a, 0x3d, 0x4d, 0x4e, 0x06, 0x3d,
  0x23, 0xd9, 0x09, 0x3c, 0xfe, 0xce, 0xa8, 0x3b, 0xff, 0x87, 0xf1, 0xbc,
  0x35, 0x37, 0x32, 0xbd, 0x4b, 0x84, 0xb8, 0xba, 0x01, 0x2a, 0x29, 0x3d,
  0x20, 0x09, 0x84, 0x3d, 0xa7, 0xca, 0x7c, 0x3d, 0x67, 0x7b, 0x67, 0x3c,
  0x99, 0x97, 0x5a, 0x3b, 0x52, 0xcd, 0x99, 0xbd, 0xa4, 0x7e, 0x56, 0xbe,
  0xd1, 0x4b, 0x74, 0xbe, 0xca, 0x0c, 0x53, 0xbe, 0x8a, 0x14, 0xac, 0xbd,
  0x04, 0x00, 0xe3, 0xbd, 0x50, 0x84, 0x24, 0x3b, 0xd2, 0x05, 0xb8, 0xbc,
  0x77, 0x4d, 0x7e, 0xbd, 0x4b, 0xb1, 0x18, 0xbd, 0xbc, 0x9b, 0x37, 0xbc,
  0xb9, 0xc9, 0x81, 0xbc, 0xb3, 0xae, 0x92, 0xbc, 0xf5, 0x17, 0x59, 0xbd,
  0xbf, 0x45, 0xc1, 0xbc, 0x41, 0x58, 0x4b, 0xbd, 0x58, 0x72, 0x2f, 0xbc,
  0xb0, 0x15, 0x99, 0xbd, 0x35, 0x49, 0xb6, 0xbc, 0xeb, 0x59, 0x81, 0xbd,
  0x1e, 0x64, 0xa7, 0xbd, 0x6b, 0xcd, 0xde, 0xbc, 0x4d, 0x8d, 0x36, 0xbd,
  0x3d, 0xc0, 0xb0, 0xbd, 0x5a, 0xd0, 0x86, 0xbd, 0xb6, 0xcd, 0x39, 0xbd,
  0x45, 0x2b, 0xd9, 0xbd, 0x53, 0xd7, 0x07, 0xbe, 0xc4, 0x69, 0x22, 0xbe,
  0x18, 0x7f, 0x4b, 0xbe, 0x36, 0x90, 0x8b, 0xbe, 0xd6, 0x3f, 0x4c, 0xbe,
  0xc7, 0x30, 0x0d, 0xbe, 0x72, 0xfb, 0xcc, 0xbd, 0xa2, 0x29, 0x17, 0xbd,
  0x66, 0xb8, 0xee, 0xbc, 0x14, 0xd8, 0x37, 0xbd, 0xb1, 0xcf, 0xb6, 0xbb,
  0x90, 0x10, 0x7a, 0xbc, 0x3a, 0x34, 0x85, 0xbd, 0xda, 0xcc, 0x8f, 0xbd,
  0x47, 0x0e, 0xeb, 0xbb, 0x2b, 0x6b, 0xe7, 0xbc, 0x01, 0x0c, 0x85, 0xbd,
  0x10, 0xfe, 0x86, 0xbd, 0x37, 0x2a, 0x23, 0xbd, 0x79, 0xa0, 0x58, 0xbd,
  0x5a, 0x50, 0x33, 0xbd, 0x64, 0x7d, 0xf5, 0xba, 0x02, 0xfc, 0xad, 0xbc,
  0x46, 0x36, 0x81, 0xbd, 0xd5, 0x24, 0xeb, 0xbc, 0x97, 0xff, 0xc5, 0xbd,
  0x21, 0x0f, 0x0e, 0xbd, 0xde, 0xd0, 0x09, 0x3c, 0x8e, 0x87, 0xb3, 0xbb,
  0x35, 0x91, 0x18, 0xbd, 0x97, 0x87, 0x81, 0xbd, 0x17, 0x0c, 0x8a, 0xbd,
  0xb3, 0x93, 0xa2, 0xbd, 0x66, 0x1d, 0x0d, 0xbd, 0x3b, 0x15, 0x22, 0xbc,
  0x40, 0xcc, 0x5d, 0xbc, 0xcf, 0xb1, 0xd8, 0xbc, 0x56, 0x95, 0x8d, 0xbd,
  0xb5, 0x10, 0x29, 0xbd, 0xcb, 0xce, 0x01, 0xbd, 0x66, 0xae, 0x7e, 0xbd,
  0xc3, 0x85, 0x61, 0xbd, 0x79, 0x12, 0x14, 0xbd, 0xc4, 0xe5, 0x8a, 0xbd,
  0x62, 0xae, 0x66, 0xbb, 0x59, 0x33, 0x67, 0xbc, 0xfb, 0xa5, 0x72, 0xbd,
  0xab, 0x42, 0x03, 0xbc, 0xc7, 0xce, 0x08, 0xbd, 0x4f, 0xed, 0x18, 0x3d,
  0x33, 0x08, 0xc1, 0x3b, 0x3f, 0x3e, 0x0c, 0x3d, 0xd6, 0xab, 0x74, 0x3d,
  0xf3, 0x79, 0x01, 0x3c, 0x68, 0x4d, 0xc1, 0xbc, 0xc4, 0x18, 0x99, 0x3c,
  0x5e, 0xb0, 0x26, 0xbb, 0x47, 0x13, 0xa5, 0x3b, 0x7a, 0x33, 0x34, 0xbd,
  0x47, 0x06, 0x8b, 0xbd, 0xe8, 0xd2, 0xa2, 0xbc, 0x4b, 0x0d, 0x24, 0xbc,
  0xb2, 0x62, 0x05, 0xbc, 0x5b, 0x3e, 0x61, 0xbd, 0x52, 0x46, 0x5f, 0xbc,
  0x55, 0xdf, 0x43, 0xbd, 0xca, 0x00, 0x98, 0xbd, 0xae, 0xfa, 0xff, 0xff,
  0x04, 0x00, 0x00, 0x00, 0x80, 0x00, 0x00, 0x00, 0x6f, 0xc8, 0x28, 0x3f,
  0xce, 0x54, 0x4f, 0xbe, 0x51, 0xbb, 0xb0, 0xbe, 0x3c, 0x56, 0x20, 0xbd,
  0x06, 0x13, 0xf2, 0xbe, 0x51, 0x0c, 0x0a, 0xbf, 0x7e, 0x34, 0xe1, 0xbe,
  0xf0, 0x78, 0x05, 0x3d, 0xbd, 0xbf, 0xa5, 0xbe, 0xf9, 0xe2, 0xf3, 0xbd,
  0x02, 0x0d, 0xf6, 0x3e, 0x89, 0x74, 0x24, 0x3f, 0x20, 0x74, 0x07, 0xbe,
  0x66, 0x3e, 0x0b, 0xbf, 0x3c, 0x96, 0x0a, 0x3e, 0x17, 0x69, 0x4b, 0xbd,
  0x48, 0x8c, 0x64, 0x3e, 0xe6, 0x75, 0x6f, 0xbe, 0xb4, 0x6c, 0x2f, 0x3f,
  0xc5, 0xe0, 0x41, 0x3d, 0xbe, 0x9f, 0xa0, 0x3e, 0x65, 0x14, 0x6d, 0xbd,
  0xee, 0xab, 0xae, 0xbe, 0x78, 0xd9, 0xe6, 0x3e, 0x3f, 0x0d, 0x38, 0xbe,
  0xe3, 0x57, 0xaf, 0xbb, 0x3c, 0x48, 0x37, 0xbe, 0x10, 0x0e, 0xe2, 0x3e,
  0x5e, 0xd2, 0xe4, 0xbe, 0xc0, 0x82, 0xb4, 0xbe, 0x53, 0x1b, 0x6d, 0xbe,
  0xce, 0x80, 0x6e, 0xbe, 0x3a, 0xfb, 0xff, 0xff, 0x04, 0x00, 0x00, 0x00,
  0x00, 0x02, 0x00, 0x00, 0x8d, 0x37, 0x43, 0x3e, 0xbc, 0x09, 0x55, 0xbe,
  0x77, 0xbd, 0x45, 0xbe, 0x09, 0x1e, 0x95, 0xbe, 0x50, 0x2d, 0x1b, 0x3e,
  0xdb, 0x81, 0xb9, 0xbe, 0xea, 0x5a, 0x9d, 0xbd, 0x8a, 0xb3, 0xfb, 0x3d,
  0x7f, 0x7e, 0x24, 0x3e, 0x2b, 0x01, 0x8f, 0x3e, 0x1d, 0x91, 0x9e, 0xbd,
  0xf2, 0xa7, 0x54, 0x3e, 0xff, 0xa8, 0x82, 0x3e, 0x23, 0xe8, 0x92, 0x3e,
  0xf1, 0x73, 0x78, 0x3e, 0x79, 0xd7, 0xdd, 0xbe, 0x39, 0xf4, 0x00, 0x3f,
  0x02, 0xb5, 0x96, 0x3e, 0xa9, 0x73, 0x20, 0x3e, 0xe6, 0x63, 0x0c, 0x3e,
  0x02, 0x19, 0x18, 0xbe, 0xb4, 0x92, 0xc9, 0xbd, 0x87, 0x78, 0xdb, 0xbd,
  0xb1, 0x67, 0x76, 0x3e, 0x72, 0xde, 0xcf, 0xbe, 0x9b, 0x5e, 0x25, 0xbb,
  0x39, 0x9c, 0xf9, 0x3d, 0x53, 0xe7, 0x81, 0x3e, 0x4b, 0x4c, 0x3b, 0xbe,
  0x16, 0xd4, 0xcd, 0xbe, 0x0c, 0xc2, 0xa2, 0xbd, 0x8a, 0xcc, 0xb4, 0x3c,
  0x4a, 0x2a, 0xa5, 0x3e, 0x5f, 0x19, 0x92, 0x3e, 0xe5, 0xc5, 0x75, 0xbe,
  0x3b, 0x4b, 0x25, 0x3e, 0x20, 0xeb, 0x3f, 0x3d, 0xbf, 0xd5, 0x1d, 0x3d,
  0x06, 0xb5, 0x7a, 0xbe, 0x66, 0x6d, 0x97, 0x3e, 0xd6, 0x9a, 0x00, 0xbd,
  0xe1, 0x1a, 0xc1, 0x3c, 0x01, 0x72, 0xad, 0xbe, 0xea, 0x3c, 0xc1, 0xbe,
  0x1c, 0xe1, 0xf7, 0xbe, 0xa4, 0x74, 0x37, 0x3e, 0x95, 0x48, 0x8a, 0xbe,
  0x53, 0x50, 0xc1, 0x3e, 0x45, 0x95, 0x1b, 0x3d, 0x0b, 0x60, 0xa5, 0xbd,
  0x2a, 0x4e, 0xae, 0xbe, 0x8d, 0x37, 0x80, 0xbe, 0x89, 0x80, 0x4a, 0x3e,
  0x17, 0xb4, 0xa0, 0xbd, 0x87, 0x71, 0x93, 0xbe, 0x92, 0x9a, 0xc7, 0x3d,
  0x52, 0xbf, 0x70, 0x3e, 0x6d, 0xfb, 0x01, 0x3e, 0x8e, 0xa8, 0x06, 0xbe,
  0x6c, 0x0e, 0xf5, 0x3d, 0x8c, 0x97, 0x0c, 0x3f, 0xbb, 0x86, 0x90, 0xbc,
  0xb8, 0xce, 0xfb, 0xbe, 0xcf, 0x00, 0x45, 0x3d, 0x3d, 0xb7, 0x5b, 0x3e,
  0x5f, 0xc4, 0xce, 0x3e, 0xb3, 0x55, 0xe1, 0xbe, 0x92, 0x1b, 0xb3, 0x3e,
  0x28, 0xe8, 0x98, 0xbe, 0x8d, 0xad, 0xb6, 0xbe, 0x74, 0x9f, 0xa1, 0xbe,
  0xe4, 0x6b, 0xd2, 0x3e, 0x3f, 0x9f, 0xd0, 0xbe, 0x6c, 0xbd, 0xd5, 0xbd,
  0x8a, 0xab, 0xcd, 0x3d, 0x2f, 0x84, 0x2e, 0xbe, 0xed, 0x0b, 0x4c, 0xbe,
  0x34, 0xa0, 0x48, 0x3e, 0x90, 0xf4, 0xa0, 0xbe, 0x4b, 0xab, 0x0b, 0xbe,
  0xa7, 0x36, 0x8a, 0xbe, 0x9c, 0xd6, 0x88, 0xbe, 0x4e, 0xe8, 0xbb, 0x3e,
  0x47, 0x42, 0x55, 0x3c, 0x7a, 0x22, 0xb2, 0xbe, 0x43, 0x0e, 0xca, 0x3e,
  0xfa, 0xa8, 0xa3, 0xbd, 0x53, 0xb5, 0xa1, 0xbe, 0xfb, 0x09, 0x07, 0x3f,
  0x8c, 0x33, 0xa5, 0xbe, 0x9a, 0x11, 0xc9, 0xbd, 0x5b, 0x0a, 0xea, 0x3d,
  0x04, 0xc3, 0x5e, 0x3e, 0x50, 0x93, 0xf0, 0x3e, 0x07, 0x34, 0xe0, 0xbd,
  0xc8, 0xe6, 0x81, 0x3e, 0xe2, 0xb2, 0x83, 0xbb, 0x25, 0xbb, 0x43, 0xbe,
  0xc6, 0xf4, 0xf4, 0x3d, 0x29, 0xa4, 0x07, 0x3f, 0xf9, 0x7d, 0x7b, 0x3e,
  0xf9, 0xeb, 0x8c, 0xbe, 0x69, 0x38, 0xe5, 0xbd, 0x6a, 0xc4, 0x7c, 0x3d,
  0x6b, 0x4d, 0xd9, 0xbd, 0x23, 0x17, 0xcf, 0x3e, 0xb2, 0x16, 0xd4, 0xbb,
  0x3d, 0xf4, 0x63, 0x3e, 0x1f, 0xbe, 0xf7, 0xbe, 0xbd, 0x7c, 0xb2, 0xbd,
  0x11, 0xcc, 0x25, 0x3e, 0x0d, 0x83, 0xca, 0xbd, 0xea, 0x7a, 0x16, 0xbe,
  0xd2, 0x1d, 0x8b, 0x3e, 0xe7, 0xf3, 0x58, 0x3e, 0xf2, 0x25, 0xa9, 0x3e,
  0x06, 0x71, 0xa4, 0x3d, 0x25, 0xcc, 0xb5, 0x3e, 0x48, 0x9a, 0x13, 0x3e,
  0x3c, 0x43, 0xbc, 0x3e, 0xf7, 0xc1, 0xb5, 0xbe, 0xfe, 0x99, 0xa4, 0x3d,
  0x55, 0x5a, 0x1f, 0x3e, 0x5a, 0x63, 0xee, 0xbd, 0x5c, 0x74, 0x11, 0x3f,
  0x88, 0x81, 0xe1, 0xbe, 0x72, 0xcd, 0xab, 0xbe, 0x67, 0x2b, 0x13, 0x3e,
  0x46, 0xfd, 0xff, 0xff, 0x04, 0x00, 0x00, 0x00, 0x80, 0x02, 0x00, 0x00,
  0x87, 0x5a, 0x28, 0x3e, 0x13, 0xfb, 0xd4, 0x3e, 0x47, 0xe1, 0x28, 0xbe,
  0xda, 0xfd, 0xe1, 0xbe, 0x0e, 0x39, 0xbf, 0x3d, 0x55, 0x6b, 0x29, 0x3e,
  0x45, 0xb3, 0x94, 0xbe, 0x65, 0x7d, 0x88, 0xbe, 0x15, 0x1e, 0x8d, 0xbe,
  0xfe, 0x3c, 0x49, 0x3e, 0x5b, 0xf8, 0x88, 0xbd, 0x08, 0x26, 0xb8, 0x3e,
  0xda, 0xbb, 0x61, 0xbe, 0xb3, 0x35, 0x83, 0xbe, 0x05, 0x6e, 0x72, 0xbe,
  0xb2, 0xba, 0xa0, 0xbe, 0x73, 0x0d, 0x04, 0x3e, 0x4c, 0x62, 0x78, 0xbc,
  0xb7, 0x46, 0xf0, 0xbb, 0x11, 0xa4, 0x7d, 0x3e, 0xa7, 0x12, 0x36, 0xbe,
  0x63, 0xb7, 0x2c, 0xbe, 0x46, 0xa5, 0xa2, 0xbe, 0x66, 0x9b, 0x62, 0x3e,
  0x16, 0x55, 0xca, 0x3d, 0x09, 0x8a, 0xcd, 0x3e, 0x6a, 0x3f, 0x8a, 0xbe,
  0xb2, 0x32, 0xad, 0xbd, 0xc2, 0x6c, 0x24, 0x3e, 0xe5, 0x33, 0xa2, 0x3d,
  0xbb, 0x9a, 0xae, 0x3e, 0xc3, 0xf4, 0x46, 0x3e, 0x3a, 0x68, 0x31, 0xbe,
  0xa5, 0x19, 0xda, 0xbd, 0x25, 0x77, 0x67, 0xbe, 0x20, 0x59, 0xf4, 0x3c,
  0xc6, 0x0d, 0xa2, 0x3c, 0x0a, 0xb4, 0xf1, 0xbe, 0x76, 0x2b, 0xb9, 0xbe,
  0x6b, 0x77, 0x43, 0xbe, 0xb3, 0xed, 0x8a, 0xbe, 0x3d, 0x15, 0x56, 0xbd,
  0x75, 0x30, 0x0c, 0x3e, 0xa8, 0x78, 0xcc, 0x3d, 0x65, 0xcb, 0x61, 0xbb,
  0x4e, 0x59, 0x3f, 0xbc, 0x2f, 0xee, 0x53, 0x3e, 0x92, 0xb2, 0xaa, 0x3d,
  0x40, 0x3b, 0x99, 0xbe, 0x46, 0x1f, 0x3f, 0x3e, 0xd3, 0xe5, 0x8f, 0x3e,
  0xdc, 0x16, 0x01, 0x3e, 0xdc, 0xf2, 0x8c, 0xbd, 0xbe, 0xde, 0xb1, 0x3e,
  0xb0, 0xe2, 0x48, 0xbe, 0x28, 0xd3, 0x83, 0xbe, 0x0a, 0x4a, 0xe7, 0xbd,
  0xda, 0x10, 0x25, 0x3d, 0x14, 0xa2, 0x3c, 0xbe, 0xe9, 0x66, 0x88, 0xbe,
  0x6a, 0xae, 0x9a, 0xbe, 0xcf, 0x52, 0x12, 0xbd, 0x12, 0xe9, 0x62, 0xbd,
  0xa6, 0x89, 0x31, 0xbd, 0xf0, 0xfd, 0x9c, 0x3e, 0x0b, 0x73, 0x7e, 0xbe,
  0x0d, 0x33, 0x36, 0xbe, 0x5c, 0x78, 0x19, 0x3d, 0x24, 0x48, 0x7a, 0x3e,
  0x09, 0x5b, 0x5f, 0x3d, 0x8a, 0xe2, 0xc1, 0x3d, 0xbe, 0xbc, 0xc4, 0x3e,
  0xec, 0xa2, 0xa3, 0xbd, 0x4a, 0x01, 0x8c, 0xbd, 0x1a, 0x59, 0x93, 0xbe,
  0x8b, 0xdb, 0xa2, 0x3e, 0xeb, 0x9c, 0x6e, 0x3e, 0xf7, 0x09, 0xa0, 0xbe,
  0x9d, 0x02, 0xac, 0xbe, 0x3c, 0xc0, 0x95, 0x3e, 0x17, 0x97, 0x16, 0x3d,
  0xe6, 0x69, 0x63, 0xbe, 0x0f, 0x04, 0xb2, 0xbd, 0xb9, 0x19, 0xe5, 0x3d,
  0xa8, 0x91, 0x46, 0xbe, 0x5f, 0x4e, 0x3e, 0x3e, 0x48, 0x16, 0x89, 0x3e,
  0xbb, 0xf9, 0xf0, 0xbb, 0x94, 0xf1, 0x86, 0x3b, 0x54, 0x04, 0x84, 0x3d,
  0xc9, 0x9c, 0x50, 0x3e, 0x1c, 0x4e, 0x2f, 0x3e, 0x97, 0x92, 0xcd, 0xbe,
  0xb3, 0xa0, 0x88, 0x3d, 0xe2, 0x2a, 0x95, 0xbe, 0x80, 0xb3, 0x23, 0xbe,
  0x26, 0x9d, 0x44, 0x3c, 0xa1, 0xf0, 0x85, 0x3e, 0xf6, 0x84, 0x45, 0xbb,
  0x49, 0x9d, 0x19, 0x3e, 0x19, 0x28, 0x81, 0xbe, 0x13, 0x8e, 0xbe, 0xbe,
  0x8c, 0x9f, 0x7c, 0x3d, 0xaf, 0x82, 0x88, 0x3e, 0x42, 0xfe, 0xb6, 0xbe,
  0xbf, 0xa2, 0xa1, 0x3e, 0x32, 0xf3, 0x05, 0xbd, 0x7a, 0x5c, 0xb3, 0xbd,
  0xa4, 0xc5, 0x2a, 0x3e, 0x48, 0x73, 0xb0, 0xbe, 0xd7, 0x22, 0xcd, 0xbe,
  0x18, 0x55, 0x5f, 0x3e, 0x57, 0x5c, 0x2c, 0xbd, 0xee, 0x0b, 0xc3, 0x3e,
  0xf6, 0xcc, 0xe2, 0x3e, 0xcf, 0x81, 0x92, 0x3c, 0x56, 0x73, 0x51, 0x3e,
  0x4d, 0xa1, 0x30, 0xbd, 0xb8, 0x7b, 0xb1, 0x3d, 0xd0, 0x3f, 0xbf, 0x3e,
  0xba, 0xe1, 0x6f, 0x3e, 0x2c, 0x4e, 0x2d, 0xbe, 0xcc, 0xa7, 0x54, 0xbe,
  0x4a, 0x60, 0x9f, 0x3e, 0x7e, 0x88, 0x79, 0xbb, 0xec, 0xc1, 0x1c, 0xbd,
  0xf7, 0x83, 0x4c, 0x3e, 0x40, 0x6e, 0x2d, 0xbe, 0x47, 0xb7, 0x15, 0x3e,
  0x28, 0xbe, 0xa8, 0xbe, 0xce, 0x23, 0x5a, 0xbe, 0x64, 0xb8, 0x2c, 0x3e,
  0xfc, 0xda, 0x7d, 0xbd, 0x6a, 0x0c, 0x87, 0x3c, 0x33, 0x5e, 0x05, 0x3d,
  0xce, 0x7d, 0xcc, 0xbe, 0xa1, 0xe6, 0x25, 0x3e, 0x4b, 0xab, 0x8b, 0x3e,
  0x61, 0xbc, 0x11, 0xbe, 0x85, 0x34, 0x06, 0xbe, 0x02, 0xa6, 0x81, 0xbe,
  0x0b, 0x84, 0x56, 0x3d, 0x8b, 0x71, 0x13, 0xbe, 0xea, 0xa4, 0xfd, 0x3d,
  0xb8, 0x5d, 0x31, 0x3e, 0xe8, 0x04, 0xfa, 0xbd, 0x6b, 0x0e, 0x0e, 0xbe,
  0x42, 0x10, 0x8a, 0x3d, 0x01, 0x9b, 0x98, 0x3e, 0x34, 0x27, 0x18, 0x3d,
  0x3f, 0xd6, 0x02, 0xbb, 0x6f, 0x7c, 0x54, 0x3e, 0x38, 0x34, 0x97, 0x3e,
  0xd3, 0x32, 0x30, 0xbd, 0x91, 0x45, 0x5f, 0xbe, 0xc1, 0x09, 0x86, 0x3d,
  0x26, 0x7f, 0x4d, 0x3e, 0x4c, 0x8e, 0xc4, 0x3c, 0xd9, 0xe4, 0x26, 0xbe,
  0x06, 0xf5, 0x24, 0xbe, 0xd2, 0xff, 0xff, 0xff, 0x04, 0x00, 0x00, 0x00,
  0x20, 0x00, 0x00, 0x00, 0xdf, 0x04, 0xdd, 0xbc, 0x0f, 0x21, 0x56, 0xbd,
  0x90, 0xae, 0x97, 0xbe, 0x10, 0x67, 0x55, 0x3d, 0x5c, 0x73, 0x2d, 0xbe,
  0xc1, 0x86, 0xfe, 0x3e, 0xe6, 0x55, 0x45, 0x3e, 0xa2, 0xc2, 0xc9, 0x3d,
  0x00, 0x00, 0x06, 0x00, 0x08, 0x00, 0x04, 0x00, 0x06, 0x00, 0x00, 0x00,
  0x04, 0x00, 0x00, 0x00, 0x28, 0x00, 0x00, 0x00, 0x02, 0x1c, 0x5d, 0xbf,
  0x54, 0xe7, 0x59, 0xbf, 0x4a, 0xc1, 0x9e, 0x3e, 0x9b, 0x0e, 0xa7, 0xbc,
  0x1d, 0x3e, 0xfa, 0x3d, 0xef, 0x58, 0x3d, 0x3f, 0x9f, 0x8f, 0xb6, 0xbe,
  0x84, 0xd3, 0x20, 0xbf, 0x38, 0x3e, 0xd4, 0xbe, 0xef, 0xb5, 0xce, 0x3e,
  0x04, 0xf4, 0xff, 0xff, 0x08, 0xf4, 0xff, 0xff, 0x0f, 0x00, 0x00, 0x00,
  0x4d, 0x4c, 0x49, 0x52, 0x20, 0x43, 0x6f, 0x6e, 0x76, 0x65, 0x72, 0x74,
  0x65, 0x64, 0x2e, 0x00, 0x01, 0x00, 0x00, 0x00, 0x14, 0x00, 0x00, 0x00,
  0x00, 0x00, 0x0e, 0x00, 0x18, 0x00, 0x14, 0x00, 0x10, 0x00, 0x0c, 0x00,
  0x08, 0x00, 0x04, 0x00, 0x0e, 0x00, 0x00, 0x00, 0x14, 0x00, 0x00, 0x00,
  0x1c, 0x00, 0x00, 0x00, 0x58, 0x01, 0x00, 0x00, 0x5c, 0x01, 0x00, 0x00,
  0x60, 0x01, 0x00, 0x00, 0x04, 0x00, 0x00, 0x00, 0x6d, 0x61, 0x69, 0x6e,
  0x00, 0x00, 0x00, 0x00, 0x05, 0x00, 0x00, 0x00, 0x1c, 0x01, 0x00, 0x00,
  0xc8, 0x00, 0x00, 0x00, 0x7c, 0x00, 0x00, 0x00, 0x40, 0x00, 0x00, 0x00,
  0x04, 0x00, 0x00, 0x00, 0x56, 0xff, 0xff, 0xff, 0x14, 0x00, 0x00, 0x00,
  0x00, 0x00, 0x00, 0x08, 0x14, 0x00, 0x00, 0x00, 0x18, 0x00, 0x00, 0x00,
  0x01, 0x00, 0x00, 0x00, 0x46, 0xff, 0xff, 0xff, 0x00, 0x00, 0x00, 0x01,
  0x01, 0x00, 0x00, 0x00, 0x0c, 0x00, 0x00, 0x00, 0x03, 0x00, 0x00, 0x00,
  0x0b, 0x00, 0x00, 0x00, 0x03, 0x00, 0x00, 0x00, 0x01, 0x00, 0x00, 0x00,
  0x8e, 0xff, 0xff, 0xff, 0x14, 0x00, 0x00, 0x00, 0x00, 0x00, 0x00, 0x08,
  0x14, 0x00, 0x00, 0x00, 0x18, 0x00, 0x00, 0x00, 0x01, 0x00, 0x00, 0x00,
  0x7e, 0xff, 0xff, 0xff, 0x00, 0x00, 0x00, 0x01, 0x01, 0x00, 0x00, 0x00,
  0x0b, 0x00, 0x00, 0x00, 0x03, 0x00, 0x00, 0x00, 0x0a, 0x00, 0x00, 0x00,
  0x04, 0x00, 0x00, 0x00, 0xff, 0xff, 0xff, 0xff, 0xc6, 0xff, 0xff, 0xff,
  0x14, 0x00, 0x00, 0x00, 0x00, 0x00, 0x00, 0x08, 0x14, 0x00, 0x00, 0x00,
  0x18, 0x00, 0x00, 0x00, 0x01, 0x00, 0x00, 0x00, 0xb6, 0xff, 0xff, 0xff,
  0x00, 0x00, 0x00, 0x01, 0x01, 0x00, 0x00, 0x00, 0x0a, 0x00, 0x00, 0x00,
  0x03, 0x00, 0x00, 0x00, 0x09, 0x00, 0x00, 0x00, 0x05, 0x00, 0x00, 0x00,
  0x02, 0x00, 0x00, 0x00, 0x00, 0x00, 0x0e, 0x00, 0x1a, 0x00, 0x14, 0x00,
  0x10, 0x00, 0x0c, 0x00, 0x0b, 0x00, 0x04, 0x00, 0x0e, 0x00, 0x00, 0x00,
  0x20, 0x00, 0x00, 0x00, 0x00, 0x00, 0x00, 0x08, 0x20, 0x00, 0x00, 0x00,
  0x24, 0x00, 0x00, 0x00, 0x01, 0x00, 0x00, 0x00, 0x00, 0x00, 0x0a, 0x00,
  0x08, 0x00, 0x00, 0x00, 0x00, 0x00, 0x07, 0x00, 0x0a, 0x00, 0x00, 0x00,
  0x00, 0x00, 0x00, 0x01, 0x01, 0x00, 0x00, 0x00, 0x09, 0x00, 0x00, 0x00,
  0x03, 0x00, 0x00, 0x00, 0x08, 0x00, 0x00, 0x00, 0x06, 0x00, 0x00, 0x00,
  0xff, 0xff, 0xff, 0xff, 0x00, 0x00, 0x0a, 0x00, 0x0c, 0x00, 0x00, 0x00,
  0x08, 0x00, 0x04, 0x00, 0x0a, 0x00, 0x00, 0x00, 0x08, 0x00, 0x00, 0x00,
  0x0c, 0x00, 0x00, 0x00, 0x01, 0x00, 0x00, 0x00, 0x08, 0x00, 0x00, 0x00,
  0x02, 0x00, 0x00, 0x00, 0x00, 0x00, 0x00, 0x00, 0x07, 0x00, 0x00, 0x00,
  0x01, 0x00, 0x00, 0x00, 0x0c, 0x00, 0x00, 0x00, 0x01, 0x00, 0x00, 0x00,
  0x00, 0x00, 0x00, 0x00, 0x0d, 0x00, 0x00, 0x00, 0x38, 0x0a, 0x00, 0x00,
  0xe4, 0x09, 0x00, 0x00, 0xa8, 0x09, 0x00, 0x00, 0x68, 0x09, 0x00, 0x00,
  0x28, 0x09, 0x00, 0x00, 0xe8, 0x08, 0x00, 0x00, 0xa8, 0x08, 0x00, 0x00,
  0x68, 0x08, 0x00, 0x00, 0xa0, 0x06, 0x00, 0x00, 0xf8, 0x04, 0x00, 0x00,
  0xf8, 0x01, 0x00, 0x00, 0x50, 0x00, 0x00, 0x00, 0x04, 0x00, 0x00, 0x00,
  0x12, 0xf6, 0xff, 0xff, 0x00, 0x00, 0x00, 0x01, 0x10, 0x00, 0x00, 0x00,
  0x10, 0x00, 0x00, 0x00, 0x0d, 0x00, 0x00, 0x00, 0x28, 0x00, 0x00, 0x00,
  0xfc, 0xf5, 0xff, 0xff, 0x19, 0x00, 0x00, 0x00, 0x53, 0x74, 0x61, 0x74,
  0x65, 0x66, 0x75, 0x6c, 0x50, 0x61, 0x72, 0x74, 0x69, 0x74, 0x69, 0x6f,
  0x6e, 0x65, 0x64, 0x43, 0x61, 0x6c, 0x6c, 0x3a, 0x30, 0x00, 0x00, 0x00,
  0x02, 0x00, 0x00, 0x00, 0x01, 0x00, 0x00, 0x00, 0x0a, 0x00, 0x00, 0x00,
  0x5a, 0xf6, 0xff, 0xff, 0x00, 0x00, 0x00, 0x01, 0x10, 0x00, 0x00, 0x00,
  0x10, 0x00, 0x00, 0x00, 0x0c, 0x00, 0x00, 0x00, 0x84, 0x01, 0x00, 0x00,
  0x44, 0xf6, 0xff, 0xff, 0x77, 0x01, 0x00, 0x00, 0x61, 0x69, 0x5f, 0x65,
  0x64, 0x67, 0x65, 0x5f, 0x74, 0x6f, 0x72, 0x63, 0x68, 0x2e, 0x5f, 0x63,
  0x6f, 0x6e, 0x76, 0x65, 0x72, 0x74, 0x2e, 0x74, 0x6f, 0x5f, 0x63, 0x68,
  0x61, 0x6e, 0x6e, 0x65, 0x6c, 0x5f, 0x6c, 0x61, 0x73, 0x74, 0x5f, 0x69,
  0x6f, 0x2e, 0x43, 0x68, 0x61, 0x6e, 0x6e, 0x65, 0x6c, 0x4c, 0x61, 0x73,
  0x74, 0x49, 0x4f, 0x57, 0x72, 0x61, 0x70, 0x70, 0x65, 0x72, 0x2f, 0x65,
  0x6c, 0x61, 0x73, 0x74, 0x69, 0x63, 0x61, 0x69, 0x2e, 0x65, 0x78, 0x70,
  0x6c, 0x6f, 0x72, 0x65, 0x72, 0x2e, 0x68, 0x77, 0x5f, 0x6e, 0x61, 0x73,
  0x2e, 0x73, 0x65, 0x61, 0x72, 0x63, 0x68, 0x5f, 0x73, 0x70, 0x61, 0x63,
  0x65, 0x2e, 0x63, 0x6f, 0x6e, 0x73, 0x74, 0x72, 0x75, 0x63, 0x74, 0x5f,
  0x73, 0x70, 0x2e, 0x43, 0x6f, 0x6d, 0x62, 0x69, 0x6e, 0x65, 0x64, 0x53,
  0x65, 0x61, 0x72, 0x63, 0x68, 0x53, 0x70, 0x61, 0x63, 0x65, 0x5f, 0x77,
  0x72, 0x61, 0x70, 0x70, 0x65, 0x64, 0x2f, 0x74, 0x6f, 0x72, 0x63, 0x68,
  0x2e, 0x6e, 0x6e, 0x2e, 0x6d, 0x6f, 0x64, 0x75, 0x6c, 0x65, 0x73, 0x2e,
  0x63, 0x6f, 0x6e, 0x74, 0x61, 0x69, 0x6e, 0x65, 0x72, 0x2e, 0x53, 0x65,
  0x71, 0x75, 0x65, 0x6e, 0x74, 0x69, 0x61, 0x6c, 0x5f, 0x62, 0x6c, 0x6f,
  0x63, 0x6b, 0x5f, 0x73, 0x70, 0x2f, 0x74, 0x6f, 0x72, 0x63, 0x68, 0x2e,
  0x6e, 0x6e, 0x2e, 0x6d, 0x6f, 0x64, 0x75, 0x6c, 0x65, 0x73, 0x2e, 0x63,
  0x6f, 0x6e, 0x74, 0x61, 0x69, 0x6e, 0x65, 0x72, 0x2e, 0x53, 0x65, 0x71,
  0x75, 0x65, 0x6e, 0x74, 0x69, 0x61, 0x6c, 0x5f, 0x31, 0x2f, 0x74, 0x6f,
  0x72, 0x63, 0x68, 0x2e, 0x6e, 0x6e, 0x2e, 0x6d, 0x6f, 0x64, 0x75, 0x6c,
  0x65, 0x73, 0x2e, 0x63, 0x6f, 0x6e, 0x74, 0x61, 0x69, 0x6e, 0x65, 0x72,
  0x2e, 0x53, 0x65, 0x71, 0x75, 0x65, 0x6e, 0x74, 0x69, 0x61, 0x6c, 0x5f,
  0x30, 0x2f, 0x65, 0x6c, 0x61, 0x73, 0x74, 0x69, 0x63, 0x61, 0x69, 0x2e,
  0x65, 0x78, 0x70, 0x6c, 0x6f, 0x72, 0x65, 0x72, 0x2e, 0x68, 0x77, 0x5f,
  0x6e, 0x61, 0x73, 0x2e, 0x73, 0x65, 0x61, 0x72, 0x63, 0x68, 0x5f, 0x73,
  0x70, 0x61, 0x63, 0x65, 0x2e, 0x63, 0x6f, 0x6e, 0x73, 0x74, 0x72, 0x75,
  0x63, 0x74, 0x5f, 0x73, 0x70, 0x2e, 0x4c, 0x69, 0x6e, 0x65, 0x61, 0x72,
  0x46, 0x6c, 0x61, 0x74, 0x74, 0x65, 0x6e, 0x65, 0x64, 0x5f, 0x30, 0x2f,
  0x74, 0x6f, 0x72, 0x63, 0x68, 0x2e, 0x6e, 0x6e, 0x2e, 0x6d, 0x6f, 0x64,
  0x75, 0x6c, 0x65, 0x73, 0x2e, 0x6c, 0x69, 0x6e, 0x65, 0x61, 0x72, 0x2e,
  0x4c, 0x69, 0x6e, 0x65, 0x61, 0x72, 0x5f, 0x6c, 0x69, 0x6e, 0x3b, 0x00,
  0x02, 0x00, 0x00, 0x00, 0x01, 0x00, 0x00, 0x00, 0x10, 0x00, 0x00, 0x00,
  0xfe, 0xf7, 0xff, 0xff, 0x00, 0x00, 0x00, 0x01, 0x10, 0x00, 0x00, 0x00,
  0x10, 0x00, 0x00, 0x00, 0x0b, 0x00, 0x00, 0x00, 0xdc, 0x02, 0x00, 0x00,
  0xe8, 0xf7, 0xff, 0xff, 0xcf, 0x02, 0x00, 0x00, 0x61, 0x69, 0x5f, 0x65,
  0x64, 0x67, 0x65, 0x5f, 0x74, 0x6f, 0x72, 0x63, 0x68, 0x2e, 0x5f, 0x63,
  0x6f, 0x6e, 0x76, 0x65, 0x72, 0x74, 0x2e, 0x74, 0x6f, 0x5f, 0x63, 0x68,
  0x61, 0x6e, 0x6e, 0x65, 0x6c, 0x5f, 0x6c, 0x61, 0x73, 0x74, 0x5f, 0x69,
  0x6f, 0x2e, 0x43, 0x68, 0x61, 0x6e, 0x6e, 0x65, 0x6c, 0x4c, 0x61, 0x73,
  0x74, 0x49, 0x4f, 0x57, 0x72, 0x61, 0x70, 0x70, 0x65, 0x72, 0x2f, 0x65,
  0x6c, 0x61, 0x73, 0x74, 0x69, 0x63, 0x61, 0x69, 0x2e, 0x65, 0x78, 0x70,
  0x6c, 0x6f, 0x72, 0x65, 0x72, 0x2e, 0x68, 0x77, 0x5f, 0x6e, 0x61, 0x73,
  0x2e, 0x73, 0x65, 0x61, 0x72, 0x63, 0x68, 0x5f, 0x73, 0x70, 0x61, 0x63,
  0x65, 0x2e, 0x63, 0x6f, 0x6e, 0x73, 0x74, 0x72, 0x75, 0x63, 0x74, 0x5f,
  0x73, 0x70, 0x2e, 0x43, 0x6f, 0x6d, 0x62, 0x69, 0x6e, 0x65, 0x64, 0x53,
  0x65, 0x61, 0x72, 0x63, 0x68, 0x53, 0x70, 0x61, 0x63, 0x65, 0x5f, 0x77,
  0x72, 0x61, 0x70, 0x70, 0x65, 0x64, 0x2f, 0x74, 0x6f, 0x72, 0x63, 0x68,
  0x2e, 0x6e, 0x6e, 0x2e, 0x6d, 0x6f, 0x64, 0x75, 0x6c, 0x65, 0x73, 0x2e,
  0x63, 0x6f, 0x6e, 0x74, 0x61, 0x69, 0x6e, 0x65, 0x72, 0x2e, 0x53, 0x65,
  0x71, 0x75, 0x65, 0x6e, 0x74, 0x69, 0x61, 0x6c, 0x5f, 0x62, 0x6c, 0x6f,
  0x63, 0x6b, 0x5f, 0x73, 0x70, 0x2f, 0x74, 0x6f, 0x72, 0x63, 0x68, 0x2e,
  0x6e, 0x6e, 0x2e, 0x6d, 0x6f, 0x64, 0x75, 0x6c, 0x65, 0x73, 0x2e, 0x63,
  0x6f, 0x6e, 0x74, 0x61, 0x69, 0x6e, 0x65, 0x72, 0x2e, 0x53, 0x65, 0x71,
  0x75, 0x65, 0x6e, 0x74, 0x69, 0x61, 0x6c, 0x5f, 0x30, 0x2f, 0x74, 0x6f,
  0x72, 0x63, 0x68, 0x2e, 0x6e, 0x6e, 0x2e, 0x6d, 0x6f, 0x64, 0x75, 0x6c,
  0x65, 0x73, 0x2e, 0x63, 0x6f, 0x6e, 0x74, 0x61, 0x69, 0x6e, 0x65, 0x72,
  0x2e, 0x53, 0x65, 0x71, 0x75, 0x65, 0x6e, 0x74, 0x69, 0x61, 0x6c, 0x5f,
  0x30, 0x2f, 0x65, 0x6c, 0x61, 0x73, 0x74, 0x69, 0x63, 0x61, 0x69, 0x2e,
  0x65, 0x78, 0x70, 0x6c, 0x6f, 0x72, 0x65, 0x72, 0x2e, 0x68, 0x77, 0x5f,
  0x6e, 0x61, 0x73, 0x2e, 0x73, 0x65, 0x61, 0x72, 0x63, 0x68, 0x5f, 0x73,
  0x70, 0x61, 0x63, 0x65, 0x2e, 0x63, 0x6f, 0x6e, 0x73, 0x74, 0x72, 0x75,
  0x63, 0x74, 0x5f, 0x73, 0x70, 0x2e, 0x4c, 0x69, 0x6e, 0x65, 0x61, 0x72,
  0x46, 0x6c, 0x61, 0x74, 0x74, 0x65, 0x6e, 0x65, 0x64, 0x5f, 0x30, 0x2f,
  0x74, 0x6f, 0x72, 0x63, 0x68, 0x2e, 0x6e, 0x6e, 0x2e, 0x6d, 0x6f, 0x64,
  0x75, 0x6c, 0x65, 0x73, 0x2e, 0x6c, 0x69, 0x6e, 0x65, 0x61, 0x72, 0x2e,
  0x4c, 0x69, 0x6e, 0x65, 0x61, 0x72, 0x5f, 0x6c, 0x69, 0x6e, 0x3b, 0x3b,
  0x61, 0x69, 0x5f, 0x65, 0x64, 0x67, 0x65, 0x5f, 0x74, 0x6f, 0x72, 0x63,
  0x68, 0x2e, 0x5f, 0x63, 0x6f, 0x6e, 0x76, 0x65, 0x72, 0x74, 0x2e, 0x74,
  0x6f, 0x5f, 0x63, 0x68, 0x61, 0x6e, 0x6e, 0x65, 0x6c, 0x5f, 0x6c, 0x61,
  0x73, 0x74, 0x5f, 0x69, 0x6f, 0x2e, 0x43, 0x68, 0x61, 0x6e, 0x6e, 0x65,
  0x6c, 0x4c, 0x61, 0x73, 0x74, 0x49, 0x4f, 0x57, 0x72, 0x61, 0x70, 0x70,
  0x65, 0x72, 0x2f, 0x65, 0x6c, 0x61, 0x73, 0x74, 0x69, 0x63, 0x61, 0x69,
  0x2e, 0x65, 0x78, 0x70, 0x6c, 0x6f, 0x72, 0x65, 0x72, 0x2e, 0x68, 0x77,
  0x5f, 0x6e, 0x61, 0x73, 0x2e, 0x73, 0x65, 0x61, 0x72, 0x63, 0x68, 0x5f,
  0x73, 0x70, 0x61, 0x63, 0x65, 0x2e, 0x63, 0x6f, 0x6e, 0x73, 0x74, 0x72,
  0x75, 0x63, 0x74, 0x5f, 0x73, 0x70, 0x2e, 0x43, 0x6f, 0x6d, 0x62, 0x69,
  0x6e, 0x65, 0x64, 0x53, 0x65, 0x61, 0x72, 0x63, 0x68, 0x53, 0x70, 0x61,
  0x63, 0x65, 0x5f, 0x77, 0x72, 0x61, 0x70, 0x70, 0x65, 0x64, 0x2f, 0x74,
  0x6f, 0x72, 0x63, 0x68, 0x2e, 0x6e, 0x6e, 0x2e, 0x6d, 0x6f, 0x64, 0x75,
  0x6c, 0x65, 0x73, 0x2e, 0x63, 0x6f, 0x6e, 0x74, 0x61, 0x69, 0x6e, 0x65,
  0x72, 0x2e, 0x53, 0x65, 0x71, 0x75, 0x65, 0x6e, 0x74, 0x69, 0x61, 0x6c,
  0x5f, 0x62, 0x6c, 0x6f, 0x63, 0x6b, 0x5f, 0x73, 0x70, 0x2f, 0x74, 0x6f,
  0x72, 0x63, 0x68, 0x2e, 0x6e, 0x6e, 0x2e, 0x6d, 0x6f, 0x64, 0x75, 0x6c,
  0x65, 0x73, 0x2e, 0x63, 0x6f, 0x6e, 0x74, 0x61, 0x69, 0x6e, 0x65, 0x72,
  0x2e, 0x53, 0x65, 0x71, 0x75, 0x65, 0x6e, 0x74, 0x69, 0x61, 0x6c, 0x5f,
  0x30, 0x2f, 0x74, 0x6f, 0x72, 0x63, 0x68, 0x2e, 0x6e, 0x6e, 0x2e, 0x6d,
  0x6f, 0x64, 0x75, 0x6c, 0x65, 0x73, 0x2e, 0x63, 0x6f, 0x6e, 0x74, 0x61,
  0x69, 0x6e, 0x65, 0x72, 0x2e, 0x53, 0x65, 0x71, 0x75, 0x65, 0x6e, 0x74,
  0x69, 0x61, 0x6c, 0x5f, 0x30, 0x2f, 0x74, 0x6f, 0x72, 0x63, 0x68, 0x2e,
  0x6e, 0x6e, 0x2e, 0x6d, 0x6f, 0x64, 0x75, 0x6c, 0x65, 0x73, 0x2e, 0x63,
  0x6f, 0x6e, 0x74, 0x61, 0x69, 0x6e, 0x65, 0x72, 0x2e, 0x53, 0x65, 0x71,
  0x75, 0x65, 0x6e, 0x74, 0x69, 0x61, 0x6c, 0x5f, 0x31, 0x2f, 0x74, 0x6f,
