#include <model.h>
const unsigned char model_tflite[] = {  0x1c, 0x00, 0x00, 0x00, 0x54, 0x46, 0x4c, 0x33, 0x14, 0x00, 0x20, 0x00,
  0x1c, 0x00, 0x18, 0x00, 0x14, 0x00, 0x10, 0x00, 0x0c, 0x00, 0x00, 0x00,
  0x08, 0x00, 0x04, 0x00, 0x14, 0x00, 0x00, 0x00, 0x1c, 0x00, 0x00, 0x00,
  0x84, 0x00, 0x00, 0x00, 0xdc, 0x00, 0x00, 0x00, 0x94, 0x22, 0x00, 0x00,
  0xa4, 0x22, 0x00, 0x00, 0xc8, 0x2d, 0x00, 0x00, 0x03, 0x00, 0x00, 0x00,
  0x01, 0x00, 0x00, 0x00, 0x04, 0x00, 0x00, 0x00, 0x06, 0xdc, 0xff, 0xff,
  0x0c, 0x00, 0x00, 0x00, 0x1c, 0x00, 0x00, 0x00, 0x3c, 0x00, 0x00, 0x00,
  0x0f, 0x00, 0x00, 0x00, 0x73, 0x65, 0x72, 0x76, 0x69, 0x6e, 0x67, 0x5f,
  0x64, 0x65, 0x66, 0x61, 0x75, 0x6c, 0x74, 0x00, 0x01, 0x00, 0x00, 0x00,
  0x04, 0x00, 0x00, 0x00, 0x98, 0xff, 0xff, 0xff, 0x0f, 0x00, 0x00, 0x00,
  0x04, 0x00, 0x00, 0x00, 0x08, 0x00, 0x00, 0x00, 0x6f, 0x75, 0x74, 0x70,
  0x75, 0x74, 0x5f, 0x30, 0x00, 0x00, 0x00, 0x00, 0x01, 0x00, 0x00, 0x00,
  0x04, 0x00, 0x00, 0x00, 0x16, 0xde, 0xff, 0xff, 0x04, 0x00, 0x00, 0x00,
  0x06, 0x00, 0x00, 0x00, 0x61, 0x72, 0x67, 0x73, 0x5f, 0x30, 0x00, 0x00,
  0x02, 0x00, 0x00, 0x00, 0x34, 0x00, 0x00, 0x00, 0x04, 0x00, 0x00, 0x00,
  0xdc, 0xff, 0xff, 0xff, 0x12, 0x00, 0x00, 0x00, 0x04, 0x00, 0x00, 0x00,
  0x13, 0x00, 0x00, 0x00, 0x43, 0x4f, 0x4e, 0x56, 0x45, 0x52, 0x53, 0x49,
  0x4f, 0x4e, 0x5f, 0x4d, 0x45, 0x54, 0x41, 0x44, 0x41, 0x54, 0x41, 0x00,
  0x08, 0x00, 0x0c, 0x00, 0x08, 0x00, 0x04, 0x00, 0x08, 0x00, 0x00, 0x00,
  0x11, 0x00, 0x00, 0x00, 0x04, 0x00, 0x00, 0x00, 0x13, 0x00, 0x00, 0x00,
  0x6d, 0x69, 0x6e, 0x5f, 0x72, 0x75, 0x6e, 0x74, 0x69, 0x6d, 0x65, 0x5f,
  0x76, 0x65, 0x72, 0x73, 0x69, 0x6f, 0x6e, 0x00, 0x13, 0x00, 0x00, 0x00,
  0xb4, 0x21, 0x00, 0x00, 0xac, 0x21, 0x00, 0x00, 0x74, 0x21, 0x00, 0x00,
  0xbc, 0x02, 0x00, 0x00, 0x9c, 0x02, 0x00, 0x00, 0xec, 0x01, 0x00, 0x00,
  0x3c, 0x01, 0x00, 0x00, 0x24, 0x01, 0x00, 0x00, 0x04, 0x01, 0x00, 0x00,
  0xcc, 0x00, 0x00, 0x00, 0xc4, 0x00, 0x00, 0x00, 0xbc, 0x00, 0x00, 0x00,
  0xb4, 0x00, 0x00, 0x00, 0xac, 0x00, 0x00, 0x00, 0xa4, 0x00, 0x00, 0x00,
  0x9c, 0x00, 0x00, 0x00, 0x94, 0x00, 0x00, 0x00, 0x74, 0x00, 0x00, 0x00,
  0x04, 0x00, 0x00, 0x00, 0xd6, 0xde, 0xff, 0xff, 0x04, 0x00, 0x00, 0x00,
  0x60, 0x00, 0x00, 0x00, 0x10, 0x00, 0x00, 0x00, 0x00, 0x00, 0x00, 0x00,
  0x08, 0x00, 0x0e, 0x00, 0x08, 0x00, 0x04, 0x00, 0x08, 0x00, 0x00, 0x00,
  0x10, 0x00, 0x00, 0x00, 0x24, 0x00, 0x00, 0x00, 0x00, 0x00, 0x06, 0x00,
  0x08, 0x00, 0x04, 0x00, 0x06, 0x00, 0x00, 0x00, 0x04, 0x00, 0x00, 0x00,
  0x00, 0x00, 0x00, 0x00, 0x0c, 0x00, 0x18, 0x00, 0x14, 0x00, 0x10, 0x00,
  0x0c, 0x00, 0x04, 0x00, 0x0c, 0x00, 0x00, 0x00, 0xa2, 0xb5, 0xc5, 0x50,
  0x9f, 0x90, 0xb0, 0x15, 0x01, 0x00, 0x00, 0x00, 0x02, 0x00, 0x00, 0x00,
  0x04, 0x00, 0x00, 0x00, 0x06, 0x00, 0x00, 0x00, 0x32, 0x2e, 0x32, 0x30,
  0x2e, 0x30, 0x00, 0x00, 0x42, 0xdf, 0xff, 0xff, 0x04, 0x00, 0x00, 0x00,
  0x10, 0x00, 0x00, 0x00, 0x32, 0x2e, 0x30, 0x2e, 0x30, 0x00, 0x00, 0x00,
  0x00, 0x00, 0x00, 0x00, 0x00, 0x00, 0x00, 0x00, 0x1c, 0xd4, 0xff, 0xff,
  0x20, 0xd4, 0xff, 0xff, 0x24, 0xd4, 0xff, 0xff, 0x28, 0xd4, 0xff, 0xff,
  0x2c, 0xd4, 0xff, 0xff, 0x30, 0xd4, 0xff, 0xff, 0x34, 0xd4, 0xff, 0xff,
  0x7a, 0xdf, 0xff, 0xff, 0x04, 0x00, 0x00, 0x00, 0x28, 0x00, 0x00, 0x00,
  0x02, 0xb5, 0x9b, 0x3e, 0x2c, 0x54, 0x9c, 0x3f, 0x1e, 0x2e, 0x04, 0xbf,
  0x51, 0x00, 0x40, 0x3d, 0x1e, 0x4d, 0xb8, 0xbd, 0xc5, 0xc6, 0x0a, 0xbe,
  0x68, 0x4f, 0xaf, 0x3d, 0x8e, 0xac, 0x1e, 0x3f, 0xd5, 0xd4, 0x05, 0x3f,
  0xa6, 0x4a, 0xa3, 0x3e, 0xae, 0xdf, 0xff, 0xff, 0x04, 0x00, 0x00, 0x00,
  0x10, 0x00, 0x00, 0x00, 0x00, 0x00, 0x00, 0x00, 0x03, 0x00, 0x00, 0x00,
  0x01, 0x00, 0x00, 0x00, 0x02, 0x00, 0x00, 0x00, 0xca, 0xdf, 0xff, 0xff,
  0x04, 0x00, 0x00, 0x00, 0x08, 0x00, 0x00, 0x00, 0x01, 0x00, 0x00, 0x00,
  0xc4, 0x00, 0x00, 0x00, 0xde, 0xdf, 0xff, 0xff, 0x04, 0x00, 0x00, 0x00,
  0xa0, 0x00, 0x00, 0x00, 0x55, 0xbf, 0x83, 0x3f, 0xd6, 0xfa, 0xe1, 0x3e,
  0x80, 0xc5, 0xb5, 0xbf, 0xe5, 0x0f, 0x7d, 0xbf, 0x8f, 0x26, 0xae, 0xbf,
  0x9f, 0x41, 0x66, 0x3f, 0xd6, 0x4e, 0x49, 0x3f, 0xfe, 0xcb, 0x2b, 0xbf,
  0xf7, 0x82, 0xae, 0xbe, 0x14, 0x87, 0x5d, 0xbf, 0xcc, 0x36, 0x8a, 0x3f,
  0x13, 0xce, 0x4a, 0x3f, 0x0b, 0x0f, 0x8c, 0xbf, 0x14, 0xad, 0x13, 0xbf,
  0x9e, 0x54, 0xa3, 0xbf, 0x07, 0xa0, 0x55, 0x3f, 0x87, 0x42, 0x87, 0x3f,
  0x22, 0xa9, 0xec, 0x3d, 0xe2, 0x95, 0x6e, 0xbf, 0xd3, 0xdf, 0x8a, 0xbf,
  0x4f, 0xdb, 0x8b, 0x3f, 0xfd, 0xa0, 0x10, 0x3d, 0xee, 0x3a, 0x72, 0xbf,
  0x44, 0xd0, 0x98, 0xbf, 0x9c, 0x5f, 0xfa, 0xbe, 0xc7, 0x48, 0x03, 0x3e,
  0x9f, 0x9c, 0x26, 0x3e, 0x50, 0xe7, 0xab, 0xbf, 0x2f, 0xe4, 0x21, 0xbe,
  0x53, 0x71, 0x20, 0xbf, 0x54, 0xbe, 0xb9, 0x3f, 0x14, 0x22, 0x44, 0xbe,
  0x73, 0x7f, 0x63, 0xbf, 0xe1, 0xa4, 0x85, 0xbf, 0xf8, 0xa0, 0x1b, 0xbf,
  0x5a, 0xc5, 0x17, 0x3f, 0xfc, 0x4e, 0x85, 0x3f, 0xd4, 0xdd, 0x70, 0xbf,
  0xa2, 0xbb, 0x9c, 0xbf, 0xbf, 0x61, 0x4a, 0xbf, 0x8a, 0xe0, 0xff, 0xff,
  0x04, 0x00, 0x00, 0x00, 0xa0, 0x00, 0x00, 0x00, 0xdd, 0x6d, 0x2f, 0xbf,
  0x54, 0x53, 0x4c, 0x3f, 0x8b, 0x1f, 0x23, 0x3f, 0x11, 0xe0, 0x88, 0x3f,
  0xe6, 0x5f, 0x6b, 0x3f, 0xda, 0xb8, 0x90, 0xbe, 0x30, 0x92, 0xec, 0xbe,
  0x6d, 0xc4, 0x6b, 0x3f, 0x2a, 0x25, 0x63, 0x3f, 0xfb, 0x62, 0x80, 0x3f,
  0xaa, 0x84, 0xcf, 0xbd, 0x9c, 0xaa, 0xfc, 0x3d, 0x29, 0xe3, 0x9c, 0xbe,
  0x36, 0x6f, 0x66, 0xbe, 0x72, 0xbe, 0x85, 0x3e, 0x6a, 0x3c, 0x35, 0xbe,
  0xb8, 0xcd, 0x16, 0xbd, 0x91, 0x6f, 0x9a, 0xbe, 0xa4, 0xe2, 0x99, 0xbe,
  0x0b, 0xb9, 0xa9, 0xbd, 0x3e, 0x6e, 0x84, 0x3f, 0x68, 0xa5, 0x5f, 0x3f,
  0xc4, 0x1d, 0x1b, 0xbf, 0xcd, 0x71, 0x25, 0xbe, 0x94, 0x2c, 0xd3, 0xbe,
  0xd2, 0x36, 0xa1, 0x3f, 0x91, 0x85, 0x9e, 0x3f, 0xe6, 0xc8, 0x36, 0xbd,
  0x0f, 0xb8, 0x11, 0xbf, 0xfe, 0x73, 0x0c, 0xbf, 0xf7, 0x87, 0x9f, 0xbd,
  0x8a, 0xae, 0x1e, 0x3d, 0xf5, 0xdd, 0xd2, 0x3d, 0x0e, 0x0d, 0xb9, 0x3d,
  0xac, 0xbe, 0x8a, 0x3e, 0x30, 0xbf, 0x0f, 0xbe, 0x9c, 0x38, 0x25, 0x3d,
  0x3d, 0xda, 0x68, 0x3d, 0x0d, 0xa2, 0x77, 0xbe, 0x01, 0x67, 0xd3, 0xbd,
  0x36, 0xe1, 0xff, 0xff, 0x04, 0x00, 0x00, 0x00, 0x10, 0x00, 0x00, 0x00,
  0xdb, 0xbe, 0x22, 0x3f, 0x27, 0x7f, 0x99, 0xbd, 0xf5, 0x47, 0x1e, 0x3f,
  0x8c, 0x82, 0x13, 0xbe, 0x52, 0xe1, 0xff, 0xff, 0x04, 0x00, 0x00, 0x00,
  0xa0, 0x1e, 0x00, 0x00, 0xf6, 0xef, 0xf7, 0x3b, 0x25, 0x78, 0x13, 0x3d,
  0x60, 0x47, 0x80, 0x3d, 0x37, 0xea, 0xae, 0x3c, 0xad, 0xc1, 0xa4, 0xbc,
  0xbd, 0x98, 0x75, 0xbd, 0x18, 0xef, 0xd1, 0x3c, 0x30, 0x63, 0x4d, 0xbd,
  0x18, 0x11, 0x4f, 0x3d, 0x4f, 0x97, 0x07, 0x3d, 0xdc, 0xec, 0x30, 0xbc,
  0xbd, 0x52, 0x93, 0xbe, 0x82, 0xa9, 0x0a, 0xbb, 0x2c, 0xa5, 0x73, 0x3d,
  0x52, 0x57, 0x03, 0x3c, 0xa6, 0x23, 0xa5, 0x3d, 0x39, 0x74, 0x97, 0xbc,
  0xbb, 0x0b, 0x87, 0xbe, 0xfe, 0x24, 0xc3, 0xbe, 0x7d, 0xd1, 0x91, 0xbe,
  0x52, 0xfb, 0x9d, 0x3c, 0xea, 0xc4, 0x0f, 0x3d, 0x3e, 0xf8, 0x12, 0xbe,
  0x6e, 0x28, 0x8a, 0xbe, 0xf2, 0x5d, 0x74, 0x3e, 0xe9, 0x00, 0xf6, 0x3e,
  0x5f, 0x1f, 0xa0, 0xbe, 0xda, 0x53, 0x1a, 0xbe, 0x44, 0x6a, 0xa9, 0xbc,
  0xe6, 0x93, 0x6f, 0xbe, 0xb1, 0x7b, 0x07, 0xbf, 0xbc, 0x5e, 0x1d, 0x3f,
  0x30, 0xbe, 0x7b, 0x3e, 0xde, 0x58, 0xc1, 0xbd, 0x38, 0x6c, 0xfb, 0xbc,
  0xa8, 0x18, 0x5a, 0x3d, 0x07, 0xbf, 0x8f, 0xbd, 0x69, 0xe1, 0x05, 0xbf,
  0x4f, 0x59, 0x86, 0x3c, 0xab, 0x0f, 0xa8, 0xbd, 0x77, 0x9b, 0xb3, 0x3c,
  0x76, 0xf6, 0x21, 0xbc, 0x5f, 0x32, 0x63, 0xbd, 0xb5, 0x66, 0x8f, 0x3d,
  0x70, 0x5d, 0x01, 0x3d, 0x7d, 0x39, 0x4e, 0x3c, 0xf2, 0xc4, 0x1a, 0x3c,
  0xa4, 0x32, 0xbf, 0x3d, 0xde, 0xaf, 0x37, 0x3b, 0x1c, 0x7d, 0x57, 0xbc,
  0xd3, 0x45, 0x06, 0xbd, 0x4a, 0x80, 0xc7, 0x3a, 0xbc, 0xf0, 0xc1, 0xbc,
  0x53, 0x1c, 0x75, 0xbd, 0xee, 0x29, 0x4f, 0xbc, 0x6e, 0xb7, 0x67, 0xbd,
  0x27, 0xf4, 0x0b, 0xbd, 0xe7, 0x0d, 0x24, 0xbd, 0xdc, 0x44, 0xf5, 0xbc,
  0x0a, 0x61, 0x72, 0xbd, 0x25, 0x39, 0xb6, 0x3a, 0xc5, 0x43, 0xd3, 0x3c,
  0x51, 0xc1, 0x70, 0x3d, 0xae, 0xde, 0x43, 0xbd, 0xbc, 0xb8, 0xa1, 0x3c,
  0x13, 0x01, 0x63, 0xbd, 0x93, 0xb7, 0x47, 0xbb, 0x7c, 0xb3, 0x90, 0xbd,
  0x01, 0xec, 0xcf, 0xbc, 0xe5, 0xe7, 0x0c, 0xbc, 0x8a, 0x13, 0x77, 0xbd,
  0xdc, 0x6d, 0xf8, 0x3c, 0x7c, 0x3c, 0x42, 0xbd, 0x93, 0xac, 0x7c, 0x3b,
  0xab, 0x9e, 0x87, 0xbd, 0x23, 0xc3, 0x03, 0x3d, 0xc0, 0xcb, 0x14, 0x3c,
  0xf7, 0x03, 0xc9, 0xbc, 0xca, 0x63, 0x12, 0x3d, 0xfc, 0x9e, 0x40, 0x3d,
  0x25, 0xbe, 0x6d, 0x3d, 0x37, 0xbf, 0xc6, 0x3c, 0xc7, 0x4f, 0x8e, 0xbd,
  0xac, 0xc6, 0x05, 0x3d, 0xb7, 0x18, 0x11, 0xbd, 0xc1, 0xae, 0xea, 0x3c,
  0x6e, 0x25, 0x56, 0x3b, 0x2a, 0xa6, 0x2f, 0xbd, 0x25, 0x15, 0x06, 0xbd,
  0x0a, 0x44, 0x96, 0x3c, 0x3c, 0xab, 0x54, 0xbd, 0xd7, 0x3d, 0x21, 0xbd,
  0x73, 0xbb, 0x33, 0x3d, 0x73, 0xda, 0x24, 0x3d, 0xd3, 0x3e, 0xca, 0xbc,
  0x13, 0x3f, 0xb5, 0x3c, 0x8a, 0xac, 0x30, 0x3d, 0x43, 0x5e, 0x33, 0x3d,
  0xb0, 0xb5, 0xd2, 0xbb, 0x1c, 0x8c, 0x2b, 0xbd, 0xac, 0x67, 0x62, 0x3d,
  0x2e, 0x03, 0x08, 0x3d, 0x5c, 0xb6, 0x8e, 0xbd, 0xe9, 0xf3, 0x09, 0xbd,
  0x01, 0x1d, 0x56, 0x3d, 0x8e, 0xb5, 0x13, 0x3c, 0x49, 0xcf, 0xe6, 0xbd,
  0x22, 0x00, 0x99, 0xbe, 0x68, 0x73, 0x3a, 0x3c, 0x3f, 0x40, 0x11, 0x3e,
  0xe7, 0x57, 0xc3, 0xbd, 0xd5, 0x78, 0xa0, 0xbd, 0x08, 0x16, 0x46, 0xbd,
  0xea, 0x5a, 0xc1, 0xbe, 0xcf, 0xb2, 0xc7, 0xbd, 0x85, 0xa4, 0x14, 0x3d,
  0xd8, 0x64, 0xbf, 0x3e, 0x6b, 0x95, 0x14, 0x3e, 0xfc, 0x01, 0xb5, 0xbe,
  0x8f, 0x0e, 0x08, 0x3d, 0x66, 0x46, 0x28, 0x3e, 0x5f, 0xe9, 0x61, 0x3e,
  0x7d, 0x8b, 0x46, 0xbe, 0x67, 0x30, 0x0b, 0xbf, 0xd9, 0xa5, 0x76, 0x3e,
  0x41, 0x44, 0xc6, 0x3e, 0x6f, 0x55, 0x14, 0xbd, 0x73, 0x7b, 0x6f, 0x3e,
  0x76, 0xc0, 0xc1, 0x3e, 0x26, 0x41, 0x4d, 0xbf, 0xbd, 0x6f, 0xb3, 0xbe,
  0xb2, 0x1b, 0x95, 0x3c, 0x14, 0x0d, 0x8a, 0x3e, 0x88, 0x27, 0x24, 0x3d,
  0xbb, 0x31, 0xe3, 0xbd, 0xff, 0xc6, 0x89, 0x3e, 0x10, 0x90, 0x26, 0xbd,
  0xae, 0x73, 0x41, 0xbd, 0x04, 0xc1, 0xd4, 0xbd, 0x8b, 0x91, 0x1b, 0xbe,
  0x64, 0x2f, 0xc3, 0xbb, 0x31, 0x1f, 0x85, 0x3c, 0x9a, 0x77, 0x68, 0xbd,
  0x58, 0x78, 0xed, 0xbc, 0x46, 0xa1, 0x49, 0xbe, 0xbb, 0x3d, 0xad, 0xbe,
  0x10, 0x94, 0x4b, 0x3d, 0x0e, 0x86, 0x75, 0xbd, 0x4c, 0x35, 0x92, 0x3d,
  0xa5, 0x19, 0xf2, 0x3c, 0xb1, 0x99, 0x79, 0x3d, 0x65, 0x9d, 0x83, 0xbc,
  0x25, 0x92, 0x3d, 0xbc, 0x8a, 0x97, 0x90, 0x3d, 0xe5, 0xc4, 0x61, 0xbc,
  0xb3, 0x85, 0x7c, 0x3d, 0x07, 0x8e, 0x24, 0x3d, 0x93, 0xcc, 0x03, 0x3a,
  0x05, 0x86, 0x92, 0xbc, 0x53, 0xc7, 0x16, 0xbc, 0xfc, 0xb0, 0x68, 0xbd,
  0xba, 0x11, 0x06, 0x3d, 0x51, 0x6d, 0x3a, 0x3d, 0x57, 0xc1, 0xcb, 0x3c,
  0xd3, 0x09, 0x4a, 0x3c, 0x0c, 0xb0, 0x42, 0x3d, 0x0d, 0x0a, 0x88, 0x3d,
  0xee, 0x58, 0x13, 0xbc, 0xe5, 0x39, 0xe4, 0xbc, 0xc0, 0xe2, 0x91, 0xbd,
  0x57, 0xc4, 0xb8, 0x3c, 0x01, 0xfd, 0x4a, 0xbd, 0x1b, 0x10, 0x92, 0xbd,
  0x15, 0x13, 0x67, 0x3d, 0x6c, 0x89, 0x63, 0x3d, 0x8e, 0xea, 0x3f, 0x3d,
  0x0b, 0xae, 0x86, 0x3d, 0x1d, 0xed, 0x87, 0x3d, 0xee, 0x10, 0x4e, 0xbc,
  0x28, 0xca, 0x90, 0x3d, 0xc8, 0xf4, 0x77, 0xbd, 0x4f, 0x24, 0x87, 0xbd,
  0x8a, 0x56, 0x6b, 0xbc, 0x01, 0x30, 0x79, 0x3c, 0xb7, 0x23, 0x0e, 0xbc,
  0xec, 0xc5, 0x83, 0xbd, 0x0a, 0xaa, 0x1e, 0x3c, 0xe5, 0x03, 0x20, 0x3c,
  0x95, 0x6d, 0x6e, 0x3d, 0xf0, 0xd5, 0x0f, 0xbd, 0x6e, 0x98, 0x85, 0x3b,
  0x61, 0x6b, 0xb6, 0xbc, 0x6e, 0xe2, 0xdd, 0xbc, 0x60, 0xaf, 0x16, 0x3d,
  0x93, 0xcd, 0x94, 0xbb, 0x81, 0x38, 0xbb, 0x3c, 0x2c, 0xb0, 0xe2, 0xbb,
  0xfc, 0x17, 0xe9, 0xbd, 0x78, 0xfb, 0xb1, 0xbd, 0x1a, 0xb5, 0xc6, 0xbd,
  0x33, 0x3d, 0x93, 0xbc, 0xf9, 0x44, 0xf7, 0xbb, 0x6c, 0xc4, 0xf4, 0xba,
  0xee, 0x3d, 0x05, 0xb9, 0xa7, 0xee, 0x12, 0xbd, 0x28, 0x46, 0xfd, 0x3d,
  0x45, 0xa0, 0x1f, 0xbe, 0x98, 0xed, 0x10, 0x3e, 0x13, 0x61, 0x17, 0xbe,
  0x54, 0x92, 0x01, 0xbe, 0x7e, 0x7f, 0x15, 0xbd, 0x3b, 0x58, 0x3b, 0xbd,
  0xc7, 0x0a, 0xbe, 0x3e, 0x0e, 0x05, 0x63, 0x3e, 0x5d, 0x19, 0xe1, 0xbd,
  0xa5, 0xb8, 0x6e, 0x3e, 0x97, 0xb4, 0x75, 0x3d, 0x99, 0xed, 0xcc, 0xbd,
  0x55, 0x2f, 0x55, 0xbc, 0xff, 0x11, 0xc6, 0x3e, 0x41, 0x7d, 0x94, 0xbe,
  0x64, 0x2d, 0x95, 0x3d, 0x6e, 0x54, 0x34, 0x3e, 0x88, 0xeb, 0x7f, 0xbd,
  0x84, 0xdf, 0x71, 0xbd, 0x05, 0xa2, 0xaa, 0x3d, 0x47, 0x39, 0xbf, 0x3e,
  0x6c, 0x0d, 0x05, 0xbf, 0x6f, 0x79, 0xbc, 0x3e, 0x2f, 0x79, 0x76, 0x3e,
  0xe2, 0x3e, 0x3e, 0xbb, 0xf4, 0x67, 0xa3, 0xbd, 0x56, 0xe1, 0xc2, 0x3b,
  0x92, 0x44, 0x41, 0x3e, 0x71, 0x40, 0x31, 0x3e, 0xfd, 0x86, 0x94, 0x3e,
  0xed, 0x11, 0x1f, 0x3e, 0xf5, 0x1d, 0xe2, 0xbd, 0xe3, 0xc8, 0xde, 0xbc,
  0x59, 0x85, 0xea, 0xbd, 0xec, 0x3e, 0xad, 0x3d, 0xad, 0x67, 0x44, 0x3e,
  0x35, 0x8d, 0x90, 0xbd, 0xa4, 0x5d, 0xaf, 0xbd, 0x35, 0x22, 0xb0, 0xbb,
  0x4a, 0x61, 0xef, 0x3c, 0xa5, 0x86, 0x81, 0xbb, 0xcc, 0x5d, 0x59, 0xbd,
  0x25, 0x5d, 0xcf, 0xba, 0x48, 0xc3, 0x6a, 0xbd, 0x93, 0xfa, 0x35, 0x3c,
  0x4a, 0xc2, 0x92, 0x3a, 0x6e, 0x4b, 0x6d, 0xbc, 0xca, 0x76, 0x26, 0xbd,
  0xb7, 0xd1, 0xb5, 0x3b, 0xda, 0x8b, 0x44, 0x3d, 0xee, 0x6a, 0x74, 0xbd,
  0xda, 0x15, 0x76, 0x3d, 0x65, 0x8e, 0x40, 0x3d, 0x62, 0x76, 0x8d, 0x3d,
  0x00, 0xf5, 0x85, 0x3c, 0x45, 0x1a, 0x8c, 0xbc, 0xcd, 0x30, 0x88, 0xbd,
  0x0c, 0xbb, 0x30, 0xbd, 0x1c, 0xe2, 0xd3, 0x3c, 0xce, 0x6e, 0x4e, 0x3d,
  0x0a, 0xbc, 0x73, 0x3d, 0xca, 0xcd, 0x98, 0x3c, 0x4a, 0xf5, 0x18, 0xbb,
  0x21, 0x32, 0x5d, 0x3d, 0xc4, 0x5e, 0x8c, 0xbd, 0x4a, 0x42, 0x71, 0x3d,
  0x8c, 0x70, 0x20, 0x3d, 0xb7, 0x3e, 0xb2, 0xbc, 0x0e, 0x7b, 0xf3, 0xbc,
  0x01, 0x30, 0x57, 0x39, 0x41, 0xdd, 0xcf, 0x3c, 0xb5, 0x6b, 0x88, 0x3d,
  0xe5, 0x0f, 0x6c, 0x3c, 0x25, 0x43, 0x1c, 0xbb, 0xfe, 0xe0, 0x38, 0xbd,
  0xee, 0xe2, 0x2f, 0xbc, 0xfc, 0x81, 0x6f, 0x3d, 0x4a, 0x54, 0xbe, 0x3c,
  0xaa, 0x32, 0x08, 0x3d, 0xee, 0x50, 0x8d, 0x3b, 0xf1, 0x27, 0x30, 0xbd,
  0x75, 0x32, 0x80, 0xbd, 0x93, 0x6c, 0xf9, 0x3c, 0x00, 0xb7, 0x29, 0x3d,
  0xa0, 0xc0, 0xa3, 0x3c, 0xd5, 0x5c, 0x32, 0x3d, 0x65, 0x2b, 0x58, 0xbc,
  0x90, 0x48, 0x24, 0x3d, 0x8e, 0x8a, 0xa3, 0x3d, 0x83, 0x53, 0x19, 0xbd,
  0xcc, 0x76, 0x75, 0xbd, 0xa7, 0xe2, 0xf7, 0xbc, 0x27, 0xea, 0x44, 0x3d,
  0x4d, 0xb1, 0x72, 0xba, 0x8b, 0x49, 0xc7, 0x3c, 0x93, 0xce, 0x85, 0x3d,
  0x36, 0x56, 0xd8, 0xbd, 0xe1, 0x89, 0x0a, 0xbf, 0xeb, 0x16, 0x3a, 0x3d,
  0xaf, 0xe3, 0xb0, 0xbe, 0x8c, 0xdd, 0xb9, 0x3d, 0x8c, 0x86, 0x09, 0xbe,
  0x8d, 0xa3, 0x0a, 0xbc, 0x97, 0x57, 0xa9, 0xbe, 0x9b, 0x1d, 0x30, 0xbf,
  0x5a, 0x68, 0x49, 0xbe, 0x5d, 0x37, 0xb7, 0xbd, 0x6b, 0x67, 0xdb, 0xbe,
  0x8d, 0xa2, 0x1e, 0xbf, 0x38, 0x18, 0x55, 0xbd, 0x15, 0x2d, 0x25, 0xbe,
  0x1e, 0xc9, 0x51, 0xbf, 0x3b, 0xac, 0x88, 0x3e, 0xce, 0xf9, 0x86, 0xbe,
  0xaa, 0x96, 0x26, 0xbf, 0xc4, 0x2d, 0x1d, 0xbe, 0x7b, 0xba, 0xd9, 0xbc,
  0x24, 0xe7, 0xae, 0xbe, 0xb4, 0xd8, 0x11, 0xbf, 0xef, 0xcd, 0x90, 0x3e,
  0x7c, 0xab, 0x09, 0xbf, 0x38, 0x21, 0x52, 0xbf, 0xeb, 0x21, 0x32, 0xbe,
  0xf8, 0x05, 0x84, 0xbd, 0x0c, 0x36, 0x2e, 0xbe, 0xa2, 0xb9, 0xa9, 0xbe,
  0x78, 0x2e, 0x31, 0xbe, 0xbf, 0x62, 0xb8, 0xbe, 0xc4, 0xc5, 0x38, 0xbf,
  0xf1, 0xb4, 0x3a, 0xbe, 0x83, 0xc1, 0xe0, 0x3c, 0x07, 0x5d, 0x42, 0x3c,
  0x9d, 0x90, 0xcf, 0xbe, 0x5b, 0x3c, 0x1c, 0xbf, 0xc0, 0x65, 0xc1, 0xbd,
  0xe0, 0x5c, 0xe0, 0xbd, 0x3c, 0x11, 0xb2, 0xbc, 0x5c, 0x3d, 0x22, 0xbd,
  0xdc, 0xab, 0xbf, 0xbc, 0x8c, 0xb2, 0x7c, 0xbd, 0xec, 0x0a, 0x48, 0x3d,
  0xc0, 0x27, 0x12, 0xbc, 0xe1, 0x38, 0xee, 0xbc, 0x8a, 0xdc, 0x9b, 0xbc,
  0x1c, 0xc4, 0x36, 0x3c, 0xfc, 0x7f, 0xbb, 0xbc, 0xb3, 0xc8, 0x00, 0x3d,
  0xee, 0x6b, 0x2a, 0x3d, 0x6e, 0x27, 0x44, 0x3b, 0x8a, 0x60, 0x79, 0x3c,
  0x41, 0x35, 0x4b, 0x3d, 0x65, 0x35, 0xef, 0xbc, 0x67, 0xae, 0x56, 0xbd,
  0x30, 0x91, 0x0e, 0xbd, 0x37, 0xb5, 0xaf, 0xbb, 0xde, 0x4c, 0x1d, 0xbd,
  0xdc, 0xdd, 0xc3, 0x3c, 0xdc, 0xb8, 0x6b, 0xbd, 0x51, 0x1f, 0x62, 0x3d,
  0x1c, 0x67, 0x5d, 0x3d, 0x93, 0xaf, 0x29, 0x3c, 0x73, 0x3b, 0x62, 0x3d,
  0x31, 0xe4, 0x7a, 0xbd, 0x1c, 0xb0, 0x7b, 0x3d, 0xdc, 0x66, 0x67, 0xba,
  0xb7, 0xaf, 0xb5, 0x3a, 0x7e, 0xdd, 0x00, 0x3d, 0x47, 0xef, 0x18, 0x3d,
  0xad, 0xf4, 0x88, 0x3d, 0x73, 0xed, 0x98, 0xbc, 0x2e, 0x80, 0xd4, 0x3c,
  0xbc, 0xa9, 0xd8, 0x3c, 0x0a, 0x40, 0x33, 0xbc, 0x93, 0x08, 0xf6, 0x3c,
  0x2c, 0xd9, 0x3e, 0x3d, 0xf1, 0x7c, 0x3d, 0xbd, 0xca, 0x4c, 0x9c, 0xbc,
  0x4c, 0x3f, 0x1f, 0xbd, 0xb5, 0x55, 0x0a, 0x3d, 0xdd, 0x8a, 0x90, 0x3d,
  0x6e, 0xf1, 0x6f, 0xbc, 0x01, 0x3a, 0xf5, 0x3a, 0x2a, 0x2a, 0x90, 0x3c,
  0xfc, 0x30, 0xd5, 0xbc, 0x38, 0xeb, 0xe8, 0xbb, 0x95, 0xf8, 0x8f, 0xbd,
  0x0b, 0xdf, 0x75, 0xbd, 0x8c, 0x4e, 0x38, 0x3d, 0x60, 0x4d, 0x25, 0xbc,
  0xf7, 0xa9, 0x84, 0x3d, 0xd0, 0x98, 0x90, 0xbc, 0xa3, 0xad, 0x79, 0xbd,
  0x9a, 0xb3, 0x2e, 0x3d, 0x43, 0x8f, 0x80, 0xbd, 0x90, 0xd5, 0x1d, 0xbd,
  0x0b, 0x3a, 0x86, 0xbe, 0x63, 0x48, 0x92, 0xbe, 0x94, 0x15, 0x1e, 0xbe,
  0xb6, 0xc2, 0xb3, 0x3c, 0xac, 0xe9, 0xa0, 0x3d, 0xa7, 0x44, 0xd9, 0x3c,
  0x7e, 0xa2, 0x15, 0x3b, 0x44, 0xb1, 0x62, 0xbd, 0xc2, 0xf3, 0xb8, 0x3d,
  0xaa, 0x8e, 0x95, 0xbd, 0xd1, 0x81, 0x18, 0xbd, 0x01, 0x74, 0x81, 0x3d,
  0xb5, 0xb8, 0xf5, 0xbc, 0x15, 0x14, 0x46, 0x3e, 0x32, 0x85, 0x02, 0x3f,
  0x41, 0xac, 0xc7, 0x3e, 0x7c, 0x2d, 0xda, 0xbc, 0xd1, 0x6d, 0x9a, 0x3d,
  0x03, 0x37, 0x9b, 0x3c, 0xb0, 0x08, 0x01, 0xbd, 0x37, 0x48, 0x36, 0xbe,
  0xfc, 0xd2, 0x94, 0xbe, 0x9d, 0xbd, 0x02, 0xbf, 0x5a, 0x0f, 0x9a, 0xbe,
  0xcc, 0x9a, 0x23, 0xbd, 0x7d, 0xa8, 0x1a, 0xbe, 0x0a, 0xf7, 0xa0, 0x3c,
  0x5c, 0x28, 0x51, 0xbe, 0x2e, 0xd2, 0xb0, 0xbe, 0x96, 0x78, 0x42, 0x3b,
  0xdc, 0x3e, 0x00, 0x3e, 0xd7, 0x80, 0xb4, 0xbe, 0x2b, 0x9b, 0x12, 0xbe,
  0x1b, 0xa3, 0xf6, 0xbc, 0xc5, 0x07, 0x5a, 0x3d, 0x6d, 0xca, 0x3d, 0x3e,
  0x65, 0x8e, 0x08, 0x3e, 0xe1, 0xa4, 0xaf, 0x3d, 0xd9, 0xbf, 0x6b, 0x3c,
  0xfb, 0x54, 0x51, 0x3d, 0xb7, 0xe4, 0x3c, 0x3c, 0x4a, 0x00, 0x9a, 0x3a,
  0x4a, 0x67, 0x90, 0xbc, 0xb8, 0xf2, 0xfb, 0xbc, 0xce, 0x8f, 0xc1, 0x3c,
  0x8e, 0x64, 0x2f, 0x3d, 0xd7, 0x30, 0x95, 0xbc, 0x9a, 0xc6, 0x58, 0x3d,
  0xca, 0x4d, 0x0f, 0xbc, 0x90, 0xb5, 0x16, 0xbd, 0xa5, 0x1a, 0xdc, 0x3b,
  0x33, 0xab, 0x65, 0xbd, 0x8a, 0xdf, 0xe6, 0xbc, 0x4c, 0xc5, 0x4f, 0xbd,
  0x8a, 0xbd, 0x22, 0x3c, 0x25, 0x61, 0xf9, 0xbb, 0xcc, 0x3d, 0x62, 0x3d,
  0xd3, 0x75, 0x5f, 0x3d, 0x22, 0x97, 0x90, 0xbd, 0x93, 0x3c, 0xd8, 0xba,
  0x85, 0x1c, 0x00, 0xbd, 0x95, 0xcc, 0x2f, 0x3d, 0xaa, 0x80, 0x7b, 0xbd,
  0x60, 0xc5, 0xa7, 0x3c, 0xdc, 0x9e, 0x6c, 0xba, 0x61, 0x5e, 0xcb, 0x3c,
  0x8a, 0x66, 0x73, 0xbc, 0xb3, 0x8d, 0x9f, 0xbc, 0xe5, 0xcd, 0x24, 0x3d,
  0x47, 0x47, 0x31, 0xbd, 0xa6, 0xe4, 0x83, 0x3d, 0x33, 0x51, 0xd8, 0xbc,
  0x73, 0xad, 0x5e, 0x3d, 0xf3, 0x36, 0x3b, 0x3d, 0x83, 0xbb, 0x8f, 0xbd,
  0x7a, 0xad, 0x54, 0xbd, 0xca, 0x03, 0x72, 0xbd, 0x37, 0xce, 0x19, 0x3c,
  0x57, 0xe6, 0x8d, 0x3c, 0x58, 0xeb, 0xec, 0x3c, 0x81, 0xcb, 0x2c, 0x3d,
  0x13, 0x9b, 0xd5, 0x3c, 0x9e, 0xaf, 0x04, 0x3d, 0xfa, 0x3b, 0x77, 0x3d,
  0xd5, 0x82, 0x1f, 0x3d, 0xa5, 0xe0, 0xb0, 0xbb, 0xa3, 0x22, 0x8a, 0xbd,
  0xe1, 0xd8, 0xfb, 0xbc, 0xa5, 0xc2, 0xe8, 0xbb, 0x5e, 0x6e, 0x01, 0xbc,
  0xe3, 0xdc, 0xec, 0x3b, 0x4e, 0x40, 0xa4, 0x3a, 0x41, 0x57, 0x7b, 0xbd,
  0xcc, 0x78, 0x7a, 0x3d, 0x60, 0x51, 0x63, 0xbd, 0xe5, 0x52, 0x94, 0xbc,
  0x33, 0xb9, 0x87, 0xbc, 0x65, 0x75, 0x7a, 0x3d, 0xc6, 0xf6, 0xa3, 0x3e,
  0x8e, 0x6e, 0x95, 0x3e, 0x56, 0xe1, 0x06, 0x3d, 0xb6, 0x1c, 0x27, 0xbe,
  0x95, 0x00, 0x52, 0xbe, 0xee, 0xa5, 0x50, 0xbd, 0x1b, 0xf8, 0xa0, 0x3e,
  0xd6, 0x1a, 0xcc, 0x3d, 0x2f, 0x58, 0xec, 0x3d, 0xf9, 0x56, 0x65, 0x3d,
  0x2c, 0xcc, 0xb6, 0xbc, 0x94, 0x39, 0xe7, 0xbe, 0x5d, 0x8f, 0x6b, 0x3d,
  0x4c, 0xb9, 0x42, 0xbf, 0x6b, 0x73, 0x64, 0xbf, 0xb9, 0x98, 0x17, 0xbf,
  0xd2, 0x42, 0x9f, 0xbd, 0x2c, 0xed, 0x65, 0xbe, 0x05, 0x5f, 0x5c, 0xbe,
  0x51, 0xee, 0xf4, 0xbc, 0x15, 0x7b, 0x94, 0x3e, 0xe4, 0xc1, 0x5d, 0x3e,
  0xee, 0xb0, 0xb6, 0x3e, 0xc5, 0x62, 0x27, 0x3e, 0xb4, 0x74, 0x1e, 0xbe,
  0xf6, 0xc7, 0x23, 0x3f, 0x5a, 0xa6, 0x1a, 0x3d, 0xe3, 0x79, 0xc7, 0x3e,
  0x53, 0xf3, 0x60, 0x3e, 0x8d, 0x47, 0x52, 0x3d, 0xd6, 0xf8, 0x17, 0xbd,
  0xd1, 0x9f, 0xce, 0x3e, 0x38, 0x7a, 0x26, 0x3f, 0xbb, 0x0a, 0x4a, 0x3d,
  0x64, 0x91, 0xd0, 0xbd, 0xbf, 0x8c, 0xc2, 0xbe, 0x7d, 0x5b, 0x00, 0xbf,
  0xe7, 0x7b, 0x81, 0xbe, 0x30, 0x00, 0xc3, 0xbd, 0x48, 0x3a, 0xe9, 0xbc,
  0xce, 0x5d, 0xd2, 0xbc, 0xf5, 0xb9, 0x0a, 0xbd, 0x3c, 0xc9, 0xab, 0xbc,
  0xb7, 0x34, 0xc3, 0xbc, 0x71, 0x49, 0x53, 0x3d, 0xe1, 0xf7, 0xcd, 0xbc,
  0x13, 0x2b, 0x3d, 0x3c, 0xaa, 0x6d, 0x0b, 0x3d, 0x55, 0x53, 0x16, 0xbd,
  0xca, 0x3f, 0x04, 0x3d, 0x7a, 0x8f, 0x08, 0x3d, 0x21, 0x5b, 0xdc, 0xbc,
  0xcc, 0xb3, 0x71, 0x3d, 0x31, 0x76, 0x75, 0x3d, 0x97, 0x58, 0x8a, 0x3d,
  0x77, 0x03, 0x27, 0xbd, 0xf0, 0x3b, 0x1e, 0x3d, 0x40, 0x23, 0x9a, 0x3c,
  0xee, 0x63, 0xea, 0x3b, 0xc5, 0xe0, 0xb5, 0xbc, 0x8a, 0xbb, 0x71, 0xbd,
  0x75, 0x2c, 0x2d, 0x3d, 0x00, 0x10, 0x8a, 0x39, 0x83, 0xcc, 0x91, 0xbd,
  0xae, 0x4b, 0x17, 0xbc, 0xd7, 0xa6, 0xb0, 0x3c, 0x6e, 0x97, 0xef, 0xbb,
  0xde, 0x67, 0x6e, 0x3d, 0x53, 0xe5, 0x5a, 0xbc, 0x5c, 0x25, 0x37, 0xbd,
  0x23, 0xbd, 0x0d, 0xbd, 0x57, 0xe5, 0x84, 0xbc, 0x37, 0xb0, 0x42, 0x3d,
  0x97, 0x81, 0xa7, 0xbc, 0x97, 0x8b, 0x8d, 0x3d, 0x8d, 0x9a, 0x89, 0xbd,
  0x7e, 0x3e, 0x41, 0x3d, 0xb8, 0x52, 0xe5, 0xbc, 0xd5, 0x86, 0x63, 0x3d,
  0xc0, 0xfe, 0x9c, 0xbc, 0x15, 0x58, 0x8b, 0xbd, 0x42, 0xb8, 0x8a, 0xbd,
  0x5c, 0x65, 0x59, 0xbc, 0x25, 0x77, 0x87, 0x3d, 0xaa, 0xc3, 0xe4, 0xbc,
  0x4e, 0x6e, 0xc7, 0xbc, 0x53, 0x9c, 0x0a, 0x3d, 0x77, 0xd8, 0x8a, 0xbd,
  0xfe, 0xac, 0x73, 0xbd, 0x1b, 0x9c, 0x56, 0xbd, 0x6c, 0xf7, 0x57, 0xbd,
  0xaf, 0x24, 0x1a, 0xbd, 0x60, 0xc7, 0xfb, 0xbb, 0x99, 0x63, 0x81, 0x3d,
  0xed, 0x5f, 0x8d, 0x3d, 0x9d, 0xdf, 0xbb, 0x3c, 0xcc, 0xd3, 0x86, 0xbd,
  0x22, 0xa0, 0xa6, 0xbd, 0x78, 0xa1, 0x5f, 0xbe, 0x74, 0xaf, 0xb6, 0xbe,
  0x41, 0x9f, 0x78, 0xbd, 0x07, 0xf6, 0x86, 0x3d, 0xeb, 0x8a, 0x3d, 0x3d,
  0xed, 0x24, 0x92, 0x3d, 0x9f, 0x66, 0x8a, 0xbd, 0xfc, 0x45, 0xb8, 0x3d,
  0x5b, 0x31, 0x94, 0x3e, 0x0d, 0x7e, 0x92, 0xbe, 0xcf, 0x97, 0xff, 0xbc,
  0xb3, 0x29, 0x88, 0x3c, 0x9c, 0xbd, 0x61, 0x3c, 0xf4, 0x2b, 0x13, 0x3e,
  0x3d, 0x79, 0x93, 0x3e, 0xb9, 0x33, 0x31, 0xbf, 0x13, 0xf9, 0xa2, 0xbe,
  0x34, 0x4b, 0xf5, 0x3d, 0xb8, 0x27, 0x82, 0x3d, 0xbd, 0xa7, 0x80, 0xbd,
  0x08, 0xde, 0x7c, 0x3d, 0x9d, 0x6d, 0xa7, 0x3e, 0xa9, 0xd2, 0xe1, 0x3e,
  0xe8, 0xdf, 0x10, 0xbe, 0x3b, 0x1e, 0x9c, 0xbe, 0xce, 0x58, 0x83, 0x3d,
  0xe0, 0x6b, 0x6f, 0x3d, 0xf6, 0x62, 0xa5, 0xbe, 0x85, 0x48, 0xa2, 0xbd,
  0xd6, 0x49, 0xb7, 0x3d, 0xab, 0x70, 0xa0, 0xbe, 0xa5, 0x7d, 0x29, 0xbd,
  0xa9, 0xbe, 0x99, 0xbb, 0x97, 0x4f, 0x28, 0xbd, 0xdf, 0x80, 0x02, 0xbe,
  0x4f, 0x51, 0x67, 0xbe, 0x48, 0xae, 0xf9, 0xbd, 0x4d, 0x32, 0x2b, 0x3d,
  0x56, 0x91, 0xd4, 0xbc, 0x06, 0xe4, 0xec, 0x3b, 0x4a, 0x44, 0xb6, 0xbc,
  0x13, 0xb2, 0xff, 0x3b, 0xdc, 0xab, 0xb5, 0xbb, 0x0a, 0x0b, 0x14, 0xbc,
  0xaa, 0x7e, 0xd8, 0x3c, 0xc0, 0xc4, 0x28, 0x3d, 0x41, 0x66, 0x37, 0xbc,
  0x33, 0x56, 0xd2, 0x3c, 0x7c, 0xc1, 0x81, 0xbc, 0xa0, 0x28, 0x8b, 0x3d,
  0x1e, 0xd7, 0x0e, 0x3d, 0xb7, 0x3d, 0x06, 0xba, 0x01, 0x92, 0x5f, 0xbb,
  0x41, 0x4f, 0xb9, 0x3c, 0xf0, 0x26, 0x01, 0xbd, 0x9e, 0xea, 0x42, 0xbd,
  0x57, 0xec, 0x43, 0xbd, 0xa7, 0xd6, 0x34, 0xbd, 0x2a, 0x4b, 0x7f, 0x3d,
  0x2e, 0x69, 0x06, 0x3d, 0x50, 0xa0, 0x11, 0xbd, 0x2a, 0x45, 0x63, 0x3d,
  0x95, 0xfd, 0x20, 0xbd, 0x87, 0xb0, 0x48, 0x3d, 0xc1, 0xab, 0x6b, 0x3c,
  0x81, 0xe1, 0x79, 0x3d, 0x25, 0x37, 0x61, 0x3b, 0x77, 0x09, 0x59, 0x3d,
  0x27, 0xde, 0x4c, 0xbd, 0xf7, 0x8a, 0xbf, 0xbc, 0xea, 0x95, 0x79, 0xbd,
  0xdc, 0x0e, 0x08, 0x3c, 0x77, 0xf9, 0x53, 0xbc, 0x53, 0x64, 0x04, 0xbd,
  0x5c, 0xa0, 0x64, 0xbc, 0x03, 0x68, 0x77, 0x3d, 0x13, 0x7d, 0xfb, 0xbc,
  0xda, 0x45, 0x20, 0xbd, 0x45, 0x85, 0x20, 0xbd, 0x3a, 0xbe, 0x52, 0x3d,
  0x95, 0x4c, 0x07, 0x3d, 0x6a, 0x17, 0xd1, 0xbc, 0xca, 0x8c, 0x94, 0xbc,
  0xe7, 0x3a, 0x5b, 0x3d, 0x03, 0xfe, 0x4d, 0x3d, 0x2a, 0x06, 0xcd, 0x3c,
  0xdc, 0x05, 0xec, 0x3b, 0x05, 0xf8, 0xe2, 0x3c, 0xf0, 0x19, 0x1e, 0xbd,
  0x0d, 0xb1, 0x38, 0x3d, 0x4c, 0xec, 0xf7, 0x3c, 0x3b, 0x38, 0x44, 0xbd,
  0xc4, 0x8b, 0x6c, 0xbc, 0x4f, 0xc1, 0x5d, 0xbd, 0xbc, 0xda, 0x1c, 0x3d,
  0xe4, 0x16, 0x0e, 0x3d, 0xe0, 0x9e, 0x04, 0xbd, 0x1f, 0x4f, 0x81, 0x3e,
  0xc2, 0x12, 0xbf, 0x3e, 0x7f, 0x78, 0x59, 0x3e, 0x59, 0x58, 0x54, 0x3c,
  0xe7, 0x04, 0x4e, 0xbe, 0xa8, 0xb0, 0xd8, 0xbe, 0x3c, 0x35, 0xa8, 0xbd,
  0x6c, 0x05, 0xd5, 0x3e, 0xad, 0x73, 0x62, 0xbd, 0x13, 0x24, 0xd4, 0xbd,
  0xdd, 0x83, 0x2c, 0x3e, 0x83, 0x4a, 0x15, 0x3e, 0x63, 0x65, 0x31, 0xbf,
  0xf1, 0xe6, 0x56, 0xbb, 0x8e, 0x14, 0xa1, 0xbe, 0x14, 0xbe, 0x12, 0xbf,
  0x23, 0xec, 0xc7, 0x3e, 0x45, 0x5d, 0x11, 0x3e, 0x85, 0x1e, 0xa4, 0xbe,
  0xe2, 0xc2, 0xa3, 0xbe, 0x3e, 0x37, 0x53, 0x3d, 0x62, 0xff, 0x5f, 0xbd,
  0xa7, 0x79, 0xd4, 0xbe, 0xb7, 0x64, 0xec, 0xbe, 0xfc, 0x35, 0xc6, 0x3d,
  0x6a, 0x3e, 0xa5, 0x3e, 0x0a, 0x64, 0x9d, 0xbe, 0x92, 0x42, 0x82, 0x3d,
  0x24, 0x12, 0x09, 0x3f, 0xa6, 0x25, 0x86, 0xbd, 0x78, 0x1a, 0xfb, 0xbd,
  0xf5, 0x32, 0x5d, 0x3e, 0xc6, 0xe3, 0x0e, 0x3e, 0x43, 0xc2, 0x1c, 0xbf,
  0xdd, 0xa5, 0x97, 0xbc, 0xf7, 0x9d, 0xfa, 0x3e, 0xbc, 0x18, 0x1d, 0x3f,
  0xf3, 0x48, 0x58, 0x3e, 0xa1, 0x1d, 0xe3, 0xbc, 0x8c, 0x38, 0x30, 0xbe,
  0xf9, 0xcf, 0x87, 0xbc, 0x45, 0xe4, 0x30, 0x3d, 0xec, 0xc1, 0x19, 0xbd,
  0x93, 0x1d, 0xc6, 0x3c, 0xec, 0xed, 0x52, 0xbd, 0x53, 0x1f, 0x8f, 0x3d,
  0x5a, 0xec, 0x74, 0xbd, 0x3e, 0x3d, 0x4a, 0xbd, 0x8e, 0x71, 0x8d, 0x3c,
  0xc1, 0xe9, 0x54, 0xbc, 0x81, 0xfc, 0xc3, 0x3c, 0x73, 0x13, 0xba, 0xbc,
  0x53, 0x76, 0x37, 0x3c, 0x4a, 0x46, 0x83, 0xba, 0xb4, 0x10, 0x8b, 0xbd,
  0xac, 0x60, 0x68, 0x3d, 0x13, 0x29, 0x4c, 0xbc, 0x01, 0x1e, 0x4f, 0x3c,
  0x73, 0x62, 0xaa, 0x3c, 0x07, 0xb9, 0x26, 0x3d, 0xf8, 0x40, 0x7e, 0xbd,
  0xec, 0x10, 0x04, 0x3d, 0x00, 0xfd, 0x92, 0x3b, 0xb3, 0xba, 0xf4, 0xbc,
  0x68, 0xa8, 0x70, 0x3d, 0x33, 0x8f, 0x15, 0x3d, 0x3c, 0xca, 0x3f, 0x3d,
  0x25, 0xa6, 0x2e, 0x3c, 0x4c, 0xa1, 0x5d, 0xbd, 0x5a, 0xc5, 0x7a, 0x3d,
  0x2a, 0x60, 0xc1, 0x3c, 0xa5, 0x01, 0xaf, 0xbb, 0xc5, 0x35, 0x98, 0x3c,
  0xca, 0x13, 0xc0, 0xbb, 0x9e, 0x10, 0x00, 0x3d, 0x5a, 0x2d, 0x25, 0xbd,
  0xc5, 0xfb, 0xbb, 0x3c, 0xd5, 0xe1, 0x1e, 0xbd, 0x37, 0x59, 0xc8, 0xbb,
  0x93, 0x5a, 0xaa, 0x3b, 0x25, 0xd7, 0x93, 0xbb, 0xb5, 0x3c, 0x03, 0xbd,
  0xac, 0xc0, 0x29, 0xbd, 0xf7, 0x53, 0xd8, 0x3c, 0xee, 0x5c, 0xdd, 0x3c,
  0x3e, 0x12, 0x3a, 0x3d, 0xc5, 0x12, 0xc0, 0xbc, 0x8a, 0x58, 0x4b, 0xbd,
  0xe5, 0xb6, 0x61, 0x3d, 0x81, 0x77, 0x7e, 0x3c, 0x83, 0x6a, 0xaf, 0xbc,
  0xc3, 0x57, 0xbb, 0x3b, 0xcc, 0x5f, 0x4d, 0xbd, 0xd2, 0xfd, 0xfd, 0x3c,
  0x40, 0x8b, 0x59, 0xbd, 0x77, 0x7f, 0xd2, 0xbc, 0x42, 0xdf, 0x6c, 0xbd,
  0xac, 0x35, 0x8d, 0x3b, 0x5f, 0x3c, 0xf4, 0x3c, 0x69, 0x95, 0x27, 0xbd,
  0x28, 0xe0, 0x6f, 0x3e, 0xd8, 0x99, 0x29, 0x3e, 0x00, 0x36, 0x10, 0xbe,
  0x5d, 0x3f, 0xa5, 0xbd, 0xad, 0x10, 0x7a, 0xbd, 0x72, 0xc6, 0x1f, 0xbd,
  0x2f, 0xb6, 0xc9, 0x3d, 0x8d, 0xe2, 0xbb, 0x3e, 0x65, 0xd1, 0xc1, 0x3e,
  0x1c, 0x36, 0xac, 0xbd, 0x45, 0x50, 0x07, 0x3c, 0x7e, 0x98, 0x38, 0xbd,
  0xb6, 0x1e, 0xa1, 0xbd, 0xb3, 0x32, 0x0c, 0xbf, 0x51, 0x44, 0x0b, 0xbe,
  0xdd, 0x4a, 0x04, 0xbf, 0x35, 0x76, 0x85, 0xbc, 0x82, 0xb2, 0x4e, 0xbd,
  0x5c, 0xf0, 0x1a, 0xbd, 0x61, 0x33, 0xc5, 0xbd, 0x0f, 0xcb, 0x84, 0xbe,
  0xfa, 0x3b, 0x92, 0xbe, 0x24, 0x95, 0x06, 0xbf, 0xee, 0xe4, 0x9c, 0x3d,
  0xa3, 0x26, 0x71, 0x3d, 0x52, 0x29, 0x26, 0xbd, 0x02, 0xd0, 0xed, 0x3d,
  0xd9, 0x45, 0xec, 0x3e, 0xc2, 0x0e, 0xa9, 0x3e, 0x1e, 0xbf, 0x52, 0x3e,
  0x2e, 0x22, 0xb1, 0x3d, 0xf8, 0xb5, 0x5c, 0x3c, 0x04, 0xb8, 0xd5, 0xbb,
  0x4d, 0x56, 0x95, 0x3c, 0x66, 0x22, 0xeb, 0x3d, 0x31, 0x85, 0x11, 0x3e,
  0x90, 0xf6, 0xed, 0xbc, 0x68, 0xa5, 0x90, 0xbc, 0x0b, 0x84, 0x49, 0xbd,
  0xfc, 0x29, 0x63, 0xbd, 0x2e, 0x1b, 0x5c, 0xbd, 0x03, 0x9c, 0x69, 0xbd,
  0x71, 0x8c, 0x4a, 0x3d, 0xfc, 0x73, 0x72, 0xbd, 0xca, 0x23, 0x85, 0xbc,
  0xd3, 0xef, 0x88, 0xbd, 0xe5, 0x13, 0xac, 0x3c, 0x2a, 0x82, 0x8c, 0xbc,
  0xc7, 0xeb, 0x86, 0xbd, 0x93, 0x94, 0x46, 0xbc, 0x1c, 0xfe, 0x03, 0xbc,
  0x25, 0x9e, 0xe7, 0x3b, 0x3c, 0x5d, 0x06, 0x3d, 0x93, 0x78, 0xee, 0xbc,
  0x53, 0x54, 0x72, 0x3d, 0xca, 0x5e, 0xba, 0xbc, 0x33, 0x10, 0x59, 0xbd,
  0xb1, 0x61, 0x51, 0x3d, 0xaa, 0xe6, 0x99, 0x3c, 0x7c, 0x44, 0x4e, 0xbd,
  0x9c, 0xf9, 0x60, 0xbd, 0x71, 0x59, 0x31, 0x3d, 0x95, 0x10, 0x6c, 0x3d,
  0x9a, 0xcb, 0x88, 0x3d, 0x93, 0x75, 0x39, 0xbc, 0xd1, 0xad, 0x5c, 0x3d,
  0x25, 0x04, 0x77, 0x3d, 0x13, 0xf7, 0x87, 0xbc, 0x37, 0x6b, 0x59, 0x3c,
  0x88, 0x66, 0x6d, 0x3d, 0x2e, 0xad, 0x59, 0xbc, 0x2c, 0x5a, 0x39, 0x3d,
  0x4a, 0x75, 0xdc, 0xbc, 0x9a, 0xbf, 0x01, 0x3d, 0x91, 0x32, 0x2e, 0x3d,
  0x73, 0x03, 0x74, 0x3d, 0x37, 0x62, 0xa9, 0x3b, 0xf8, 0xfd, 0xeb, 0x3c,
  0x7c, 0x11, 0x2a, 0xbd, 0x81, 0xe3, 0x74, 0xbd, 0x32, 0x6c, 0x88, 0x3d,
  0x03, 0x17, 0x4a, 0x3d, 0xb7, 0x6d, 0x97, 0xbc, 0x74, 0x98, 0x82, 0xbd,
  0xaa, 0x1b, 0x8b, 0xbc, 0xc1, 0xa5, 0xfb, 0x3c, 0xd7, 0x6b, 0x06, 0xbd,
  0x77, 0xa6, 0x8c, 0xbc, 0x57, 0x6a, 0x03, 0xbb, 0xb5, 0x5f, 0xdd, 0x3c,
  0xe9, 0xda, 0x5c, 0xbd, 0x73, 0x96, 0x39, 0xbe, 0x81, 0x8d, 0xaf, 0xbd,
  0x3e, 0xd9, 0x81, 0xbc, 0x12, 0x66, 0x4a, 0xbc, 0xfa, 0xf4, 0xdc, 0xbc,
  0x4c, 0x34, 0xf2, 0x3c, 0xed, 0x1f, 0x88, 0xbe, 0x77, 0x64, 0xd2, 0xbe,
  0x35, 0x5a, 0x77, 0xbe, 0xb3, 0x98, 0xeb, 0x3c, 0x94, 0xf8, 0x7a, 0x3e,
  0x62, 0x65, 0xee, 0xb8, 0x3c, 0x15, 0x42, 0xbe, 0xa2, 0x7a, 0xcf, 0xbe,
  0xda, 0xae, 0x07, 0xbf, 0x42, 0xf0, 0xa5, 0xbe, 0x38, 0x02, 0xae, 0xbc,
  0xbe, 0x7c, 0xcd, 0x3c, 0x3a, 0x5f, 0xd6, 0x3b, 0xfe, 0xf8, 0x23, 0x3e,
  0x35, 0xdc, 0xd0, 0x3e, 0x1b, 0x97, 0xb8, 0x3d, 0x93, 0x75, 0x7e, 0x3e,
  0x4f, 0xc8, 0x07, 0xbd, 0xdf, 0xa9, 0x35, 0xbe, 0x88, 0xd1, 0xe6, 0x3c,
  0xd6, 0x9a, 0x67, 0x3e, 0xcb, 0x9c, 0x90, 0x3e, 0x0b, 0x52, 0x67, 0x3e,
  0xeb, 0x20, 0xa9, 0x3e, 0x70, 0xdb, 0x63, 0xbd, 0x42, 0xcd, 0x84, 0xbe,
  0x47, 0x50, 0x49, 0x3d, 0xde, 0x22, 0x13, 0xbf, 0xe6, 0x9d, 0x59, 0xbf,
  0xba, 0xa1, 0xad, 0xbe, 0x9e, 0x5b, 0xbd, 0xbe, 0x2c, 0x3c, 0xea, 0xbe,
  0xe4, 0x31, 0x58, 0xbe, 0x70, 0x15, 0x24, 0xbd, 0x0c, 0xd5, 0x56, 0xbe,
  0x39, 0x7f, 0xb2, 0xbe, 0x99, 0xf4, 0x83, 0xbe, 0x46, 0xd6, 0x15, 0xbe,
  0xed, 0x57, 0xa9, 0x3d, 0x7a, 0x2b, 0xfb, 0xbb, 0xfa, 0xc3, 0x8e, 0x3d,
  0xc5, 0x7e, 0xcd, 0x3c, 0x27, 0x07, 0x53, 0xbd, 0x0a, 0x20, 0x60, 0xbd,
  0x01, 0x91, 0xeb, 0xbc, 0x5e, 0x30, 0x0b, 0xbd, 0x7e, 0x47, 0x7e, 0x3d,
  0xaa, 0x17, 0x2c, 0x3d, 0x68, 0x7d, 0x6c, 0x3d, 0xf6, 0x5c, 0x82, 0xbd,
  0x34, 0x4d, 0x81, 0xbd, 0xa7, 0xa3, 0x0c, 0xbd, 0x05, 0x24, 0xc3, 0xbc,
  0x32, 0x41, 0x86, 0x3d, 0x0e, 0xe0, 0x6c, 0x3d, 0x05, 0x61, 0xf7, 0xbc,
  0xb5, 0xfc, 0x87, 0xbd, 0x6e, 0x4d, 0xc3, 0xbb, 0x30, 0x37, 0x80, 0x3d,
  0xbc, 0x82, 0xff, 0x3c, 0x6e, 0x07, 0xd7, 0xbc, 0x25, 0x0f, 0xa8, 0xbc,
  0x8a, 0xb7, 0x0f, 0x3d, 0xb7, 0xad, 0x1f, 0xba, 0x53, 0x50, 0x8e, 0xbd,
  0x18, 0xc3, 0xfe, 0x3c, 0xf7, 0x6f, 0x87, 0xbd, 0x20, 0xab, 0x87, 0xbc,
  0x73, 0x93, 0x27, 0xbd, 0x53, 0x09, 0x56, 0x3c, 0x1e, 0x04, 0x0c, 0x3d,
  0x97, 0x8d, 0x3b, 0x3d, 0xac, 0x81, 0x8c, 0x3d, 0x61, 0x04, 0x6b, 0xbd,
  0x9c, 0xc1, 0x1d, 0x3d, 0x13, 0x9b, 0x94, 0x3c, 0xca, 0xc2, 0x42, 0xbd,
  0xc5, 0x80, 0x65, 0x3d, 0xe0, 0x5e, 0x97, 0x3c, 0x11, 0x0d, 0x54, 0xbd,
  0x4a, 0xf1, 0xfc, 0x3b, 0xd3, 0xcc, 0x68, 0xbc, 0x27, 0x92, 0x06, 0x3d,
  0xac, 0xa6, 0x37, 0x3d, 0x57, 0x68, 0x89, 0x3d, 0x33, 0xbb, 0xe7, 0xbc,
  0xf6, 0xb4, 0x84, 0xbd, 0x4a, 0xae, 0x53, 0xba, 0x2a, 0x81, 0x8c, 0xbd,
  0x99, 0xb1, 0xba, 0xbc, 0xa0, 0x2e, 0x01, 0x3d, 0xb5, 0xa6, 0x0c, 0x3d,
  0x4e, 0x81, 0x03, 0xbd, 0xef, 0x27, 0x0e, 0xbd, 0xe8, 0xfa, 0x07, 0x3d,
  0x37, 0x52, 0xc2, 0x3c, 0x0c, 0xb6, 0x30, 0x3d, 0x52, 0x74, 0x5f, 0x3d,
  0xd8, 0x58, 0x07, 0x3d, 0x9b, 0x20, 0x07, 0x3e, 0x29, 0x5b, 0xa1, 0x3d,
  0xe3, 0x22, 0x42, 0xbe, 0x63, 0x94, 0x93, 0xbd, 0xa5, 0x9a, 0xfd, 0xbc,
  0x9f, 0x80, 0xf4, 0x3d, 0xdc, 0x6d, 0xdf, 0xbd, 0x76, 0x6f, 0x1a, 0xbe,
  0xc9, 0xb0, 0x8b, 0x3e, 0xb0, 0x7c, 0x5b, 0x3c, 0x9d, 0xcd, 0xbb, 0xbe,
  0xfe, 0x01, 0x78, 0x3d, 0x5f, 0xfa, 0x68, 0xbc, 0xb7, 0xc9, 0xb3, 0xbe,
  0x4e, 0x30, 0xc8, 0xbe, 0x73, 0x7d, 0xe3, 0x3e, 0x48, 0x6a, 0xdf, 0x3e,
  0x8e, 0xda, 0xad, 0x3d, 0x13, 0x67, 0x1c, 0x3c, 0xbe, 0xff, 0x18, 0x3e,
  0x1e, 0x7b, 0x4a, 0x3e, 0x00, 0x83, 0xb1, 0x3e, 0x13, 0xbd, 0xfc, 0x3d,
  0xbb, 0xd0, 0xf6, 0xbc, 0xf2, 0x88, 0xc6, 0xbc, 0x0b, 0x9f, 0x4d, 0xbd,
  0xb7, 0xcd, 0x83, 0xbd, 0x28, 0x56, 0xc2, 0xbe, 0x1f, 0x17, 0xd7, 0xbc,
  0xda, 0x26, 0xb5, 0xbd, 0x35, 0xaa, 0x1a, 0xbe, 0xac, 0x85, 0x1c, 0xbc,
  0xa6, 0x0f, 0x76, 0xbc, 0x55, 0x17, 0x64, 0xbd, 0xd7, 0xd7, 0xbb, 0xbd,
  0x94, 0xe3, 0xe2, 0xbc, 0xa6, 0x31, 0x2f, 0xbd, 0x6d, 0xc0, 0x6e, 0x3d,
  0x3f, 0x15, 0xc3, 0xbb, 0xe1, 0xc0, 0xed, 0xbc, 0x10, 0xd1, 0x00, 0x3d,
  0x75, 0x92, 0x60, 0xbd, 0x37, 0x02, 0x0b, 0x3c, 0x83, 0x91, 0x31, 0x3d,
  0x3d, 0x05, 0x85, 0x3d, 0x63, 0xd7, 0x66, 0xbd, 0xf3, 0x9b, 0xbd, 0x3c,
  0x01, 0x44, 0xc2, 0xbb, 0x6e, 0x6e, 0x17, 0xbb, 0x37, 0x4a, 0xbe, 0x3c,
  0x37, 0x4b, 0xda, 0xbc, 0xc0, 0x5c, 0x0a, 0xbd, 0x61, 0x6e, 0xad, 0x3c,
  0x8e, 0xf6, 0x60, 0x3d, 0x5e, 0x22, 0x08, 0xbd, 0x3f, 0x38, 0x82, 0xbd,
  0x83, 0x74, 0x0f, 0x3d, 0x40, 0x68, 0x0f, 0x3c, 0x93, 0xed, 0x56, 0xbb,
  0x34, 0x20, 0x91, 0x3d, 0x00, 0x40, 0x8b, 0xbd, 0x4a, 0x52, 0xda, 0xb8,
  0x2a, 0x73, 0x99, 0xbc, 0xb3, 0x7b, 0xd6, 0x3c, 0x2c, 0xff, 0x6d, 0x3d,
  0x37, 0x3c, 0x39, 0xbd, 0x0a, 0x19, 0x29, 0xbd, 0x65, 0xc8, 0x52, 0x3d,
  0xce, 0xff, 0x1e, 0x3d, 0xd6, 0xa7, 0x8f, 0xbd, 0x38, 0x80, 0xf2, 0xbb,
  0xc1, 0x27, 0x5e, 0xbc, 0xbe, 0xfe, 0x24, 0xbd, 0x8a, 0x79, 0x23, 0xbd,
  0xba, 0x8c, 0x80, 0x3d, 0x5c, 0x31, 0x72, 0xbd, 0x81, 0xdf, 0xb2, 0x3b,
  0x97, 0x38, 0x88, 0xbc, 0xdc, 0x4c, 0xeb, 0xbb, 0x4d, 0x57, 0x81, 0x3d,
  0x73, 0xcf, 0x21, 0xbd, 0x9c, 0xd3, 0x7f, 0x3c, 0x9a, 0x7c, 0x54, 0x3d,
  0x6d, 0xda, 0x85, 0x3d, 0xa1, 0x49, 0xc4, 0xbc, 0xee, 0xfc, 0xba, 0xbc,
  0x65, 0x2d, 0x03, 0xbc, 0x57, 0x14, 0xc3, 0xbc, 0x41, 0xb4, 0x39, 0x3d,
  0x4b, 0x4d, 0x35, 0x3c, 0xe5, 0x9d, 0x27, 0xbd, 0x17, 0x1f, 0x04, 0xbd,
  0xc5, 0xaf, 0x80, 0xbd, 0x02, 0x05, 0x9f, 0xbd, 0x00, 0x12, 0xd6, 0x3c,
  0xb1, 0x0d, 0x0d, 0xbc, 0xa3, 0x25, 0x86, 0xbe, 0x75, 0x95, 0x49, 0xbe,
  0x64, 0x86, 0x4f, 0xbe, 0xd3, 0x6e, 0xfe, 0xbd, 0x34, 0x78, 0xc5, 0x3e,
  0x3e, 0x78, 0x0d, 0x3f, 0x67, 0x4f, 0x0b, 0x3d, 0xd0, 0x6f, 0xca, 0xbe,
  0xe7, 0x7b, 0x71, 0x3d, 0x1c, 0x69, 0x56, 0x3d, 0xa4, 0x4c, 0xf7, 0xbd,
  0xf8, 0x72, 0x45, 0x3d, 0x1e, 0x12, 0x6d, 0x3f, 0x53, 0x61, 0xf6, 0x3c,
  0x90, 0x52, 0x1d, 0xbe, 0xef, 0xe4, 0xb0, 0x3e, 0xfa, 0xa2, 0x90, 0x3e,
  0x94, 0x50, 0xe6, 0xbe, 0xbc, 0x35, 0x81, 0xbf, 0x2f, 0x1d, 0x50, 0xbf,
  0x4c, 0x0b, 0x0c, 0x3c, 0xa2, 0xc2, 0xcb, 0xbe, 0xff, 0x62, 0x9c, 0xbe,
  0x33, 0x24, 0xa7, 0xbe, 0x3f, 0x64, 0x35, 0xbe, 0x3e, 0xcc, 0x88, 0xbd,
  0x4b, 0x2b, 0x99, 0xbe, 0x92, 0x47, 0x63, 0xbd, 0x95, 0x9e, 0x5c, 0x3d,
  0x02, 0x4b, 0x59, 0x3e, 0x92, 0xab, 0x23, 0xbe, 0x9b, 0xb1, 0xaf, 0x3d,
  0xd6, 0xbf, 0xe0, 0x3e, 0xa0, 0xb9, 0xcc, 0xbd, 0xd1, 0x1e, 0x50, 0x3c,
  0xb6, 0x84, 0x7c, 0xbe, 0x41, 0x2f, 0xee, 0x3d, 0xd5, 0xd1, 0x46, 0x3e,
  0xb1, 0x86, 0xe1, 0x3c, 0x96, 0xd6, 0x99, 0x3c, 0x96, 0x5b, 0xa3, 0x3d,
  0x67, 0x3a, 0x34, 0xbd, 0xbc, 0x10, 0xac, 0x3c, 0x71, 0xee, 0x75, 0x3d,
  0x37, 0x0f, 0x0e, 0xbc, 0xb8, 0x82, 0x74, 0xbd, 0x37, 0xf7, 0x07, 0x3c,
  0x81, 0x63, 0xdf, 0x3b, 0x95, 0x3f, 0x70, 0xbd, 0xca, 0x01, 0x5c, 0x3c,
  0x33, 0xc2, 0xf5, 0x3c, 0xc1, 0x5d, 0x55, 0xbc, 0x4a, 0x5e, 0x3e, 0x3a,
  0x0a, 0xf5, 0x13, 0x3c, 0xc4, 0x72, 0x81, 0x3d, 0x37, 0x58, 0x2f, 0xbc,
  0x53, 0x54, 0x86, 0xbd, 0x6c, 0x43, 0x73, 0xbd, 0x6e, 0x88, 0x4c, 0x3c,
  0x91, 0xb9, 0x6e, 0xbd, 0x6a, 0xb7, 0xf3, 0x3c, 0x33, 0xf2, 0x6d, 0xbd,
  0x21, 0xd5, 0xe5, 0xbc, 0xb7, 0x3e, 0xc3, 0xbb, 0x4b, 0x03, 0x8c, 0xbd,
  0x90, 0x5b, 0x0e, 0x3d, 0x33, 0xc7, 0x81, 0x3d, 0x25, 0xfc, 0x4d, 0x3b,
  0xf7, 0x88, 0x8f, 0x3d, 0xff, 0x30, 0x8a, 0x3d, 0x22, 0x8f, 0x88, 0x3d,
  0xee, 0x4f, 0xcd, 0xbb, 0x01, 0x78, 0x51, 0xba, 0x4a, 0x53, 0xc3, 0xbc,
  0xf3, 0x77, 0x22, 0x3d, 0xca, 0x93, 0x99, 0x3c, 0x84, 0x77, 0x8b, 0xbd,
  0x0e, 0x90, 0x25, 0x3d, 0xee, 0x2f, 0x78, 0x3d, 0x85, 0x95, 0x3d, 0x3d,
  0x8a, 0xf6, 0x8a, 0x3d, 0x7c, 0xef, 0x9f, 0xbc, 0xd1, 0x3f, 0x74, 0xbd,
  0x61, 0x6b, 0xb1, 0x3c, 0xf3, 0x1b, 0x2c, 0x3d, 0x6c, 0xee, 0x30, 0x3d,
  0x0a, 0x0f, 0xc1, 0xbc, 0x02, 0x67, 0x87, 0xbd, 0xcc, 0x3a, 0x64, 0xbd,
  0xb3, 0xf2, 0x15, 0x3d, 0xf0, 0x8d, 0x30, 0xbd, 0xb4, 0xaf, 0xbe, 0xbd,
  0xde, 0x38, 0xd4, 0xbd, 0x95, 0x0c, 0xbb, 0xbd, 0x96, 0xf9, 0x57, 0xbd,
  0xb5, 0xc1, 0xeb, 0xbd, 0xf6, 0xd8, 0x16, 0xbd, 0x99, 0x41, 0x44, 0xbd,
  0xae, 0xb7, 0xa1, 0xbc, 0xbe, 0x3b, 0xa6, 0x3c, 0xd6, 0xe7, 0x23, 0x3e,
  0x9e, 0x0a, 0xb0, 0xba, 0x49, 0x75, 0xcd, 0xbd, 0xf4, 0xa0, 0x82, 0xbd,
  0x93, 0x3c, 0x00, 0x3d, 0x15, 0x3f, 0x80, 0x3d, 0xf5, 0xc9, 0x23, 0x3e,
  0x15, 0xd5, 0xb4, 0x3c, 0x03, 0x52, 0xfe, 0x3e, 0xcb, 0xc2, 0x08, 0x3f,
  0x63, 0x76, 0x67, 0x3c, 0x9c, 0xe4, 0x07, 0xbd, 0xff, 0x5b, 0xb3, 0xbb,
  0x89, 0x5d, 0x3c, 0xbd, 0x8c, 0xf1, 0x20, 0xbe, 0x3a, 0x3f, 0x48, 0xbd,
  0xf2, 0x6b, 0x22, 0xbe, 0x08, 0x73, 0xfc, 0xbd, 0x31, 0x74, 0xd7, 0xbb,
  0xe8, 0x02, 0x35, 0x3d, 0x6d, 0x0c, 0xe2, 0xbe, 0x89, 0x8a, 0xab, 0xbe,
  0xaa, 0x9a, 0x37, 0xbe, 0xfb, 0x47, 0x8e, 0xbe, 0xde, 0xf6, 0x17, 0xbd,
  0xb5, 0x4f, 0x89, 0xbc, 0x99, 0x0c, 0x36, 0x3e, 0x46, 0xb9, 0x1a, 0x3e,
  0x80, 0x6d, 0x37, 0xbf, 0x51, 0xcf, 0x97, 0xbe, 0xf8, 0x0c, 0xc0, 0x3d,
  0x56, 0xe0, 0xdc, 0x3c, 0x16, 0x81, 0x79, 0xbd, 0x54, 0xe5, 0x07, 0xbd,
  0x6d, 0x3f, 0xd8, 0x3d, 0xc4, 0x55, 0x4b, 0x3e, 0xdb, 0xae, 0x34, 0x3d,
  0x47, 0x63, 0xab, 0x3b, 0x68, 0x5c, 0x80, 0xbd, 0x81, 0x6c, 0xc7, 0xbb,
  0x6e, 0x44, 0x8e, 0x3c, 0x18, 0x5e, 0xf6, 0x3c, 0xb7, 0x2e, 0x2f, 0x3b,
  0xb8, 0xb1, 0x63, 0xbc, 0x5e, 0x29, 0x4e, 0x3d, 0x77, 0x48, 0x58, 0x3c,
  0xb1, 0x98, 0x5c, 0x3d, 0x1c, 0x30, 0x5d, 0xbc, 0xb7, 0xaa, 0x83, 0xbc,
  0xe5, 0x69, 0x8e, 0xbd, 0xd7, 0x09, 0xc0, 0xbc, 0x13, 0xa8, 0x1f, 0xbd,
  0x6e, 0x9f, 0x2d, 0xbd, 0x1e, 0xf3, 0x60, 0xbd, 0x8a, 0xdc, 0xf1, 0x3c,
  0x41, 0x09, 0x6d, 0xbc, 0xd0, 0xb3, 0x16, 0xbd, 0xce, 0x09, 0xa3, 0x3c,
  0xe3, 0x10, 0x2e, 0x3d, 0x5a, 0x97, 0x13, 0xbd, 0x11, 0xb2, 0x58, 0x3d,
  0x9c, 0xfd, 0x31, 0x3d, 0x4a, 0xc0, 0xa0, 0xbb, 0x01, 0x7c, 0x7c, 0xbd,
  0x73, 0x41, 0x2e, 0x3d, 0xdc, 0x91, 0x51, 0xbd, 0x47, 0xe7, 0x1c, 0xbd,
  0x81, 0x86, 0x44, 0x3d, 0x37, 0x91, 0xd5, 0x3c, 0x81, 0x54, 0x36, 0xbc,
  0xca, 0x0e, 0x00, 0xbd, 0xea, 0x4b, 0x28, 0xbd, 0xd7, 0x7b, 0xc2, 0xbc,
  0x57, 0x3d, 0xa5, 0x3c, 0x36, 0x0a, 0x8c, 0xbd, 0xee, 0x39, 0xdd, 0xbc,
  0x2a, 0x2a, 0x2c, 0x3d, 0x31, 0xe9, 0x2a, 0xbd, 0x37, 0x7d, 0x92, 0xbb,
  0x91, 0xc9, 0x64, 0x3d, 0xfc, 0x99, 0x03, 0xbd, 0xe5, 0x09, 0x70, 0xbd,
  0x00, 0x42, 0x9c, 0xba, 0xb7, 0x8d, 0xd5, 0x39, 0x1a, 0xaa, 0x3e, 0x3d,
  0x65, 0xb9, 0x21, 0x3c, 0x11, 0x8f, 0x7f, 0xbd, 0x31, 0xce, 0x3b, 0x3d,
  0x3b, 0x5c, 0x0d, 0x3a, 0x14, 0xca, 0x50, 0x3d, 0xc2, 0xad, 0x05, 0x3e,
  0x6c, 0x7f, 0x47, 0x3e, 0xa1, 0x37, 0x13, 0x3e, 0x19, 0x8a, 0x79, 0x3d,
  0x04, 0xac, 0x57, 0xbd, 0x43, 0x41, 0x91, 0x3d, 0x40, 0xd9, 0xe0, 0xbd,
  0x1c, 0x92, 0x9f, 0xbd, 0x90, 0x89, 0x9a, 0xbe, 0x02, 0x05, 0x84, 0x3c,
  0x12, 0xef, 0x01, 0x3e, 0x4d, 0x09, 0x8e, 0xbd, 0x29, 0x99, 0x39, 0xbd,
  0x60, 0x95, 0x8c, 0xbe, 0xec, 0x6a, 0x10, 0xbe, 0xa3, 0xfd, 0x92, 0xbe,
  0xf6, 0x39, 0x27, 0xbf, 0x0e, 0x24, 0x79, 0xbf, 0x44, 0x78, 0xfa, 0xbe,
  0x82, 0xd7, 0x32, 0x3d, 0xc5, 0x87, 0xbd, 0xbc, 0x70, 0xbe, 0xbd, 0xbd,
  0x0b, 0x02, 0x0c, 0x3e, 0xc1, 0xa4, 0xe5, 0xbd, 0xea, 0x3f, 0x16, 0x3e,
  0xe0, 0xb3, 0xdd, 0x3e, 0x52, 0x6e, 0x72, 0x3b, 0xf7, 0x7f, 0x5f, 0xbe,
  0xa4, 0x62, 0xa7, 0x3e, 0x91, 0x0d, 0x98, 0x3d, 0xaa, 0x36, 0x45, 0x3e,
  0xfe, 0xcb, 0x56, 0x3e, 0xb2, 0x52, 0x7c, 0x3e, 0xf4, 0x4f, 0x44, 0x3d,
  0x46, 0xfd, 0x2b, 0xbf, 0x4e, 0xef, 0x9f, 0xbd, 0xa4, 0x0a, 0xec, 0x3e,
  0xd2, 0x92, 0xae, 0x3e, 0x99, 0x3d, 0x3e, 0xbe, 0x36, 0xc8, 0xcf, 0xbe,
  0xc3, 0x6e, 0x80, 0x3d, 0x74, 0x27, 0xdf, 0xbd, 0xae, 0x1d, 0x16, 0xbf,
  0xb7, 0x36, 0x6d, 0xbf, 0x70, 0xfe, 0x49, 0xbf, 0x38, 0x84, 0x4f, 0xbe,
  0xea, 0xfd, 0xf9, 0x3b, 0x4e, 0xf0, 0x33, 0x3d, 0x10, 0xea, 0x8e, 0xbd,
  0xb7, 0x3f, 0x30, 0xbd, 0x9c, 0x87, 0x3b, 0xbc, 0x78, 0x2b, 0x8b, 0xbd,
  0x2e, 0x88, 0x59, 0x3d, 0x7c, 0xa5, 0x55, 0xbd, 0x1a, 0x9c, 0x3d, 0x3d,
  0x13, 0x7a, 0xc8, 0xbc, 0x8a, 0x4d, 0x58, 0x3d, 0xc5, 0x14, 0x93, 0xbc,
  0x63, 0xcc, 0x67, 0xbd, 0x3b, 0x7a, 0x8d, 0xbd, 0x25, 0x22, 0xbf, 0xbb,
  0x05, 0xbf, 0x81, 0x3c, 0x77, 0xe3, 0x5a, 0x3c, 0x57, 0x63, 0x8d, 0x3c,
  0x37, 0xb9, 0xb9, 0x3b, 0x77, 0x40, 0x37, 0xbc, 0x80, 0xed, 0x9a, 0xbb,
  0x4c, 0x44, 0x0f, 0xbd, 0xa0, 0x79, 0x81, 0xbd, 0x25, 0x99, 0xce, 0x3a,
  0xae, 0x6d, 0x26, 0x3c, 0xfa, 0x8d, 0x27, 0x3d, 0x8e, 0x4e, 0x68, 0x3d,
  0x80, 0x5a, 0x80, 0xbd, 0x05, 0xb3, 0xef, 0x3c, 0x4a, 0x60, 0xe6, 0xbc,
  0x0c, 0x19, 0x1a, 0xbd, 0xbc, 0x5d, 0x0d, 0x3d, 0xba, 0x1d, 0x0a, 0x3d,
  0x5c, 0x89, 0xd3, 0x3c, 0x40, 0xf2, 0x90, 0x3c, 0x71, 0x36, 0x33, 0x3d,
  0x38, 0xc9, 0xf1, 0xbb, 0x13, 0x22, 0x03, 0xbc, 0x8a, 0x75, 0xff, 0x3c,
  0x53, 0xe5, 0x74, 0x3c, 0x68, 0x22, 0x76, 0xbd, 0xce, 0xcf, 0x5c, 0xbd,
  0x5a, 0xe7, 0x81, 0x3d, 0x5c, 0xeb, 0xfe, 0xbb, 0x6a, 0xb8, 0xfa, 0x3c,
  0xe5, 0x2e, 0x63, 0x3d, 0xf3, 0xe7, 0xb3, 0x3c, 0x6e, 0x13, 0xf7, 0xb9,
  0x6e, 0x74, 0x57, 0x3b, 0xc7, 0xd8, 0x06, 0xbd, 0x62, 0xce, 0x10, 0xbc,
  0x1f, 0xb3, 0x01, 0xbd, 0x16, 0x3e, 0x43, 0x3c, 0xc9, 0xe9, 0xbc, 0xbd,
  0x0b, 0xbe, 0xce, 0xbd, 0x08, 0x3a, 0xf5, 0xbc, 0x33, 0x6c, 0x80, 0x3c,
  0xf6, 0x49, 0xd0, 0xbd, 0x79, 0xfc, 0x16, 0x3d, 0xf9, 0x1b, 0xb8, 0x3d,
  0x69, 0xf6, 0x95, 0x3e, 0x63, 0xb3, 0xa9, 0x3e, 0x4d, 0x60, 0xe8, 0x3d,
  0x22, 0x44, 0x14, 0x3d, 0x2e, 0xed, 0xd2, 0xbd, 0x29, 0x58, 0x91, 0xbe,
  0x9e, 0x2d, 0x9a, 0xbe, 0xe4, 0x72, 0xd0, 0xbe, 0xe9, 0xc7, 0xf2, 0xbe,
  0x7e, 0xe0, 0x21, 0xbe, 0xf1, 0x74, 0x42, 0x3d, 0x24, 0x38, 0xad, 0xbd,
  0xef, 0xc6, 0x02, 0xbe, 0x6c, 0x45, 0x8f, 0x3e, 0x2e, 0x9c, 0xf6, 0x3e,
  0x51, 0xf5, 0x2a, 0xbe, 0xea, 0x76, 0x4c, 0xbe, 0x31, 0x0d, 0x0f, 0x3d,
  0xaf, 0x4c, 0xf4, 0x3c, 0xf7, 0xee, 0xd7, 0x3d, 0x7e, 0xf0, 0x7a, 0x3e,
  0x91, 0x40, 0xb8, 0x3e, 0xe7, 0x2a, 0x2a, 0xbe, 0xce, 0x97, 0x4e, 0x3d,
  0xdf, 0x97, 0x82, 0xbd, 0xd2, 0x17, 0xe0, 0x3c, 0xf4, 0xdc, 0x85, 0x3d,
  0x0d, 0x16, 0x85, 0x3e, 0xc0, 0xe5, 0xd2, 0xbb, 0x92, 0x9a, 0x90, 0x3e,
  0x37, 0xb5, 0x54, 0x3e, 0xec, 0xb6, 0x86, 0x3c, 0xe0, 0xaa, 0x27, 0x3c,
  0xa9, 0x01, 0x56, 0xbd, 0xf5, 0x94, 0x81, 0xbe, 0x7e, 0xa1, 0xc9, 0xbd,
  0x61, 0xc0, 0xf7, 0xbd, 0x12, 0xf2, 0xda, 0xbc, 0xf8, 0x4a, 0xcc, 0x3c,
  0xcc, 0x32, 0x64, 0x3d, 0x25, 0x37, 0xaa, 0x3b, 0x11, 0xb7, 0x2f, 0xbd,
  0xf0, 0x31, 0x82, 0x3d, 0x6e, 0xbe, 0xcd, 0xbb, 0x24, 0xe7, 0x81, 0xbd,
  0xa7, 0x43, 0x87, 0xbd, 0x65, 0xc7, 0xd2, 0xbc, 0x8c, 0xb3, 0x04, 0xbd,
  0xfc, 0x46, 0x45, 0x3d, 0xf3, 0x66, 0xce, 0xbc, 0xa5, 0x8f, 0x8b, 0x3c,
  0x0c, 0x1a, 0x71, 0x3d, 0x65, 0xd4, 0x91, 0x3d, 0xa3, 0xa3, 0x52, 0x3d,
  0x03, 0x0b, 0x6b, 0x3d, 0x2c, 0x02, 0x58, 0x3d, 0xcf, 0xd3, 0x86, 0xbd,
  0x1c, 0xba, 0x10, 0xbc, 0x0a, 0x2a, 0xb0, 0x3c, 0x0e, 0x89, 0x94, 0xbc,
  0x3a, 0x7f, 0x68, 0x3d, 0xac, 0x31, 0x43, 0x3d, 0xb2, 0x77, 0x8f, 0x3d,
  0x5c, 0x46, 0x51, 0xbd, 0x37, 0xc7, 0xc4, 0x3c, 0x65, 0xab, 0x75, 0x3d,
  0x81, 0x17, 0x3e, 0xbd, 0x98, 0x2b, 0xf7, 0x3c, 0x5c, 0x30, 0x23, 0xbc,
  0x5e, 0x43, 0x7e, 0xbd, 0x6e, 0xa6, 0x42, 0x3b, 0x73, 0xe2, 0xd2, 0x3c,
  0xe0, 0x69, 0x9f, 0x3c, 0x81, 0xfa, 0xf2, 0xbc, 0x57, 0xc4, 0xab, 0xbc,
  0x6e, 0xfa, 0x6c, 0x3c, 0x8e, 0x11, 0xbb, 0x3c, 0x21, 0x9a, 0xad, 0xbc,
  0x01, 0x8a, 0x6c, 0x3b, 0x33, 0x8d, 0x96, 0xbc, 0x77, 0x3d, 0x02, 0xbd,
  0xc3, 0xcd, 0x66, 0x3d, 0x37, 0x5f, 0x24, 0x3d, 0xa5, 0x26, 0x67, 0x3c,
  0xca, 0x98, 0x62, 0x3d, 0x13, 0x40, 0xbe, 0x3c, 0xce, 0xa8, 0x81, 0xbd,
  0x21, 0xa7, 0x4e, 0x3d, 0x63, 0x48, 0x87, 0x3d, 0x39, 0xf9, 0xce, 0xbc,
  0x7c, 0x7b, 0x0c, 0x3d, 0xa4, 0xc6, 0x71, 0x3c, 0x27, 0x3b, 0x8f, 0xbc,
  0xdf, 0x72, 0x18, 0xbd, 0x81, 0x5f, 0xaf, 0xbc, 0x54, 0xe7, 0x87, 0xbd,
  0x37, 0x5f, 0xd8, 0xbd, 0x40, 0x22, 0x7f, 0xbe, 0x7c, 0x95, 0x11, 0xbf,
  0xe2, 0x78, 0x27, 0xbf, 0xc5, 0x72, 0x11, 0xbf, 0x8a, 0x67, 0xcd, 0xbd,
  0x52, 0x1b, 0xad, 0x3c, 0xb7, 0xed, 0xf2, 0x3e, 0xbe, 0x8b, 0x34, 0x3e,
  0xc7, 0x3e, 0xdc, 0x3d, 0x40, 0x02, 0x1b, 0x3e, 0xb4, 0xf4, 0x8e, 0x3d,
  0x07, 0x4f, 0xc5, 0xbe, 0x9f, 0x91, 0x6b, 0x3d, 0x47, 0xfb, 0x74, 0x3e,
  0x61, 0xd7, 0xc0, 0xbe, 0x5a, 0x3d, 0x17, 0xbf, 0xda, 0x9b, 0x90, 0x3d,
  0x73, 0xea, 0x7a, 0x3e, 0x43, 0x25, 0x86, 0xbe, 0xc0, 0x55, 0xd7, 0x3c,
  0x82, 0xf5, 0x7b, 0xbe, 0xb6, 0x5c, 0xfe, 0xbe, 0xd7, 0x80, 0xff, 0xbe,
  0x8f, 0xb8, 0xc8, 0x3d, 0xa5, 0xd8, 0xa0, 0x3d, 0x1a, 0x52, 0x7d, 0xbe,
  0x62, 0x0e, 0x7f, 0xbd, 0xd8, 0x7d, 0x21, 0xbf, 0x68, 0x68, 0xa1, 0xbe,
  0x62, 0xaa, 0x06, 0x3c, 0xe6, 0x2d, 0xb9, 0xbe, 0x6a, 0xd3, 0x48, 0xbf,
  0xe3, 0x13, 0x7c, 0xbe, 0x48, 0x0b, 0x73, 0xbc, 0xd2, 0x63, 0x9d, 0x3e,
  0xa1, 0x7c, 0x6d, 0x3e, 0x3c, 0xb3, 0x94, 0xbc, 0x32, 0x28, 0x24, 0x3d,
  0x4b, 0x19, 0x8b, 0xbe, 0x27, 0x10, 0xcd, 0xbc, 0x05, 0x35, 0x85, 0x3c,
  0x0e, 0x94, 0x5b, 0x3d, 0x85, 0x62, 0x83, 0xbd, 0x8a, 0xcd, 0x87, 0xbd,
  0x85, 0x61, 0xb9, 0x3c, 0xa3, 0xdd, 0x39, 0xbd, 0xdc, 0xed, 0xf4, 0xbc,
  0xca, 0x26, 0x90, 0xbb, 0x75, 0x6d, 0x8d, 0xbd, 0xa5, 0xfc, 0x85, 0xbc,
  0xe5, 0xc3, 0xda, 0xbc, 0x8e, 0x29, 0xcd, 0xbc, 0x8c, 0x2f, 0x5b, 0xbd,
  0x97, 0x3e, 0x34, 0xbd, 0xd3, 0xdf, 0x78, 0xbd, 0xb7, 0xc7, 0x27, 0xbd,
  0x60, 0xfc, 0x17, 0xbd, 0x1c, 0xa7, 0x69, 0x3d, 0x6a, 0xc6, 0x99, 0xbc,
  0x2c, 0x27, 0x17, 0xbd, 0x9c, 0x69, 0x6e, 0xbd, 0x4a, 0x99, 0x09, 0xbb,
  0x80, 0xc6, 0x03, 0x3d, 0x5c, 0x57, 0xe6, 0xbb, 0x61, 0xe2, 0xb4, 0xbc,
  0xae, 0x3e, 0x00, 0xbd, 0x07, 0x0d, 0x00, 0xbd, 0xb7, 0x7c, 0x50, 0xbd,
  0xb7, 0x51, 0x50, 0xbd, 0x8a, 0xbe, 0x5e, 0x3d, 0x5c, 0xb6, 0x2e, 0x3d,
  0xe5, 0x76, 0x31, 0xbd, 0xaa, 0x88, 0x1f, 0xbd, 0xff, 0xba, 0x83, 0x3d,
  0x20, 0xbe, 0x13, 0x3d, 0x4a, 0x2e, 0x39, 0x3d, 0x93, 0xc3, 0x72, 0x3c,
  0x17, 0x1c, 0x2e, 0x3d, 0x6a, 0x13, 0x4a, 0xbd, 0xf5, 0x50, 0x53, 0xbd,
  0xfe, 0x9e, 0x4d, 0xbd, 0x32, 0x6c, 0x91, 0xbd, 0x38, 0x71, 0x76, 0xbc,
  0xac, 0x2c, 0x46, 0x3d, 0x1a, 0x78, 0x8e, 0xbd, 0x13, 0x92, 0x9b, 0x3b,
  0x4c, 0xd6, 0x52, 0x3d, 0xdc, 0x4c, 0xde, 0xbb, 0xb1, 0xc8, 0x37, 0xbd,
  0x55, 0x07, 0x44, 0x3d, 0x36, 0x88, 0x0c, 0xbd, 0xf5, 0xaf, 0xb0, 0xbb,
  0xc0, 0xe7, 0x36, 0xbd, 0xdb, 0x39, 0x91, 0xbd, 0xaf, 0xc0, 0x04, 0xbd,
  0xf4, 0x23, 0x87, 0xbc, 0x4c, 0xda, 0x79, 0x3c, 0x24, 0xda, 0x21, 0x3d,
  0xbe, 0xa4, 0x81, 0x3d, 0x32, 0x02, 0x83, 0xbe, 0x2a, 0xf1, 0xc0, 0xbe,
  0x50, 0x22, 0x2c, 0x3c, 0x7c, 0xf5, 0x79, 0xbd, 0xb2, 0x8e, 0xc0, 0xbc,
  0x86, 0x60, 0x5b, 0x3d, 0x18, 0x68, 0x86, 0xbe, 0x09, 0xce, 0x79, 0xbe,
  0x34, 0xda, 0xbf, 0x3d, 0x19, 0x0d, 0x94, 0xbe, 0x8e, 0x42, 0x88, 0xbd,
  0x60, 0x2f, 0x80, 0xbc, 0x96, 0x77, 0xc4, 0x3d, 0x3b, 0x8d, 0xae, 0x3d,
  0x10, 0x33, 0x32, 0xbf, 0x38, 0xa2, 0xc1, 0xbe, 0x13, 0xb6, 0x11, 0xbd,
  0x70, 0x0f, 0x8b, 0xbc, 0xb4, 0xdb, 0x34, 0x3d, 0x29, 0xa4, 0x94, 0x3d,
  0xd4, 0xb5, 0x0f, 0x3c, 0xb1, 0xfb, 0x46, 0xbf, 0xeb, 0x55, 0x78, 0x3d,
  0xbe, 0x0a, 0x74, 0x3e, 0x9c, 0xde, 0x10, 0xbd, 0xa6, 0x9b, 0x45, 0xbd,
  0x35, 0xae, 0x9b, 0x3d, 0x0e, 0xaa, 0x78, 0xbe, 0x6c, 0xeb, 0xdb, 0xbd,
  0x94, 0xde, 0x01, 0xbe, 0x47, 0x76, 0xc5, 0x3b, 0x49, 0xc5, 0x39, 0x3d,
  0x3f, 0x27, 0x37, 0x3d, 0xad, 0xbb, 0x14, 0xbd, 0xdc, 0x86, 0xb4, 0xbc,
  0xee, 0xe3, 0x14, 0xbe, 0x7f, 0x4d, 0xee, 0xbd, 0x6d, 0x34, 0xbd, 0x3b,
  0x32, 0x20, 0x69, 0x3b, 0x33, 0x55, 0xd8, 0x3c, 0xb7, 0xc3, 0x24, 0xbb,
  0x9c, 0x8e, 0x13, 0x3c, 0x2c, 0xd1, 0x0b, 0x3d, 0x9e, 0xe5, 0x1c, 0xbd,
  0xac, 0xa7, 0x08, 0x3d, 0xf3, 0x6f, 0x0d, 0xbd, 0xdc, 0x71, 0x7f, 0xbc,
  0xf7, 0x41, 0x08, 0x3d, 0x83, 0xdb, 0x30, 0x3d, 0x6e, 0x7f, 0xc9, 0x3b,
  0xfa, 0x8c, 0x6d, 0xbd, 0x5a, 0x6c, 0x18, 0x3d, 0x6e, 0x2f, 0xa3, 0x3a,
  0x20, 0xf2, 0xa8, 0x3c, 0xb7, 0x15, 0x27, 0x3b, 0x93, 0xf8, 0x34, 0x3a,
  0x00, 0x18, 0x05, 0x3c, 0x5c, 0xfb, 0x9d, 0x3b, 0x88, 0x24, 0x81, 0x3d,
  0xc7, 0x7b, 0x1d, 0x3d, 0x8c, 0xf4, 0x5b, 0xbd, 0x40, 0x92, 0x12, 0x3c,
  0x7d, 0xb4, 0x89, 0x3d, 0xce, 0x04, 0xc2, 0x3c, 0x67, 0xd9, 0x8a, 0xbd,
  0xaa, 0xf2, 0xde, 0xbc, 0x67, 0xb6, 0x09, 0x3d, 0x2e, 0x4f, 0x1f, 0x3c,
  0x53, 0xc0, 0xef, 0xbc, 0xce, 0x8c, 0x32, 0xbd, 0xca, 0x58, 0xe9, 0xbc,
  0xd7, 0x68, 0xa0, 0x3c, 0x1a, 0x81, 0x8c, 0xbd, 0xee, 0x03, 0x65, 0x3d,
  0x9c, 0xc5, 0x5f, 0x3d, 0xf0, 0xb0, 0x0e, 0xbd, 0x6e, 0x11, 0xf6, 0xbb,
  0x6e, 0x06, 0xa7, 0x3b, 0x6e, 0xfc, 0x9c, 0xbb, 0x6a, 0x93, 0x28, 0xbd,
  0x61, 0x91, 0xc4, 0x3c, 0x43, 0x93, 0x42, 0xbd, 0xd3, 0xff, 0x19, 0x3d,
  0xbe, 0x30, 0x07, 0xbd, 0xfc, 0x09, 0x49, 0x3d, 0x6e, 0x00, 0x60, 0xbc,
  0x7c, 0xe9, 0x8f, 0x3d, 0x5c, 0xd0, 0xd3, 0xbb, 0x03, 0x3c, 0xbf, 0xbc,
  0x4e, 0x88, 0x68, 0x3d, 0xf6, 0x13, 0x83, 0x3c, 0x2d, 0x5f, 0x2c, 0xbc,
  0xb4, 0x42, 0xb7, 0xbd, 0xd2, 0x14, 0x95, 0xbd, 0x4a, 0xcd, 0x60, 0xbd,
  0x74, 0x3e, 0x24, 0xbd, 0xd2, 0x62, 0x27, 0xbe, 0xbb, 0xa5, 0xa1, 0xbe,
  0xb8, 0xc5, 0x85, 0x3e, 0x01, 0x86, 0x2d, 0x3e, 0x62, 0x0a, 0xe8, 0x3d,
  0xf4, 0x70, 0x80, 0xbd, 0x61, 0xd2, 0x6b, 0xbd, 0x68, 0x24, 0x89, 0xbd,
  0x66, 0x5f, 0xcd, 0x3e, 0x7d, 0x21, 0x47, 0x3e, 0xcb, 0x30, 0x2f, 0x3c,
  0xf1, 0x2a, 0x95, 0x3e, 0xa5, 0x9f, 0x06, 0x3f, 0x1e, 0x0e, 0xd4, 0x3c,
  0xd9, 0x43, 0x91, 0xbd, 0x48, 0x05, 0xa2, 0x3d, 0x98, 0x74, 0xd3, 0x3e,
  0xb3, 0xb7, 0x19, 0x3e, 0x19, 0x3e, 0xb1, 0x3d, 0xa4, 0x8d, 0x78, 0x3e,
  0xbc, 0x9d, 0x7c, 0xbd, 0xbc, 0x45, 0x21, 0xbf, 0xbd, 0x9c, 0xd5, 0xbd,
  0x6e, 0x29, 0xfc, 0x3e, 0x64, 0xc1, 0x1b, 0xbe, 0xa0, 0xad, 0x1e, 0xbf,
  0xe7, 0x75, 0x6b, 0xbe, 0x2d, 0x4b, 0x8d, 0xbd, 0x35, 0xc4, 0xa9, 0xbe,
  0xd9, 0x87, 0x4d, 0x3e, 0x9b, 0x3c, 0x3c, 0xbe, 0xf8, 0xf0, 0x12, 0x3b,
  0x69, 0x08, 0x32, 0x3d, 0x95, 0x29, 0x07, 0xbf, 0x2f, 0xdf, 0xeb, 0x3c,
  0x42, 0xef, 0x9c, 0xbe, 0x62, 0x44, 0x8f, 0x3c, 0xea, 0x8e, 0xe8, 0x3e,
  0xae, 0x47, 0x08, 0x3f, 0x86, 0xf0, 0x48, 0x3e, 0x64, 0x30, 0x92, 0xbc,
  0xda, 0x13, 0x37, 0xbd, 0x13, 0x82, 0x3b, 0xbd, 0xee, 0xab, 0x9e, 0x3c,
  0xa5, 0x4e, 0xc2, 0xbc, 0x90, 0xbe, 0x8b, 0x3d, 0x4e, 0xda, 0xa9, 0x3c,
  0x83, 0xac, 0x7c, 0x3d, 0x17, 0x42, 0x4b, 0xbd, 0xee, 0x84, 0xd7, 0x3c,
  0x81, 0x8d, 0x37, 0xbc, 0x57, 0x45, 0x38, 0x3d, 0x15, 0x5c, 0x65, 0xbd,
  0x08, 0x7f, 0x60, 0x3d, 0x25, 0xce, 0x88, 0x3c, 0xd3, 0xd4, 0x61, 0x3d,
  0xdc, 0x57, 0xc7, 0x3c, 0xec, 0x50, 0x61, 0x3d, 0x3c, 0xe4, 0x36, 0x3d,
  0xc5, 0x23, 0x6a, 0xbd, 0xc3, 0x65, 0x5c, 0xbd, 0x6e, 0xee, 0x0e, 0x3b,
  0xfe, 0xe2, 0x02, 0xbd, 0xb7, 0xa5, 0x08, 0x3c, 0x6e, 0xdc, 0x3a, 0xbc,
  0xdc, 0xad, 0x3f, 0x3c, 0x4e, 0x4d, 0xc9, 0xbc, 0x15, 0x11, 0x0a, 0xbd,
  0x2e, 0x49, 0xf3, 0xbc, 0x93, 0xfd, 0x59, 0x3c, 0x93, 0x30, 0x95, 0x3c,
  0x81, 0x55, 0xc2, 0x3b, 0xa3, 0xd3, 0x04, 0x3d, 0xba, 0xb4, 0x7f, 0xbd,
  0x0a, 0x92, 0x1a, 0x3d, 0xe0, 0xed, 0x1f, 0xbd, 0x62, 0x2e, 0x83, 0x3d,
  0xa7, 0xd9, 0x28, 0x3d, 0x13, 0x3e, 0xdc, 0xbc, 0x78, 0xf1, 0x68, 0xbd,
  0xe7, 0x1c, 0x40, 0xbd, 0xa5, 0xdc, 0x89, 0x3b, 0xbe, 0x4f, 0x24, 0x3d,
  0x2e, 0x30, 0x2a, 0xbd, 0x0a, 0x83, 0x4f, 0xbc, 0x98, 0x4c, 0x5e, 0xbd,
  0xec, 0x1b, 0x3f, 0xbd, 0xd3, 0x70, 0xce, 0xbc, 0xe5, 0x53, 0x6d, 0x3d,
  0x25, 0x50, 0xa6, 0xbc, 0xfb, 0x55, 0x33, 0x3c, 0x5d, 0x89, 0x9d, 0x3c,
  0x69, 0x90, 0x5e, 0xbc, 0x88, 0xdd, 0x8c, 0xbc, 0x34, 0xcf, 0xd3, 0xbc,
  0x59, 0x49, 0x4d, 0xbd, 0x3f, 0xa5, 0x8d, 0xbd, 0x3f, 0xaf, 0x9a, 0xbc,
  0xdb, 0x98, 0x97, 0xbd, 0x50, 0x09, 0xcf, 0x3d, 0x6b, 0x0c, 0x66, 0x3e,
  0x2e, 0xa2, 0x9c, 0x3e, 0x4d, 0xb0, 0xfe, 0x3d, 0xea, 0xf0, 0x7c, 0xbd,
  0x66, 0xca, 0x1d, 0x3d, 0x6c, 0xd5, 0x23, 0x3e, 0x1e, 0x81, 0x2b, 0x3e,
  0xce, 0xc5, 0xed, 0xbe, 0xf8, 0xbe, 0x3e, 0xbe, 0xe0, 0x63, 0xbb, 0x3d,
  0x00, 0x46, 0xc9, 0x3d, 0xeb, 0x1b, 0xa6, 0xbc, 0xa7, 0x6c, 0x5a, 0xbe,
  0x14, 0xb4, 0xf6, 0xbe, 0xa7, 0xf0, 0xe8, 0xbd, 0x95, 0xd2, 0xb8, 0xbe,
  0xac, 0x99, 0xcb, 0xbd, 0x26, 0x4b, 0x95, 0x3c, 0x08, 0x18, 0x8b, 0xbc,
  0x01, 0x98, 0x18, 0xbd, 0x1a, 0x09, 0xe0, 0xbd, 0x7d, 0x25, 0xe6, 0x3c,
  0xd9, 0x2f, 0x1b, 0xbe, 0x21, 0xee, 0x31, 0x3e, 0x14, 0xc5, 0xf7, 0x3c,
  0xc8, 0xb9, 0x6e, 0xbd, 0x40, 0x24, 0x67, 0x3d, 0xde, 0x2b, 0xc4, 0x3e,
  0x85, 0x5b, 0x47, 0x3e, 0x0e, 0x5a, 0x65, 0x3e, 0xbc, 0xf8, 0x40, 0xbd,
  0x1f, 0xae, 0x14, 0xbc, 0x0c, 0x6c, 0xd2, 0x3c, 0xc8, 0xf9, 0x6d, 0xbc,
  0x06, 0xc7, 0x2b, 0xbe, 0x6b, 0x3c, 0xf4, 0xbd, 0x11, 0xea, 0x84, 0xbe,
  0x8b, 0x8f, 0x40, 0xbe, 0x96, 0x3a, 0xc3, 0xbd, 0x17, 0xc5, 0x80, 0xbc,
  0x5e, 0x8a, 0x83, 0x3d, 0xea, 0xa1, 0x29, 0xbd, 0x5e, 0xa1, 0x37, 0xbd,
  0x13, 0xd3, 0x4e, 0x3d, 0x25, 0x99, 0x35, 0x3d, 0x3e, 0x26, 0x6a, 0x3d,
  0x95, 0xd3, 0x77, 0xbd, 0x6e, 0x41, 0x69, 0x3d, 0x43, 0xd1, 0x54, 0x3d,
  0x98, 0xa3, 0xe7, 0x3c, 0x43, 0x7f, 0x76, 0x3d, 0x53, 0xe3, 0x03, 0x3d,
  0xaa, 0x7f, 0xdc, 0x3c, 0xca, 0x57, 0x9e, 0xbc, 0x0e, 0x30, 0xf0, 0xbc,
  0x10, 0x0a, 0x1d, 0xbd, 0x6e, 0x8c, 0x8c, 0xbc, 0x0a, 0xa5, 0xc3, 0x3c,
  0x10, 0x76, 0x80, 0x3d, 0x5c, 0x3e, 0x01, 0x3d, 0x65, 0x28, 0x5f, 0xbd,
  0x85, 0xe2, 0x0f, 0xbd, 0xaa, 0xc2, 0x8d, 0x3d, 0x32, 0xa1, 0x82, 0xbd,
  0x05, 0xb5, 0xbc, 0xbc, 0xa5, 0xb0, 0x6e, 0x3c, 0x5a, 0x7f, 0x29, 0x3d,
  0x8e, 0xde, 0x49, 0xbd, 0xb7, 0xa1, 0x93, 0x3a, 0x65, 0x0f, 0x21, 0x3d,
  0x01, 0xa8, 0x7d, 0x3d, 0xe3, 0x44, 0x8a, 0x3d, 0x6e, 0xeb, 0x0d, 0x3d,
  0x9e, 0x61, 0x6b, 0x3d, 0x4c, 0xe9, 0x6f, 0xbd, 0x77, 0xf7, 0x14, 0xbd,
  0x48, 0x57, 0x85, 0xbd, 0xfe, 0xf3, 0x66, 0x3d, 0xd3, 0x0e, 0x9d, 0x3c,
  0x3c, 0x6c, 0x97, 0xbc, 0x7c, 0xd9, 0x5c, 0x3d, 0x9c, 0xbf, 0x25, 0x3d,
  0x9e, 0x73, 0x17, 0x3d, 0x3c, 0xea, 0xb8, 0x3c, 0x4e, 0x40, 0x70, 0xbd,
  0x00, 0xf1, 0x84, 0x3c, 0xfc, 0x5b, 0x4c, 0x3d, 0xa5, 0x29, 0x2a, 0xbd,
  0xe3, 0xa2, 0x46, 0xbd, 0xba, 0x1e, 0xcd, 0xbc, 0x71, 0x4c, 0x8e, 0x3d,
  0x93, 0xe3, 0x19, 0x3d, 0x2d, 0x76, 0x81, 0xbd, 0x77, 0x5b, 0xec, 0x3c,
  0x5e, 0xc0, 0x8e, 0xbc, 0x44, 0xbb, 0x5e, 0xbc, 0xb6, 0x54, 0x10, 0xbe,
  0xcc, 0x0a, 0x45, 0xbf, 0xd7, 0x9d, 0x0f, 0xbf, 0x77, 0xf5, 0x1d, 0xbf,
  0xfd, 0xac, 0x86, 0xbf, 0xbc, 0x2b, 0xca, 0xbe, 0xdc, 0x12, 0xc4, 0xbd,
  0x14, 0x1e, 0x4d, 0xbf, 0x88, 0x7e, 0x97, 0xbe, 0x4e, 0x4f, 0xa6, 0x3e,
  0xb8, 0x6e, 0x79, 0x3d, 0xb7, 0x07, 0xa6, 0xbe, 0x67, 0xef, 0x13, 0xbf,
  0xa3, 0x3c, 0x02, 0x3d, 0xad, 0x3c, 0xd5, 0x3e, 0x9c, 0x12, 0x93, 0x3e,
  0xa3, 0x56, 0x8d, 0x3d, 0x61, 0xde, 0x7f, 0x3e, 0xfb, 0x6d, 0x81, 0x3e,
  0x92, 0x04, 0x9e, 0xbe, 0x0e, 0x31, 0x48, 0xbb, 0xc2, 0x9b, 0x28, 0xbe,
  0xc2, 0xc2, 0x1b, 0x3e, 0x2d, 0xda, 0x9d, 0x3c, 0xdd, 0x50, 0x1d, 0x3e,
  0x43, 0x68, 0x0a, 0xbf, 0x7e, 0xe4, 0xfd, 0xbe, 0xb9, 0x31, 0xf7, 0xbc,
  0x49, 0x00, 0xe1, 0xbe, 0x20, 0x87, 0x0e, 0xbf, 0xc2, 0x50, 0x60, 0xbe,
  0x14, 0xc6, 0xaf, 0xbe, 0xec, 0xe9, 0xe7, 0xbd, 0x62, 0x2f, 0x01, 0xbe,
  0x65, 0xf8, 0x8f, 0x3d, 0x9e, 0x52, 0x7d, 0x3d, 0x8b, 0x69, 0xa5, 0x3b,
  0xe6, 0x12, 0x47, 0xbd, 0xab, 0x14, 0x7b, 0x3e, 0xa3, 0xe8, 0x1e, 0x3f,
  0xd5, 0x99, 0x02, 0x3d, 0xea, 0xfc, 0xe4, 0xbc, 0xce, 0xe1, 0x52, 0xbd,
  0x1a, 0x02, 0x79, 0x3d, 0xca, 0xde, 0x50, 0x3d, 0x25, 0xe1, 0x86, 0xbc,
  0x25, 0xa6, 0x25, 0x3b, 0xd0, 0x05, 0x8e, 0xbd, 0xf1, 0x6a, 0x7a, 0xbd,
  0xec, 0x09, 0x04, 0xbd, 0x70, 0x4e, 0x06, 0x3d, 0x1c, 0xa9, 0x02, 0xbd,
  0x1c, 0x52, 0x86, 0x3d, 0xc5, 0x5e, 0x7b, 0xbd, 0x8a, 0x3a, 0xfc, 0xbc,
  0x4a, 0x7b, 0x5c, 0xbd, 0x1c, 0x36, 0x07, 0x3d, 0xdc, 0x56, 0xc9, 0x3a,
  0x6e, 0xaf, 0x46, 0x3a, 0x8a, 0xc4, 0x47, 0xbd, 0xc5, 0xb3, 0xfe, 0x3c,
  0x93, 0xa9, 0x78, 0xbb, 0x37, 0xdf, 0x85, 0x3c, 0xd7, 0xdf, 0x93, 0xbc,
  0x25, 0x54, 0xc9, 0x3c, 0x15, 0xe2, 0x83, 0x3d, 0xd8, 0x38, 0x87, 0xbd,
  0xd7, 0x88, 0x81, 0x3c, 0x37, 0x92, 0xbd, 0x3b, 0x4e, 0x3d, 0xe0, 0xbc,
  0xdc, 0x13, 0x20, 0xbb, 0xb7, 0x4f, 0x8e, 0x3a, 0x55, 0x3a, 0x42, 0xbd,
  0x5c, 0x9b, 0x77, 0xbd, 0xd3, 0xff, 0x17, 0x3d, 0xab, 0xd9, 0x8c, 0x3d,
  0xd7, 0x56, 0x46, 0xbd, 0x88, 0xd1, 0x72, 0x3d, 0xa5, 0x31, 0xca, 0xbb,
  0xae, 0xd7, 0xa8, 0x3c, 0xe5, 0xa6, 0xe1, 0xbc, 0xc1, 0x00, 0xf7, 0xbc,
  0x47, 0xd4, 0x8f, 0xbd, 0xa7, 0xbb, 0x4e, 0xbd, 0x25, 0x5a, 0x52, 0x3d,
  0x9a, 0x18, 0x66, 0xbd, 0x80, 0x45, 0x9e, 0x3c, 0x80, 0xb3, 0x9d, 0xbb,
  0xb5, 0x4d, 0x04, 0xbd, 0x93, 0x5f, 0xbc, 0x3b, 0x00, 0x00, 0x06, 0x00,
  0x08, 0x00, 0x04, 0x00, 0x06, 0x00, 0x00, 0x00, 0x04, 0x00, 0x00, 0x00,
  0x28, 0x00, 0x00, 0x00, 0x94, 0x0f, 0x53, 0x3c, 0xff, 0x4d, 0x11, 0xbd,
  0xe7, 0x3b, 0x8a, 0x3d, 0xd4, 0x75, 0x84, 0x3d, 0xbc, 0xec, 0x52, 0x3c,
  0x52, 0xb3, 0x1f, 0x3c, 0x0b, 0x0a, 0x43, 0x3d, 0xb5, 0xa2, 0xd0, 0x3b,
  0x08, 0xa6, 0x85, 0x3c, 0x11, 0xe3, 0xb8, 0xbc, 0xf8, 0xf4, 0xff, 0xff,
  0xfc, 0xf4, 0xff, 0xff, 0x0f, 0x00, 0x00, 0x00, 0x4d, 0x4c, 0x49, 0x52,
  0x20, 0x43, 0x6f, 0x6e, 0x76, 0x65, 0x72, 0x74, 0x65, 0x64, 0x2e, 0x00,
  0x01, 0x00, 0x00, 0x00, 0x14, 0x00, 0x00, 0x00, 0x00, 0x00, 0x0e, 0x00,
  0x18, 0x00, 0x14, 0x00, 0x10, 0x00, 0x0c, 0x00, 0x08, 0x00, 0x04, 0x00,
  0x0e, 0x00, 0x00, 0x00, 0x14, 0x00, 0x00, 0x00, 0x1c, 0x00, 0x00, 0x00,
  0xcc, 0x01, 0x00, 0x00, 0xd0, 0x01, 0x00, 0x00, 0xd4, 0x01, 0x00, 0x00,
  0x04, 0x00, 0x00, 0x00, 0x6d, 0x61, 0x69, 0x6e, 0x00, 0x00, 0x00, 0x00,
  0x07, 0x00, 0x00, 0x00, 0x64, 0x01, 0x00, 0x00, 0x30, 0x01, 0x00, 0x00,
  0xd0, 0x00, 0x00, 0x00, 0x98, 0x00, 0x00, 0x00, 0x70, 0x00, 0x00, 0x00,
  0x28, 0x00, 0x00, 0x00, 0x04, 0x00, 0x00, 0x00, 0xf2, 0xfe, 0xff, 0xff,
  0x0c, 0x00, 0x00, 0x00, 0x10, 0x00, 0x00, 0x00, 0x01, 0x00, 0x00, 0x00,
  0x01, 0x00, 0x00, 0x00, 0x0f, 0x00, 0x00, 0x00, 0x01, 0x00, 0x00, 0x00,
  0x0e, 0x00, 0x00, 0x00, 0x72, 0xff, 0xff, 0xff, 0x20, 0x00, 0x00, 0x00,
  0x00, 0x00, 0x00, 0x08, 0x20, 0x00, 0x00, 0x00, 0x24, 0x00, 0x00, 0x00,
  0x05, 0x00, 0x00, 0x00, 0x00, 0x00, 0x0a, 0x00, 0x08, 0x00, 0x00, 0x00,
  0x00, 0x00, 0x07, 0x00, 0x0a, 0x00, 0x00, 0x00, 0x00, 0x00, 0x00, 0x01,
  0x01, 0x00, 0x00, 0x00, 0x0e, 0x00, 0x00, 0x00, 0x03, 0x00, 0x00, 0x00,
  0x0d, 0x00, 0x00, 0x00, 0x02, 0x00, 0x00, 0x00, 0x01, 0x00, 0x00, 0x00,
  0x56, 0xff, 0xff, 0xff, 0x0c, 0x00, 0x00, 0x00, 0x10, 0x00, 0x00, 0x00,
  0x04, 0x00, 0x00, 0x00, 0x01, 0x00, 0x00, 0x00, 0x0d, 0x00, 0x00, 0x00,
  0x02, 0x00, 0x00, 0x00, 0x0c, 0x00, 0x00, 0x00, 0x06, 0x00, 0x00, 0x00,
  0x7a, 0xff, 0xff, 0xff, 0x0c, 0x00, 0x00, 0x00, 0x10, 0x00, 0x00, 0x00,
  0x03, 0x00, 0x00, 0x00, 0x01, 0x00, 0x00, 0x00, 0x0c, 0x00, 0x00, 0x00,
  0x02, 0x00, 0x00, 0x00, 0x0b, 0x00, 0x00, 0x00, 0x07, 0x00, 0x00, 0x00,
  0x00, 0x00, 0x0e, 0x00, 0x18, 0x00, 0x14, 0x00, 0x10, 0x00, 0x0c, 0x00,
  0x0b, 0x00, 0x04, 0x00, 0x0e, 0x00, 0x00, 0x00, 0x20, 0x00, 0x00, 0x00,
  0x00, 0x00, 0x00, 0x01, 0x2c, 0x00, 0x00, 0x00, 0x30, 0x00, 0x00, 0x00,
  0x02, 0x00, 0x00, 0x00, 0x0c, 0x00, 0x14, 0x00, 0x13, 0x00, 0x0c, 0x00,
  0x08, 0x00, 0x07, 0x00, 0x0c, 0x00, 0x00, 0x00, 0x00, 0x00, 0x00, 0x01,
  0x02, 0x00, 0x00, 0x00, 0x02, 0x00, 0x00, 0x00, 0x00, 0x00, 0x00, 0x01,
  0x01, 0x00, 0x00, 0x00, 0x0b, 0x00, 0x00, 0x00, 0x03, 0x00, 0x00, 0x00,
  0x0a, 0x00, 0x00, 0x00, 0x04, 0x00, 0x00, 0x00, 0x03, 0x00, 0x00, 0x00,
  0x00, 0x00, 0x0a, 0x00, 0x10, 0x00, 0x0c, 0x00, 0x08, 0x00, 0x04, 0x00,
  0x0a, 0x00, 0x00, 0x00, 0x0c, 0x00, 0x00, 0x00, 0x10, 0x00, 0x00, 0x00,
  0x01, 0x00, 0x00, 0x00, 0x01, 0x00, 0x00, 0x00, 0x0a, 0x00, 0x00, 0x00,
  0x01, 0x00, 0x00, 0x00, 0x09, 0x00, 0x00, 0x00, 0x00, 0x00, 0x0e, 0x00,
  0x14, 0x00, 0x00, 0x00, 0x10, 0x00, 0x0c, 0x00, 0x0b, 0x00, 0x04, 0x00,
  0x0e, 0x00, 0x00, 0x00, 0x1c, 0x00, 0x00, 0x00, 0x00, 0x00, 0x00, 0x02,
  0x28, 0x00, 0x00, 0x00, 0x2c, 0x00, 0x00, 0x00, 0x0c, 0x00, 0x14, 0x00,
  0x13, 0x00, 0x0c, 0x00, 0x08, 0x00, 0x04, 0x00, 0x0c, 0x00, 0x00, 0x00,
  0x0a, 0x00, 0x00, 0x00, 0x02, 0x00, 0x00, 0x00, 0x02, 0x00, 0x00, 0x00,
  0x00, 0x00, 0x00, 0x01, 0x01, 0x00, 0x00, 0x00, 0x09, 0x00, 0x00, 0x00,
  0x03, 0x00, 0x00, 0x00, 0x00, 0x00, 0x00, 0x00, 0x05, 0x00, 0x00, 0x00,
  0x08, 0x00, 0x00, 0x00, 0x01, 0x00, 0x00, 0x00, 0x0f, 0x00, 0x00, 0x00,
  0x01, 0x00, 0x00, 0x00, 0x00, 0x00, 0x00, 0x00, 0x10, 0x00, 0x00, 0x00,
  0xd0, 0x08, 0x00, 0x00, 0x7c, 0x08, 0x00, 0x00, 0x3c, 0x08, 0x00, 0x00,
  0x00, 0x08, 0x00, 0x00, 0xb8, 0x07, 0x00, 0x00, 0x70, 0x07, 0x00, 0x00,
  0x30, 0x07, 0x00, 0x00, 0xd8, 0x06, 0x00, 0x00, 0x1c, 0x06, 0x00, 0x00,
  0x54, 0x05, 0x00, 0x00, 0xf8, 0x03, 0x00, 0x00, 0xa0, 0x02, 0x00, 0x00,
  0xd4, 0x01, 0x00, 0x00, 0x10, 0x01, 0x00, 0x00, 0x50, 0x00, 0x00, 0x00,
  0x04, 0x00, 0x00, 0x00, 0x86, 0xf7, 0xff, 0xff, 0x00, 0x00, 0x00, 0x01,
  0x10, 0x00, 0x00, 0x00, 0x10, 0x00, 0x00, 0x00, 0x10, 0x00, 0x00, 0x00,
  0x28, 0x00, 0x00, 0x00, 0x70, 0xf7, 0xff, 0xff, 0x19, 0x00, 0x00, 0x00,
  0x53, 0x74, 0x61, 0x74, 0x65, 0x66, 0x75, 0x6c, 0x50, 0x61, 0x72, 0x74,
  0x69, 0x74, 0x69, 0x6f, 0x6e, 0x65, 0x64, 0x43, 0x61, 0x6c, 0x6c, 0x3a,
  0x30, 0x00, 0x00, 0x00, 0x02, 0x00, 0x00, 0x00, 0x01, 0x00, 0x00, 0x00,
  0x0a, 0x00, 0x00, 0x00, 0xce, 0xf7, 0xff, 0xff, 0x00, 0x00, 0x00, 0x01,
  0x10, 0x00, 0x00, 0x00, 0x10, 0x00, 0x00, 0x00, 0x0f, 0x00, 0x00, 0x00,
  0x9c, 0x00, 0x00, 0x00, 0xb8, 0xf7, 0xff, 0xff, 0x8e, 0x00, 0x00, 0x00,
  0x61, 0x69, 0x5f, 0x65, 0x64, 0x67, 0x65, 0x5f, 0x74, 0x6f, 0x72, 0x63,
  0x68, 0x2e, 0x5f, 0x63, 0x6f, 0x6e, 0x76, 0x65, 0x72, 0x74, 0x2e, 0x74,
  0x6f, 0x5f, 0x63, 0x68, 0x61, 0x6e, 0x6e, 0x65, 0x6c, 0x5f, 0x6c, 0x61,
  0x73, 0x74, 0x5f, 0x69, 0x6f, 0x2e, 0x43, 0x68, 0x61, 0x6e, 0x6e, 0x65,
  0x6c, 0x4c, 0x61, 0x73, 0x74, 0x49, 0x4f, 0x57, 0x72, 0x61, 0x70, 0x70,
  0x65, 0x72, 0x2f, 0x74, 0x6f, 0x72, 0x63, 0x68, 0x2e, 0x6e, 0x6e, 0x2e,
  0x6d, 0x6f, 0x64, 0x75, 0x6c, 0x65, 0x73, 0x2e, 0x63, 0x6f, 0x6e, 0x74,
  0x61, 0x69, 0x6e, 0x65, 0x72, 0x2e, 0x53, 0x65, 0x71, 0x75, 0x65, 0x6e,
  0x74, 0x69, 0x61, 0x6c, 0x5f, 0x77, 0x72, 0x61, 0x70, 0x70, 0x65, 0x64,
  0x2f, 0x74, 0x6f, 0x72, 0x63, 0x68, 0x2e, 0x6e, 0x6e, 0x2e, 0x6d, 0x6f,
  0x64, 0x75, 0x6c, 0x65, 0x73, 0x2e, 0x6c, 0x69, 0x6e, 0x65, 0x61, 0x72,
  0x2e, 0x4c, 0x69, 0x6e, 0x65, 0x61, 0x72, 0x5f, 0x35, 0x3b, 0x00, 0x00,
  0x02, 0x00, 0x00, 0x00, 0x01, 0x00, 0x00, 0x00, 0x0a, 0x00, 0x00, 0x00,
  0x8a, 0xf8, 0xff, 0xff, 0x00, 0x00, 0x00, 0x01, 0x10, 0x00, 0x00, 0x00,
  0x10, 0x00, 0x00, 0x00, 0x0e, 0x00, 0x00, 0x00, 0xa0, 0x00, 0x00, 0x00,
  0x74, 0xf8, 0xff, 0xff, 0x90, 0x00, 0x00, 0x00, 0x61, 0x69, 0x5f, 0x65,
  0x64, 0x67, 0x65, 0x5f, 0x74, 0x6f, 0x72, 0x63, 0x68, 0x2e, 0x5f, 0x63,
  0x6f, 0x6e, 0x76, 0x65, 0x72, 0x74, 0x2e, 0x74, 0x6f, 0x5f, 0x63, 0x68,
  0x61, 0x6e, 0x6e, 0x65, 0x6c, 0x5f, 0x6c, 0x61, 0x73, 0x74, 0x5f, 0x69,
  0x6f, 0x2e, 0x43, 0x68, 0x61, 0x6e, 0x6e, 0x65, 0x6c, 0x4c, 0x61, 0x73,
  0x74, 0x49, 0x4f, 0x57, 0x72, 0x61, 0x70, 0x70, 0x65, 0x72, 0x2f, 0x74,
  0x6f, 0x72, 0x63, 0x68, 0x2e, 0x6e, 0x6e, 0x2e, 0x6d, 0x6f, 0x64, 0x75,
  0x6c, 0x65, 0x73, 0x2e, 0x63, 0x6f, 0x6e, 0x74, 0x61, 0x69, 0x6e, 0x65,
  0x72, 0x2e, 0x53, 0x65, 0x71, 0x75, 0x65, 0x6e, 0x74, 0x69, 0x61, 0x6c,
  0x5f, 0x77, 0x72, 0x61, 0x70, 0x70, 0x65, 0x64, 0x2f, 0x74, 0x6f, 0x72,
  0x63, 0x68, 0x2e, 0x6e, 0x6e, 0x2e, 0x6d, 0x6f, 0x64, 0x75, 0x6c, 0x65,
  0x73, 0x2e, 0x66, 0x6c, 0x61, 0x74, 0x74, 0x65, 0x6e, 0x2e, 0x46, 0x6c,
  0x61, 0x74, 0x74, 0x65, 0x6e, 0x5f, 0x34, 0x3b, 0x00, 0x00, 0x00, 0x00,
  0x02, 0x00, 0x00, 0x00, 0x01, 0x00, 0x00, 0x00, 0xc4, 0x00, 0x00, 0x00,
  0x4a, 0xf9, 0xff, 0xff, 0x00, 0x00, 0x00, 0x01, 0x10, 0x00, 0x00, 0x00,
  0x10, 0x00, 0x00, 0x00, 0x0d, 0x00, 0x00, 0x00, 0xa0, 0x00, 0x00, 0x00,
  0x34, 0xf9, 0xff, 0xff, 0x90, 0x00, 0x00, 0x00, 0x61, 0x69, 0x5f, 0x65,
  0x64, 0x67, 0x65, 0x5f, 0x74, 0x6f, 0x72, 0x63, 0x68, 0x2e, 0x5f, 0x63,
  0x6f, 0x6e, 0x76, 0x65, 0x72, 0x74, 0x2e, 0x74, 0x6f, 0x5f, 0x63, 0x68,
  0x61, 0x6e, 0x6e, 0x65, 0x6c, 0x5f, 0x6c, 0x61, 0x73, 0x74, 0x5f, 0x69,
  0x6f, 0x2e, 0x43, 0x68, 0x61, 0x6e, 0x6e, 0x65, 0x6c, 0x4c, 0x61, 0x73,
  0x74, 0x49, 0x4f, 0x57, 0x72, 0x61, 0x70, 0x70, 0x65, 0x72, 0x2f, 0x74,
  0x6f, 0x72, 0x63, 0x68, 0x2e, 0x6e, 0x6e, 0x2e, 0x6d, 0x6f, 0x64, 0x75,
  0x6c, 0x65, 0x73, 0x2e, 0x63, 0x6f, 0x6e, 0x74, 0x61, 0x69, 0x6e, 0x65,
  0x72, 0x2e, 0x53, 0x65, 0x71, 0x75, 0x65, 0x6e, 0x74, 0x69, 0x61, 0x6c,
  0x5f, 0x77, 0x72, 0x61, 0x70, 0x70, 0x65, 0x64, 0x2f, 0x74, 0x6f, 0x72,
  0x63, 0x68, 0x2e, 0x6e, 0x6e, 0x2e, 0x6d, 0x6f, 0x64, 0x75, 0x6c, 0x65,
  0x73, 0x2e, 0x61, 0x63, 0x74, 0x69, 0x76, 0x61, 0x74, 0x69, 0x6f, 0x6e,
  0x2e, 0x52, 0x65, 0x4c, 0x55, 0x5f, 0x33, 0x3b, 0x00, 0x00, 0x00, 0x00,
  0x04, 0x00, 0x00, 0x00, 0x01, 0x00, 0x00, 0x00, 0x04, 0x00, 0x00, 0x00,
  0x07, 0x00, 0x00, 0x00, 0x07, 0x00, 0x00, 0x00, 0x12, 0xfa, 0xff, 0xff,
  0x00, 0x00, 0x00, 0x01, 0x10, 0x00, 0x00, 0x00, 0x10, 0x00, 0x00, 0x00,
  0x0c, 0x00, 0x00, 0x00, 0x2c, 0x01, 0x00, 0x00, 0xfc, 0xf9, 0xff, 0xff,
  0x1d, 0x01, 0x00, 0x00, 0x61, 0x69, 0x5f, 0x65, 0x64, 0x67, 0x65, 0x5f,
  0x74, 0x6f, 0x72, 0x63, 0x68, 0x2e, 0x5f, 0x63, 0x6f, 0x6e, 0x76, 0x65,
  0x72, 0x74, 0x2e, 0x74, 0x6f, 0x5f, 0x63, 0x68, 0x61, 0x6e, 0x6e, 0x65,
  0x6c, 0x5f, 0x6c, 0x61, 0x73, 0x74, 0x5f, 0x69, 0x6f, 0x2e, 0x43, 0x68,
  0x61, 0x6e, 0x6e, 0x65, 0x6c, 0x4c, 0x61, 0x73, 0x74, 0x49, 0x4f, 0x57,
  0x72, 0x61, 0x70, 0x70, 0x65, 0x72, 0x2f, 0x74, 0x6f, 0x72, 0x63, 0x68,
  0x2e, 0x6e, 0x6e, 0x2e, 0x6d, 0x6f, 0x64, 0x75, 0x6c, 0x65, 0x73, 0x2e,
  0x63, 0x6f, 0x6e, 0x74, 0x61, 0x69, 0x6e, 0x65, 0x72, 0x2e, 0x53, 0x65,
  0x71, 0x75, 0x65, 0x6e, 0x74, 0x69, 0x61, 0x6c, 0x5f, 0x77, 0x72, 0x61,
  0x70, 0x70, 0x65, 0x64, 0x2f, 0x74, 0x6f, 0x72, 0x63, 0x68, 0x2e, 0x6e,
  0x6e, 0x2e, 0x6d, 0x6f, 0x64, 0x75, 0x6c, 0x65, 0x73, 0x2e, 0x61, 0x63,
  0x74, 0x69, 0x76, 0x61, 0x74, 0x69, 0x6f, 0x6e, 0x2e, 0x52, 0x65, 0x4c,
  0x55, 0x5f, 0x33, 0x3b, 0x3b, 0x61, 0x69, 0x5f, 0x65, 0x64, 0x67, 0x65,
  0x5f, 0x74, 0x6f, 0x72, 0x63, 0x68, 0x2e, 0x5f, 0x63, 0x6f, 0x6e, 0x76,
  0x65, 0x72, 0x74, 0x2e, 0x74, 0x6f, 0x5f, 0x63, 0x68, 0x61, 0x6e, 0x6e,
  0x65, 0x6c, 0x5f, 0x6c, 0x61, 0x73, 0x74, 0x5f, 0x69, 0x6f, 0x2e, 0x43,
  0x68, 0x61, 0x6e, 0x6e, 0x65, 0x6c, 0x4c, 0x61, 0x73, 0x74, 0x49, 0x4f,
  0x57, 0x72, 0x61, 0x70, 0x70, 0x65, 0x72, 0x2f, 0x74, 0x6f, 0x72, 0x63,
  0x68, 0x2e, 0x6e, 0x6e, 0x2e, 0x6d, 0x6f, 0x64, 0x75, 0x6c, 0x65, 0x73,
  0x2e, 0x63, 0x6f, 0x6e, 0x74, 0x61, 0x69, 0x6e, 0x65, 0x72, 0x2e, 0x53,
  0x65, 0x71, 0x75, 0x65, 0x6e, 0x74, 0x69, 0x61, 0x6c, 0x5f, 0x77, 0x72,
  0x61, 0x70, 0x70, 0x65, 0x64, 0x2f, 0x74, 0x6f, 0x72, 0x63, 0x68, 0x2e,
  0x6e, 0x6e, 0x2e, 0x6d, 0x6f, 0x64, 0x75, 0x6c, 0x65, 0x73, 0x2e, 0x63,
  0x6f, 0x6e, 0x76, 0x2e, 0x43, 0x6f, 0x6e, 0x76, 0x32, 0x64, 0x5f, 0x32,
  0x3b, 0x00, 0x00, 0x00, 0x04, 0x00, 0x00, 0x00, 0x01, 0x00, 0x00, 0x00,
  0x07, 0x00, 0x00, 0x00, 0x07, 0x00, 0x00, 0x00, 0x04, 0x00, 0x00, 0x00,
  0x66, 0xfb, 0xff, 0xff, 0x00, 0x00, 0x00, 0x01, 0x10, 0x00, 0x00, 0x00,
  0x10, 0x00, 0x00, 0x00, 0x0b, 0x00, 0x00, 0x00, 0x30, 0x01, 0x00, 0x00,
  0x50, 0xfb, 0xff, 0xff, 0x20, 0x01, 0x00, 0x00, 0x61, 0x69, 0x5f, 0x65,
  0x64, 0x67, 0x65, 0x5f, 0x74, 0x6f, 0x72, 0x63, 0x68, 0x2e, 0x5f, 0x63,
  0x6f, 0x6e, 0x76, 0x65, 0x72, 0x74, 0x2e, 0x74, 0x6f, 0x5f, 0x63, 0x68,
  0x61, 0x6e, 0x6e, 0x65, 0x6c, 0x5f, 0x6c, 0x61, 0x73, 0x74, 0x5f, 0x69,
  0x6f, 0x2e, 0x43, 0x68, 0x61, 0x6e, 0x6e, 0x65, 0x6c, 0x4c, 0x61, 0x73,
  0x74, 0x49, 0x4f, 0x57, 0x72, 0x61, 0x70, 0x70, 0x65, 0x72, 0x2f, 0x74,
  0x6f, 0x72, 0x63, 0x68, 0x2e, 0x6e, 0x6e, 0x2e, 0x6d, 0x6f, 0x64, 0x75,
  0x6c, 0x65, 0x73, 0x2e, 0x63, 0x6f, 0x6e, 0x74, 0x61, 0x69, 0x6e, 0x65,
  0x72, 0x2e, 0x53, 0x65, 0x71, 0x75, 0x65, 0x6e, 0x74, 0x69, 0x61, 0x6c,
  0x5f, 0x77, 0x72, 0x61, 0x70, 0x70, 0x65, 0x64, 0x2f, 0x74, 0x6f, 0x72,
  0x63, 0x68, 0x2e, 0x6e, 0x6e, 0x2e, 0x6d, 0x6f, 0x64, 0x75, 0x6c, 0x65,
  0x73, 0x2e, 0x61, 0x63, 0x74, 0x69, 0x76, 0x61, 0x74, 0x69, 0x6f, 0x6e,
  0x2e, 0x53, 0x69, 0x67, 0x6d, 0x6f, 0x69, 0x64, 0x5f, 0x31, 0x3b, 0x3b,
  0x61, 0x69, 0x5f, 0x65, 0x64, 0x67, 0x65, 0x5f, 0x74, 0x6f, 0x72, 0x63,
  0x68, 0x2e, 0x5f, 0x63, 0x6f, 0x6e, 0x76, 0x65, 0x72, 0x74, 0x2e, 0x74,
  0x6f, 0x5f, 0x63, 0x68, 0x61, 0x6e, 0x6e, 0x65, 0x6c, 0x5f, 0x6c, 0x61,
  0x73, 0x74, 0x5f, 0x69, 0x6f, 0x2e, 0x43, 0x68, 0x61, 0x6e, 0x6e, 0x65,
  0x6c, 0x4c, 0x61, 0x73, 0x74, 0x49, 0x4f, 0x57, 0x72, 0x61, 0x70, 0x70,
  0x65, 0x72, 0x2f, 0x74, 0x6f, 0x72, 0x63, 0x68, 0x2e, 0x6e, 0x6e, 0x2e,
  0x6d, 0x6f, 0x64, 0x75, 0x6c, 0x65, 0x73, 0x2e, 0x63, 0x6f, 0x6e, 0x74,
  0x61, 0x69, 0x6e, 0x65, 0x72, 0x2e, 0x53, 0x65, 0x71, 0x75, 0x65, 0x6e,
  0x74, 0x69, 0x61, 0x6c, 0x5f, 0x77, 0x72, 0x61, 0x70, 0x70, 0x65, 0x64,
  0x2f, 0x74, 0x6f, 0x72, 0x63, 0x68, 0x2e, 0x6e, 0x6e, 0x2e, 0x6d, 0x6f,
  0x64, 0x75, 0x6c, 0x65, 0x73, 0x2e, 0x63, 0x6f, 0x6e, 0x76, 0x2e, 0x43,
  0x6f, 0x6e, 0x76, 0x32, 0x64, 0x5f, 0x30, 0x3b, 0x00, 0x00, 0x00, 0x00,
  0x04, 0x00, 0x00, 0x00, 0x01, 0x00, 0x00, 0x00, 0x0e, 0x00, 0x00, 0x00,
  0x0e, 0x00, 0x00, 0x00, 0x0a, 0x00, 0x00, 0x00, 0xbe, 0xfc, 0xff, 0xff,
  0x00, 0x00, 0x00, 0x01, 0x10, 0x00, 0x00, 0x00, 0x10, 0x00, 0x00, 0x00,
  0x0a, 0x00, 0x00, 0x00, 0x9c, 0x00, 0x00, 0x00, 0xa8, 0xfc, 0xff, 0xff,
  0x8d, 0x00, 0x00, 0x00, 0x61, 0x69, 0x5f, 0x65, 0x64, 0x67, 0x65, 0x5f,
  0x74, 0x6f, 0x72, 0x63, 0x68, 0x2e, 0x5f, 0x63, 0x6f, 0x6e, 0x76, 0x65,
  0x72, 0x74, 0x2e, 0x74, 0x6f, 0x5f, 0x63, 0x68, 0x61, 0x6e, 0x6e, 0x65,
  0x6c, 0x5f, 0x6c, 0x61, 0x73, 0x74, 0x5f, 0x69, 0x6f, 0x2e, 0x43, 0x68,
  0x61, 0x6e, 0x6e, 0x65, 0x6c, 0x4c, 0x61, 0x73, 0x74, 0x49, 0x4f, 0x57,
  0x72, 0x61, 0x70, 0x70, 0x65, 0x72, 0x2f, 0x74, 0x6f, 0x72, 0x63, 0x68,
  0x2e, 0x6e, 0x6e, 0x2e, 0x6d, 0x6f, 0x64, 0x75, 0x6c, 0x65, 0x73, 0x2e,
  0x63, 0x6f, 0x6e, 0x74, 0x61, 0x69, 0x6e, 0x65, 0x72, 0x2e, 0x53, 0x65,
  0x71, 0x75, 0x65, 0x6e, 0x74, 0x69, 0x61, 0x6c, 0x5f, 0x77, 0x72, 0x61,
  0x70, 0x70, 0x65, 0x64, 0x2f, 0x74, 0x6f, 0x72, 0x63, 0x68, 0x2e, 0x6e,
  0x6e, 0x2e, 0x6d, 0x6f, 0x64, 0x75, 0x6c, 0x65, 0x73, 0x2e, 0x63, 0x6f,
  0x6e, 0x76, 0x2e, 0x43, 0x6f, 0x6e, 0x76, 0x32, 0x64, 0x5f, 0x30, 0x3b,
  0x31, 0x00, 0x00, 0x00, 0x04, 0x00, 0x00, 0x00, 0x01, 0x00, 0x00, 0x00,
  0x0e, 0x00, 0x00, 0x00, 0x0e, 0x00, 0x00, 0x00, 0x0a, 0x00, 0x00, 0x00,
  0x82, 0xfd, 0xff, 0xff, 0x00, 0x00, 0x00, 0x01, 0x10, 0x00, 0x00, 0x00,
  0x10, 0x00, 0x00, 0x00, 0x09, 0x00, 0x00, 0x00, 0x9c, 0x00, 0x00, 0x00,
  0x6c, 0xfd, 0xff, 0xff, 0x8c, 0x00, 0x00, 0x00, 0x61, 0x69, 0x5f, 0x65,
  0x64, 0x67, 0x65, 0x5f, 0x74, 0x6f, 0x72, 0x63, 0x68, 0x2e, 0x5f, 0x63,
  0x6f, 0x6e, 0x76, 0x65, 0x72, 0x74, 0x2e, 0x74, 0x6f, 0x5f, 0x63, 0x68,
  0x61, 0x6e, 0x6e, 0x65, 0x6c, 0x5f, 0x6c, 0x61, 0x73, 0x74, 0x5f, 0x69,
  0x6f, 0x2e, 0x43, 0x68, 0x61, 0x6e, 0x6e, 0x65, 0x6c, 0x4c, 0x61, 0x73,
  0x74, 0x49, 0x4f, 0x57, 0x72, 0x61, 0x70, 0x70, 0x65, 0x72, 0x2f, 0x74,
  0x6f, 0x72, 0x63, 0x68, 0x2e, 0x6e, 0x6e, 0x2e, 0x6d, 0x6f, 0x64, 0x75,
  0x6c, 0x65, 0x73, 0x2e, 0x63, 0x6f, 0x6e, 0x74, 0x61, 0x69, 0x6e, 0x65,
  0x72, 0x2e, 0x53, 0x65, 0x71, 0x75, 0x65, 0x6e, 0x74, 0x69, 0x61, 0x6c,
  0x5f, 0x77, 0x72, 0x61, 0x70, 0x70, 0x65, 0x64, 0x2f, 0x74, 0x6f, 0x72,
  0x63, 0x68, 0x2e, 0x6e, 0x6e, 0x2e, 0x6d, 0x6f, 0x64, 0x75, 0x6c, 0x65,
  0x73, 0x2e, 0x63, 0x6f, 0x6e, 0x76, 0x2e, 0x43, 0x6f, 0x6e, 0x76, 0x32,
  0x64, 0x5f, 0x30, 0x3b, 0x00, 0x00, 0x00, 0x00, 0x01, 0x00, 0x00, 0x00,
  0x0a, 0x00, 0x00, 0x00, 0xc2, 0xff, 0xff, 0xff, 0x00, 0x00, 0x00, 0x01,
  0x14, 0x00, 0x00, 0x00, 0x14, 0x00, 0x00, 0x00, 0x08, 0x00, 0x00, 0x00,
  0x00, 0x00, 0x00, 0x02, 0x1c, 0x00, 0x00, 0x00, 0x28, 0xfe, 0xff, 0xff,
  0x0f, 0x00, 0x00, 0x00, 0x61, 0x72, 0x69, 0x74, 0x68, 0x2e, 0x63, 0x6f,
  0x6e, 0x73, 0x74, 0x61, 0x6e, 0x74, 0x36, 0x00, 0x01, 0x00, 0x00, 0x00,
  0x04, 0x00, 0x00, 0x00, 0x00, 0x00, 0x16, 0x00, 0x1c, 0x00, 0x18, 0x00,
  0x17, 0x00, 0x10, 0x00, 0x0c, 0x00, 0x08, 0x00, 0x00, 0x00, 0x00, 0x00,
  0x00, 0x00, 0x07, 0x00, 0x16, 0x00, 0x00, 0x00, 0x00, 0x00, 0x00, 0x01,
  0x14, 0x00, 0x00, 0x00, 0x14, 0x00, 0x00, 0x00, 0x07, 0x00, 0x00, 0x00,
  0x00, 0x00, 0x00, 0x02, 0x1c, 0x00, 0x00, 0x00, 0x7c, 0xfe, 0xff, 0xff,
  0x0f, 0x00, 0x00, 0x00, 0x61, 0x72, 0x69, 0x74, 0x68, 0x2e, 0x63, 0x6f,
  0x6e, 0x73, 0x74, 0x61, 0x6e, 0x74, 0x35, 0x00, 0x01, 0x00, 0x00, 0x00,
  0x02, 0x00, 0x00, 0x00, 0xca, 0xfe, 0xff, 0xff, 0x00, 0x00, 0x00, 0x01,
  0x10, 0x00, 0x00, 0x00, 0x10, 0x00, 0x00, 0x00, 0x06, 0x00, 0x00, 0x00,
  0x1c, 0x00, 0x00, 0x00, 0xb4, 0xfe, 0xff, 0xff, 0x0f, 0x00, 0x00, 0x00,
  0x61, 0x72, 0x69, 0x74, 0x68, 0x2e, 0x63, 0x6f, 0x6e, 0x73, 0x74, 0x61,
  0x6e, 0x74, 0x34, 0x00, 0x04, 0x00, 0x00, 0x00, 0x01, 0x00, 0x00, 0x00,
  0x02, 0x00, 0x00, 0x00, 0x02, 0x00, 0x00, 0x00, 0x0a, 0x00, 0x00, 0x00,
  0x0e, 0xff, 0xff, 0xff, 0x00, 0x00, 0x00, 0x01, 0x10, 0x00, 0x00, 0x00,
  0x10, 0x00, 0x00, 0x00, 0x05, 0x00, 0x00, 0x00, 0x1c, 0x00, 0x00, 0x00,
  0xf8, 0xfe, 0xff, 0xff, 0x0f, 0x00, 0x00, 0x00, 0x61, 0x72, 0x69, 0x74,
  0x68, 0x2e, 0x63, 0x6f, 0x6e, 0x73, 0x74, 0x61, 0x6e, 0x74, 0x33, 0x00,
  0x04, 0x00, 0x00, 0x00, 0x04, 0x00, 0x00, 0x00, 0x01, 0x00, 0x00, 0x00,
  0x01, 0x00, 0x00, 0x00, 0x0a, 0x00, 0x00, 0x00, 0x52, 0xff, 0xff, 0xff,
  0x00, 0x00, 0x00, 0x01, 0x10, 0x00, 0x00, 0x00, 0x10, 0x00, 0x00, 0x00,
  0x04, 0x00, 0x00, 0x00, 0x1c, 0x00, 0x00, 0x00, 0x3c, 0xff, 0xff, 0xff,
  0x0f, 0x00, 0x00, 0x00, 0x61, 0x72, 0x69, 0x74, 0x68, 0x2e, 0x63, 0x6f,
  0x6e, 0x73, 0x74, 0x61, 0x6e, 0x74, 0x32, 0x00, 0x01, 0x00, 0x00, 0x00,
  0x04, 0x00, 0x00, 0x00, 0x8a, 0xff, 0xff, 0xff, 0x00, 0x00, 0x00, 0x01,
  0x10, 0x00, 0x00, 0x00, 0x10, 0x00, 0x00, 0x00, 0x03, 0x00, 0x00, 0x00,
  0x1c, 0x00, 0x00, 0x00, 0x74, 0xff, 0xff, 0xff, 0x0f, 0x00, 0x00, 0x00,
  0x61, 0x72, 0x69, 0x74, 0x68, 0x2e, 0x63, 0x6f, 0x6e, 0x73, 0x74, 0x61,
  0x6e, 0x74, 0x31, 0x00, 0x02, 0x00, 0x00, 0x00, 0x0a, 0x00, 0x00, 0x00,
  0xc4, 0x00, 0x00, 0x00, 0xc6, 0xff, 0xff, 0xff, 0x00, 0x00, 0x00, 0x01,
  0x10, 0x00, 0x00, 0x00, 0x10, 0x00, 0x00, 0x00, 0x02, 0x00, 0x00, 0x00,
  0x1c, 0x00, 0x00, 0x00, 0xb0, 0xff, 0xff, 0xff, 0x0e, 0x00, 0x00, 0x00,
  0x61, 0x72, 0x69, 0x74, 0x68, 0x2e, 0x63, 0x6f, 0x6e, 0x73, 0x74, 0x61,
  0x6e, 0x74, 0x00, 0x00, 0x01, 0x00, 0x00, 0x00, 0x0a, 0x00, 0x00, 0x00,
  0x00, 0x00, 0x16, 0x00, 0x18, 0x00, 0x14, 0x00, 0x00, 0x00, 0x10, 0x00,
  0x0c, 0x00, 0x08, 0x00, 0x00, 0x00, 0x00, 0x00, 0x00, 0x00, 0x07, 0x00,
  0x16, 0x00, 0x00, 0x00, 0x00, 0x00, 0x00, 0x01, 0x14, 0x00, 0x00, 0x00,
  0x14, 0x00, 0x00, 0x00, 0x01, 0x00, 0x00, 0x00, 0x2c, 0x00, 0x00, 0x00,
  0x04, 0x00, 0x04, 0x00, 0x04, 0x00, 0x00, 0x00, 0x18, 0x00, 0x00, 0x00,
  0x73, 0x65, 0x72, 0x76, 0x69, 0x6e, 0x67, 0x5f, 0x64, 0x65, 0x66, 0x61,
  0x75, 0x6c, 0x74, 0x5f, 0x61, 0x72, 0x67, 0x73, 0x5f, 0x30, 0x3a, 0x30,
  0x00, 0x00, 0x00, 0x00, 0x04, 0x00, 0x00, 0x00, 0x01, 0x00, 0x00, 0x00,
  0x1c, 0x00, 0x00, 0x00, 0x1c, 0x00, 0x00, 0x00, 0x01, 0x00, 0x00, 0x00,
  0x06, 0x00, 0x00, 0x00, 0x70, 0x00, 0x00, 0x00, 0x54, 0x00, 0x00, 0x00,
  0x44, 0x00, 0x00, 0x00, 0x34, 0x00, 0x00, 0x00, 0x24, 0x00, 0x00, 0x00,
  0x10, 0x00, 0x00, 0x00, 0x0c, 0x00, 0x10, 0x00, 0x0f, 0x00, 0x00, 0x00,
  0x08, 0x00, 0x04, 0x00, 0x0c, 0x00, 0x00, 0x00, 0x09, 0x00, 0x00, 0x00,
  0x05, 0x00, 0x00, 0x00, 0x00, 0x00, 0x00, 0x09, 0xd0, 0xff, 0xff, 0xff,
  0x16, 0x00, 0x00, 0x00, 0x00, 0x00, 0x00, 0x16, 0xdc, 0xff, 0xff, 0xff,
  0x27, 0x00, 0x00, 0x00, 0x00, 0x00, 0x00, 0x27, 0xe8, 0xff, 0xff, 0xff,
  0x03, 0x00, 0x00, 0x00, 0x00, 0x00, 0x00, 0x03, 0xf4, 0xff, 0xff, 0xff,
  0x0e, 0x00, 0x00, 0x00, 0x00, 0x00, 0x00, 0x0e, 0x0c, 0x00, 0x0c, 0x00,
  0x0b, 0x00, 0x00, 0x00, 0x00, 0x00, 0x04, 0x00, 0x0c, 0x00, 0x00, 0x00,
  0x04, 0x00, 0x00, 0x00, 0x00, 0x00, 0x00, 0x04
};
const unsigned int model_tflite_len = 11900;