#include <model.h>
const unsigned char outputs_model_tflite[] = {
  0x20, 0x00, 0x00, 0x00, 0x54, 0x46, 0x4c, 0x33, 0x00, 0x00, 0x00, 0x00,
  0x14, 0x00, 0x20, 0x00, 0x1c, 0x00, 0x18, 0x00, 0x14, 0x00, 0x10, 0x00,
  0x0c, 0x00, 0x00, 0x00, 0x08, 0x00, 0x04, 0x00, 0x14, 0x00, 0x00, 0x00,
  0x1c, 0x00, 0x00, 0x00, 0x90, 0x00, 0x00, 0x00, 0xe8, 0x00, 0x00, 0x00,
  0x48, 0x08, 0x00, 0x00, 0x58, 0x08, 0x00, 0x00, 0x2c, 0x0d, 0x00, 0x00,
  0x03, 0x00, 0x00, 0x00, 0x01, 0x00, 0x00, 0x00, 0x10, 0x00, 0x00, 0x00,
  0x00, 0x00, 0x0a, 0x00, 0x10, 0x00, 0x0c, 0x00, 0x08, 0x00, 0x04, 0x00,
  0x0a, 0x00, 0x00, 0x00, 0x0c, 0x00, 0x00, 0x00, 0x1c, 0x00, 0x00, 0x00,
  0x3c, 0x00, 0x00, 0x00, 0x0f, 0x00, 0x00, 0x00, 0x73, 0x65, 0x72, 0x76,
  0x69, 0x6e, 0x67, 0x5f, 0x64, 0x65, 0x66, 0x61, 0x75, 0x6c, 0x74, 0x00,
  0x01, 0x00, 0x00, 0x00, 0x04, 0x00, 0x00, 0x00, 0x98, 0xff, 0xff, 0xff,
  0x06, 0x00, 0x00, 0x00, 0x04, 0x00, 0x00, 0x00, 0x08, 0x00, 0x00, 0x00,
  0x6f, 0x75, 0x74, 0x70, 0x75, 0x74, 0x5f, 0x30, 0x00, 0x00, 0x00, 0x00,
  0x01, 0x00, 0x00, 0x00, 0x04, 0x00, 0x00, 0x00, 0x72, 0xf8, 0xff, 0xff,
  0x04, 0x00, 0x00, 0x00, 0x06, 0x00, 0x00, 0x00, 0x61, 0x72, 0x67, 0x73,
  0x5f, 0x30, 0x00, 0x00, 0x02, 0x00, 0x00, 0x00, 0x34, 0x00, 0x00, 0x00,
  0x04, 0x00, 0x00, 0x00, 0xdc, 0xff, 0xff, 0xff, 0x09, 0x00, 0x00, 0x00,
  0x04, 0x00, 0x00, 0x00, 0x13, 0x00, 0x00, 0x00, 0x43, 0x4f, 0x4e, 0x56,
  0x45, 0x52, 0x53, 0x49, 0x4f, 0x4e, 0x5f, 0x4d, 0x45, 0x54, 0x41, 0x44,
  0x41, 0x54, 0x41, 0x00, 0x08, 0x00, 0x0c, 0x00, 0x08, 0x00, 0x04, 0x00,
  0x08, 0x00, 0x00, 0x00, 0x08, 0x00, 0x00, 0x00, 0x04, 0x00, 0x00, 0x00,
  0x13, 0x00, 0x00, 0x00, 0x6d, 0x69, 0x6e, 0x5f, 0x72, 0x75, 0x6e, 0x74,
  0x69, 0x6d, 0x65, 0x5f, 0x76, 0x65, 0x72, 0x73, 0x69, 0x6f, 0x6e, 0x00,
  0x0a, 0x00, 0x00, 0x00, 0x5c, 0x07, 0x00, 0x00, 0x50, 0x07, 0x00, 0x00,
  0x18, 0x07, 0x00, 0x00, 0xf8, 0x06, 0x00, 0x00, 0xc8, 0x00, 0x00, 0x00,
  0xc0, 0x00, 0x00, 0x00, 0x9c, 0x00, 0x00, 0x00, 0x94, 0x00, 0x00, 0x00,
  0x74, 0x00, 0x00, 0x00, 0x04, 0x00, 0x00, 0x00, 0x0e, 0xf9, 0xff, 0xff,
  0x04, 0x00, 0x00, 0x00, 0x60, 0x00, 0x00, 0x00, 0x10, 0x00, 0x00, 0x00,
  0x00, 0x00, 0x00, 0x00, 0x08, 0x00, 0x0e, 0x00, 0x08, 0x00, 0x04, 0x00,
  0x08, 0x00, 0x00, 0x00, 0x10, 0x00, 0x00, 0x00, 0x24, 0x00, 0x00, 0x00,
  0x00, 0x00, 0x06, 0x00, 0x08, 0x00, 0x04, 0x00, 0x06, 0x00, 0x00, 0x00,
  0x04, 0x00, 0x00, 0x00, 0x00, 0x00, 0x00, 0x00, 0x0c, 0x00, 0x18, 0x00,
  0x14, 0x00, 0x10, 0x00, 0x0c, 0x00, 0x04, 0x00, 0x0c, 0x00, 0x00, 0x00,
  0x00, 0x9a, 0xe4, 0x82, 0xa9, 0xd1, 0x38, 0x43, 0x01, 0x00, 0x00, 0x00,
  0x02, 0x00, 0x00, 0x00, 0x04, 0x00, 0x00, 0x00, 0x06, 0x00, 0x00, 0x00,
  0x32, 0x2e, 0x31, 0x39, 0x2e, 0x30, 0x00, 0x00, 0x7a, 0xf9, 0xff, 0xff,
  0x04, 0x00, 0x00, 0x00, 0x10, 0x00, 0x00, 0x00, 0x32, 0x2e, 0x30, 0x2e,
  0x30, 0x00, 0x00, 0x00, 0x00, 0x00, 0x00, 0x00, 0x00, 0x00, 0x00, 0x00,
  0x58, 0xf9, 0xff, 0xff, 0x9a, 0xf9, 0xff, 0xff, 0x04, 0x00, 0x00, 0x00,
  0x14, 0x00, 0x00, 0x00, 0x1c, 0xf1, 0x9c, 0x53, 0x9d, 0xd0, 0xa1, 0x3f,
  0x82, 0xb7, 0x50, 0x81, 0xc5, 0xdc, 0xdb, 0x2d, 0xd4, 0xbf, 0xa4, 0x6a,
  0x7c, 0xf9, 0xff, 0xff, 0xbe, 0xf9, 0xff, 0xff, 0x04, 0x00, 0x00, 0x00,
  0x20, 0x06, 0x00, 0x00, 0xe4, 0xed, 0xe8, 0x4c, 0x9d, 0xf7, 0x6a, 0xc9,
  0x7e, 0x89, 0x1e, 0x67, 0x5c, 0xde, 0x23, 0x5a, 0x6d, 0x30, 0x13, 0x3a,
  0x62, 0x4d, 0x5d, 0x82, 0x54, 0x46, 0x6d, 0xb7, 0xe6, 0x2c, 0x26, 0x43,
  0x64, 0x27, 0xbd, 0xe5, 0x15, 0xd3, 0xa6, 0x08, 0x50, 0xc7, 0x35, 0x05,
  0xec, 0x26, 0x23, 0x2f, 0x73, 0x87, 0x5e, 0x0c, 0x38, 0x1d, 0xdf, 0xf3,
  0xf5, 0x47, 0x71, 0xa7, 0x5e, 0x95, 0x05, 0x05, 0xc3, 0x25, 0xe2, 0xa2,
  0xac, 0x77, 0xa4, 0x9c, 0xfb, 0x52, 0x27, 0xdc, 0xff, 0x5c, 0xc5, 0xb9,
  0xc4, 0x8d, 0x58, 0x12, 0x8f, 0x60, 0x3c, 0x6c, 0xe0, 0x54, 0x48, 0x87,
  0xcd, 0xe1, 0x5f, 0x01, 0xed, 0x72, 0x21, 0x9e, 0xe3, 0x74, 0xa1, 0xc1,
  0x25, 0x3c, 0x58, 0xb6, 0x9c, 0xcc, 0x09, 0xc6, 0x3f, 0x50, 0xb9, 0x45,
  0x86, 0xea, 0xa6, 0x88, 0xa3, 0x29, 0x74, 0x29, 0x83, 0xc2, 0x49, 0xbb,
  0x82, 0xf5, 0x4e, 0x9d, 0x0f, 0x92, 0x94, 0x53, 0xdb, 0x10, 0x8f, 0x05,
  0xb2, 0x1f, 0xc7, 0x0f, 0xcf, 0x59, 0x93, 0x0e, 0x5e, 0x8b, 0xd1, 0x33,
  0x48, 0x07, 0x7a, 0xcd, 0x56, 0x3e, 0x99, 0x89, 0x63, 0x28, 0x5c, 0x20,
  0xa4, 0xa1, 0xfe, 0x54, 0x5d, 0x0b, 0x9b, 0x71, 0xf3, 0x61, 0x43, 0xcb,
  0xf8, 0x69, 0x28, 0x0c, 0x45, 0xaf, 0x9f, 0x39, 0xd7, 0xed, 0x2d, 0x21,
  0x3e, 0xd7, 0x04, 0x41, 0xab, 0x2f, 0x5e, 0x15, 0xf2, 0xa1, 0x47, 0x0f,
  0x46, 0x11, 0xaa, 0x08, 0xb2, 0x52, 0xe9, 0x88, 0xe9, 0x5d, 0xf7, 0x29,
  0x8a, 0x03, 0x18, 0xf5, 0x5b, 0x71, 0xe7, 0x2f, 0x3b, 0x6e, 0xe3, 0x83,
  0x79, 0x8b, 0x1d, 0xf5, 0x0a, 0x28, 0x4c, 0xf9, 0xa6, 0x7d, 0x89, 0xbf,
  0x4b, 0xbd, 0xd0, 0x6a, 0xbe, 0x09, 0x9b, 0xd7, 0xb0, 0x4b, 0x44, 0x5a,
  0x8f, 0x37, 0x02, 0x66, 0x8f, 0x18, 0x25, 0x55, 0x10, 0xb3, 0xe1, 0x5d,
  0x52, 0x20, 0x7e, 0xde, 0xe9, 0x51, 0x56, 0x7a, 0xd7, 0x2c, 0x77, 0x9f,
  0x0b, 0x24, 0x4e, 0xba, 0x23, 0x79, 0xc3, 0x75, 0x8f, 0x55, 0x60, 0xe4,
  0x86, 0x27, 0x31, 0x62, 0x82, 0x1f, 0x2a, 0x45, 0x0c, 0x4d, 0x93, 0x65,
  0x32, 0x90, 0xcd, 0xf0, 0xe9, 0x3c, 0x8c, 0xf6, 0xde, 0x0c, 0x2a, 0xb9,
  0xbc, 0xf8, 0x53, 0xa9, 0xae, 0x94, 0x72, 0xd3, 0x75, 0x8f, 0xd0, 0x17,
  0x98, 0xad, 0x4b, 0x3a, 0x9d, 0x56, 0x96, 0x1d, 0x84, 0x9c, 0xd1, 0x2a,
  0x2a, 0x18, 0xd6, 0x92, 0x41, 0x32, 0xdf, 0xef, 0x1e, 0x5f, 0xa7, 0x29,
  0xbe, 0x6b, 0x1b, 0x90, 0x95, 0x8d, 0x9a, 0x25, 0xd3, 0x0e, 0xa8, 0x94,
  0x0a, 0xd7, 0x15, 0x45, 0x05, 0x66, 0xb6, 0x72, 0x55, 0x29, 0x51, 0xa3,
  0xb4, 0x8c, 0xda, 0xf3, 0xc0, 0x0a, 0x63, 0xfc, 0xef, 0xb0, 0x4e, 0x9f,
  0x91, 0x71, 0xf4, 0x97, 0xe9, 0x20, 0xf9, 0x6b, 0x46, 0x59, 0x9e, 0xdb,
  0xf7, 0xf6, 0xb5, 0x18, 0xf6, 0x9f, 0x6b, 0x9b, 0xe5, 0x62, 0x39, 0x1e,
  0x8c, 0x64, 0x2a, 0x68, 0x17, 0x69, 0xfc, 0xc0, 0xf9, 0x3f, 0xb4, 0xc8,
  0x88, 0x77, 0x56, 0x0c, 0x89, 0xa5, 0xe7, 0x69, 0xcb, 0x33, 0x08, 0x0e,
  0x62, 0x3c, 0xbb, 0x1a, 0x2a, 0xad, 0x74, 0xf8, 0xde, 0xe8, 0x98, 0x0e,
  0x4d, 0x4f, 0x47, 0x5b, 0x25, 0xce, 0xdd, 0x46, 0xe7, 0xb1, 0x14, 0x74,
  0x3d, 0x5a, 0xd9, 0x6f, 0x32, 0xdd, 0x28, 0xbb, 0x99, 0xc2, 0xc7, 0x6d,
  0x41, 0xf4, 0xb1, 0x1a, 0xe2, 0x02, 0x81, 0x05, 0xa6, 0xc1, 0x27, 0x34,
  0xb5, 0x30, 0x90, 0xe6, 0x03, 0x34, 0x49, 0x24, 0x27, 0x6e, 0x0d, 0xc5,
  0xdd, 0x48, 0x78, 0xc6, 0x6c, 0xc5, 0x20, 0x5f, 0x81, 0x5d, 0x6e, 0xc2,
  0x32, 0x12, 0x94, 0x9c, 0xf4, 0xa4, 0x75, 0x6e, 0xe1, 0x25, 0x85, 0x4e,
  0x29, 0x9f, 0x16, 0x9f, 0x5d, 0x79, 0x8e, 0x82, 0x68, 0xed, 0x00, 0x6f,
  0x4f, 0x33, 0x66, 0x14, 0xe6, 0xf4, 0xa1, 0x11, 0x7d, 0xaf, 0xa5, 0x4e,
  0x1e, 0x73, 0xa5, 0x66, 0x60, 0x53, 0xc9, 0x21, 0xfd, 0x63, 0xba, 0x61,
  0x09, 0x91, 0xd1, 0xde, 0xd5, 0xbc, 0x50, 0xa8, 0x11, 0x2f, 0x3b, 0x98,
  0x4c, 0x42, 0x02, 0xe7, 0x26, 0xd5, 0x29, 0x0f, 0x9c, 0x41, 0x99, 0x78,
  0x81, 0x17, 0x01, 0xbd, 0xf6, 0xeb, 0x22, 0x19, 0xd3, 0x6c, 0xd8, 0xcc,
  0x94, 0xff, 0xbb, 0xe0, 0xde, 0xa9, 0x6d, 0x3c, 0x06, 0xa0, 0x56, 0xa5,
  0xf1, 0x40, 0xa4, 0x77, 0xfe, 0xa8, 0xcc, 0x7f, 0xee, 0x44, 0xee, 0x2e,
  0xd0, 0xd1, 0x0c, 0xfe, 0x6a, 0x7d, 0xbc, 0x6e, 0x94, 0x5b, 0xe5, 0x64,
  0x4d, 0x07, 0xb1, 0x69, 0xf2, 0xcf, 0x78, 0x36, 0x9d, 0x3b, 0x35, 0x14,
  0x2e, 0x1e, 0xf2, 0x3a, 0x77, 0x44, 0x0c, 0x99, 0xee, 0x56, 0x1d, 0xfe,
  0xb2, 0xbd, 0x32, 0x24, 0x9d, 0x68, 0x4e, 0xaa, 0x20, 0x94, 0x16, 0x48,
  0x82, 0x8c, 0xf7, 0x8c, 0xc0, 0xba, 0x72, 0x6c, 0x97, 0x0f, 0x9c, 0xce,
  0x27, 0xf6, 0x8f, 0xee, 0x0f, 0xc0, 0x14, 0xca, 0xb7, 0xff, 0x29, 0x97,
  0x64, 0x9a, 0x43, 0x60, 0x37, 0xdc, 0xc9, 0x8d, 0x43, 0x70, 0xbb, 0xca,
  0xe7, 0xe8, 0xaa, 0x20, 0xce, 0xfc, 0xfd, 0x29, 0x66, 0x35, 0x1a, 0x0c,
  0xce, 0x28, 0xe2, 0x96, 0x8e, 0x05, 0xc6, 0xa3, 0x68, 0xc3, 0x25, 0x0c,
  0xca, 0x48, 0x92, 0x2c, 0x50, 0x58, 0xc1, 0xae, 0x9f, 0x75, 0xc4, 0xd4,
  0x10, 0x7c, 0x24, 0x38, 0x73, 0x45, 0x4c, 0xeb, 0xb5, 0x26, 0x02, 0xf2,
  0x02, 0x20, 0xcb, 0x13, 0xed, 0x8d, 0x23, 0x6d, 0x17, 0x37, 0x40, 0x68,
  0x52, 0x43, 0x72, 0x1a, 0x42, 0xf3, 0x50, 0x9a, 0xa0, 0x9a, 0xdb, 0x0c,
  0x62, 0x43, 0x7e, 0x99, 0x0e, 0x30, 0x9f, 0x2f, 0x16, 0x9b, 0x42, 0x27,
  0xeb, 0xd6, 0x0a, 0x23, 0x45, 0xb6, 0x16, 0xac, 0x3e, 0x0f, 0x93, 0xa3,
  0x9e, 0x8b, 0x8b, 0xc1, 0x67, 0xd8, 0x0c, 0x50, 0x3b, 0x41, 0x43, 0xec,
  0xe2, 0xfd, 0xec, 0x2a, 0x50, 0xa0, 0xaa, 0xc5, 0xfc, 0x29, 0xb4, 0x85,
  0xc3, 0x29, 0xd0, 0x36, 0x3e, 0xe3, 0x9f, 0x03, 0x96, 0xdb, 0x05, 0xd8,
  0x84, 0xf4, 0x05, 0x18, 0x4f, 0x23, 0x00, 0xa8, 0xaa, 0x96, 0xe1, 0xf4,
  0xfd, 0x3d, 0x35, 0x53, 0xf6, 0xbd, 0x15, 0x3c, 0x28, 0x24, 0x8e, 0x87,
  0xaa, 0x76, 0x90, 0xcb, 0x26, 0xa5, 0xc5, 0xe9, 0x0f, 0x6f, 0x25, 0x26,
  0x07, 0xc4, 0x21, 0x54, 0xb9, 0xc7, 0x0f, 0xbc, 0x23, 0x8e, 0xb2, 0x5b,
  0xbf, 0x9b, 0xaf, 0xdc, 0xe9, 0x40, 0x5d, 0x23, 0x56, 0x8c, 0x74, 0xb7,
  0x9c, 0x1b, 0xce, 0xb0, 0x74, 0x6c, 0x32, 0x91, 0xec, 0xe2, 0xef, 0xc6,
  0x27, 0x1d, 0x35, 0x2d, 0x1a, 0xf6, 0xf3, 0x29, 0xb6, 0x7b, 0xa5, 0xe7,
  0x52, 0x19, 0x2c, 0x5c, 0xa0, 0x60, 0xeb, 0x22, 0x5f, 0x3c, 0x66, 0x82,
  0x93, 0xfa, 0x01, 0xb1, 0x21, 0xf9, 0xd6, 0x1c, 0xb2, 0x2a, 0x3f, 0x5b,
  0x4a, 0x51, 0x66, 0xef, 0x6f, 0xec, 0x44, 0xfd, 0x89, 0x0e, 0x84, 0xea,
  0x3b, 0xa0, 0xd5, 0xfa, 0x23, 0x74, 0x78, 0x2c, 0xce, 0x52, 0x89, 0xc6,
  0x3c, 0x25, 0x62, 0x16, 0x84, 0x79, 0xdb, 0x41, 0x01, 0xd0, 0x4a, 0xb8,
  0x08, 0x10, 0xae, 0x4a, 0x59, 0xd7, 0x2c, 0x0b, 0xaf, 0xfd, 0x59, 0x41,
  0xe0, 0x52, 0xb8, 0xd4, 0xb7, 0xc8, 0xff, 0xb7, 0x02, 0x1f, 0x5e, 0x08,
  0xa1, 0x61, 0x61, 0xe3, 0xf5, 0x7c, 0x09, 0x23, 0x39, 0x82, 0xe7, 0x91,
  0xa2, 0x5e, 0xdd, 0x51, 0x7b, 0xc6, 0xc5, 0x5d, 0xe6, 0xf3, 0xc0, 0x54,
  0xcd, 0x8b, 0xfc, 0x37, 0xa9, 0x94, 0x78, 0x2a, 0xa2, 0x44, 0xe7, 0x06,
  0x99, 0x0e, 0x09, 0x19, 0xa9, 0x3c, 0x51, 0x5d, 0x73, 0x48, 0x3f, 0xec,
  0x7d, 0x21, 0x00, 0x62, 0x23, 0xab, 0x7e, 0x44, 0x4d, 0xfe, 0x5b, 0x56,
  0x01, 0xe3, 0x06, 0x9e, 0x6c, 0x37, 0xbb, 0x28, 0x52, 0xeb, 0x99, 0xb0,
  0x66, 0xeb, 0x70, 0x14, 0x54, 0xc0, 0x4e, 0x6e, 0x97, 0x1c, 0x0a, 0xd6,
  0x8b, 0x2f, 0x72, 0xf2, 0xa1, 0x62, 0x61, 0x66, 0xfc, 0x44, 0xf7, 0xde,
  0xa2, 0xa3, 0xb6, 0x0f, 0xc5, 0x2a, 0xd0, 0x36, 0xdf, 0xdf, 0x40, 0xad,
  0x77, 0xfc, 0xec, 0xee, 0x59, 0xcf, 0x0b, 0xcc, 0xeb, 0xfe, 0x91, 0x9b,
  0x1d, 0x01, 0x6b, 0x0e, 0x92, 0x34, 0xe9, 0xbe, 0x01, 0x2f, 0x60, 0x6d,
  0xe5, 0x66, 0x62, 0xa7, 0x39, 0xf5, 0xfe, 0x03, 0x71, 0xf2, 0xaf, 0x98,
  0x9d, 0xba, 0x55, 0x68, 0x50, 0x31, 0xed, 0x65, 0x09, 0xd8, 0x7d, 0x10,
  0x8d, 0xb2, 0xf4, 0xd5, 0x2d, 0x71, 0x63, 0x88, 0xe6, 0xa2, 0x89, 0xdd,
  0x45, 0xcc, 0x88, 0x5f, 0xc0, 0x62, 0xb6, 0x1c, 0x63, 0x27, 0xc8, 0xbb,
  0x8d, 0xae, 0xca, 0xbf, 0x30, 0xd2, 0x77, 0x63, 0x55, 0x6f, 0x90, 0x71,
  0xbf, 0xc5, 0x29, 0x97, 0x87, 0xd8, 0x96, 0xee, 0xaf, 0xa9, 0x45, 0x6a,
  0xb5, 0x10, 0xcc, 0x83, 0x73, 0x49, 0x3c, 0xf1, 0x4c, 0x59, 0x89, 0x32,
  0x7f, 0x48, 0x62, 0x4e, 0x78, 0x37, 0x55, 0x2e, 0xed, 0x63, 0x54, 0x0b,
  0x94, 0x50, 0x11, 0x5e, 0x9f, 0x36, 0x3c, 0x63, 0xb0, 0x26, 0x95, 0x41,
  0x30, 0xab, 0x08, 0xa2, 0xa1, 0xab, 0x59, 0x1f, 0xe3, 0xa7, 0x10, 0x60,
  0xe6, 0x5a, 0xa5, 0xdf, 0x82, 0x77, 0x1b, 0x52, 0x08, 0x53, 0xd1, 0x6a,
  0xbf, 0xbf, 0x18, 0x7c, 0xbc, 0xeb, 0x05, 0xd8, 0xc6, 0xfb, 0x21, 0x39,
  0x31, 0x0e, 0x1c, 0xdf, 0x09, 0x93, 0xe7, 0x86, 0x77, 0x4d, 0x0d, 0x41,
  0x4c, 0xea, 0x32, 0x14, 0x21, 0x3b, 0xfe, 0x64, 0xba, 0x04, 0x5b, 0x69,
  0x4b, 0x07, 0xda, 0x26, 0xdd, 0x73, 0x6d, 0x12, 0x1f, 0xab, 0x69, 0xad,
  0x16, 0x55, 0x31, 0xbf, 0x70, 0x5d, 0x5a, 0x4c, 0x33, 0xfc, 0xea, 0x16,
  0x42, 0x71, 0xbb, 0x6e, 0xa1, 0x45, 0xc5, 0xfb, 0x0f, 0xe7, 0xbd, 0xdc,
  0xde, 0x32, 0x77, 0xae, 0xbd, 0x68, 0xf4, 0x3a, 0x05, 0xe2, 0x8b, 0x1d,
  0xab, 0xcd, 0xb7, 0x9e, 0xa2, 0x9e, 0x26, 0xb3, 0xa7, 0x2a, 0xa3, 0xe1,
  0xdb, 0xb7, 0xe1, 0x2c, 0xef, 0x7e, 0x98, 0xf2, 0x8d, 0x7f, 0xcd, 0x83,
  0xde, 0x7e, 0x9b, 0xe1, 0x7c, 0x3f, 0x6b, 0x1f, 0x74, 0x94, 0x88, 0xf1,
  0xc0, 0x16, 0x62, 0x7a, 0xe6, 0x31, 0xfc, 0xbb, 0x97, 0xa3, 0x03, 0xff,
  0xa6, 0x63, 0x66, 0xe7, 0xdf, 0x9a, 0x24, 0xac, 0x56, 0x61, 0x6b, 0x55,
  0xe6, 0x5d, 0x2e, 0xf2, 0x97, 0x03, 0x62, 0x36, 0x2e, 0xbb, 0x45, 0xa6,
  0xea, 0xc9, 0xe0, 0x1d, 0x57, 0x1f, 0xa4, 0xf2, 0x5b, 0x82, 0x21, 0x30,
  0xe3, 0x1f, 0x95, 0x2d, 0x36, 0x9f, 0xb2, 0x7c, 0x1f, 0x42, 0xd4, 0x1c,
  0x33, 0x0a, 0xf9, 0xfe, 0x9e, 0x42, 0x8f, 0x25, 0xfb, 0x78, 0x32, 0x3b,
  0x1f, 0xa9, 0x73, 0x5f, 0xc7, 0x02, 0x36, 0x5e, 0x19, 0xbe, 0xc5, 0xd3,
  0x82, 0x43, 0xfb, 0xd4, 0x78, 0x30, 0x82, 0x8c, 0xc4, 0x48, 0xde, 0x3a,
  0xff, 0x93, 0x47, 0x97, 0x7b, 0xd8, 0x1e, 0x68, 0xcd, 0xa4, 0x87, 0xca,
  0xed, 0x20, 0xda, 0x01, 0x8d, 0x2f, 0x0a, 0x0d, 0x61, 0xc0, 0xbd, 0xc7,
  0xf7, 0xb9, 0xaa, 0xf6, 0x4f, 0x14, 0xfd, 0xbe, 0xc2, 0x05, 0x72, 0xe3,
  0x6f, 0x4d, 0x59, 0xc2, 0x0e, 0xcd, 0xa8, 0xac, 0x68, 0xee, 0x55, 0x71,
  0x92, 0xa8, 0xec, 0xbb, 0x19, 0x00, 0x62, 0xd3, 0xe5, 0x6c, 0x7a, 0x50,
  0xae, 0xf6, 0x3c, 0xcc, 0xd8, 0x6e, 0x11, 0x4a, 0x60, 0x96, 0xec, 0x50,
  0x40, 0xf5, 0xc6, 0x4e, 0x64, 0xad, 0xe9, 0x61, 0x87, 0x21, 0xa7, 0x69,
  0xe1, 0x5c, 0x3e, 0x01, 0x46, 0xfc, 0xd1, 0x77, 0xdf, 0x4b, 0x55, 0x3d,
  0xea, 0xff, 0xff, 0xff, 0x04, 0x00, 0x00, 0x00, 0x08, 0x00, 0x00, 0x00,
  0x61, 0x70, 0x00, 0x00, 0xbd, 0xe8, 0xff, 0xff, 0x00, 0x00, 0x06, 0x00,
  0x08, 0x00, 0x04, 0x00, 0x06, 0x00, 0x00, 0x00, 0x04, 0x00, 0x00, 0x00,
  0x28, 0x00, 0x00, 0x00, 0x88, 0x55, 0xff, 0xff, 0x72, 0xed, 0xff, 0xff,
  0x5f, 0x0d, 0x00, 0x00, 0xbe, 0x0a, 0x00, 0x00, 0xc2, 0x84, 0xff, 0xff,
  0x35, 0x7a, 0xff, 0xff, 0xc1, 0x4e, 0xff, 0xff, 0x6f, 0x7d, 0xff, 0xff,
  0xdf, 0xf4, 0xff, 0xff, 0x00, 0xa4, 0xff, 0xff, 0xfc, 0xff, 0xff, 0xff,
  0x04, 0x00, 0x04, 0x00, 0x04, 0x00, 0x00, 0x00, 0x0f, 0x00, 0x00, 0x00,
  0x4d, 0x4c, 0x49, 0x52, 0x20, 0x43, 0x6f, 0x6e, 0x76, 0x65, 0x72, 0x74,
  0x65, 0x64, 0x2e, 0x00, 0x01, 0x00, 0x00, 0x00, 0x14, 0x00, 0x00, 0x00,
  0x00, 0x00, 0x0e, 0x00, 0x18, 0x00, 0x14, 0x00, 0x10, 0x00, 0x0c, 0x00,
  0x08, 0x00, 0x04, 0x00, 0x0e, 0x00, 0x00, 0x00, 0x14, 0x00, 0x00, 0x00,
  0x1c, 0x00, 0x00, 0x00, 0xb4, 0x00, 0x00, 0x00, 0xb8, 0x00, 0x00, 0x00,
  0xbc, 0x00, 0x00, 0x00, 0x04, 0x00, 0x00, 0x00, 0x6d, 0x61, 0x69, 0x6e,
  0x00, 0x00, 0x00, 0x00, 0x02, 0x00, 0x00, 0x00, 0x58, 0x00, 0x00, 0x00,
  0x04, 0x00, 0x00, 0x00, 0xbe, 0xff, 0xff, 0xff, 0x1c, 0x00, 0x00, 0x00,
  0x00, 0x00, 0x00, 0x08, 0x1c, 0x00, 0x00, 0x00, 0x20, 0x00, 0x00, 0x00,
  0x00, 0x00, 0x0a, 0x00, 0x08, 0x00, 0x00, 0x00, 0x00, 0x00, 0x07, 0x00,
  0x0a, 0x00, 0x00, 0x00, 0x00, 0x00, 0x00, 0x01, 0x01, 0x00, 0x00, 0x00,
  0x06, 0x00, 0x00, 0x00, 0x03, 0x00, 0x00, 0x00, 0x04, 0x00, 0x00, 0x00,
  0x05, 0x00, 0x00, 0x00, 0x01, 0x00, 0x00, 0x00, 0x00, 0x00, 0x0e, 0x00,
  0x16, 0x00, 0x00, 0x00, 0x10, 0x00, 0x0c, 0x00, 0x0b, 0x00, 0x04, 0x00,
  0x0e, 0x00, 0x00, 0x00, 0x1c, 0x00, 0x00, 0x00, 0x00, 0x00, 0x00, 0x08,
  0x1c, 0x00, 0x00, 0x00, 0x20, 0x00, 0x00, 0x00, 0x00, 0x00, 0x0a, 0x00,
  0x08, 0x00, 0x07, 0x00, 0x00, 0x00, 0x06, 0x00, 0x0a, 0x00, 0x00, 0x00,
  0x00, 0x00, 0x01, 0x01, 0x01, 0x00, 0x00, 0x00, 0x04, 0x00, 0x00, 0x00,
  0x03, 0x00, 0x00, 0x00, 0x00, 0x00, 0x00, 0x00, 0x03, 0x00, 0x00, 0x00,
  0x02, 0x00, 0x00, 0x00, 0x01, 0x00, 0x00, 0x00, 0x06, 0x00, 0x00, 0x00,
  0x01, 0x00, 0x00, 0x00, 0x00, 0x00, 0x00, 0x00, 0x07, 0x00, 0x00, 0x00,
  0x78, 0x03, 0x00, 0x00, 0x00, 0x03, 0x00, 0x00, 0x9c, 0x02, 0x00, 0x00,
  0x08, 0x02, 0x00, 0x00, 0x0c, 0x01, 0x00, 0x00, 0x70, 0x00, 0x00, 0x00,
  0x04, 0x00, 0x00, 0x00, 0xba, 0xfc, 0xff, 0xff, 0x00, 0x00, 0x00, 0x01,
  0x14, 0x00, 0x00, 0x00, 0x30, 0x00, 0x00, 0x00, 0x07, 0x00, 0x00, 0x00,
  0x00, 0x00, 0x00, 0x09, 0x44, 0x00, 0x00, 0x00, 0xa4, 0xfc, 0xff, 0xff,
  0x08, 0x00, 0x00, 0x00, 0x10, 0x00, 0x00, 0x00, 0x01, 0x00, 0x00, 0x00,
  0x7f, 0x00, 0x00, 0x00, 0x00, 0x00, 0x00, 0x00, 0x01, 0x00, 0x00, 0x00,
  0xc7, 0x2e, 0x98, 0x3b, 0x19, 0x00, 0x00, 0x00, 0x53, 0x74, 0x61, 0x74,
  0x65, 0x66, 0x75, 0x6c, 0x50, 0x61, 0x72, 0x74, 0x69, 0x74, 0x69, 0x6f,
  0x6e, 0x65, 0x64, 0x43, 0x61, 0x6c, 0x6c, 0x3a, 0x30, 0x00, 0x00, 0x00,
  0x02, 0x00, 0x00, 0x00, 0x01, 0x00, 0x00, 0x00, 0x0a, 0x00, 0x00, 0x00,
  0x22, 0xfd, 0xff, 0xff, 0x00, 0x00, 0x00, 0x01, 0x14, 0x00, 0x00, 0x00,
  0x34, 0x00, 0x00, 0x00, 0x06, 0x00, 0x00, 0x00, 0x00, 0x00, 0x00, 0x09,
  0x74, 0x00, 0x00, 0x00, 0x0c, 0xfd, 0xff, 0xff, 0x08, 0x00, 0x00, 0x00,
  0x14, 0x00, 0x00, 0x00, 0x01, 0x00, 0x00, 0x00, 0x00, 0x00, 0x00, 0x00,
  0x00, 0x00, 0x00, 0x00, 0x00, 0x00, 0x00, 0x00, 0x01, 0x00, 0x00, 0x00,
  0xe6, 0x49, 0xad, 0x3b, 0x44, 0x00, 0x00, 0x00, 0x74, 0x6f, 0x72, 0x63,
  0x68, 0x2e, 0x66, 0x78, 0x2e, 0x67, 0x72, 0x61, 0x70, 0x68, 0x5f, 0x6d,
  0x6f, 0x64, 0x75, 0x6c, 0x65, 0x2e, 0x47, 0x72, 0x61, 0x70, 0x68, 0x4d,
  0x6f, 0x64, 0x75, 0x6c, 0x65, 0x2e, 0x5f, 0x5f, 0x6e, 0x65, 0x77, 0x5f,
  0x5f, 0x2e, 0x3c, 0x6c, 0x6f, 0x63, 0x61, 0x6c, 0x73, 0x3e, 0x2e, 0x47,
  0x72, 0x61, 0x70, 0x68, 0x4d, 0x6f, 0x64, 0x75, 0x6c, 0x65, 0x49, 0x6d,
  0x70, 0x6c, 0x3b, 0x31, 0x00, 0x00, 0x00, 0x00, 0x02, 0x00, 0x00, 0x00,
  0x0a, 0x00, 0x00, 0x00, 0x02, 0x00, 0x00, 0x00, 0xba, 0xfd, 0xff, 0xff,
  0x00, 0x00, 0x00, 0x01, 0x14, 0x00, 0x00, 0x00, 0x30, 0x00, 0x00, 0x00,
  0x05, 0x00, 0x00, 0x00, 0x00, 0x00, 0x00, 0x09, 0xd4, 0x00, 0x00, 0x00,
  0xa4, 0xfd, 0xff, 0xff, 0x08, 0x00, 0x00, 0x00, 0x10, 0x00, 0x00, 0x00,
  0x01, 0x00, 0x00, 0x00, 0x80, 0xff, 0xff, 0xff, 0xff, 0xff, 0xff, 0xff,
  0x01, 0x00, 0x00, 0x00, 0xc1, 0x7b, 0x3a, 0x3b, 0xaa, 0x00, 0x00, 0x00,
  0x74, 0x6f, 0x72, 0x63, 0x68, 0x2e, 0x66, 0x78, 0x2e, 0x67, 0x72, 0x61,
  0x70, 0x68, 0x5f, 0x6d, 0x6f, 0x64, 0x75, 0x6c, 0x65, 0x2e, 0x47, 0x72,
  0x61, 0x70, 0x68, 0x4d, 0x6f, 0x64, 0x75, 0x6c, 0x65, 0x2e, 0x5f, 0x5f,
  0x6e, 0x65, 0x77, 0x5f, 0x5f, 0x2e, 0x3c, 0x6c, 0x6f, 0x63, 0x61, 0x6c,
  0x73, 0x3e, 0x2e, 0x47, 0x72, 0x61, 0x70, 0x68, 0x4d, 0x6f, 0x64, 0x75,
  0x6c, 0x65, 0x49, 0x6d, 0x70, 0x6c, 0x2f, 0x74, 0x6f, 0x72, 0x63, 0x68,
  0x2e, 0x6e, 0x6e, 0x2e, 0x6d, 0x6f, 0x64, 0x75, 0x6c, 0x65, 0x73, 0x2e,
  0x6c, 0x69, 0x6e, 0x65, 0x61, 0x72, 0x2e, 0x4c, 0x69, 0x6e, 0x65, 0x61,
  0x72, 0x5f, 0x66, 0x63, 0x31, 0x3b, 0x3b, 0x74, 0x6f, 0x72, 0x63, 0x68,
  0x2e, 0x66, 0x78, 0x2e, 0x67, 0x72, 0x61, 0x70, 0x68, 0x5f, 0x6d, 0x6f,
  0x64, 0x75, 0x6c, 0x65, 0x2e, 0x47, 0x72, 0x61, 0x70, 0x68, 0x4d, 0x6f,
  0x64, 0x75, 0x6c, 0x65, 0x2e, 0x5f, 0x5f, 0x6e, 0x65, 0x77, 0x5f, 0x5f,
  0x2e, 0x3c, 0x6c, 0x6f, 0x63, 0x61, 0x6c, 0x73, 0x3e, 0x2e, 0x47, 0x72,
  0x61, 0x70, 0x68, 0x4d, 0x6f, 0x64, 0x75, 0x6c, 0x65, 0x49, 0x6d, 0x70,
  0x6c, 0x3b, 0x00, 0x00, 0x02, 0x00, 0x00, 0x00, 0x01, 0x00, 0x00, 0x00,
  0x02, 0x00, 0x00, 0x00, 0xb2, 0xfe, 0xff, 0xff, 0x00, 0x00, 0x00, 0x01,
  0x14, 0x00, 0x00, 0x00, 0x30, 0x00, 0x00, 0x00, 0x04, 0x00, 0x00, 0x00,
  0x00, 0x00, 0x00, 0x09, 0x6c, 0x00, 0x00, 0x00, 0x9c, 0xfe, 0xff, 0xff,
  0x08, 0x00, 0x00, 0x00, 0x10, 0x00, 0x00, 0x00, 0x01, 0x00, 0x00, 0x00,
  0x00, 0x00, 0x00, 0x00, 0x00, 0x00, 0x00, 0x00, 0x01, 0x00, 0x00, 0x00,
  0x93, 0x53, 0x93, 0x39, 0x43, 0x00, 0x00, 0x00, 0x74, 0x6f, 0x72, 0x63,
  0x68, 0x2e, 0x66, 0x78, 0x2e, 0x67, 0x72, 0x61, 0x70, 0x68, 0x5f, 0x6d,
  0x6f, 0x64, 0x75, 0x6c, 0x65, 0x2e, 0x47, 0x72, 0x61, 0x70, 0x68, 0x4d,
  0x6f, 0x64, 0x75, 0x6c, 0x65, 0x2e, 0x5f, 0x5f, 0x6e, 0x65, 0x77, 0x5f,
  0x5f, 0x2e, 0x3c, 0x6c, 0x6f, 0x63, 0x61, 0x6c, 0x73, 0x3e, 0x2e, 0x47,
  0x72, 0x61, 0x70, 0x68, 0x4d, 0x6f, 0x64, 0x75, 0x6c, 0x65, 0x49, 0x6d,
  0x70, 0x6c, 0x3b, 0x00, 0x02, 0x00, 0x00, 0x00, 0x02, 0x00, 0x00, 0x00,
  0x10, 0x03, 0x00, 0x00, 0x42, 0xff, 0xff, 0xff, 0x00, 0x00, 0x00, 0x01,
  0x14, 0x00, 0x00, 0x00, 0x34, 0x00, 0x00, 0x00, 0x03, 0x00, 0x00, 0x00,
  0x00, 0x00, 0x00, 0x02, 0x40, 0x00, 0x00, 0x00, 0x2c, 0xff, 0xff, 0xff,
  0x08, 0x00, 0x00, 0x00, 0x14, 0x00, 0x00, 0x00, 0x01, 0x00, 0x00, 0x00,
  0x00, 0x00, 0x00, 0x00, 0x00, 0x00, 0x00, 0x00, 0x00, 0x00, 0x00, 0x00,
  0x01, 0x00, 0x00, 0x00, 0x7b, 0xe7, 0x93, 0x35, 0x12, 0x00, 0x00, 0x00,
  0x74, 0x66, 0x6c, 0x2e, 0x70, 0x73, 0x65, 0x75, 0x64, 0x6f, 0x5f, 0x71,
  0x63, 0x6f, 0x6e, 0x73, 0x74, 0x31, 0x00, 0x00, 0x01, 0x00, 0x00, 0x00,
  0x02, 0x00, 0x00, 0x00, 0xa2, 0xff, 0xff, 0xff, 0x00, 0x00, 0x00, 0x01,
  0x14, 0x00, 0x00, 0x00, 0x30, 0x00, 0x00, 0x00, 0x02, 0x00, 0x00, 0x00,
  0x00, 0x00, 0x00, 0x02, 0x3c, 0x00, 0x00, 0x00, 0x8c, 0xff, 0xff, 0xff,
  0x08, 0x00, 0x00, 0x00, 0x10, 0x00, 0x00, 0x00, 0x01, 0x00, 0x00, 0x00,
  0x00, 0x00, 0x00, 0x00, 0x00, 0x00, 0x00, 0x00, 0x01, 0x00, 0x00, 0x00,
  0xed, 0x76, 0x7c, 0x37, 0x11, 0x00, 0x00, 0x00, 0x74, 0x66, 0x6c, 0x2e,
  0x70, 0x73, 0x65, 0x75, 0x64, 0x6f, 0x5f, 0x71, 0x63, 0x6f, 0x6e, 0x73,
  0x74, 0x00, 0x00, 0x00, 0x01, 0x00, 0x00, 0x00, 0x0a, 0x00, 0x00, 0x00,
  0x00, 0x00, 0x16, 0x00, 0x1c, 0x00, 0x18, 0x00, 0x17, 0x00, 0x10, 0x00,
  0x0c, 0x00, 0x08, 0x00, 0x00, 0x00, 0x00, 0x00, 0x00, 0x00, 0x07, 0x00,
  0x16, 0x00, 0x00, 0x00, 0x00, 0x00, 0x00, 0x01, 0x20, 0x00, 0x00, 0x00,
  0x3c, 0x00, 0x00, 0x00, 0x01, 0x00, 0x00, 0x00, 0x00, 0x00, 0x00, 0x09,
  0x50, 0x00, 0x00, 0x00, 0x0c, 0x00, 0x0c, 0x00, 0x00, 0x00, 0x00, 0x00,
  0x08, 0x00, 0x04, 0x00, 0x0c, 0x00, 0x00, 0x00, 0x08, 0x00, 0x00, 0x00,
  0x10, 0x00, 0x00, 0x00, 0x01, 0x00, 0x00, 0x00, 0x80, 0xff, 0xff, 0xff,
  0xff, 0xff, 0xff, 0xff, 0x01, 0x00, 0x00, 0x00, 0x81, 0x80, 0x80, 0x3b,
  0x18, 0x00, 0x00, 0x00, 0x73, 0x65, 0x72, 0x76, 0x69, 0x6e, 0x67, 0x5f,
  0x64, 0x65, 0x66, 0x61, 0x75, 0x6c, 0x74, 0x5f, 0x61, 0x72, 0x67, 0x73,
  0x5f, 0x30, 0x3a, 0x30, 0x00, 0x00, 0x00, 0x00, 0x02, 0x00, 0x00, 0x00,
  0x01, 0x00, 0x00, 0x00, 0x10, 0x03, 0x00, 0x00, 0x01, 0x00, 0x00, 0x00,
  0x10, 0x00, 0x00, 0x00, 0x0c, 0x00, 0x10, 0x00, 0x0f, 0x00, 0x00, 0x00,
  0x08, 0x00, 0x04, 0x00, 0x0c, 0x00, 0x00, 0x00, 0x09, 0x00, 0x00, 0x00,
  0x05, 0x00, 0x00, 0x00, 0x00, 0x00, 0x00, 0x09
};
const unsigned int outputs_model_tflite_len = 3464;
